<pad>	0
<s>	0
</s>	0
<unk>	0
▁t	-0
▁a	-1
in	-2
he	-3
on	-4
re	-5
ti	-6
▁the	-7
er	-8
▁o	-9
en	-10
es	-11
or	-12
an	-13
al	-14
▁p	-15
▁s	-16
▁c	-17
▁of	-18
tion	-19
nd	-20
ed	-21
▁in	-22
is	-23
at	-24
▁f	-25
ro	-26
it	-27
▁and	-28
ar	-29
ing	-30
▁w	-31
▁to	-32
ent	-33
▁b	-34
ic	-35
ation	-36
▁d	-37
▁re	-38
▁m	-39
▁C	-40
le	-41
ou	-42
ec	-43
as	-44
om	-45
ment	-46
▁T	-47
ve	-48
▁A	-49
▁e	-50
▁th	-51
il	-52
▁S	-53
▁pro	-54
▁n	-55
ad	-56
st	-57
ce	-58
▁for	-59
▁I	-60
▁P	-61
lo	-62
▁h	-63
▁be	-64
id	-65
ac	-66
se	-67
▁(	-68
ur	-69
ly	-70
▁is	-71
et	-72
▁on	-73
ri	-74
▁con	-75
ol	-76
ul	-77
ers	-78
▁M	-79
▁The	-80
im	-81
▁g	-82
ts	-83
ra	-84
▁R	-85
▁that	-86
th	-87
▁D	-88
▁l	-89
ate	-90
▁or	-91
▁u	-92
ion	-93
pp	-94
ter	-95
▁as	-96
uc	-97
ab	-98
ir	-99
ver	-100
▁F	-101
ith	-102
ess	-103
▁E	-104
ity	-105
ot	-106
anad	-107
▁with	-108
▁Canad	-109
▁com	-110
ig	-111
▁de	-112
ge	-113
▁an	-114
▁st	-115
qu	-116
▁ex	-117
ort	-118
▁In	-119
res	-120
her	-121
▁N	-122
ci	-123
▁are	-124
ut	-125
▁B	-126
▁H	-127
ay	-128
▁O	-129
▁by	-130
um	-131
el	-132
ff	-133
em	-134
▁ac	-135
▁al	-136
ations	-137
▁su	-138
ill	-139
ere	-140
od	-141
ud	-142
iti	-143
ch	-144
nt	-145
▁W	-146
▁G	-147
am	-148
ist	-149
us	-150
ew	-151
ure	-152
▁wh	-153
un	-154
ain	-155
orm	-156
os	-157
▁Canada	-158
ect	-159
if	-160
▁it	-161
ld	-162
tic	-163
▁y	-164
our	-165
tive	-166
▁res	-167
ct	-168
▁v	-169
end	-170
▁•	-171
▁inc	-172
rom	-173
ated	-174
and	-175
iv	-176
▁L	-177
▁app	-178
ore	-179
lic	-180
ow	-181
form	-182
▁ad	-183
est	-184
ance	-185
▁at	-186
▁par	-187
▁not	-188
op	-189
▁im	-190
▁he	-191
▁from	-192
ther	-193
duc	-194
▁cont	-195
ear	-196
age	-197
ran	-198
ust	-199
port	-200
ments	-201
▁en	-202
▁sh	-203
able	-204
ire	-205
▁prov	-206
gra	-207
erv	-208
__	-209
alth	-210
ies	-211
iz	-212
▁comp	-213
tions	-214
ber	-215
ian	-216
ork	-217
ational	-218
ould	-219
ak	-220
▁le	-221
ard	-222
ary	-223
omm	-224
per	-225
▁ha	-226
▁will	-227
▁this	-228
▁Re	-229
ant	-230
..	-231
▁U	-232
▁ch	-233
ub	-234
ities	-235
▁Pro	-236
rou	-237
▁was	-238
▁St	-239
are	-240
gh	-241
▁int	-242
▁comm	-243
▁-	-244
lop	-245
▁have	-246
ich	-247
velop	-248
▁r	-249
over	-250
▁per	-251
act	-252
gram	-253
ervic	-254
tiv	-255
low	-256
ount	-257
all	-258
cess	-259
tern	-260
so	-261
ult	-262
ome	-263
formation	-264
ib	-265
▁cons	-266
li	-267
ue	-268
oc	-269
sion	-270
ual	-271
▁Canadian	-272
▁which	-273
ost	-274
ee	-275
ces	-276
pec	-277
▁ind	-278
nder	-279
ign	-280
▁has	-281
ase	-282
ical	-283
ial	-284
ine	-285
▁reg	-286
ip	-287
▁"	-288
▁imp	-289
▁other	-290
▁Con	-291
art	-292
lud	-293
ence	-294
ap	-295
▁provid	-296
▁dis	-297
▁Comm	-298
▁their	-299
ition	-300
▁develop	-301
▁pl	-302
overn	-303
▁me	-304
▁sub	-305
cial	-306
ail	-307
eral	-308
▁exp	-309
igh	-310
▁ag	-311
▁man	-312
▁under	-313
ag	-314
ry	-315
mp	-316
▁requ	-317
enti	-318
▁J	-319
ates	-320
▁work	-321
▁Th	-322
▁ne	-323
ep	-324
ublic	-325
▁rec	-326
▁information	-327
ord	-328
ree	-329
ax	-330
vi	-331
ection	-332
▁pre	-333
▁ab	-334
▁whe	-335
▁includ	-336
ted	-337
pon	-338
ors	-339
ents	-340
▁year	-341
▁us	-342
▁He	-343
pport	-344
ous	-345
fic	-346
▁were	-347
ision	-348
ood	-349
▁its	-350
ia	-351
ast	-352
▁health	-353
rib	-354
tit	-355
▁produc	-356
).	-357
▁all	-358
▁servic	-359
▁can	-360
rans	-361
ven	-362
▁program	-363
ach	-364
uch	-365
▁eff	-366
▁k	-367
▁un	-368
▁also	-369
▁am	-370
▁more	-371
ative	-372
ade	-373
rop	-374
yst	-375
____	-376
ark	-377
cip	-378
min	-379
oun	-380
log	-381
ell	-382
ress	-383
▁been	-384
gan	-385
ech	-386
ility	-387
olic	-388
▁qu	-389
ific	-390
▁inv	-391
ystem	-392
overnment	-393
ric	-394
ong	-395
▁may	-396
out	-397
ose	-398
▁$	-399
und	-400
arch	-401
▁As	-402
lect	-403
ater	-404
▁V	-405
▁Health	-406
ari	-407
ission	-408
loy	-409
por	-410
olog	-411
ating	-412
▁so	-413
pos	-414
▁new	-415
ased	-416
ory	-417
▁Ch	-418
▁add	-419
▁acc	-420
red	-421
▁This	-422
ternational	-423
vel	-424
ffic	-425
ru	-426
ish	-427
ef	-428
▁Res	-429
▁se	-430
▁commun	-431
ide	-432
▁part	-433
▁should	-434
▁rese	-435
▁ass	-436
ake	-437
ures	-438
ive	-439
▁require	-440
▁rel	-441
ang	-442
),	-443
▁out	-444
▁fin	-445
▁Un	-446
ues	-447
ens	-448
itt	-449
cy	-450
ject	-451
▁use	-452
▁you	-453
▁ob	-454
▁such	-455
▁trans	-456
ph	-457
mploy	-458
▁cl	-459
....	-460
ild	-461
▁lo	-462
▁spec	-463
▁than	-464
▁we	-465
ll	-466
▁tim	-467
econ	-468
▁des	-469
▁would	-470
ace	-471
ren	-472
▁any	-473
ution	-474
tain	-475
▁di	-476
erson	-477
▁these	-478
▁pri	-479
echn	-480
▁K	-481
▁system	-482
▁need	-483
resent	-484
hip	-485
rough	-486
▁dec	-487
ms	-488
hed	-489
▁applic	-490
les	-491
ember	-492
ganiz	-493
▁report	-494
ries	-495
▁bet	-496
roup	-497
ible	-498
ex	-499
▁public	-500
▁they	-501
ning	-502
▁ev	-503
▁co	-504
▁iss	-505
▁do	-506
▁research	-507
▁over	-508
▁support	-509
lement	-510
agement	-511
▁there	-512
view	-513
stit	-514
irect	-515
▁str	-516
ied	-517
▁one	-518
umber	-519
vir	-520
▁count	-521
▁It	-522
ati	-523
▁services	-524
au	-525
ty	-526
one	-527
▁ref	-528
ack	-529
ass	-530
▁j	-531
▁tax	-532
▁pr	-533
▁conc	-534
▁respon	-535
▁no	-536
▁who	-537
ollow	-538
aw	-539
its	-540
viron	-541
▁polic	-542
als	-543
▁rep	-544
▁development	-545
▁incre	-546
jec	-547
ateg	-548
eneral	-549
ural	-550
▁Reg	-551
▁tr	-552
▁An	-553
▁ar	-554
▁det	-555
ced	-556
▁Ex	-557
ited	-558
▁For	-559
▁process	-560
amp	-561
ite	-562
we	-563
ings	-564
▁Ag	-565
▁time	-566
ame	-567
ile	-568
▁employ	-569
tives	-570
ular	-571
vironment	-572
ered	-573
ok	-574
▁De	-575
uring	-576
reat	-577
▁bo	-578
old	-579
▁pos	-580
ans	-581
▁follow	-582
get	-583
▁person	-584
arket	-585
oin	-586
iness	-587
▁Act	-588
ction	-589
▁parti	-590
▁through	-591
▁En	-592
ency	-593
▁stud	-594
ys	-595
eren	-596
rain	-597
ON	-598
▁Cont	-599
ov	-600
now	-601
ound	-602
▁activ	-603
▁fund	-604
cal	-605
▁appro	-606
▁sp	-607
usiness	-608
▁form	-609
irst	-610
abl	-611
▁must	-612
ween	-613
▁Ar	-614
▁import	-615
▁ter	-616
ata	-617
▁into	-618
▁level	-619
ight	-620
ss	-621
TI	-622
▁pur	-623
identi	-624
▁if	-625
righ	-626
▁.	-627
▁Y	-628
ks	-629
▁Q	-630
ration	-631
ocu	-632
▁Ad	-633
▁organiz	-634
▁between	-635
▁inter	-636
ise	-637
▁–	-638
▁ro	-639
very	-640
tim	-641
ivers	-642
▁consid	-643
▁col	-644
▁av	-645
▁disc	-646
▁Man	-647
▁number	-648
▁Program	-649
te	-650
▁Offic	-651
▁Min	-652
ards	-653
ants	-654
ally	-655
▁but	-656
urop	-657
▁techn	-658
▁dep	-659
ources	-660
earch	-661
▁mon	-662
led	-663
▁used	-664
▁offic	-665
ases	-666
wo	-667
ved	-668
cep	-669
uth	-670
▁government	-671
▁Servic	-672
▁cap	-673
▁made	-674
artment	-675
ety	-676
▁effec	-677
▁pe	-678
▁Ind	-679
sure	-680
▁market	-681
ER	-682
▁had	-683
▁Ac	-684
omp	-685
▁No	-686
▁years	-687
▁some	-688
urope	-689
▁provide	-690
▁well	-691
ittee	-692
▁group	-693
af	-694
air	-695
▁pay	-696
ners	-697
rit	-698
▁up	-699
ology	-700
row	-701
ines	-702
▁only	-703
▁international	-704
▁rece	-705
iod	-706
pect	-707
▁about	-708
ute	-709
▁your	-710
▁est	-711
▁Al	-712
ederal	-713
ivid	-714
▁cost	-715
▁Europe	-716
og	-717
bers	-718
▁sign	-719
econom	-720
▁oper	-721
ob	-722
ability	-723
graph	-724
tt	-725
uthor	-726
▁val	-727
eg	-728
▁>	-729
ES	-730
ulation	-731
ever	-732
▁ben	-733
▁where	-734
ince	-735
▁inf	-736
▁particip	-737
ital	-738
▁identi	-739
▁those	-740
▁Dep	-741
illion	-742
▁two	-743
ister	-744
orpor	-745
rent	-746
▁li	-747
ized	-748
________	-749
▁avail	-750
▁meet	-751
▁data	-752
av	-753
▁prot	-754
▁docu	-755
▁establ	-756
▁policy	-757
ays	-758
▁bec	-759
▁including	-760
ancial	-761
fore	-762
ange	-763
educ	-764
▁sur	-765
▁care	-766
▁our	-767
▁within	-768
▁contin	-769
▁met	-770
▁econom	-771
▁access	-772
▁cur	-773
▁each	-774
▁management	-775
mer	-776
ke	-777
▁national	-778
▁indust	-779
▁know	-780
IP	-781
ional	-782
▁[	-783
erest	-784
soci	-785
ruc	-786
▁leg	-787
▁plan	-788
▁righ	-789
ality	-790
▁meas	-791
.,	-792
ST	-793
▁ph	-794
inal	-795
▁initi	-796
ont	-797
▁propos	-798
▁following	-799
ww	-800
eration	-801
▁when	-802
▁adv	-803
ividual	-804
▁business	-805
itions	-806
▁rem	-807
uation	-808
▁period	-809
▁activities	-810
ble	-811
ract	-812
▁review	-813
▁We	-814
fer	-815
cil	-816
▁Par	-817
▁them	-818
hen	-819
arm	-820
▁ris	-821
uman	-822
▁equ	-823
▁mod	-824
EN	-825
▁available	-826
▁how	-827
▁provided	-828
AN	-829
utions	-830
der	-831
ults	-832
▁impro	-833
▁op	-834
▁set	-835
▁supp	-836
▁diff	-837
▁countries	-838
▁non	-839
▁comple	-840
▁main	-841
▁Coun	-842
embers	-843
▁Commission	-844
▁contrib	-845
▁implement	-846
sible	-847
ie	-848
ages	-849
ees	-850
ople	-851
ern	-852
aking	-853
▁environment	-854
▁min	-855
lan	-856
▁deter	-857
yp	-858
rug	-859
oint	-860
▁New	-861
perty	-862
▁interest	-863
▁States	-864
▁most	-865
urn	-866
erence	-867
▁att	-868
▁App	-869
▁individual	-870
▁Committee	-871
▁shall	-872
ix	-873
▁partic	-874
▁issues	-875
▁addition	-876
ulations	-877
ting	-878
▁high	-879
ished	-880
▁sc	-881
▁exper	-882
▁indic	-883
▁cent	-884
▁sm	-885
▁On	-886
aid	-887
fter	-888
▁first	-889
▁good	-890
▁Research	-891
ey	-892
▁identif	-893
▁International	-894
▁med	-895
▁benef	-896
ving	-897
▁community	-898
rol	-899
ause	-900
me	-901
▁def	-902
▁both	-903
ector	-904
ommend	-905
▁programs	-906
vention	-907
▁Council	-908
▁te	-909
co	-910
▁European	-911
▁fac	-912
▁service	-913
reement	-914
atory	-915
minist	-916
▁Government	-917
raining	-918
▁vari	-919
▁required	-920
ice	-921
▁author	-922
▁Wh	-923
........	-924
▁products	-925
▁particular	-926
▁prac	-927
▁Public	-928
▁conf	-929
▁strateg	-930
lp	-931
▁Ab	-932
▁could	-933
▁project	-934
▁ext	-935
▁Bo	-936
▁design	-937
IN	-938
OR	-939
orld	-940
▁current	-941
tice	-942
▁dist	-943
▁prior	-944
ough	-945
▁assess	-946
▁car	-947
▁cre	-948
▁being	-949
orts	-950
▁federal	-951
atives	-952
▁gu	-953
ected	-954
▁To	-955
iversity	-956
▁How	-957
isions	-958
▁people	-959
▁stand	-960
▁help	-961
▁amount	-962
▁Minister	-963
▁Commun	-964
leg	-965
▁Direct	-966
▁bas	-967
▁include	-968
ove	-969
angu	-970
EC	-971
ily	-972
▁ra	-973
▁If	-974
round	-975
▁Department	-976
ample	-977
ft	-978
▁ensure	-979
▁general	-980
ca	-981
ful	-982
▁address	-983
mit	-984
▁ann	-985
ption	-986
▁ent	-987
▁financial	-988
▁respect	-989
sh	-990
▁present	-991
▁instit	-992
▁invol	-993
▁ret	-994
▁Develop	-995
AR	-996
▁sec	-997
pl	-998
up	-999
▁cer	-1000
ness	-1001
▁fact	-1002
ultural	-1003
jects	-1004
▁after	-1005
▁important	-1006
▁result	-1007
IC	-1008
urther	-1009
▁application	-1010
pr	-1011
▁Comp	-1012
▁Cent	-1013
ties	-1014
▁provin	-1015
▁perform	-1016
ner	-1017
▁members	-1018
ient	-1019
ential	-1020
▁Information	-1021
ledge	-1022
▁during	-1023
▁represent	-1024
ture	-1025
▁National	-1026
▁char	-1027
▁rele	-1028
ticle	-1029
ared	-1030
▁prom	-1031
ges	-1032
AL	-1033
atis	-1034
ization	-1035
▁lim	-1036
mission	-1037
ropri	-1038
land	-1039
ilities	-1040
aj	-1041
▁child	-1042
tical	-1043
ined	-1044
▁partners	-1045
omen	-1046
ross	-1047
ances	-1048
ived	-1049
ron	-1050
▁vi	-1051
ified	-1052
uild	-1053
ote	-1054
ind	-1055
▁account	-1056
ram	-1057
▁Inc	-1058
▁direct	-1059
▁&	-1060
▁lead	-1061
ions	-1062
▁order	-1063
▁dem	-1064
▁make	-1065
lig	-1066
▁prof	-1067
▁ow	-1068
▁inst	-1069
▁elect	-1070
aff	-1071
tics	-1072
▁recommend	-1073
▁risk	-1074
omes	-1075
TION	-1076
▁document	-1077
▁Instit	-1078
lec	-1079
▁cond	-1080
val	-1081
▁end	-1082
▁income	-1083
ward	-1084
▁ins	-1085
hold	-1086
▁million	-1087
▁grow	-1088
hes	-1089
ibility	-1090
▁fore	-1091
▁es	-1092
▁three	-1093
▁Canadians	-1094
▁General	-1095
▁allow	-1096
▁discus	-1097
▁areas	-1098
ral	-1099
ize	-1100
▁property	-1101
ank	-1102
cc	-1103
iel	-1104
aim	-1105
▁There	-1106
▁based	-1107
▁educ	-1108
▁specific	-1109
▁many	-1110
▁lar	-1111
▁invest	-1112
idence	-1113
▁Dec	-1114
▁chang	-1115
▁results	-1116
ination	-1117
ason	-1118
ament	-1119
lation	-1120
▁ful	-1121
ret	-1122
ink	-1123
▁Office	-1124
▁Director	-1125
▁funding	-1126
ature	-1127
IPO	-1128
CT	-1129
itor	-1130
▁Part	-1131
▁training	-1132
▁economic	-1133
▁related	-1134
▁industry	-1135
▁aff	-1136
▁anal	-1137
▁long	-1138
road	-1139
▁eval	-1140
agraph	-1141
▁subs	-1142
ajor	-1143
ident	-1144
ario	-1145
anding	-1146
econd	-1147
abor	-1148
own	-1149
work	-1150
tal	-1151
▁These	-1152
▁resources	-1153
▁Services	-1154
pportun	-1155
▁Development	-1156
▁signific	-1157
afety	-1158
▁effective	-1159
ports	-1160
▁United	-1161
▁Rec	-1162
▁contain	-1163
AT	-1164
▁gen	-1165
sel	-1166
▁Or	-1167
▁objec	-1168
▁ques	-1169
▁appropri	-1170
ource	-1171
▁same	-1172
▁pop	-1173
ended	-1174
ium	-1175
▁compan	-1176
▁requirements	-1177
cent	-1178
▁sector	-1179
HR	-1180
▁water	-1181
ocus	-1182
▁law	-1183
▁before	-1184
▁CI	-1185
▁case	-1186
man	-1187
▁like	-1188
range	-1189
aterial	-1190
roduc	-1191
cept	-1192
▁food	-1193
▁fil	-1194
for	-1195
▁pat	-1196
▁Work	-1197
gin	-1198
▁consult	-1199
▁section	-1200
▁sal	-1201
ism	-1202
crib	-1203
anc	-1204
go	-1205
▁typ	-1206
▁organizations	-1207
ield	-1208
▁sim	-1209
lear	-1210
▁Col	-1211
▁Article	-1212
hod	-1213
ool	-1214
ntario	-1215
▁concern	-1216
▁low	-1217
▁◦	-1218
udget	-1219
ator	-1220
ised	-1221
▁et	-1222
▁increase	-1223
urity	-1224
▁prin	-1225
▁country	-1226
▁pres	-1227
rad	-1228
▁Sec	-1229
ife	-1230
▁ear	-1231
ulture	-1232
line	-1233
▁reduc	-1234
▁significant	-1235
ule	-1236
▁social	-1237
mary	-1238
ators	-1239
▁human	-1240
▁Fin	-1241
cri	-1242
bec	-1243
▁rate	-1244
▁does	-1245
▁assist	-1246
▁area	-1247
acy	-1248
ued	-1249
▁Cons	-1250
ately	-1251
▁off	-1252
▁total	-1253
ten	-1254
▁major	-1255
mb	-1256
▁needs	-1257
fact	-1258
▁Ontario	-1259
▁IN	-1260
▁pot	-1261
▁improve	-1262
▁rights	-1263
▁However	-1264
▁treat	-1265
lection	-1266
▁month	-1267
▁Cl	-1268
▁giv	-1269
▁knowledge	-1270
ecess	-1271
▁associ	-1272
▁control	-1273
▁place	-1274
▁Su	-1275
▁regist	-1276
▁regard	-1277
ework	-1278
▁sit	-1279
▁WIPO	-1280
▁what	-1281
▁less	-1282
▁drug	-1283
▁Report	-1284
ilit	-1285
ramework	-1286
▁Polic	-1287
▁Co	-1288
▁go	-1289
til	-1290
▁deli	-1291
io	-1292
▁establish	-1293
▁his	-1294
▁administ	-1295
▁example	-1296
▁opportun	-1297
▁change	-1298
▁date	-1299
RA	-1300
▁key	-1301
ouse	-1302
▁claim	-1303
etwork	-1304
▁experi	-1305
orig	-1306
▁Gu	-1307
ves	-1308
▁product	-1309
ogn	-1310
▁study	-1311
▁respons	-1312
tific	-1313
▁further	-1314
▁determin	-1315
erent	-1316
▁communic	-1317
▁see	-1318
▁focus	-1319
▁conduc	-1320
▁quality	-1321
▁Ph	-1322
tig	-1323
▁At	-1324
hers	-1325
▁appropriate	-1326
▁list	-1327
▁occ	-1328
ED	-1329
▁Member	-1330
▁projects	-1331
▁provides	-1332
ext	-1333
nov	-1334
▁prep	-1335
▁exist	-1336
▁accord	-1337
▁Pre	-1338
oura	-1339
con	-1340
uccess	-1341
▁tra	-1342
▁protection	-1343
RO	-1344
▁material	-1345
▁found	-1346
▁among	-1347
lu	-1348
cies	-1349
▁groups	-1350
▁fe	-1351
▁value	-1352
aken	-1353
▁goods	-1354
▁different	-1355
▁communities	-1356
▁systems	-1357
ences	-1358
▁sci	-1359
uture	-1360
▁measures	-1361
original	-1362
▁|	-1363
▁necess	-1364
▁Service	-1365
▁proced	-1366
▁take	-1367
▁Board	-1368
eti	-1369
▁Sub	-1370
▁request	-1371
ending	-1372
tices	-1373
▁Management	-1374
▁levels	-1375
▁State	-1376
lus	-1377
▁costs	-1378
ufact	-1379
▁staff	-1380
ysis	-1381
uce	-1382
▁Environment	-1383
▁basis	-1384
▁women	-1385
hie	-1386
IT	-1387
irc	-1388
▁Trans	-1389
med	-1390
▁record	-1391
▁Produc	-1392
other	-1393
▁proble	-1394
▁Plan	-1395
▁corpor	-1396
RC	-1397
▁So	-1398
▁govern	-1399
▁considered	-1400
▁again	-1401
▁achie	-1402
ick	-1403
▁consum	-1404
anguage	-1405
▁legis	-1406
ID	-1407
▁apply	-1408
▁build	-1409
ological	-1410
▁decision	-1411
▁pol	-1412
liament	-1413
▁subject	-1414
ics	-1415
▁state	-1416
IS	-1417
▁Pri	-1418
ension	-1419
▁Other	-1420
▁conditions	-1421
▁subst	-1422
▁Me	-1423
ware	-1424
▁role	-1425
▁Ass	-1426
rial	-1427
."	-1428
▁using	-1429
▁vis	-1430
▁trade	-1431
ond	-1432
▁fis	-1433
▁cor	-1434
▁world	-1435
▁ser	-1436
▁test	-1437
▁Med	-1438
ceed	-1439
▁Indust	-1440
chool	-1441
vious	-1442
▁method	-1443
▁because	-1444
▁paragraph	-1445
▁integ	-1446
the	-1447
▁surve	-1448
▁commit	-1449
▁small	-1450
▁special	-1451
▁mat	-1452
▁whether	-1453
▁recogn	-1454
▁approach	-1455
AC	-1456
▁changes	-1457
▁received	-1458
▁view	-1459
ification	-1460
▁adop	-1461
ours	-1462
▁Agency	-1463
▁reason	-1464
duce	-1465
encies	-1466
▁Tr	-1467
urs	-1468
▁working	-1469
▁possible	-1470
▁fam	-1471
▁priv	-1472
▁EU	-1473
▁success	-1474
ternal	-1475
ND	-1476
lob	-1477
ask	-1478
une	-1479
erg	-1480
▁guid	-1481
▁provincial	-1482
▁education	-1483
acity	-1484
ession	-1485
▁aud	-1486
ubl	-1487
ipment	-1488
▁impact	-1489
▁Ann	-1490
▁site	-1491
▁while	-1492
ules	-1493
here	-1494
▁local	-1495
▁benefits	-1496
acts	-1497
▁future	-1498
▁very	-1499
▁Aboriginal	-1500
ually	-1501
▁Per	-1502
▁University	-1503
ories	-1504
ring	-1505
▁production	-1506
ury	-1507
IV	-1508
ustom	-1509
▁find	-1510
▁Que	-1511
allen	-1512
▁certain	-1513
▁Dis	-1514
gc	-1515
▁pric	-1516
ically	-1517
▁included	-1518
▁Policy	-1519
▁developed	-1520
ists	-1521
▁cases	-1522
▁underst	-1523
ird	-1524
▁proposed	-1525
▁cred	-1526
ently	-1527
▁potential	-1528
ention	-1529
▁OF	-1530
▁increased	-1531
▁Community	-1532
vant	-1533
asing	-1534
▁Acc	-1535
opy	-1536
▁action	-1537
pose	-1538
▁consider	-1539
▁princip	-1540
read	-1541
emp	-1542
loc	-1543
▁remain	-1544
▁enc	-1545
▁Centre	-1546
▁Group	-1547
▁environmental	-1548
▁broad	-1549
▁common	-1550
▁second	-1551
osp	-1552
▁Fund	-1553
▁clear	-1554
▁Te	-1555
orth	-1556
▁issue	-1557
▁gre	-1558
▁trad	-1559
ept	-1560
▁implementation	-1561
▁technology	-1562
ronic	-1563
▁sug	-1564
▁means	-1565
▁Pr	-1566
▁given	-1567
)(	-1568
▁dra	-1569
atus	-1570
▁percent	-1571
▁ori	-1572
▁official	-1573
atic	-1574
▁children	-1575
▁hig	-1576
▁necessary	-1577
▁Dr	-1578
▁March	-1579
▁population	-1580
ounts	-1581
▁dise	-1582
▁day	-1583
▁developing	-1584
▁Prov	-1585
▁rest	-1586
▁Parliament	-1587
gress	-1588
▁growth	-1589
▁lic	-1590
▁Str	-1591
pecial	-1592
▁Int	-1593
▁treatment	-1594
▁First	-1595
ENT	-1596
ercial	-1597
▁established	-1598
▁clo	-1599
utes	-1600
▁large	-1601
operation	-1602
▁mul	-1603
gest	-1604
________________	-1605
▁without	-1606
tis	-1607
▁policies	-1608
▁since	-1609
▁return	-1610
ATION	-1611
▁class	-1612
lain	-1613
legation	-1614
▁exam	-1615
▁own	-1616
▁distrib	-1617
▁budget	-1618
▁gran	-1619
▁safety	-1620
arget	-1621
▁against	-1622
reng	-1623
▁Des	-1624
▁che	-1625
▁partnership	-1626
less	-1627
▁her	-1628
itional	-1629
▁fun	-1630
ify	-1631
▁Agreement	-1632
▁CIHR	-1633
▁meeting	-1634
▁terms	-1635
▁cal	-1636
▁way	-1637
▁Sp	-1638
labor	-1639
iving	-1640
▁various	-1641
▁post	-1642
itive	-1643
▁performance	-1644
▁institutions	-1645
▁estim	-1646
lar	-1647
▁agreement	-1648
▁vol	-1649
lobal	-1650
▁capacity	-1651
▁capital	-1652
rated	-1653
▁Le	-1654
uts	-1655
▁Regulations	-1656
//	-1657
▁organization	-1658
▁refer	-1659
ons	-1660
ath	-1661
ference	-1662
meric	-1663
▁Jan	-1664
cription	-1665
▁pati	-1666
▁additional	-1667
▁Ro	-1668
▁framework	-1669
ttp	-1670
▁relations	-1671
▁identified	-1672
://	-1673
imum	-1674
lies	-1675
▁right	-1676
▁continue	-1677
▁cli	-1678
ather	-1679
ug	-1680
▁beh	-1681
▁studies	-1682
▁objectives	-1683
▁Rep	-1684
liance	-1685
ling	-1686
▁Quebec	-1687
▁Mr	-1688
atural	-1689
▁inform	-1690
▁All	-1691
▁Institute	-1692
based	-1693
action	-1694
vent	-1695
SA	-1696
ograph	-1697
▁sk	-1698
ilar	-1699
elines	-1700
▁phys	-1701
airs	-1702
▁now	-1703
▁Imp	-1704
▁reported	-1705
▁field	-1706
▁lab	-1707
▁struc	-1708
▁TH	-1709
mitted	-1710
▁assessment	-1711
ering	-1712
▁standards	-1713
▁Techn	-1714
tif	-1715
▁manufact	-1716
arc	-1717
ave	-1718
▁evaluation	-1719
poses	-1720
▁competi	-1721
▁model	-1722
▁employees	-1723
reed	-1724
▁air	-1725
▁four	-1726
▁Contract	-1727
day	-1728
▁call	-1729
ged	-1730
bert	-1731
stain	-1732
▁cri	-1733
▁Americ	-1734
▁challen	-1735
▁maintain	-1736
OM	-1737
▁show	-1738
▁Nations	-1739
▁tre	-1740
▁Associ	-1741
▁regul	-1742
ne	-1743
--	-1744
▁bi	-1745
▁analysis	-1746
verage	-1747
sequ	-1748
▁You	-1749
▁cour	-1750
▁full	-1751
akes	-1752
▁sustain	-1753
▁June	-1754
▁Sci	-1755
▁sol	-1756
acter	-1757
▁paid	-1758
▁obtain	-1759
▁life	-1760
▁detail	-1761
▁II	-1762
▁above	-1763
▁across	-1764
▁act	-1765
uty	-1766
);	-1767
▁Table	-1768
▁ve	-1769
uary	-1770
▁Tax	-1771
▁foreign	-1772
SC	-1773
▁regional	-1774
▁provisions	-1775
cribed	-1776
▁security	-1777
ii	-1778
lected	-1779
cer	-1780
▁inves	-1781
▁/	-1782
▁employee	-1783
▁initiatives	-1784
▁identify	-1785
▁deb	-1786
see	-1787
▁better	-1788
▁Bri	-1789
awa	-1790
▁Strateg	-1791
▁Section	-1792
pril	-1793
▁respond	-1794
▁name	-1795
▁—	-1796
ene	-1797
▁sever	-1798
▁measure	-1799
▁Organiz	-1800
lied	-1801
otal	-1802
PP	-1803
▁investig	-1804
▁benefit	-1805
▁then	-1806
▁What	-1807
▁discussion	-1808
inary	-1809
▁December	-1810
lease	-1811
▁relevant	-1812
▁purposes	-1813
▁▪	-1814
ging	-1815
▁she	-1816
▁investment	-1817
AD	-1818
▁HIV	-1819
urance	-1820
▁due	-1821
akehold	-1822
▁sum	-1823
▁innov	-1824
▁publ	-1825
▁rev	-1826
▁la	-1827
▁subsection	-1828
though	-1829
▁transfer	-1830
▁With	-1831
iqu	-1832
▁Prot	-1833
▁taken	-1834
▁equipment	-1835
▁streng	-1836
alf	-1837
▁existing	-1838
▁Im	-1839
▁personal	-1840
▁http	-1841
ned	-1842
ills	-1843
▁activity	-1844
eness	-1845
▁months	-1846
entific	-1847
▁legal	-1848
▁enh	-1849
▁eng	-1850
www	-1851
▁They	-1852
▁Secret	-1853
▁point	-1854
otion	-1855
▁target	-1856
▁Trade	-1857
▁five	-1858
▁manag	-1859
▁agree	-1860
to	-1861
▁effects	-1862
eptember	-1863
▁rates	-1864
▁Sc	-1865
sed	-1866
▁January	-1867
▁Fe	-1868
aper	-1869
▁territ	-1870
▁legislation	-1871
elf	-1872
▁associated	-1873
▁consist	-1874
▁April	-1875
ttawa	-1876
▁reports	-1877
ellect	-1878
▁network	-1879
▁exc	-1880
▁practices	-1881
rench	-1882
struc	-1883
▁employment	-1884
ols	-1885
▁IP	-1886
AS	-1887
▁private	-1888
ellectual	-1889
▁school	-1890
aring	-1891
echan	-1892
▁question	-1893
................	-1894
▁evidence	-1895
erences	-1896
ergy	-1897
▁expos	-1898
ier	-1899
ither	-1900
▁Adv	-1901
▁Form	-1902
ger	-1903
use	-1904
riter	-1905
ode	-1906
▁cultural	-1907
▁purpose	-1908
▁contract	-1909
bs	-1910
lim	-1911
▁Eng	-1912
▁did	-1913
ina	-1914
▁May	-1915
▁loc	-1916
mine	-1917
▁effect	-1918
▁real	-1919
dic	-1920
unic	-1921
hib	-1922
irec	-1923
▁monitor	-1924
▁documents	-1925
▁expected	-1926
▁member	-1927
▁effic	-1928
▁Food	-1929
▁lear	-1930
▁previous	-1931
▁export	-1932
artments	-1933
▁Delegation	-1934
▁individuals	-1935
▁September	-1936
let	-1937
▁strong	-1938
▁Am	-1939
eni	-1940
▁reporting	-1941
▁involved	-1942
▁Ottawa	-1943
▁System	-1944
▁last	-1945
▁Sh	-1946
pective	-1947
▁language	-1948
force	-1949
ices	-1950
ower	-1951
ranch	-1952
term	-1953
▁several	-1954
▁fish	-1955
▁THE	-1956
▁circ	-1957
EL	-1958
▁hold	-1959
▁encoura	-1960
▁Employ	-1961
umb	-1962
endit	-1963
ivision	-1964
iss	-1965
▁soci	-1966
▁age	-1967
▁providing	-1968
▁Union	-1969
▁elig	-1970
▁dev	-1971
roll	-1972
▁assistance	-1973
▁French	-1974
▁commercial	-1975
▁held	-1976
EM	-1977
▁page	-1978
▁said	-1979
▁participants	-1980
ening	-1981
pro	-1982
▁procedures	-1983
ires	-1984
ober	-1985
way	-1986
▁noted	-1987
▁companies	-1988
wards	-1989
▁every	-1990
▁comb	-1991
▁contact	-1992
▁compon	-1993
ights	-1994
lor	-1995
▁department	-1996
▁hand	-1997
▁bod	-1998
▁includes	-1999
▁Business	-2000
▁applications	-2001
ctober	-2002
▁defin	-2003
unt	-2004
▁position	-2005
venue	-2006
ock	-2007
▁collabor	-2008
▁Home	-2009
▁days	-2010
rative	-2011
cast	-2012
resident	-2013
▁progress	-2014
▁responsible	-2015
tification	-2016
enses	-2017
till	-2018
▁best	-2019
▁Treat	-2020
▁range	-2021
▁Industry	-2022
ris	-2023
tish	-2024
com	-2025
rast	-2026
TA	-2027
che	-2028
essional	-2029
▁share	-2030
▁another	-2031
▁land	-2032
▁annual	-2033
▁opportunities	-2034
▁Human	-2035
▁du	-2036
▁stakehold	-2037
▁similar	-2038
▁Sum	-2039
not	-2040
EP	-2041
▁efforts	-2042
▁least	-2043
nel	-2044
▁read	-2045
▁higher	-2046
aries	-2047
▁qual	-2048
▁factors	-2049
ructure	-2050
▁Af	-2051
xt	-2052
▁likely	-2053
conom	-2054
▁undert	-2055
inical	-2056
ologies	-2057
▁Corpor	-2058
▁entit	-2059
▁Inter	-2060
▁making	-2061
az	-2062
▁even	-2063
▁Is	-2064
▁deal	-2065
▁amend	-2066
▁Total	-2067
yl	-2068
verse	-2069
▁Date	-2070
▁planning	-2071
▁greater	-2072
inc	-2073
ordin	-2074
▁*	-2075
▁limit	-2076
▁determine	-2077
▁US	-2078
▁wee	-2079
▁complete	-2080
oph	-2081
anced	-2082
▁researc	-2083
▁travel	-2084
▁Bank	-2085
ternet	-2086
▁Add	-2087
▁organ	-2088
ash	-2089
atistics	-2090
▁response	-2091
ancing	-2092
▁British	-2093
▁bal	-2094
▁October	-2095
▁mand	-2096
▁mechan	-2097
sw	-2098
▁Number	-2099
gether	-2100
▁increasing	-2101
lish	-2102
▁back	-2103
▁billion	-2104
▁supply	-2105
▁agencies	-2106
mail	-2107
,"	-2108
mber	-2109
eter	-2110
oking	-2111
▁however	-2112
▁next	-2113
▁enter	-2114
▁obs	-2115
▁strategy	-2116
just	-2117
su	-2118
▁much	-2119
▁Project	-2120
ersion	-2121
▁Applic	-2122
uted	-2123
ense	-2124
▁problems	-2125
change	-2126
hic	-2127
rap	-2128
▁global	-2129
▁Econom	-2130
▁copy	-2131
tiveness	-2132
▁multi	-2133
riteria	-2134
missions	-2135
itiz	-2136
▁World	-2137
▁Association	-2138
ope	-2139
▁Federal	-2140
▁Sur	-2141
▁mar	-2142
▁sy	-2143
uly	-2144
▁line	-2145
ump	-2146
▁average	-2147
▁recommendations	-2148
▁disease	-2149
par	-2150
▁North	-2151
▁emer	-2152
▁departments	-2153
omestic	-2154
▁rules	-2155
▁imm	-2156
ale	-2157
IDS	-2158
endent	-2159
▁regarding	-2160
▁team	-2161
▁final	-2162
fficient	-2163
▁credit	-2164
heries	-2165
▁students	-2166
▁accordance	-2167
▁participation	-2168
▁When	-2169
▁often	-2170
▁below	-2171
▁Her	-2172
▁influ	-2173
▁relationship	-2174
▁plans	-2175
▁carri	-2176
▁provision	-2177
▁Initi	-2178
▁institution	-2179
int	-2180
▁Pl	-2181
medi	-2182
▁diffic	-2183
▁Qu	-2184
▁experience	-2185
uro	-2186
ious	-2187
ingle	-2188
aus	-2189
▁become	-2190
▁type	-2191
▁technical	-2192
▁operations	-2193
▁company	-2194
▁coun	-2195
▁survey	-2196
▁aware	-2197
ental	-2198
▁outc	-2199
▁short	-2200
acco	-2201
MP	-2202
rate	-2203
itage	-2204
▁reduce	-2205
UR	-2206
▁patent	-2207
of	-2208
▁facilit	-2209
▁Nove	-2210
▁November	-2211
▁job	-2212
CC	-2213
ins	-2214
ising	-2215
itical	-2216
▁term	-2217
icro	-2218
▁cover	-2219
▁achieve	-2220
▁persons	-2221
▁either	-2222
ready	-2223
▁item	-2224
▁funds	-2225
▁delivery	-2226
equ	-2227
▁limited	-2228
ives	-2229
AP	-2230
▁Internet	-2231
eth	-2232
▁calc	-2233
SP	-2234
ranc	-2235
▁Albert	-2236
ticip	-2237
▁Aff	-2238
▁past	-2239
ked	-2240
▁questions	-2241
ecu	-2242
▁Mon	-2243
ressed	-2244
▁status	-2245
▁link	-2246
right	-2247
ats	-2248
▁custom	-2249
▁particularly	-2250
▁trust	-2251
▁third	-2252
▁able	-2253
▁office	-2254
▁July	-2255
▁medical	-2256
▁asse	-2257
orial	-2258
▁AND	-2259
▁concer	-2260
▁together	-2261
ired	-2262
▁standard	-2263
▁applicable	-2264
▁Under	-2265
▁cooperation	-2266
▁introduc	-2267
bru	-2268
ests	-2269
▁acqu	-2270
▁family	-2271
bruary	-2272
▁having	-2273
▁Stud	-2274
▁authority	-2275
▁gener	-2276
erc	-2277
▁stakeholders	-2278
▁Branch	-2279
▁contribution	-2280
▁governments	-2281
▁manufacture	-2282
▁strategic	-2283
eep	-2284
▁expendit	-2285
▁home	-2286
actions	-2287
onst	-2288
eed	-2289
▁Drug	-2290
▁Review	-2291
lements	-2292
anguages	-2293
▁Afric	-2294
▁Convention	-2295
▁Over	-2296
▁priority	-2297
rid	-2298
▁already	-2299
▁decisions	-2300
▁still	-2301
▁initiative	-2302
king	-2303
▁payment	-2304
▁down	-2305
▁Columb	-2306
ET	-2307
▁researchers	-2308
▁needed	-2309
▁currently	-2310
▁occur	-2311
▁natural	-2312
▁start	-2313
sp	-2314
▁purch	-2315
olution	-2316
▁concent	-2317
lated	-2318
▁Mar	-2319
ises	-2320
yd	-2321
▁tele	-2322
▁Inf	-2323
isory	-2324
▁Web	-2325
▁Ins	-2326
▁EC	-2327
▁Minist	-2328
▁parties	-2329
▁open	-2330
▁force	-2331
mination	-2332
▁Cour	-2333
▁Columbia	-2334
▁provinces	-2335
▁Resources	-2336
ends	-2337
▁promote	-2338
ides	-2339
▁regulations	-2340
epar	-2341
▁demand	-2342
▁Contact	-2343
▁eligible	-2344
▁overall	-2345
".	-2346
▁play	-2347
▁Rel	-2348
inks	-2349
tivity	-2350
▁fiscal	-2351
▁processes	-2352
▁conducted	-2353
▁transport	-2354
▁Organization	-2355
ably	-2356
reg	-2357
▁Some	-2358
▁Products	-2359
▁Treaty	-2360
▁outs	-2361
▁head	-2362
pons	-2363
ospital	-2364
▁fir	-2365
▁February	-2366
ING	-2367
active	-2368
erved	-2369
▁beli	-2370
▁Fis	-2371
▁Fore	-2372
▁CC	-2373
vered	-2374
ables	-2375
mon	-2376
▁materials	-2377
▁character	-2378
mical	-2379
CE	-2380
▁step	-2381
▁priorities	-2382
▁Ter	-2383
▁suggest	-2384
▁evalu	-2385
going	-2386
oral	-2387
▁aim	-2388
arter	-2389
ters	-2390
rastructure	-2391
▁eth	-2392
▁function	-2393
▁oblig	-2394
▁importance	-2395
▁Alberta	-2396
▁adopted	-2397
▁communication	-2398
▁hist	-2399
▁receive	-2400
▁While	-2401
ians	-2402
▁criteria	-2403
▁Exp	-2404
ureau	-2405
▁few	-2406
ariat	-2407
▁early	-2408
▁rad	-2409
▁building	-2410
▁therefore	-2411
▁recent	-2412
requ	-2413
▁referred	-2414
▁Author	-2415
▁completed	-2416
OL	-2417
isms	-2418
▁bar	-2419
▁domestic	-2420
▁CF	-2421
▁GST	-2422
▁province	-2423
pects	-2424
ton	-2425
arks	-2426
▁Tre	-2427
▁Administ	-2428
▁active	-2429
ecutive	-2430
▁One	-2431
agn	-2432
▁upon	-2433
▁Affairs	-2434
▁regulatory	-2435
eal	-2436
arily	-2437
▁www	-2438
▁single	-2439
▁Division	-2440
xim	-2441
▁demonst	-2442
▁audit	-2443
▁X	-2444
hedule	-2445
amples	-2446
gency	-2447
outh	-2448
▁proposal	-2449
▁instru	-2450
▁norm	-2451
▁youth	-2452
vest	-2453
▁appear	-2454
▁cho	-2455
▁separ	-2456
▁indicated	-2457
▁price	-2458
▁corporation	-2459
▁pass	-2460
▁emp	-2461
):	-2462
▁concerning	-2463
▁agreements	-2464
▁bank	-2465
▁tri	-2466
▁reference	-2467
ectors	-2468
▁Br	-2469
▁Cap	-2470
▁Pat	-2471
▁announ	-2472
stances	-2473
▁directly	-2474
▁approved	-2475
%)	-2476
ames	-2477
▁electronic	-2478
▁region	-2479
anti	-2480
time	-2481
▁economy	-2482
▁top	-2483
▁monitoring	-2484
▁expenses	-2485
▁Bureau	-2486
▁sources	-2487
ulated	-2488
▁nature	-2489
▁And	-2490
ief	-2491
▁anim	-2492
▁loss	-2493
RI	-2494
▁Com	-2495
uel	-2496
yc	-2497
▁energy	-2498
▁nego	-2499
▁aut	-2500
▁negoti	-2501
▁outside	-2502
▁ill	-2503
aren	-2504
ender	-2505
▁payments	-2506
▁accept	-2507
▁po	-2508
izing	-2509
arent	-2510
bo	-2511
onto	-2512
by	-2513
▁altern	-2514
▁patients	-2515
pid	-2516
▁offer	-2517
▁understanding	-2518
▁presented	-2519
▁practice	-2520
eng	-2521
ple	-2522
mes	-2523
▁ur	-2524
atab	-2525
▁Oper	-2526
▁six	-2527
▁ess	-2528
oronto	-2529
▁relative	-2530
avi	-2531
oung	-2532
▁designed	-2533
▁Environmental	-2534
▁might	-2535
▁begin	-2536
year	-2537
put	-2538
▁mean	-2539
ibilities	-2540
endix	-2541
▁strategies	-2542
▁categ	-2543
▁max	-2544
▁close	-2545
▁professional	-2546
▁don	-2547
▁political	-2548
▁Regional	-2549
▁Secretariat	-2550
▁context	-2551
nership	-2552
▁UN	-2553
▁distribution	-2554
▁opportunity	-2555
▁agric	-2556
▁Aud	-2557
▁adjust	-2558
▁cannot	-2559
pay	-2560
▁content	-2561
▁generally	-2562
▁repl	-2563
▁Ed	-2564
ars	-2565
▁More	-2566
▁self	-2567
▁sustainable	-2568
▁others	-2569
▁gain	-2570
apter	-2571
▁defined	-2572
utri	-2573
▁event	-2574
▁Guid	-2575
▁positive	-2576
▁satis	-2577
aced	-2578
▁Se	-2579
app	-2580
▁Care	-2581
▁leaders	-2582
▁get	-2583
xic	-2584
▁reflect	-2585
phone	-2586
▁vehic	-2587
",	-2588
OC	-2589
▁Def	-2590
ili	-2591
aches	-2592
▁published	-2593
lusion	-2594
▁Pe	-2595
▁Communic	-2596
▁Z	-2597
oting	-2598
▁structure	-2599
AF	-2600
▁responsibility	-2601
▁alloc	-2602
▁Govern	-2603
ison	-2604
▁Court	-2605
▁exposure	-2606
DF	-2607
▁continu	-2608
ervation	-2609
▁arrange	-2610
▁concerns	-2611
losure	-2612
▁Surve	-2613
cell	-2614
LE	-2615
▁wr	-2616
▁prevent	-2617
anel	-2618
▁deduc	-2619
iter	-2620
▁Asse	-2621
▁applicant	-2622
▁described	-2623
▁origin	-2624
▁move	-2625
▁Property	-2626
▁file	-2627
ume	-2628
▁agreed	-2629
▁guidelines	-2630
oh	-2631
▁issued	-2632
▁compliance	-2633
▁Officer	-2634
▁Economic	-2635
new	-2636
▁primary	-2637
▁inj	-2638
▁values	-2639
sc	-2640
vers	-2641
▁Lab	-2642
▁CB	-2643
▁exchange	-2644
shop	-2645
▁submitted	-2646
▁num	-2647
▁source	-2648
▁registered	-2649
▁protect	-2650
▁farm	-2651
▁pack	-2652
▁Financial	-2653
▁relating	-2654
▁paper	-2655
tire	-2656
▁free	-2657
▁tools	-2658
▁Where	-2659
▁press	-2660
lier	-2661
▁Disc	-2662
▁contributions	-2663
▁clinical	-2664
▁situation	-2665
▁corre	-2666
▁challenges	-2667
▁authorities	-2668
elling	-2669
▁according	-2670
▁Eval	-2671
erve	-2672
irective	-2673
▁determined	-2674
▁technologies	-2675
▁difficult	-2676
ourn	-2677
▁tem	-2678
lood	-2679
enior	-2680
▁Val	-2681
▁Air	-2682
ression	-2683
▁Stand	-2684
ffec	-2685
▁types	-2686
▁great	-2687
abilities	-2688
▁belie	-2689
uter	-2690
wan	-2691
▁principles	-2692
ustice	-2693
SS	-2694
acc	-2695
▁lower	-2696
▁resource	-2697
▁Are	-2698
▁registration	-2699
▁fl	-2700
▁successful	-2701
...	-2702
▁Mont	-2703
luding	-2704
▁amounts	-2705
▁industrial	-2706
▁IT	-2707
▁regular	-2708
▁deg	-2709
▁Meas	-2710
▁Prof	-2711
ery	-2712
▁Support	-2713
▁commitment	-2714
▁:	-2715
▁facilities	-2716
hens	-2717
▁poss	-2718
▁Not	-2719
oid	-2720
▁party	-2721
▁debt	-2722
▁upd	-2723
ique	-2724
▁administrative	-2725
▁consultation	-2726
▁sectors	-2727
arb	-2728
▁markets	-2729
▁etc	-2730
▁Assist	-2731
▁English	-2732
▁applied	-2733
▁extent	-2734
OU	-2735
raft	-2736
▁power	-2737
▁methods	-2738
▁course	-2739
andid	-2740
CH	-2741
▁hours	-2742
▁involve	-2743
▁proceed	-2744
▁specified	-2745
self	-2746
▁exceed	-2747
▁my	-2748
▁Social	-2749
▁indep	-2750
▁skills	-2751
▁sales	-2752
▁requires	-2753
▁ens	-2754
▁poin	-2755
▁events	-2756
▁Toronto	-2757
askat	-2758
▁problem	-2759
▁done	-2760
related	-2761
▁Pay	-2762
▁carry	-2763
▁consideration	-2764
▁PRO	-2765
be	-2766
▁intended	-2767
▁Child	-2768
▁until	-2769
▁constit	-2770
▁Special	-2771
▁reduction	-2772
▁Appendix	-2773
▁Assess	-2774
▁Elect	-2775
▁visit	-2776
ority	-2777
▁objective	-2778
IA	-2779
▁Sm	-2780
▁workers	-2781
▁Leg	-2782
▁scientific	-2783
▁affect	-2784
▁Although	-2785
DC	-2786
▁Ben	-2787
▁volunt	-2788
place	-2789
▁committee	-2790
struction	-2791
aged	-2792
▁intellectual	-2793
▁cell	-2794
▁lack	-2795
▁Annex	-2796
▁society	-2797
▁restric	-2798
▁Technology	-2799
oney	-2800
uris	-2801
▁bre	-2802
▁Data	-2803
▁circum	-2804
▁prepared	-2805
order	-2806
▁body	-2807
▁Docu	-2808
▁clients	-2809
▁fail	-2810
bsite	-2811
▁drugs	-2812
▁PCT	-2813
forcement	-2814
▁forward	-2815
tm	-2816
tise	-2817
amin	-2818
▁CAN	-2819
▁saf	-2820
sts	-2821
itob	-2822
lex	-2823
▁Working	-2824
na	-2825
▁meetings	-2826
▁compet	-2827
ginal	-2828
▁forms	-2829
ival	-2830
AIDS	-2831
ban	-2832
▁proper	-2833
▁traditional	-2834
ME	-2835
▁Safety	-2836
▁fall	-2837
ensive	-2838
▁definition	-2839
▁around	-2840
▁Statistics	-2841
▁put	-2842
▁Official	-2843
▁supported	-2844
▁risks	-2845
▁Saskat	-2846
gen	-2847
▁By	-2848
urement	-2849
▁Non	-2850
pecially	-2851
▁Republic	-2852
▁Met	-2853
▁complex	-2854
ached	-2855
ximately	-2856
▁species	-2857
▁NRC	-2858
▁assign	-2859
▁Protection	-2860
▁ON	-2861
▁physical	-2862
ler	-2863
▁=	-2864
▁Law	-2865
▁wide	-2866
ception	-2867
▁Regist	-2868
itoba	-2869
itizens	-2870
▁RE	-2871
▁men	-2872
▁Conference	-2873
▁infrastructure	-2874
ored	-2875
▁Since	-2876
rants	-2877
▁Assemb	-2878
▁enhance	-2879
▁internal	-2880
ivil	-2881
oper	-2882
▁immedi	-2883
▁Educ	-2884
▁word	-2885
OP	-2886
▁Class	-2887
▁pers	-2888
▁ability	-2889
▁Consult	-2890
▁known	-2891
rehens	-2892
▁<	-2893
▁Market	-2894
▁net	-2895
▁give	-2896
▁President	-2897
ming	-2898
▁harm	-2899
idents	-2900
▁create	-2901
ishing	-2902
rations	-2903
ground	-2904
▁satisf	-2905
ways	-2906
urisdic	-2907
▁draft	-2908
▁Strategy	-2909
▁dispos	-2910
▁Fax	-2911
pd	-2912
▁bu	-2913
▁abs	-2914
▁Tele	-2915
etary	-2916
▁compar	-2917
RE	-2918
pond	-2919
unicip	-2920
IL	-2921
▁matter	-2922
▁Chair	-2923
ones	-2924
▁caus	-2925
▁Requ	-2926
▁vir	-2927
iency	-2928
▁Directorate	-2929
▁labour	-2930
▁ground	-2931
emic	-2932
▁stated	-2933
rant	-2934
▁Access	-2935
▁Ret	-2936
▁mark	-2937
ariff	-2938
▁young	-2939
ugust	-2940
▁joint	-2941
rehensive	-2942
▁carried	-2943
▁session	-2944
▁er	-2945
▁prevention	-2946
▁reform	-2947
aging	-2948
enda	-2949
uit	-2950
▁Network	-2951
itation	-2952
▁candid	-2953
▁Manitoba	-2954
▁Evaluation	-2955
then	-2956
▁interp	-2957
▁tob	-2958
▁eas	-2959
lantic	-2960
▁war	-2961
▁proposals	-2962
▁here	-2963
▁contribute	-2964
illance	-2965
▁administration	-2966
▁testing	-2967
▁elements	-2968
▁tobacco	-2969
▁central	-2970
▁want	-2971
ova	-2972
ream	-2973
▁Do	-2974
▁depos	-2975
▁throughout	-2976
ollar	-2977
▁advice	-2978
▁expressed	-2979
▁conn	-2980
▁regions	-2981
▁taking	-2982
luded	-2983
▁keep	-2984
▁medic	-2985
▁times	-2986
▁fair	-2987
ateral	-2988
tified	-2989
itable	-2990
.)	-2991
▁far	-2992
istic	-2993
▁exerc	-2994
▁Action	-2995
▁Further	-2996
▁media	-2997
▁users	-2998
▁Heritage	-2999
aps	-3000
incial	-3001
▁Mod	-3002
lined	-3003
▁ways	-3004
itten	-3005
htm	-3006
▁compared	-3007
▁Region	-3008
isation	-3009
▁Iss	-3010
▁sites	-3011
▁continued	-3012
▁mandate	-3013
▁ST	-3014
▁basic	-3015
▁promotion	-3016
▁especially	-3017
▁culture	-3018
▁client	-3019
▁awareness	-3020
WG	-3021
▁concerned	-3022
▁datab	-3023
▁pursu	-3024
▁Description	-3025
DA	-3026
▁Summary	-3027
ets	-3028
PA	-3029
▁taxpay	-3030
emed	-3031
omin	-3032
▁links	-3033
▁Cal	-3034
▁representatives	-3035
▁operating	-3036
▁Sw	-3037
ulate	-3038
▁Contracting	-3039
chewan	-3040
ordination	-3041
▁created	-3042
▁#	-3043
▁opin	-3044
▁innovation	-3045
DP	-3046
▁works	-3047
The	-3048
has	-3049
▁Chief	-3050
▁just	-3051
▁maximum	-3052
lective	-3053
▁jud	-3054
▁]	-3055
▁manner	-3056
▁conduct	-3057
▁rather	-3058
▁Agric	-3059
▁processing	-3060
aces	-3061
▁learning	-3062
▁week	-3063
ilitary	-3064
▁approval	-3065
▁essential	-3066
▁book	-3067
▁August	-3068
▁--	-3069
standing	-3070
IM	-3071
orther	-3072
know	-3073
TO	-3074
▁draw	-3075
▁adequ	-3076
▁circumstances	-3077
▁ide	-3078
▁outcomes	-3079
▁balance	-3080
▁Initiative	-3081
▁expect	-3082
▁competition	-3083
iting	-3084
▁Ger	-3085
ticles	-3086
▁Priv	-3087
▁reduced	-3088
▁ongoing	-3089
▁requirement	-3090
▁Aust	-3091
▁confir	-3092
orn	-3093
ales	-3094
▁estimated	-3095
▁Mc	-3096
▁consistent	-3097
▁respective	-3098
▁substanti	-3099
▁old	-3100
▁applies	-3101
▁insurance	-3102
▁interests	-3103
▁fees	-3104
▁Supp	-3105
▁coordin	-3106
▁explo	-3107
▁Transport	-3108
ares	-3109
▁Top	-3110
osed	-3111
iver	-3112
▁Fisheries	-3113
▁decre	-3114
▁complain	-3115
▁incorpor	-3116
▁Members	-3117
▁Car	-3118
▁recommended	-3119
▁bring	-3120
▁disp	-3121
HST	-3122
▁America	-3123
▁fully	-3124
▁gene	-3125
tia	-3126
▁i	-3127
▁Name	-3128
FA	-3129
▁today	-3130
▁She	-3131
▁critical	-3132
▁establishment	-3133
▁Atlantic	-3134
▁Us	-3135
▁Equ	-3136
▁statement	-3137
▁Rights	-3138
aster	-3139
▁sex	-3140
ime	-3141
▁longer	-3142
▁behavi	-3143
▁sent	-3144
▁science	-3145
▁Saskatchewan	-3146
▁interview	-3147
▁dri	-3148
oms	-3149
▁jurisdic	-3150
asury	-3151
tures	-3152
ox	-3153
▁anti	-3154
▁recip	-3155
▁oil	-3156
▁Custom	-3157
▁Income	-3158
rolled	-3159
▁American	-3160
▁size	-3161
enz	-3162
▁consumer	-3163
▁election	-3164
orthern	-3165
▁actions	-3166
igure	-3167
▁Person	-3168
osition	-3169
▁prices	-3170
▁Sco	-3171
▁ver	-3172
▁living	-3173
▁frequ	-3174
tenance	-3175
▁comprehensive	-3176
▁improved	-3177
▁search	-3178
▁procedure	-3179
iling	-3180
▁operation	-3181
▁goals	-3182
imate	-3183
▁records	-3184
▁aspects	-3185
yn	-3186
▁partner	-3187
▁behalf	-3188
▁integrated	-3189
▁produced	-3190
▁Assembly	-3191
▁Programs	-3192
▁About	-3193
▁Spec	-3194
▁majority	-3195
▁assets	-3196
▁NO	-3197
▁notice	-3198
▁Fr	-3199
▁strengthen	-3200
▁obtained	-3201
▁sufficient	-3202
▁component	-3203
▁added	-3204
▁implemented	-3205
▁cross	-3206
rancoph	-3207
▁explain	-3208
▁scre	-3209
de	-3210
▁Advisory	-3211
igration	-3212
▁version	-3213
▁der	-3214
▁gas	-3215
▁entitled	-3216
uk	-3217
▁Control	-3218
▁collaboration	-3219
▁death	-3220
anks	-3221
olid	-3222
▁subsequ	-3223
▁China	-3224
▁‘	-3225
▁Use	-3226
▁Assessment	-3227
▁Foreign	-3228
▁reli	-3229
▁emphas	-3230
▁money	-3231
▁base	-3232
wise	-3233
▁Joh	-3234
▁Executive	-3235
▁Perform	-3236
▁Out	-3237
▁ge	-3238
▁approximately	-3239
▁Process	-3240
▁designated	-3241
▁Code	-3242
▁creation	-3243
▁look	-3244
ck	-3245
▁communications	-3246
▁TO	-3247
▁pension	-3248
▁profession	-3249
▁minimum	-3250
▁trend	-3251
▁parts	-3252
▁feed	-3253
▁neg	-3254
▁dollar	-3255
▁mg	-3256
▁Bi	-3257
▁Results	-3258
▁effectiveness	-3259
▁towards	-3260
ror	-3261
▁Science	-3262
▁renew	-3263
▁Treasury	-3264
▁Tra	-3265
hol	-3266
▁publication	-3267
pt	-3268
ixed	-3269
▁facilitate	-3270
inking	-3271
▁recognized	-3272
▁taxation	-3273
ma	-3274
ocol	-3275
▁operational	-3276
abit	-3277
ane	-3278
▁scope	-3279
▁formal	-3280
▁later	-3281
▁claims	-3282
▁representative	-3283
▁Import	-3284
ording	-3285
▁variety	-3286
any	-3287
▁Meet	-3288
iation	-3289
▁FOR	-3290
▁comments	-3291
▁Education	-3292
▁written	-3293
▁requested	-3294
MENT	-3295
government	-3296
▁patient	-3297
ilies	-3298
▁univers	-3299
venues	-3300
racts	-3301
▁businesses	-3302
▁asked	-3303
▁expenditures	-3304
ournal	-3305
▁encourage	-3306
▁whole	-3307
▁Directive	-3308
ps	-3309
▁Revenue	-3310
▁languages	-3311
SI	-3312
▁subsid	-3313
back	-3314
▁SC	-3315
▁valid	-3316
▁cancer	-3317
▁Det	-3318
▁propor	-3319
▁Commissioner	-3320
▁High	-3321
▁Scotia	-3322
▁sett	-3323
cale	-3324
▁Party	-3325
lative	-3326
▁please	-3327
HP	-3328
▁Be	-3329
pection	-3330
▁grad	-3331
▁leave	-3332
▁News	-3333
▁supporting	-3334
eu	-3335
▁ran	-3336
▁smok	-3337
yal	-3338
▁CON	-3339
▁indicate	-3340
▁officer	-3341
roduction	-3342
cing	-3343
▁Budget	-3344
▁Char	-3345
▁affected	-3346
▁Africa	-3347
▁corporate	-3348
▁called	-3349
▁House	-3350
anada	-3351
istics	-3352
ortion	-3353
lines	-3354
▁Security	-3355
▁Ob	-3356
wide	-3357
unicipal	-3358
▁chemical	-3359
▁clearly	-3360
most	-3361
▁Regulation	-3362
ibr	-3363
▁serious	-3364
▁Nova	-3365
▁Cost	-3366
▁Patent	-3367
▁flow	-3368
▁detailed	-3369
II	-3370
▁house	-3371
aboratory	-3372
▁come	-3373
▁unit	-3374
▁participate	-3375
apan	-3376
▁Anal	-3377
urrent	-3378
▁equal	-3379
uting	-3380
▁ensuring	-3381
▁Framework	-3382
▁points	-3383
uilding	-3384
▁accomp	-3385
▁Medical	-3386
▁fee	-3387
minal	-3388
▁Di	-3389
▁ste	-3390
FO	-3391
▁hospital	-3392
ensation	-3393
▁useful	-3394
estern	-3395
▁COM	-3396
▁mechanisms	-3397
▁Mission	-3398
lean	-3399
▁consumers	-3400
light	-3401
▁John	-3402
▁understand	-3403
▁components	-3404
▁advance	-3405
In	-3406
▁note	-3407
▁Schedule	-3408
▁Recommend	-3409
ining	-3410
▁personnel	-3411
▁addressed	-3412
▁Chapter	-3413
▁approaches	-3414
▁along	-3415
▁contained	-3416
▁Soci	-3417
▁let	-3418
utrition	-3419
ients	-3420
idential	-3421
▁Op	-3422
rict	-3423
found	-3424
▁expertise	-3425
employ	-3426
▁listed	-3427
vertis	-3428
▁filed	-3429
▁prepar	-3430
▁'	-3431
▁workshop	-3432
ections	-3433
▁ed	-3434
▁mo	-3435
▁shown	-3436
▁suggested	-3437
▁sup	-3438
izes	-3439
ensus	-3440
▁mus	-3441
selves	-3442
▁Sector	-3443
▁collection	-3444
▁Che	-3445
▁light	-3446
UL	-3447
▁soft	-3448
▁firms	-3449
AB	-3450
▁taxpayer	-3451
▁mission	-3452
ventions	-3453
▁discussed	-3454
▁offices	-3455
▁announced	-3456
▁discussions	-3457
▁findings	-3458
▁though	-3459
▁laun	-3460
▁cause	-3461
▁Particip	-3462
casting	-3463
▁mov	-3464
▁partnerships	-3465
▁amendments	-3466
▁Qual	-3467
▁($	-3468
▁pros	-3469
▁devices	-3470
▁dr	-3471
▁prem	-3472
▁Account	-3473
▁South	-3474
ctions	-3475
▁Main	-3476
▁viol	-3477
▁Customs	-3478
▁conflic	-3479
▁z	-3480
▁covered	-3481
▁duties	-3482
▁Training	-3483
▁differences	-3484
▁Rule	-3485
▁near	-3486
▁external	-3487
ruit	-3488
ourable	-3489
vision	-3490
▁remov	-3491
▁format	-3492
▁Finance	-3493
rs	-3494
▁deliver	-3495
▁amended	-3496
overy	-3497
▁follows	-3498
ifically	-3499
▁website	-3500
eli	-3501
▁clar	-3502
ébec	-3503
▁Japan	-3504
▁blood	-3505
▁avoid	-3506
▁attention	-3507
▁otherwise	-3508
cl	-3509
▁Loc	-3510
▁Port	-3511
▁sens	-3512
cont	-3513
empt	-3514
enn	-3515
face	-3516
▁independent	-3517
TH	-3518
▁discuss	-3519
▁poll	-3520
▁accep	-3521
rown	-3522
▁During	-3523
enced	-3524
lusive	-3525
▁efficient	-3526
▁Id	-3527
▁Gre	-3528
▁therap	-3529
▁spe	-3530
▁Women	-3531
▁although	-3532
▁adap	-3533
▁original	-3534
IR	-3535
▁states	-3536
▁Authority	-3537
▁whose	-3538
lections	-3539
▁leadership	-3540
▁physic	-3541
DS	-3542
▁Guide	-3543
arant	-3544
▁families	-3545
▁reasonable	-3546
▁details	-3547
▁Document	-3548
▁Address	-3549
▁rural	-3550
isk	-3551
atch	-3552
▁But	-3553
▁Sen	-3554
ids	-3555
▁%	-3556
▁CO	-3557
▁el	-3558
▁sale	-3559
▁citizens	-3560
▁Hel	-3561
▁initial	-3562
----	-3563
▁autom	-3564
▁German	-3565
uss	-3566
▁Survey	-3567
▁itself	-3568
▁sample	-3569
▁camp	-3570
▁reviewed	-3571
▁options	-3572
▁Brun	-3573
▁turn	-3574
▁plant	-3575
▁improving	-3576
▁util	-3577
▁funded	-3578
aily	-3579
▁King	-3580
▁half	-3581
▁degree	-3582
▁arrangements	-3583
▁proportion	-3584
▁alternative	-3585
RT	-3586
▁accur	-3587
ouver	-3588
▁effort	-3589
▁Count	-3590
ittle	-3591
▁informed	-3592
▁Search	-3593
▁Water	-3594
▁separate	-3595
▁Our	-3596
▁reasons	-3597
▁See	-3598
lementary	-3599
▁advant	-3600
raw	-3601
▁occup	-3602
▁sugges	-3603
▁items	-3604
▁Benef	-3605
▁civil	-3606
foundland	-3607
▁CH	-3608
▁obligations	-3609
orter	-3610
▁reach	-3611
TER	-3612
ittees	-3613
AG	-3614
head	-3615
▁Corporation	-3616
irection	-3617
▁investigation	-3618
akers	-3619
▁filing	-3620
▁Funding	-3621
▁situ	-3622
▁weight	-3623
▁percentage	-3624
▁Reports	-3625
▁receiving	-3626
tify	-3627
▁Employment	-3628
DI	-3629
ands	-3630
uration	-3631
gn	-3632
▁La	-3633
▁Est	-3634
▁Application	-3635
liminary	-3636
▁opinion	-3637
▁Hon	-3638
▁Dist	-3639
▁Invest	-3640
▁signed	-3641
▁goal	-3642
▁Force	-3643
ydro	-3644
▁enforcement	-3645
▁impacts	-3646
▁del	-3647
manent	-3648
▁guidance	-3649
▁laws	-3650
ommunic	-3651
▁Oce	-3652
▁micro	-3653
ilot	-3654
swick	-3655
▁describ	-3656
▁payable	-3657
▁deemed	-3658
ched	-3659
▁Imm	-3660
▁Annual	-3661
▁Cer	-3662
respond	-3663
▁producers	-3664
▁List	-3665
dis	-3666
atures	-3667
▁committed	-3668
ley	-3669
▁pharm	-3670
▁too	-3671
making	-3672
▁series	-3673
ré	-3674
▁pursuant	-3675
▁consequ	-3676
▁table	-3677
US	-3678
rie	-3679
▁Communications	-3680
▁emissions	-3681
▁selected	-3682
▁licence	-3683
reet	-3684
▁analy	-3685
▁Gene	-3686
▁flex	-3687
ographic	-3688
▁officers	-3689
load	-3690
▁Deputy	-3691
▁Lic	-3692
▁Newfoundland	-3693
▁fuel	-3694
▁duty	-3695
▁maintenance	-3696
▁smoking	-3697
thing	-3698
lying	-3699
▁matters	-3700
▁Bul	-3701
▁Guidelines	-3702
▁Brunswick	-3703
▁respondents	-3704
▁growing	-3705
**	-3706
atal	-3707
▁managers	-3708
▁ce	-3709
▁adverse	-3710
▁Good	-3711
▁According	-3712
▁dest	-3713
illed	-3714
▁input	-3715
enous	-3716
ancouver	-3717
▁Respon	-3718
UM	-3719
▁programme	-3720
rep	-3721
▁Head	-3722
oles	-3723
▁professionals	-3724
vertising	-3725
▁themselves	-3726
▁territorial	-3727
▁release	-3728
agnos	-3729
▁bl	-3730
▁Island	-3731
lications	-3732
ribution	-3733
▁participating	-3734
▁undertaken	-3735
ength	-3736
itting	-3737
▁description	-3738
▁WH	-3739
▁Back	-3740
▁counter	-3741
den	-3742
▁phase	-3743
▁Performance	-3744
sy	-3745
▁significantly	-3746
▁ec	-3747
▁Strategic	-3748
▁CANAD	-3749
▁Intellectual	-3750
▁Administration	-3751
▁bene	-3752
cohol	-3753
▁That	-3754
▁Ministers	-3755
▁+	-3756
▁Media	-3757
▁instruc	-3758
▁diseases	-3759
▁leading	-3760
CB	-3761
▁Austral	-3762
▁resulting	-3763
house	-3764
▁Ref	-3765
▁Audit	-3766
▁Note	-3767
▁serv	-3768
▁Innov	-3769
▁receip	-3770
▁AD	-3771
▁positions	-3772
▁history	-3773
▁relation	-3774
▁once	-3775
▁transp	-3776
▁Francoph	-3777
▁consultations	-3778
CO	-3779
itle	-3780
▁seen	-3781
▁guide	-3782
▁officials	-3783
entioned	-3784
▁port	-3785
▁Québec	-3786
▁agricultural	-3787
▁regulation	-3788
▁Many	-3789
▁III	-3790
▁Pol	-3791
▁From	-3792
▁mut	-3793
▁achieved	-3794
▁effectively	-3795
▁containing	-3796
▁produce	-3797
▁fr	-3798
▁cod	-3799
▁toxic	-3800
▁vacc	-3801
▁quan	-3802
SE	-3803
ifications	-3804
▁Effec	-3805
▁ID	-3806
▁offered	-3807
▁providers	-3808
▁text	-3809
▁enable	-3810
off	-3811
▁spons	-3812
▁tour	-3813
▁Most	-3814
▁threat	-3815
ung	-3816
▁prim	-3817
▁numbers	-3818
▁Decision	-3819
▁innovative	-3820
son	-3821
▁facility	-3822
▁award	-3823
▁appoint	-3824
▁substance	-3825
▁granted	-3826
▁benefic	-3827
▁Cor	-3828
ided	-3829
▁br	-3830
▁enterpr	-3831
ogue	-3832
▁lat	-3833
▁const	-3834
▁invent	-3835
▁Year	-3836
ommod	-3837
▁indicators	-3838
▁financing	-3839
▁establishing	-3840
▁integration	-3841
▁steps	-3842
▁revenues	-3843
▁Tel	-3844
▁construction	-3845
ancy	-3846
EMENT	-3847
▁mental	-3848
fication	-3849
ites	-3850
▁normal	-3851
▁computer	-3852
▁dig	-3853
▁thus	-3854
▁makes	-3855
▁Fac	-3856
▁CT	-3857
▁Publications	-3858
▁Each	-3859
▁answ	-3860
▁actual	-3861
set	-3862
▁Risk	-3863
▁kind	-3864
▁sold	-3865
▁implementing	-3866
exic	-3867
▁Partnership	-3868
▁Inuit	-3869
dom	-3870
utional	-3871
▁liter	-3872
▁superv	-3873
▁little	-3874
▁option	-3875
▁Subs	-3876
▁increases	-3877
▁educational	-3878
▁usually	-3879
ousing	-3880
▁grant	-3881
iring	-3882
▁Of	-3883
▁supports	-3884
emor	-3885
▁Vol	-3886
▁observed	-3887
▁Dise	-3888
▁stage	-3889
▁elim	-3890
▁former	-3891
laration	-3892
▁Detail	-3893
▁arg	-3894
ott	-3895
▁instruments	-3896
▁certific	-3897
▁Agriculture	-3898
▁Vancouver	-3899
aign	-3900
▁examination	-3901
ah	-3902
▁Sim	-3903
▁Appro	-3904
umer	-3905
▁code	-3906
▁factor	-3907
ifying	-3908
▁Reference	-3909
▁prescribed	-3910
▁introduced	-3911
▁fishing	-3912
▁collected	-3913
▁interested	-3914
▁transactions	-3915
▁ir	-3916
▁safe	-3917
▁DFO	-3918
▁Arch	-3919
yond	-3920
▁beyond	-3921
▁dam	-3922
ude	-3923
hest	-3924
▁marketing	-3925
▁submit	-3926
▁Net	-3927
▁serve	-3928
▁Post	-3929
▁revised	-3930
▁fav	-3931
▁feel	-3932
nes	-3933
▁entry	-3934
▁PDF	-3935
▁mach	-3936
▁mess	-3937
▁Propos	-3938
▁genetic	-3939
▁Mul	-3940
▁entire	-3941
eline	-3942
▁Meeting	-3943
los	-3944
▁correspond	-3945
▁Industrial	-3946
porary	-3947
oy	-3948
ean	-3949
▁weeks	-3950
▁expand	-3951
▁taxes	-3952
▁always	-3953
▁Rad	-3954
▁Found	-3955
TS	-3956
▁Any	-3957
▁models	-3958
▁pen	-3959
▁agenda	-3960
▁competitive	-3961
▁fel	-3962
▁contains	-3963
▁military	-3964
▁departmental	-3965
▁earlier	-3966
▁gender	-3967
real	-3968
▁takes	-3969
including	-3970
ustain	-3971
org	-3972
ift	-3973
▁recently	-3974
▁aid	-3975
att	-3976
▁substances	-3977
oples	-3978
▁diversity	-3979
▁reb	-3980
▁followed	-3981
▁exercise	-3982
▁unless	-3983
hood	-3984
▁Prin	-3985
▁negative	-3986
▁involvement	-3987
igenous	-3988
essions	-3989
umping	-3990
CP	-3991
▁portion	-3992
▁shared	-3993
▁barri	-3994
▁tool	-3995
▁located	-3996
▁cash	-3997
▁principle	-3998
▁populations	-3999
▁copyright	-4000
▁interpret	-4001
▁Standing	-4002
▁investments	-4003
▁healthy	-4004
▁climate	-4005
▁agency	-4006
▁live	-4007
▁employer	-4008
▁challenge	-4009
▁highly	-4010
▁units	-4011
▁involving	-4012
▁transportation	-4013
▁Mexic	-4014
▁letter	-4015
▁resident	-4016
▁primarily	-4017
▁web	-4018
reci	-4019
▁resolution	-4020
▁consumption	-4021
▁run	-4022
governmental	-4023
▁except	-4024
▁School	-4025
▁specifically	-4026
▁Justice	-4027
que	-4028
abitat	-4029
▁RC	-4030
▁board	-4031
▁Ge	-4032
▁host	-4033
▁log	-4034
▁Natural	-4035
▁licens	-4036
▁yet	-4037
▁exports	-4038
▁modern	-4039
▁remains	-4040
▁documentation	-4041
tition	-4042
▁ten	-4043
▁unique	-4044
html	-4045
▁networks	-4046
▁medium	-4047
td	-4048
ribun	-4049
mark	-4050
▁retail	-4051
▁accepted	-4052
▁accountability	-4053
▁determining	-4054
nings	-4055
essel	-4056
▁Territ	-4057
▁senior	-4058
▁Site	-4059
▁Lim	-4060
▁sound	-4061
▁took	-4062
▁CBSA	-4063
▁Defence	-4064
▁nurs	-4065
▁condition	-4066
▁Win	-4067
▁setting	-4068
teg	-4069
vail	-4070
▁West	-4071
▁led	-4072
arters	-4073
comm	-4074
▁card	-4075
▁IM	-4076
▁municipal	-4077
▁Please	-4078
▁Central	-4079
▁database	-4080
▁submission	-4081
▁direction	-4082
▁industries	-4083
CR	-4084
▁subsequent	-4085
▁writ	-4086
▁Second	-4087
hibit	-4088
▁Manag	-4089
▁influence	-4090
▁estimates	-4091
NG	-4092
▁promoting	-4093
▁surveillance	-4094
▁divid	-4095
▁Youth	-4096
▁Contents	-4097
▁hard	-4098
▁universities	-4099
▁Typ	-4100
▁continues	-4101
▁efficiency	-4102
▁adequate	-4103
▁Travel	-4104
▁acad	-4105
▁Copy	-4106
▁Key	-4107
▁mid	-4108
▁euro	-4109
▁rapid	-4110
▁quarter	-4111
▁Es	-4112
▁Sal	-4113
▁wel	-4114
▁limits	-4115
▁space	-4116
arents	-4117
ingu	-4118
▁vehicle	-4119
▁Exper	-4120
▁authorized	-4121
▁governance	-4122
▁instrument	-4123
ineering	-4124
▁core	-4125
ipp	-4126
come	-4127
▁x	-4128
▁Implement	-4129
▁taxable	-4130
▁track	-4131
▁beginning	-4132
▁summary	-4133
aceu	-4134
▁conference	-4135
▁spending	-4136
▁animals	-4137
▁tw	-4138
▁Society	-4139
▁bur	-4140
▁ord	-4141
HA	-4142
▁und	-4143
▁France	-4144
▁largest	-4145
▁supplies	-4146
▁concept	-4147
▁court	-4148
vere	-4149
▁imports	-4150
▁manufacturing	-4151
acific	-4152
▁presence	-4153
▁highest	-4154
▁relatively	-4155
bon	-4156
▁almost	-4157
▁defic	-4158
▁soil	-4159
▁statements	-4160
▁believe	-4161
▁negotiations	-4162
▁daily	-4163
▁After	-4164
▁classification	-4165
▁cop	-4166
▁him	-4167
mpt	-4168
▁behaviour	-4169
▁identification	-4170
▁recognition	-4171
▁Standards	-4172
enza	-4173
sych	-4174
reme	-4175
▁har	-4176
▁agent	-4177
orage	-4178
▁,	-4179
▁deleg	-4180
▁functions	-4181
▁aqu	-4182
▁bodies	-4183
▁minority	-4184
▁Quality	-4185
▁collective	-4186
▁legislative	-4187
▁Index	-4188
▁BC	-4189
▁Journal	-4190
▁Current	-4191
▁accounts	-4192
▁bri	-4193
▁ship	-4194
▁publications	-4195
▁centres	-4196
▁Know	-4197
▁ri	-4198
ribunal	-4199
rought	-4200
▁mob	-4201
▁software	-4202
▁uses	-4203
dep	-4204
▁Export	-4205
▁Product	-4206
▁Prac	-4207
▁length	-4208
WGSC	-4209
▁Common	-4210
▁fem	-4211
▁DE	-4212
▁ECB	-4213
raz	-4214
ula	-4215
▁Prom	-4216
▁characteristics	-4217
bre	-4218
▁excell	-4219
more	-4220
▁meaning	-4221
rence	-4222
where	-4223
▁urban	-4224
▁raised	-4225
▁cyc	-4226
▁improvement	-4227
UN	-4228
▁Vi	-4229
▁sections	-4230
▁disclosure	-4231
▁imported	-4232
▁equival	-4233
SO	-4234
▁opp	-4235
▁university	-4236
▁Statement	-4237
▁resol	-4238
ider	-4239
tivities	-4240
▁immediately	-4241
▁allows	-4242
▁shows	-4243
▁requests	-4244
▁determination	-4245
▁Foundation	-4246
▁reducing	-4247
▁concentrations	-4248
▁animal	-4249
curement	-4250
vestig	-4251
▁panel	-4252
▁Notice	-4253
▁territories	-4254
▁Manufact	-4255
▁selection	-4256
▁coordination	-4257
lecommunic	-4258
▁commitments	-4259
▁Honourable	-4260
▁online	-4261
▁Lead	-4262
▁allowed	-4263
▁Oceans	-4264
▁Eth	-4265
▁dou	-4266
▁Telephone	-4267
mar	-4268
▁Li	-4269
▁Team	-4270
▁replace	-4271
▁vehicles	-4272
pite	-4273
▁Panel	-4274
▁pattern	-4275
▁guarant	-4276
amental	-4277
▁sharing	-4278
▁schools	-4279
plus	-4280
▁crop	-4281
ores	-4282
▁previously	-4283
▁Impro	-4284
▁Sustain	-4285
▁volume	-4286
▁say	-4287
▁files	-4288
▁som	-4289
▁Provincial	-4290
Ch	-4291
▁manage	-4292
▁purchase	-4293
▁Ste	-4294
certain	-4295
draw	-4296
▁Bas	-4297
aters	-4298
erce	-4299
▁face	-4300
▁Ev	-4301
▁diagnos	-4302
▁revenue	-4303
▁Incre	-4304
AM	-4305
▁mis	-4306
oot	-4307
▁injury	-4308
▁contracts	-4309
▁banks	-4310
▁permit	-4311
▁prob	-4312
▁Drugs	-4313
▁radio	-4314
▁tariff	-4315
▁quantit	-4316
IG	-4317
ircraft	-4318
lege	-4319
ches	-4320
▁WTO	-4321
▁Corporate	-4322
▁Ltd	-4323
▁solutions	-4324
lete	-4325
▁fisheries	-4326
▁Protocol	-4327
▁Secretary	-4328
▁emb	-4329
▁charge	-4330
▁performed	-4331
▁vessel	-4332
▁Ministry	-4333
▁categories	-4334
▁exception	-4335
▁Value	-4336
overty	-4337
▁Innovation	-4338
▁preced	-4339
▁pressure	-4340
▁attrib	-4341
▁Bl	-4342
▁mechanism	-4343
▁Upd	-4344
▁consent	-4345
▁telephone	-4346
comp	-4347
▁Street	-4348
▁Such	-4349
▁amendment	-4350
▁Therefore	-4351
cise	-4352
▁Analysis	-4353
▁Medic	-4354
▁CRA	-4355
▁clean	-4356
▁retain	-4357
▁harmon	-4358
▁Your	-4359
▁CP	-4360
▁Lo	-4361
▁Northern	-4362
wh	-4363
▁Capital	-4364
▁situations	-4365
▁Ques	-4366
▁Pension	-4367
▁modified	-4368
erous	-4369
rade	-4370
ray	-4371
▁centre	-4372
▁emergency	-4373
eniors	-4374
omain	-4375
entially	-4376
▁depend	-4377
SB	-4378
▁EX	-4379
▁haz	-4380
aching	-4381
▁Enter	-4382
ointed	-4383
thening	-4384
ull	-4385
▁stock	-4386
▁larger	-4387
▁mail	-4388
▁sport	-4389
▁Represent	-4390
▁Help	-4391
▁Sk	-4392
otechn	-4393
▁foods	-4394
ogen	-4395
▁expenditure	-4396
ience	-4397
▁views	-4398
▁People	-4399
▁why	-4400
▁multiple	-4401
▁difference	-4402
▁correct	-4403
▁worked	-4404
▁train	-4405
ault	-4406
▁path	-4407
▁transf	-4408
▁minim	-4409
useum	-4410
avings	-4411
NA	-4412
▁Insurance	-4413
▁advertising	-4414
▁Task	-4415
els	-4416
▁Conf	-4417
▁qualified	-4418
▁buy	-4419
▁lines	-4420
unction	-4421
▁mentioned	-4422
▁Att	-4423
▁Ms	-4424
▁accounting	-4425
law	-4426
▁household	-4427
▁conflict	-4428
▁Privacy	-4429
▁words	-4430
rum	-4431
▁shares	-4432
emi	-4433
▁applicants	-4434
▁released	-4435
▁bro	-4436
▁brief	-4437
▁category	-4438
▁acquis	-4439
▁Languages	-4440
▁Design	-4441
iques	-4442
▁disse	-4443
▁Spe	-4444
▁resist	-4445
▁campaign	-4446
bur	-4447
▁Assistant	-4448
▁collect	-4449
orities	-4450
ishes	-4451
▁concluded	-4452
anges	-4453
char	-4454
▁sw	-4455
▁Follow	-4456
▁preparation	-4457
▁excess	-4458
▁location	-4459
▁institutional	-4460
▁red	-4461
ibrary	-4462
pir	-4463
▁accommod	-4464
▁Copyright	-4465
▁waste	-4466
▁advantage	-4467
▁rule	-4468
DU	-4469
▁pilot	-4470
life	-4471
▁secure	-4472
▁territory	-4473
ior	-4474
▁experts	-4475
▁permanent	-4476
▁Children	-4477
▁relationships	-4478
▁African	-4479
▁rein	-4480
▁Disclosure	-4481
▁fost	-4482
▁scale	-4483
▁conv	-4484
▁jobs	-4485
▁grants	-4486
▁customs	-4487
▁displ	-4488
emorand	-4489
▁illness	-4490
▁Kingdom	-4491
▁Figure	-4492
▁user	-4493
▁Case	-4494
▁Indian	-4495
▁PWGSC	-4496
oto	-4497
ply	-4498
health	-4499
edi	-4500
used	-4501
ape	-4502
▁privacy	-4503
▁dial	-4504
ette	-4505
with	-4506
▁Issues	-4507
▁vision	-4508
▁parent	-4509
▁Through	-4510
ux	-4511
▁aimed	-4512
▁fixed	-4513
▁Activities	-4514
resents	-4515
▁City	-4516
▁Relations	-4517
▁dose	-4518
▁Planning	-4519
▁names	-4520
CI	-4521
▁alcohol	-4522
▁compound	-4523
▁Parties	-4524
TM	-4525
▁adoption	-4526
▁Return	-4527
▁technological	-4528
▁acceptable	-4529
ann	-4530
▁electoral	-4531
▁volunte	-4532
▁Russ	-4533
▁corporations	-4534
▁Response	-4535
hips	-4536
▁fra	-4537
▁Royal	-4538
▁Change	-4539
▁focused	-4540
▁Tob	-4541
va	-4542
CA	-4543
▁TB	-4544
▁Building	-4545
▁Monitor	-4546
▁strength	-4547
iary	-4548
▁outcome	-4549
▁Crown	-4550
▁device	-4551
▁planned	-4552
urities	-4553
▁tests	-4554
▁Western	-4555
gred	-4556
▁infection	-4557
▁parents	-4558
▁screening	-4559
▁Investment	-4560
▁intervention	-4561
▁Global	-4562
▁outlined	-4563
▁dim	-4564
▁plants	-4565
ERS	-4566
▁den	-4567
▁Australia	-4568
▁jurisdiction	-4569
▁Amend	-4570
mental	-4571
▁Montreal	-4572
▁programming	-4573
▁Day	-4574
lusions	-4575
MS	-4576
▁wa	-4577
▁gra	-4578
▁mort	-4579
▁respectively	-4580
▁Also	-4581
▁practical	-4582
▁Scientific	-4583
pected	-4584
ened	-4585
▁Pacific	-4586
▁art	-4587
▁histor	-4588
▁Integ	-4589
ocks	-4590
IF	-4591
▁barriers	-4592
ict	-4593
EX	-4594
▁Mal	-4595
▁lay	-4596
▁acid	-4597
▁tal	-4598
ais	-4599
iles	-4600
▁GDP	-4601
▁firm	-4602
▁represents	-4603
▁OR	-4604
resh	-4605
▁Two	-4606
▁Emer	-4607
vance	-4608
▁join	-4609
▁poor	-4610
▁developments	-4611
prof	-4612
ferred	-4613
▁integr	-4614
▁INC	-4615
▁Conc	-4616
XX	-4617
▁Pop	-4618
▁Systems	-4619
▁associations	-4620
alled	-4621
▁Tribunal	-4622
▁roles	-4623
▁candidate	-4624
▁Pur	-4625
▁PR	-4626
▁doing	-4627
▁Standard	-4628
▁Company	-4629
▁curren	-4630
▁creating	-4631
apers	-4632
▁organized	-4633
▁element	-4634
▁Trad	-4635
▁Estim	-4636
care	-4637
▁appeal	-4638
▁timely	-4639
▁concentration	-4640
▁CA	-4641
▁appears	-4642
▁preliminary	-4643
oted	-4644
lecommunications	-4645
▁Germany	-4646
▁closely	-4647
▁Mexico	-4648
▁recommendation	-4649
▁Fam	-4650
▁elimin	-4651
sell	-4652
ulatory	-4653
bour	-4654
▁isol	-4655
▁sched	-4656
▁protected	-4657
rador	-4658
▁comply	-4659
▁presentation	-4660
▁substantial	-4661
aker	-4662
▁observ	-4663
water	-4664
▁controls	-4665
▁employed	-4666
▁residents	-4667
▁Staff	-4668
▁TR	-4669
▁Investig	-4670
▁periods	-4671
ité	-4672
▁seek	-4673
▁dollars	-4674
▁emerging	-4675
▁availability	-4676
▁samples	-4677
▁seven	-4678
▁incur	-4679
▁programmes	-4680
▁predic	-4681
▁CANADA	-4682
ilateral	-4683
ems	-4684
▁furn	-4685
%.	-4686
tious	-4687
emin	-4688
part	-4689
▁improvements	-4690
▁Forces	-4691
▁agriculture	-4692
▁Legal	-4693
▁HR	-4694
▁writing	-4695
▁Hospital	-4696
▁Area	-4697
EA	-4698
ilingual	-4699
inf	-4700
▁extensive	-4701
ai	-4702
▁War	-4703
▁Page	-4704
▁continuing	-4705
aving	-4706
▁conservation	-4707
▁SME	-4708
spec	-4709
ead	-4710
etes	-4711
oring	-4712
▁perspective	-4713
▁via	-4714
▁fisher	-4715
like	-4716
▁Technical	-4717
▁fulf	-4718
▁articles	-4719
▁RES	-4720
▁Fran	-4721
▁attend	-4722
▁sessions	-4723
▁virus	-4724
entists	-4725
▁fields	-4726
uge	-4727
iry	-4728
▁Finally	-4729
▁trends	-4730
▁AB	-4731
▁Proced	-4732
cipl	-4733
▁equivalent	-4734
▁Method	-4735
otechnology	-4736
▁Transfer	-4737
pper	-4738
▁assum	-4739
▁treated	-4740
ody	-4741
▁combined	-4742
irth	-4743
▁agents	-4744
▁les	-4745
▁Knowledge	-4746
▁never	-4747
▁statis	-4748
arency	-4749
▁quick	-4750
▁prepare	-4751
▁brought	-4752
▁withdraw	-4753
ceptions	-4754
▁Study	-4755
▁acknow	-4756
▁coverage	-4757
▁Labrador	-4758
▁sense	-4759
▁receipt	-4760
orders	-4761
▁increasingly	-4762
▁offers	-4763
▁responses	-4764
▁Ear	-4765
crip	-4766
▁felt	-4767
▁Proactive	-4768
Os	-4769
quarters	-4770
▁Ne	-4771
▁examples	-4772
▁break	-4773
▁expression	-4774
▁association	-4775
▁flu	-4776
▁Senior	-4777
▁trial	-4778
ederation	-4779
▁rati	-4780
▁fundamental	-4781
▁measurement	-4782
▁CD	-4783
▁student	-4784
▁enhanced	-4785
▁cut	-4786
▁Cri	-4787
▁liqu	-4788
illing	-4789
ourses	-4790
▁things	-4791
lude	-4792
lects	-4793
▁aircraft	-4794
ony	-4795
▁implications	-4796
ATE	-4797
▁Related	-4798
▁became	-4799
arian	-4800
▁Sy	-4801
▁APP	-4802
▁Last	-4803
▁compensation	-4804
▁comment	-4805
▁pregn	-4806
employment	-4807
▁laboratory	-4808
▁monetary	-4809
ukon	-4810
▁delivered	-4811
edic	-4812
▁choice	-4813
▁penal	-4814
▁committees	-4815
▁appointed	-4816
ilt	-4817
▁surplus	-4818
St	-4819
ana	-4820
▁transmission	-4821
ideo	-4822
TIV	-4823
▁Comments	-4824
▁commission	-4825
▁Forum	-4826
▁toward	-4827
▁IV	-4828
abetes	-4829
▁temper	-4830
▁late	-4831
iii	-4832
▁linked	-4833
▁reached	-4834
abled	-4835
▁introduction	-4836
asp	-4837
▁think	-4838
▁Based	-4839
PS	-4840
▁sets	-4841
letin	-4842
ESS	-4843
▁Asia	-4844
igare	-4845
IH	-4846
TE	-4847
▁identifying	-4848
▁ple	-4849
lands	-4850
▁enough	-4851
▁Dav	-4852
▁Establ	-4853
OS	-4854
▁targets	-4855
▁Prince	-4856
▁storage	-4857
▁El	-4858
▁examined	-4859
▁voluntary	-4860
▁pow	-4861
▁calculated	-4862
▁decided	-4863
▁NHP	-4864
ously	-4865
▁wish	-4866
▁AN	-4867
ciplinary	-4868
taining	-4869
▁Legis	-4870
▁represented	-4871
otes	-4872
▁Phase	-4873
▁Press	-4874
oman	-4875
▁mot	-4876
▁changing	-4877
urning	-4878
▁placed	-4879
▁Consumer	-4880
west	-4881
▁dealing	-4882
▁bound	-4883
▁arti	-4884
▁discri	-4885
elivery	-4886
▁Previous	-4887
▁began	-4888
▁stability	-4889
▁deposit	-4890
▁Dem	-4891
▁Prevention	-4892
▁recovery	-4893
▁confidence	-4894
▁updated	-4895
▁solution	-4896
aculture	-4897
▁Paper	-4898
umn	-4899
▁anticip	-4900
iries	-4901
greg	-4902
▁Pharm	-4903
▁statistics	-4904
▁decline	-4905
ls	-4906
paragraph	-4907
▁Reporting	-4908
▁Manager	-4909
▁IPC	-4910
▁Unit	-4911
▁operate	-4912
▁Operations	-4913
▁Institutes	-4914
▁Studies	-4915
▁Record	-4916
▁chlor	-4917
▁stat	-4918
▁Bill	-4919
▁stress	-4920
oming	-4921
▁SU	-4922
▁Bec	-4923
▁road	-4924
annel	-4925
ulating	-4926
razil	-4927
▁incen	-4928
▁Objec	-4929
▁examine	-4930
▁maintained	-4931
▁tend	-4932
▁Princip	-4933
▁Status	-4934
MA	-4935
iding	-4936
▁refund	-4937
▁inspection	-4938
ects	-4939
▁allocation	-4940
▁Bel	-4941
▁drinking	-4942
gment	-4943
▁practition	-4944
rab	-4945
▁assessed	-4946
ought	-4947
▁season	-4948
gent	-4949
ulner	-4950
▁marine	-4951
▁copies	-4952
MC	-4953
aint	-4954
ynam	-4955
▁prohib	-4956
▁older	-4957
▁forest	-4958
▁completion	-4959
▁housing	-4960
▁resulted	-4961
▁Furthermore	-4962
▁vary	-4963
▁River	-4964
aul	-4965
ille	-4966
▁certificate	-4967
▁surface	-4968
▁Level	-4969
▁influenza	-4970
▁SR	-4971
▁background	-4972
▁task	-4973
▁Indic	-4974
▁trials	-4975
▁Kore	-4976
▁controlled	-4977
▁transferred	-4978
▁democ	-4979
▁index	-4980
rene	-4981
▁notes	-4982
FOR	-4983
▁Rules	-4984
▁whom	-4985
asc	-4986
▁Yukon	-4987
▁Bar	-4988
▁bul	-4989
▁abuse	-4990
▁hydro	-4991
▁translation	-4992
▁Sport	-4993
Pro	-4994
men	-4995
▁affili	-4996
▁ingred	-4997
▁Vis	-4998
PC	-4999
▁immun	-5000
▁poverty	-5001
▁structures	-5002
▁possibility	-5003
▁music	-5004
▁Mus	-5005
▁acquired	-5006
erenti	-5007
▁gains	-5008
▁recorded	-5009
long	-5010
▁stream	-5011
▁digital	-5012
▁Univers	-5013
isor	-5014
▁absence	-5015
▁entity	-5016
▁exclusive	-5017
▁Sustainable	-5018
▁cells	-5019
▁Projects	-5020
▁Implementation	-5021
▁μ	-5022
▁YES	-5023
▁principal	-5024
▁equity	-5025
▁says	-5026
▁candidates	-5027
▁jus	-5028
▁peace	-5029
▁Brazil	-5030
▁Measurement	-5031
▁Can	-5032
▁side	-5033
▁demonstrate	-5034
▁Senate	-5035
uled	-5036
▁fire	-5037
▁Small	-5038
▁dos	-5039
▁Communities	-5040
▁heritage	-5041
▁PA	-5042
▁dialogue	-5043
▁bond	-5044
▁soon	-5045
▁entered	-5046
▁happ	-5047
▁techniques	-5048
▁learn	-5049
▁abroad	-5050
lom	-5051
▁biological	-5052
▁Cooperation	-5053
uate	-5054
▁assigned	-5055
▁Payments	-5056
usion	-5057
▁else	-5058
▁finding	-5059
▁Assistance	-5060
▁nutrition	-5061
▁changed	-5062
▁Joint	-5063
igures	-5064
▁paragraphs	-5065
▁Rem	-5066
▁peoples	-5067
▁ownership	-5068
▁came	-5069
TD	-5070
▁recognize	-5071
▁collaborative	-5072
▁Lear	-5073
▁package	-5074
▁launched	-5075
amm	-5076
icrob	-5077
▁FA	-5078
▁immig	-5079
▁eight	-5080
▁Delivery	-5081
emorandum	-5082
itig	-5083
▁contributed	-5084
ITY	-5085
▁vers	-5086
▁)	-5087
▁extended	-5088
▁immediate	-5089
▁Programme	-5090
▁direc	-5091
▁Tobacco	-5092
▁Energy	-5093
▁addressing	-5094
▁transition	-5095
alls	-5096
▁caused	-5097
▁vote	-5098
▁evaluate	-5099
▁returns	-5100
mits	-5101
▁reserv	-5102
▁Off	-5103
▁debate	-5104
▁ethn	-5105
▁Introduction	-5106
lore	-5107
▁box	-5108
▁surveys	-5109
▁literature	-5110
▁targeted	-5111
réal	-5112
▁news	-5113
▁Classification	-5114
▁nor	-5115
▁Free	-5116
▁failure	-5117
▁Sciences	-5118
▁occurred	-5119
▁arri	-5120
▁accessible	-5121
tural	-5122
▁maintaining	-5123
▁spect	-5124
rates	-5125
▁left	-5126
▁Cultural	-5127
▁poly	-5128
▁exposed	-5129
▁Cre	-5130
inding	-5131
▁contamin	-5132
▁transaction	-5133
▁fri	-5134
ancer	-5135
▁justice	-5136
▁win	-5137
▁transparency	-5138
▁habitat	-5139
▁tradem	-5140
▁reviews	-5141
▁round	-5142
ze	-5143
▁Require	-5144
▁Administrative	-5145
▁indicates	-5146
▁sell	-5147
▁Type	-5148
▁proceedings	-5149
▁decrease	-5150
▁Source	-5151
ighted	-5152
LO	-5153
▁Lat	-5154
▁epid	-5155
▁appreci	-5156
▁organizational	-5157
▁mix	-5158
▁illust	-5159
times	-5160
▁involves	-5161
▁recipient	-5162
kg	-5163
%,	-5164
▁consensus	-5165
▁sole	-5166
▁derived	-5167
▁remaining	-5168
▁Order	-5169
▁clos	-5170
liers	-5171
▁expectations	-5172
▁Sup	-5173
▁courses	-5174
▁Step	-5175
key	-5176
▁movement	-5177
▁estimate	-5178
▁seed	-5179
▁PAR	-5180
ert	-5181
▁Hist	-5182
▁Occ	-5183
▁productivity	-5184
free	-5185
▁combination	-5186
▁susp	-5187
AND	-5188
▁invited	-5189
pri	-5190
▁Cond	-5191
▁mer	-5192
▁Period	-5193
▁Province	-5194
▁stri	-5195
bit	-5196
▁Grants	-5197
agaz	-5198
▁Sign	-5199
ett	-5200
▁Ser	-5201
▁interpretation	-5202
▁solid	-5203
▁strengthening	-5204
▁Plans	-5205
▁Competi	-5206
loor	-5207
fol	-5208
rupt	-5209
▁replaced	-5210
▁heart	-5211
amb	-5212
▁conver	-5213
▁gl	-5214
▁experiences	-5215
▁Additional	-5216
▁IDRC	-5217
▁sche	-5218
▁Offices	-5219
▁Subsection	-5220
En	-5221
▁ideas	-5222
▁features	-5223
▁psych	-5224
tirement	-5225
▁article	-5226
TIC	-5227
igence	-5228
▁Measures	-5229
ECT	-5230
▁sus	-5231
ION	-5232
▁Go	-5233
▁mainly	-5234
▁managed	-5235
organ	-5236
▁ton	-5237
▁SD	-5238
▁Mac	-5239
▁going	-5240
▁vulner	-5241
▁Interest	-5242
ATIONS	-5243
▁geograph	-5244
oon	-5245
▁incurred	-5246
ese	-5247
▁India	-5248
▁domain	-5249
▁Montréal	-5250
▁uncertain	-5251
▁administered	-5252
▁satisfaction	-5253
▁film	-5254
▁coming	-5255
▁connection	-5256
▁arch	-5257
▁television	-5258
▁inventory	-5259
▁Once	-5260
▁Monitoring	-5261
▁Works	-5262
▁green	-5263
▁hum	-5264
▁Charter	-5265
economic	-5266
▁Cred	-5267
▁decl	-5268
rc	-5269
▁grain	-5270
▁Thus	-5271
TING	-5272
▁membership	-5273
osystem	-5274
LA	-5275
▁considerable	-5276
▁register	-5277
orrow	-5278
▁loan	-5279
▁Mad	-5280
▁Labour	-5281
ulf	-5282
▁Bet	-5283
uable	-5284
▁schedule	-5285
asks	-5286
▁rebate	-5287
▁ox	-5288
▁Phys	-5289
▁AC	-5290
▁encouraged	-5291
IST	-5292
▁analys	-5293
▁simply	-5294
▁Land	-5295
language	-5296
▁violence	-5297
▁Benefits	-5298
▁purs	-5299
▁achieving	-5300
rand	-5301
operative	-5302
nip	-5303
asts	-5304
iov	-5305
FI	-5306
▁indigenous	-5307
▁allocated	-5308
▁AIDS	-5309
▁Goods	-5310
aly	-5311
Canada	-5312
oice	-5313
orne	-5314
endar	-5315
▁claimed	-5316
▁charges	-5317
▁East	-5318
▁assessments	-5319
▁career	-5320
▁plus	-5321
▁presents	-5322
▁prote	-5323
▁Population	-5324
oor	-5325
ratic	-5326
▁Family	-5327
▁chain	-5328
▁distributed	-5329
▁Registration	-5330
▁issu	-5331
zer	-5332
oss	-5333
▁Background	-5334
▁Next	-5335
▁advanced	-5336
RSP	-5337
▁Prime	-5338
▁Ren	-5339
▁demonstrated	-5340
eters	-5341
▁cigare	-5342
▁confirmed	-5343
▁allowance	-5344
▁directed	-5345
▁express	-5346
achers	-5347
▁owner	-5348
▁academic	-5349
▁procurement	-5350
▁adapt	-5351
▁doct	-5352
▁forum	-5353
▁AP	-5354
iven	-5355
▁Both	-5356
▁chronic	-5357
▁Another	-5358
▁submissions	-5359
eek	-5360
▁notification	-5361
ilm	-5362
▁normally	-5363
lot	-5364
eutic	-5365
ARY	-5366
▁Euro	-5367
▁Edward	-5368
▁AU	-5369
oke	-5370
▁summer	-5371
▁becomes	-5372
▁interventions	-5373
▁Equipment	-5374
iform	-5375
▁...	-5376
amination	-5377
▁appointment	-5378
▁try	-5379
▁dispute	-5380
▁Bay	-5381
▁WHO	-5382
▁manufacturer	-5383
▁credits	-5384
▁secondary	-5385
▁Employer	-5386
▁slow	-5387
▁consolid	-5388
▁Phone	-5389
▁managing	-5390
▁phot	-5391
itro	-5392
▁smaller	-5393
lers	-5394
▁hon	-5395
▁send	-5396
eties	-5397
▁Room	-5398
▁flexibility	-5399
▁birth	-5400
▁diverse	-5401
▁emphasis	-5402
▁mass	-5403
▁Time	-5404
▁Moreover	-5405
▁Hal	-5406
▁Commons	-5407
iche	-5408
▁Because	-5409
nipeg	-5410
▁lives	-5411
▁applying	-5412
▁experienced	-5413
▁spread	-5414
▁tiss	-5415
▁inflation	-5416
▁CS	-5417
▁Applications	-5418
▁Prep	-5419
▁workplace	-5420
▁representation	-5421
effec	-5422
▁Participants	-5423
▁measured	-5424
gary	-5425
▁Rev	-5426
▁engaged	-5427
▁Francophone	-5428
▁Yes	-5429
▁Archives	-5430
▁check	-5431
vincial	-5432
▁Let	-5433
▁adjustment	-5434
▁wind	-5435
▁mil	-5436
loss	-5437
▁Dev	-5438
▁identity	-5439
▁Identi	-5440
QU	-5441
▁transfers	-5442
▁seniors	-5443
▁organic	-5444
aser	-5445
▁broader	-5446
encing	-5447
▁Nun	-5448
▁recruit	-5449
▁questionna	-5450
▁Tariff	-5451
▁physicians	-5452
▁disability	-5453
▁update	-5454
ORT	-5455
▁minist	-5456
ectious	-5457
▁sure	-5458
▁rail	-5459
▁Transportation	-5460
▁sexual	-5461
itals	-5462
▁Green	-5463
▁incidence	-5464
▁cris	-5465
▁traffic	-5466
▁scientists	-5467
▁books	-5468
▁indirect	-5469
▁Print	-5470
TC	-5471
▁criminal	-5472
▁obligation	-5473
▁inclusion	-5474
▁Recommendation	-5475
▁Governor	-5476
▁discip	-5477
emption	-5478
▁Broad	-5479
▁bio	-5480
Ar	-5481
▁Opportun	-5482
book	-5483
▁carbon	-5484
▁dedic	-5485
▁ratio	-5486
ritorial	-5487
▁confirm	-5488
avy	-5489
▁Articles	-5490
▁termin	-5491
▁Cancer	-5492
▁Personal	-5493
▁tourism	-5494
▁CR	-5495
▁Following	-5496
▁display	-5497
mont	-5498
▁damage	-5499
ae	-5500
▁Line	-5501
ussion	-5502
▁ul	-5503
▁border	-5504
▁Important	-5505
istan	-5506
ellow	-5507
▁Super	-5508
hat	-5509
iplom	-5510
▁virt	-5511
▁savings	-5512
▁burden	-5513
▁initiated	-5514
▁helping	-5515
ERV	-5516
▁Har	-5517
▁Coordin	-5518
leb	-5519
pati	-5520
▁Effective	-5521
▁select	-5522
▁optim	-5523
▁waters	-5524
▁Pres	-5525
▁currency	-5526
▁EN	-5527
▁enterprises	-5528
▁pollution	-5529
▁SP	-5530
▁à	-5531
▁attached	-5532
atically	-5533
▁classified	-5534
")	-5535
▁Inst	-5536
▁served	-5537
▁EP	-5538
▁electric	-5539
olving	-5540
person	-5541
▁Rele	-5542
▁rise	-5543
▁police	-5544
▁smoke	-5545
profit	-5546
▁interviews	-5547
▁jurisdictions	-5548
▁broadcasting	-5549
▁carrying	-5550
▁Arts	-5551
esty	-5552
utor	-5553
▁Winnipeg	-5554
▁enj	-5555
▁steel	-5556
▁annually	-5557
▁Farm	-5558
▁Altern	-5559
dle	-5560
▁Cli	-5561
uclear	-5562
▁premium	-5563
avut	-5564
▁PL	-5565
▁sympt	-5566
▁Contrib	-5567
atell	-5568
▁TK	-5569
▁conclusion	-5570
▁internationally	-5571
▁fishery	-5572
▁rent	-5573
▁salary	-5574
▁Contin	-5575
ops	-5576
▁Only	-5577
▁arts	-5578
▁loans	-5579
▁coast	-5580
▁COMM	-5581
▁Test	-5582
level	-5583
oul	-5584
▁Given	-5585
▁authorization	-5586
▁Resource	-5587
▁generation	-5588
▁Language	-5589
▁Rece	-5590
▁Communication	-5591
▁Box	-5592
▁employers	-5593
reprene	-5594
▁mortality	-5595
▁AL	-5596
▁heading	-5597
▁Clinical	-5598
ades	-5599
oriz	-5600
ik	-5601
▁spent	-5602
▁consequences	-5603
▁satisfied	-5604
pe	-5605
▁Calgary	-5606
▁room	-5607
▁liquid	-5608
▁sensitive	-5609
▁lot	-5610
acing	-5611
ots	-5612
▁spir	-5613
▁profile	-5614
▁adults	-5615
▁duration	-5616
▁acquisition	-5617
▁severe	-5618
▁CCRA	-5619
▁id	-5620
▁regime	-5621
▁peer	-5622
▁AR	-5623
chol	-5624
▁AM	-5625
▁David	-5626
▁Manufacturing	-5627
▁mutual	-5628
▁distin	-5629
▁suggests	-5630
▁dead	-5631
▁Mich	-5632
▁comparison	-5633
▁Disease	-5634
▁freed	-5635
Canad	-5636
disciplinary	-5637
oly	-5638
▁manufacturers	-5639
▁cou	-5640
▁highl	-5641
▁restrictions	-5642
▁attract	-5643
cu	-5644
▁tested	-5645
▁deduction	-5646
▁Territories	-5647
▁resid	-5648
▁exempt	-5649
ansion	-5650
▁HC	-5651
▁accurate	-5652
▁customers	-5653
ster	-5654
▁suff	-5655
▁advoc	-5656
▁pages	-5657
ulties	-5658
ney	-5659
▁acts	-5660
▁Email	-5661
HS	-5662
▁instructions	-5663
▁bilingual	-5664
▁adopt	-5665
▁charity	-5666
▁Electronic	-5667
▁resistance	-5668
▁certification	-5669
atric	-5670
▁Jean	-5671
▁invention	-5672
▁largely	-5673
▁gives	-5674
▁slight	-5675
▁losses	-5676
▁NS	-5677
arbour	-5678
WA	-5679
▁extreme	-5680
].	-5681
quiries	-5682
▁convention	-5683
vis	-5684
▁moving	-5685
hab	-5686
▁seeking	-5687
▁delay	-5688
▁answer	-5689
▁Institutional	-5690
▁Don	-5691
▁install	-5692
▁generated	-5693
▁securities	-5694
▁indication	-5695
▁Organ	-5696
▁Agri	-5697
▁suppliers	-5698
ospitals	-5699
▁pharmac	-5700
▁calls	-5701
▁therapy	-5702
▁vaccine	-5703
▁Overview	-5704
▁permitted	-5705
▁undertake	-5706
▁MT	-5707
▁Geneva	-5708
▁Notices	-5709
ethyl	-5710
gg	-5711
▁continuous	-5712
▁surv	-5713
▁reproduc	-5714
▁hazard	-5715
▁Activity	-5716
▁Commercial	-5717
▁considerations	-5718
ticultural	-5719
rees	-5720
▁preval	-5721
▁workshops	-5722
▁Centres	-5723
▁incorporated	-5724
▁Production	-5725
hc	-5726
ridge	-5727
down	-5728
▁producer	-5729
▁Road	-5730
▁vital	-5731
PD	-5732
▁feedback	-5733
▁NAF	-5734
▁recon	-5735
▁cycle	-5736
▁Requirements	-5737
utory	-5738
▁forces	-5739
▁Tur	-5740
▁statistical	-5741
▁discrimination	-5742
▁vic	-5743
▁delegation	-5744
bt	-5745
▁pain	-5746
ns	-5747
ded	-5748
▁quickly	-5749
▁	-5750
▁extension	-5751
essor	-5752
▁construc	-5753
folio	-5754
▁reserve	-5755
▁Nunavut	-5756
▁dimension	-5757
icial	-5758
▁channel	-5759
▁residence	-5760
▁Compliance	-5761
▁title	-5762
▁Deter	-5763
▁Individual	-5764
▁actually	-5765
▁Life	-5766
▁Vice	-5767
▁representing	-5768
▁Similar	-5769
▁announce	-5770
▁pred	-5771
▁mandatory	-5772
▁reflects	-5773
▁reve	-5774
▁wild	-5775
GM	-5776
▁fresh	-5777
fully	-5778
▁Northwest	-5779
▁district	-5780
▁minutes	-5781
▁eligibility	-5782
astic	-5783
▁Regulatory	-5784
▁Field	-5785
▁recipients	-5786
▁Respons	-5787
▁SMEs	-5788
istent	-5789
▁Electoral	-5790
▁declaration	-5791
▁summar	-5792
ota	-5793
▁expense	-5794
▁Nor	-5795
▁samp	-5796
abric	-5797
ole	-5798
▁prec	-5799
▁param	-5800
▁liability	-5801
piratory	-5802
▁lif	-5803
▁Long	-5804
▁KB	-5805
▁Final	-5806
uthors	-5807
FIC	-5808
▁Will	-5809
licit	-5810
▁lists	-5811
▁define	-5812
▁mor	-5813
▁regards	-5814
▁stages	-5815
▁disabilities	-5816
▁frequency	-5817
▁outstanding	-5818
ques	-5819
.:	-5820
▁Gen	-5821
▁tasks	-5822
▁monthly	-5823
▁farmers	-5824
▁teams	-5825
▁Acad	-5826
▁label	-5827
▁Nation	-5828
▁physician	-5829
▁clause	-5830
fin	-5831
abling	-5832
SION	-5833
▁Tour	-5834
▁Emergency	-5835
iers	-5836
▁refers	-5837
▁licensing	-5838
▁arrangement	-5839
▁Red	-5840
▁Federation	-5841
▁reflected	-5842
▁subparagraph	-5843
my	-5844
aceutical	-5845
▁Bre	-5846
▁conven	-5847
puts	-5848
second	-5849
▁cities	-5850
▁explained	-5851
inese	-5852
pdf	-5853
egu	-5854
CF	-5855
▁Bal	-5856
▁Internal	-5857
▁figures	-5858
▁Medicine	-5859
▁ever	-5860
▁codes	-5861
▁deploy	-5862
▁Publ	-5863
▁em	-5864
▁clin	-5865
EW	-5866
rating	-5867
▁Sever	-5868
▁looking	-5869
▁temporary	-5870
fort	-5871
▁renewal	-5872
▁settlement	-5873
reshold	-5874
▁starting	-5875
▁away	-5876
▁revision	-5877
▁simple	-5878
▁assignment	-5879
▁Agree	-5880
aria	-5881
oth	-5882
▁aims	-5883
▁exceeding	-5884
▁hy	-5885
▁becoming	-5886
LIC	-5887
FORM	-5888
▁Request	-5889
▁patterns	-5890
augh	-5891
▁ath	-5892
▁conducting	-5893
▁NG	-5894
▁fer	-5895
▁Occup	-5896
▁margin	-5897
class	-5898
▁true	-5899
▁Paris	-5900
rete	-5901
▁latter	-5902
▁forecast	-5903
▁Limited	-5904
▁describe	-5905
▁disposition	-5906
▁ultim	-5907
▁yield	-5908
▁spouse	-5909
▁conclusions	-5910
▁giving	-5911
▁treaty	-5912
▁exists	-5913
▁started	-5914
after	-5915
OD	-5916
▁artists	-5917
▁Surveillance	-5918
▁Present	-5919
▁RRSP	-5920
▁powers	-5921
▁choose	-5922
▁enjoy	-5923
▁dynam	-5924
▁Mor	-5925
▁compounds	-5926
▁complaints	-5927
▁raise	-5928
reach	-5929
▁properly	-5930
▁accession	-5931
▁terror	-5932
stream	-5933
irds	-5934
▁temperature	-5935
▁AG	-5936
▁ask	-5937
▁disclo	-5938
▁Culture	-5939
outher	-5940
▁helps	-5941
fund	-5942
▁requiring	-5943
▁sustainability	-5944
▁valuable	-5945
))	-5946
AA	-5947
market	-5948
OG	-5949
grad	-5950
▁Swed	-5951
▁Chinese	-5952
itness	-5953
▁Paragraph	-5954
▁Reduc	-5955
▁amb	-5956
▁Chemical	-5957
--------	-5958
▁alone	-5959
▁Estimates	-5960
ev	-5961
▁bott	-5962
▁profit	-5963
▁Subject	-5964
▁Lake	-5965
▁assessing	-5966
ement	-5967
umin	-5968
▁supplier	-5969
aties	-5970
ECD	-5971
▁Professional	-5972
▁EURO	-5973
▁mind	-5974
▁Ethics	-5975
being	-5976
▁chapter	-5977
▁Excise	-5978
▁Initiatives	-5979
▁calendar	-5980
▁Departmental	-5981
lock	-5982
▁quantity	-5983
▁residential	-5984
▁Benefit	-5985
▁PS	-5986
▁depending	-5987
▁load	-5988
▁methodology	-5989
▁undertaking	-5990
▁exporters	-5991
▁acting	-5992
elfare	-5993
▁instance	-5994
▁bacter	-5995
lev	-5996
▁mal	-5997
▁veget	-5998
▁Call	-5999
▁sheet	-6000
▁widely	-6001
ush	-6002
IB	-6003
eur	-6004
▁Awards	-6005
▁remed	-6006
▁Den	-6007
attle	-6008
specific	-6009
▁relief	-6010
beral	-6011
▁commod	-6012
▁Marine	-6013
break	-6014
▁Laboratory	-6015
ludes	-6016
PE	-6017
role	-6018
▁occurs	-6019
▁causes	-6020
▁Among	-6021
és	-6022
▁College	-6023
Th	-6024
▁dumping	-6025
▁Korea	-6026
▁returning	-6027
▁removed	-6028
▁showed	-6029
ured	-6030
▁bilateral	-6031
▁CRT	-6032
▁places	-6033
omb	-6034
▁Inspection	-6035
▁city	-6036
▁division	-6037
▁Ma	-6038
▁female	-6039
▁consists	-6040
▁addresses	-6041
▁Its	-6042
▁Tem	-6043
▁built	-6044
▁practitioners	-6045
▁AT	-6046
▁charged	-6047
ero	-6048
vironments	-6049
▁disposal	-6050
▁helped	-6051
▁specialized	-6052
▁Excell	-6053
▁allowing	-6054
▁advisory	-6055
▁conform	-6056
▁holder	-6057
Canadian	-6058
▁Position	-6059
▁End	-6060
▁occas	-6061
▁economies	-6062
▁Consultation	-6063
▁visits	-6064
▁substantially	-6065
▁harvest	-6066
▁REG	-6067
▁numerous	-6068
▁sli	-6069
▁UK	-6070
▁parliament	-6071
▁sometimes	-6072
▁exhib	-6073
▁fight	-6074
▁Spending	-6075
▁databases	-6076
▁pp	-6077
ifax	-6078
▁Title	-6079
▁Award	-6080
▁Mat	-6081
▁dischar	-6082
▁Discussion	-6083
▁PM	-6084
astern	-6085
▁Enh	-6086
atellite	-6087
▁Planned	-6088
stitution	-6089
▁aged	-6090
▁ecosystem	-6091
▁Promotion	-6092
urb	-6093
▁sought	-6094
▁worth	-6095
▁Impact	-6096
▁INTER	-6097
uries	-6098
▁stay	-6099
▁symptoms	-6100
▁Organizations	-6101
▁Healthy	-6102
▁difficulties	-6103
▁Material	-6104
▁message	-6105
▁imposed	-6106
tically	-6107
▁engage	-6108
▁constitute	-6109
▁posted	-6110
▁fib	-6111
▁idea	-6112
▁patents	-6113
▁weak	-6114
▁Operating	-6115
▁York	-6116
hal	-6117
▁complaint	-6118
▁developmental	-6119
▁Library	-6120
▁Nutrition	-6121
▁Ext	-6122
▁Notes	-6123
▁extra	-6124
jud	-6125
▁Center	-6126
▁thereof	-6127
▁limitations	-6128
▁decide	-6129
monton	-6130
jection	-6131
▁Overall	-6132
atories	-6133
elligence	-6134
▁simpl	-6135
▁hospitals	-6136
▁foster	-6137
▁competitiveness	-6138
▁launch	-6139
▁overview	-6140
▁ICT	-6141
▁Elig	-6142
▁earnings	-6143
▁supplement	-6144
ulty	-6145
icrobial	-6146
▁Immigration	-6147
▁actively	-6148
wood	-6149
▁cance	-6150
▁vessels	-6151
▁CM	-6152
▁northern	-6153
fish	-6154
▁expansion	-6155
▁Read	-6156
▁crime	-6157
▁Governing	-6158
%).	-6159
▁Mo	-6160
▁Slo	-6161
outhern	-6162
▁independ	-6163
▁hearing	-6164
▁properties	-6165
▁front	-6166
▁Coast	-6167
index	-6168
▁Amendment	-6169
▁diabetes	-6170
▁(-	-6171
estiv	-6172
▁remained	-6173
▁geographical	-6174
ceived	-6175
▁Opportunities	-6176
▁pic	-6177
▁competent	-6178
ald	-6179
ography	-6180
▁conj	-6181
ensity	-6182
▁attit	-6183
▁integrity	-6184
▁align	-6185
inery	-6186
▁breast	-6187
▁defence	-6188
▁expert	-6189
▁Workshop	-6190
▁corresponding	-6191
▁Several	-6192
▁Bern	-6193
▁structural	-6194
▁Release	-6195
▁("	-6196
▁Conditions	-6197
▁nutri	-6198
▁Regions	-6199
▁Recommendations	-6200
lymp	-6201
▁Learning	-6202
▁rational	-6203
▁calculation	-6204
tilateral	-6205
▁thous	-6206
ét	-6207
▁topics	-6208
▁affecting	-6209
ica	-6210
▁sequ	-6211
▁ethical	-6212
▁PO	-6213
ctic	-6214
▁feature	-6215
burse	-6216
▁stocks	-6217
celer	-6218
▁considers	-6219
▁Defin	-6220
▁adult	-6221
▁relate	-6222
▁holders	-6223
çais	-6224
▁participated	-6225
▁expanded	-6226
▁anticipated	-6227
▁Forms	-6228
▁dated	-6229
▁notify	-6230
▁comes	-6231
▁alleg	-6232
▁buildings	-6233
coming	-6234
ARS	-6235
▁Country	-6236
▁explan	-6237
▁regularly	-6238
▁Claim	-6239
▁scheduled	-6240
▁necessarily	-6241
▁appe	-6242
▁strongly	-6243
▁budgetary	-6244
▁arising	-6245
▁fat	-6246
▁Bulletin	-6247
▁super	-6248
▁threshold	-6249
ttes	-6250
▁grounds	-6251
▁stable	-6252
▁capture	-6253
osen	-6254
bi	-6255
▁argu	-6256
▁EUR	-6257
▁Camp	-6258
▁subjects	-6259
▁definitions	-6260
▁marks	-6261
▁semin	-6262
▁authors	-6263
▁meets	-6264
ker	-6265
▁vac	-6266
UST	-6267
▁handling	-6268
▁wood	-6269
▁formula	-6270
▁IC	-6271
▁Model	-6272
▁Therap	-6273
▁Agenda	-6274
mosp	-6275
▁signs	-6276
▁Specific	-6277
ste	-6278
▁kept	-6279
▁potentially	-6280
minister	-6281
▁dissemination	-6282
▁Gaz	-6283
▁column	-6284
▁spectrum	-6285
▁awards	-6286
▁thought	-6287
▁afford	-6288
▁retirement	-6289
udes	-6290
▁dang	-6291
▁Their	-6292
Agency	-6293
▁Expendit	-6294
viation	-6295
▁dependent	-6296
▁frequently	-6297
▁Radio	-6298
▁demands	-6299
ato	-6300
▁stim	-6301
▁tex	-6302
▁toxicity	-6303
▁attemp	-6304
▁Agreements	-6305
▁recruitment	-6306
ece	-6307
▁underlying	-6308
omet	-6309
▁Establish	-6310
▁learned	-6311
▁Need	-6312
▁cohe	-6313
▁feas	-6314
▁explor	-6315
mitting	-6316
▁foundation	-6317
▁ethics	-6318
▁medicine	-6319
%),	-6320
ien	-6321
known	-6322
▁Fact	-6323
lder	-6324
▁Credit	-6325
▁Immun	-6326
▁monit	-6327
▁Veter	-6328
▁Multi	-6329
roduce	-6330
▁Priority	-6331
▁oral	-6332
▁metal	-6333
▁PE	-6334
▁adjustments	-6335
▁Substances	-6336
met	-6337
▁Representative	-6338
▁visible	-6339
tible	-6340
▁Treatment	-6341
▁extend	-6342
▁remote	-6343
▁informal	-6344
lin	-6345
▁Major	-6346
gence	-6347
▁broadcast	-6348
utors	-6349
▁explore	-6350
▁operators	-6351
▁considering	-6352
haps	-6353
▁manager	-6354
ubs	-6355
▁foot	-6356
▁Edmonton	-6357
Food	-6358
▁Museum	-6359
Hz	-6360
produc	-6361
▁relig	-6362
▁entreprene	-6363
▁contracting	-6364
▁Contribution	-6365
▁aggreg	-6366
DE	-6367
▁relevance	-6368
imal	-6369
▁insure	-6370
▁novel	-6371
▁crisis	-6372
▁Documents	-6373
▁customer	-6374
food	-6375
ros	-6376
▁Categ	-6377
▁nation	-6378
▁acknowled	-6379
ership	-6380
▁Halifax	-6381
▁Great	-6382
▁Guidance	-6383
▁sl	-6384
▁hot	-6385
▁Computer	-6386
▁locations	-6387
▁processed	-6388
▁contributing	-6389
▁lost	-6390
▁preparing	-6391
▁willing	-6392
▁Memorandum	-6393
▁covers	-6394
▁Ve	-6395
▁ITC	-6396
▁suitable	-6397
ondon	-6398
▁Three	-6399
tters	-6400
ardship	-6401
olk	-6402
▁Priorities	-6403
▁restricted	-6404
lication	-6405
vity	-6406
▁repe	-6407
▁Inv	-6408
▁Directors	-6409
END	-6410
ennium	-6411
▁Provide	-6412
▁Aut	-6413
Un	-6414
▁reductions	-6415
▁station	-6416
pped	-6417
▁vent	-6418
▁occupational	-6419
▁video	-6420
ishers	-6421
▁LD	-6422
▁pip	-6423
▁elsewhere	-6424
lossary	-6425
ita	-6426
vement	-6427
▁easy	-6428
habilit	-6429
▁ethnic	-6430
▁provider	-6431
IHB	-6432
▁mitig	-6433
▁elected	-6434
▁gaps	-6435
iction	-6436
▁generate	-6437
abil	-6438
ensee	-6439
▁recognizes	-6440
sim	-6441
▁exemption	-6442
▁quite	-6443
▁excellence	-6444
▁My	-6445
▁Madrid	-6446
▁motor	-6447
▁RCMP	-6448
▁enterprise	-6449
▁Tri	-6450
▁counsell	-6451
▁humans	-6452
secondary	-6453
▁UND	-6454
▁governing	-6455
▁interpre	-6456
▁dedicated	-6457
estic	-6458
▁safegu	-6459
ira	-6460
▁nom	-6461
▁incentives	-6462
▁questionnaire	-6463
TIONS	-6464
ogenic	-6465
uff	-6466
▁importer	-6467
EPA	-6468
▁div	-6469
▁decreased	-6470
ague	-6471
▁evaluated	-6472
▁favour	-6473
▁infring	-6474
▁formed	-6475
▁finance	-6476
▁reserves	-6477
rical	-6478
▁male	-6479
ATIONAL	-6480
▁Diseases	-6481
▁bill	-6482
▁nurses	-6483
▁Occupational	-6484
▁aquaculture	-6485
▁deficit	-6486
▁instead	-6487
▁achievement	-6488
▁Ori	-6489
▁Allow	-6490
ifts	-6491
ascular	-6492
▁thereby	-6493
▁orient	-6494
OV	-6495
pping	-6496
▁Pot	-6497
TIVE	-6498
tities	-6499
▁owned	-6500
orse	-6501
▁oce	-6502
▁workforce	-6503
▁understood	-6504
▁error	-6505
▁Russian	-6506
▁analyses	-6507
▁immigrants	-6508
▁replacement	-6509
▁gross	-6510
▁Park	-6511
ulph	-6512
▁nursing	-6513
herlands	-6514
▁organis	-6515
pre	-6516
▁il	-6517
▁Saint	-6518
aud	-6519
▁prevalence	-6520
▁Robert	-6521
General	-6522
▁Trust	-6523
▁tub	-6524
▁Future	-6525
ta	-6526
▁drawn	-6527
▁Arctic	-6528
▁veter	-6529
▁Avail	-6530
▁excluded	-6531
▁Gas	-6532
▁pool	-6533
▁protecting	-6534
▁constrain	-6535
ictor	-6536
▁Games	-6537
▁Declaration	-6538
rew	-6539
ething	-6540
ying	-6541
▁Mental	-6542
▁Institutions	-6543
▁freedom	-6544
▁big	-6545
▁engineering	-6546
▁vulnerable	-6547
▁Challen	-6548
quiry	-6549
▁tro	-6550
▁reveal	-6551
▁keeping	-6552
onia	-6553
▁CL	-6554
▁LE	-6555
aratus	-6556
rest	-6557
▁fif	-6558
▁excellent	-6559
▁producing	-6560
▁choices	-6561
▁trading	-6562
▁successfully	-6563
▁latest	-6564
▁qualify	-6565
mis	-6566
▁Rich	-6567
▁teaching	-6568
inations	-6569
▁awarded	-6570
▁seal	-6571
▁scen	-6572
▁fabric	-6573
▁Accountability	-6574
▁bench	-6575
▁gave	-6576
▁coordinated	-6577
efore	-6578
Ter	-6579
▁license	-6580
▁calculate	-6581
▁QC	-6582
▁magaz	-6583
▁tonnes	-6584
▁easily	-6585
▁regulated	-6586
▁sampling	-6587
DR	-6588
avig	-6589
▁constant	-6590
▁Pric	-6591
▁Contributions	-6592
▁immigration	-6593
abin	-6594
▁print	-6595
▁Micha	-6596
▁delegations	-6597
▁outbreak	-6598
▁Parliamentary	-6599
makers	-6600
▁Tim	-6601
▁relates	-6602
▁directive	-6603
timicrobial	-6604
oma	-6605
▁chemicals	-6606
▁investigations	-6607
We	-6608
▁diss	-6609
▁MP	-6610
▁Version	-6611
▁·	-6612
▁references	-6613
▁communicate	-6614
des	-6615
URE	-6616
▁labelling	-6617
▁indicating	-6618
▁Bur	-6619
▁NA	-6620
▁rapidly	-6621
▁Queen	-6622
▁slightly	-6623
▁Circ	-6624
▁Netherlands	-6625
▁Aqu	-6626
▁holding	-6627
▁Accounts	-6628
fe	-6629
ée	-6630
▁Licence	-6631
▁Commerce	-6632
amed	-6633
tile	-6634
▁reim	-6635
▁trademark	-6636
▁Book	-6637
▁Even	-6638
▁socio	-6639
eds	-6640
ewhat	-6641
▁pul	-6642
▁Engineering	-6643
such	-6644
racy	-6645
retion	-6646
▁guarantee	-6647
▁Compensation	-6648
▁nine	-6649
▁flexible	-6650
hyd	-6651
▁Police	-6652
▁Countries	-6653
▁specifications	-6654
▁ready	-6655
▁Within	-6656
▁PC	-6657
▁image	-6658
▁certified	-6659
▁Pet	-6660
▁neigh	-6661
▁lowest	-6662
rac	-6663
note	-6664
▁exch	-6665
risk	-6666
iture	-6667
▁reliable	-6668
▁KGM	-6669
▁Professor	-6670
▁teachers	-6671
▁Those	-6672
GE	-6673
▁intermedi	-6674
BC	-6675
▁uns	-6676
▁historical	-6677
▁symb	-6678
▁Every	-6679
▁celeb	-6680
▁Changes	-6681
▁existence	-6682
IAN	-6683
▁laid	-6684
uck	-6685
▁output	-6686
▁Location	-6687
▁attack	-6688
▁reactions	-6689
▁draf	-6690
bean	-6691
letes	-6692
▁selling	-6693
▁Technologies	-6694
▁Grow	-6695
▁exceptions	-6696
▁spring	-6697
▁efficacy	-6698
▁enhancing	-6699
▁Using	-6700
▁Question	-6701
▁DND	-6702
▁dry	-6703
▁exported	-6704
▁Institution	-6705
▁smokers	-6706
inguistic	-6707
▁hear	-6708
EEC	-6709
criptions	-6710
▁unable	-6711
antive	-6712
▁accred	-6713
▁Paul	-6714
list	-6715
▁leader	-6716
theless	-6717
▁Anti	-6718
▁gap	-6719
▁Infrastructure	-6720
ya	-6721
▁Four	-6722
▁something	-6723
▁Ca	-6724
▁Identif	-6725
▁century	-6726
▁recording	-6727
▁messages	-6728
▁worldwide	-6729
leges	-6730
bal	-6731
▁borrow	-6732
rors	-6733
ouses	-6734
▁encouraging	-6735
▁capabilities	-6736
anish	-6737
▁Ang	-6738
▁lease	-6739
yt	-6740
▁ago	-6741
▁Spain	-6742
▁standing	-6743
ola	-6744
▁Roman	-6745
▁pleased	-6746
▁Age	-6747
▁typically	-6748
▁Distribution	-6749
▁Amount	-6750
▁horiz	-6751
▁Jud	-6752
▁fa	-6753
▁Summit	-6754
ara	-6755
▁Website	-6756
month	-6757
▁band	-6758
▁Del	-6759
▁capable	-6760
▁distance	-6761
▁rats	-6762
▁Fish	-6763
▁Corporations	-6764
oti	-6765
▁hom	-6766
▁biotechnology	-6767
MB	-6768
▁PH	-6769
▁measuring	-6770
As	-6771
▁Italy	-6772
ship	-6773
▁Bro	-6774
▁chosen	-6775
ria	-6776
▁receives	-6777
▁acceptance	-6778
▁deaths	-6779
▁accommodation	-6780
▁shift	-6781
mbass	-6782
▁engine	-6783
nal	-6784
▁Basic	-6785
INE	-6786
▁arm	-6787
▁Nurs	-6788
▁functional	-6789
▁Auditor	-6790
▁concrete	-6791
▁reforms	-6792
▁participant	-6793
▁reaction	-6794
▁Whe	-6795
aboratories	-6796
RU	-6797
rolling	-6798
▁Mart	-6799
▁Despite	-6800
rd	-6801
▁NP	-6802
▁acute	-6803
▁nearly	-6804
▁salmon	-6805
GC	-6806
▁Reform	-6807
▁shel	-6808
▁believed	-6809
▁dup	-6810
▁Gazette	-6811
sequently	-6812
comes	-6813
▁marked	-6814
lick	-6815
▁rout	-6816
▁unemployment	-6817
▁adjusted	-6818
legal	-6819
▁Real	-6820
▁facing	-6821
▁pointed	-6822
▁strain	-6823
▁NAFTA	-6824
itzer	-6825
▁earned	-6826
▁diagnosis	-6827
▁entities	-6828
enty	-6829
▁Authorities	-6830
▁electron	-6831
aval	-6832
▁SERV	-6833
▁tow	-6834
ticals	-6835
net	-6836
▁fine	-6837
enders	-6838
▁impos	-6839
▁describes	-6840
▁Issue	-6841
▁Rest	-6842
▁composition	-6843
▁Ken	-6844
▁beneficiary	-6845
▁Rate	-6846
▁Objectives	-6847
enger	-6848
▁OECD	-6849
▁accum	-6850
andom	-6851
▁EL	-6852
▁nar	-6853
▁pursue	-6854
▁Questions	-6855
▁Find	-6856
▁acceler	-6857
▁greatest	-6858
▁administer	-6859
cons	-6860
▁designation	-6861
▁permits	-6862
▁Integrated	-6863
ective	-6864
▁pregnancy	-6865
aves	-6866
▁Recip	-6867
ador	-6868
▁Proposal	-6869
▁Announ	-6870
▁gather	-6871
▁Target	-6872
▁rac	-6873
cholars	-6874
▁CAD	-6875
▁recre	-6876
ington	-6877
▁missions	-6878
▁uncertainty	-6879
▁bringing	-6880
room	-6881
mal	-6882
uling	-6883
▁London	-6884
effective	-6885
▁Practices	-6886
▁contacts	-6887
▁Ver	-6888
habilitation	-6889
▁synt	-6890
PT	-6891
▁depends	-6892
▁Victor	-6893
▁Ent	-6894
▁Stat	-6895
▁Local	-6896
▁opening	-6897
▁Mount	-6898
holders	-6899
system	-6900
cepts	-6901
location	-6902
lets	-6903
ultures	-6904
▁dates	-6905
▁regardless	-6906
▁intention	-6907
▁indications	-6908
▁multilateral	-6909
erential	-6910
▁Vari	-6911
territorial	-6912
▁Agricultural	-6913
oday	-6914
▁Pass	-6915
TY	-6916
▁cruc	-6917
▁Civil	-6918
▁speed	-6919
▁drop	-6920
▁belong	-6921
pectives	-6922
▁Citizens	-6923
▁detection	-6924
FB	-6925
▁bid	-6926
itzerland	-6927
▁Draft	-6928
▁accompan	-6929
▁donor	-6930
▁Collabor	-6931
turing	-6932
▁Enforcement	-6933
ifies	-6934
▁suggestions	-6935
itim	-6936
lass	-6937
itionally	-6938
▁obtaining	-6939
▁Progress	-6940
vey	-6941
osis	-6942
rator	-6943
▁owners	-6944
▁MC	-6945
ontal	-6946
▁namely	-6947
▁Fl	-6948
ino	-6949
endor	-6950
▁removal	-6951
▁TV	-6952
bourg	-6953
▁Vir	-6954
lecular	-6955
▁reading	-6956
▁rating	-6957
olved	-6958
etal	-6959
orough	-6960
look	-6961
▁UST	-6962
versight	-6963
provincial	-6964
point	-6965
▁conferences	-6966
▁Competition	-6967
▁offence	-6968
▁Glossary	-6969
aneous	-6970
▁equality	-6971
▁preceding	-6972
▁trained	-6973
▁saw	-6974
▁directors	-6975
▁tot	-6976
▁chec	-6977
▁volunteers	-6978
▁asset	-6979
▁SERVIC	-6980
▁hyp	-6981
▁Pra	-6982
▁comparable	-6983
▁zero	-6984
▁newsp	-6985
▁accounted	-6986
▁attempt	-6987
▁Recogn	-6988
comed	-6989
▁Prepared	-6990
▁double	-6991
SD	-6992
▁Hear	-6993
▁themes	-6994
oll	-6995
▁intake	-6996
▁MA	-6997
▁Border	-6998
▁Streng	-6999
iaries	-7000
▁whereas	-7001
▁variables	-7002
▁covering	-7003
▁reasonably	-7004
ania	-7005
▁stronger	-7006
itect	-7007
▁ensures	-7008
no	-7009
▁Format	-7010
▁fewer	-7011
▁courts	-7012
▁serving	-7013
▁voting	-7014
▁sponsors	-7015
▁Sch	-7016
▁ingredients	-7017
▁surround	-7018
▁fle	-7019
rist	-7020
▁canada	-7021
abol	-7022
▁offering	-7023
▁Sweden	-7024
▁Tourism	-7025
utable	-7026
▁divided	-7027
▁Partnerships	-7028
PDF	-7029
▁aer	-7030
▁union	-7031
▁Sales	-7032
▁crucial	-7033
▁mater	-7034
icians	-7035
bis	-7036
▁CE	-7037
▁Rural	-7038
▁clarify	-7039
▁documented	-7040
▁decade	-7041
▁interim	-7042
▁Sing	-7043
▁Details	-7044
▁Employees	-7045
▁distingu	-7046
▁judge	-7047
▁speak	-7048
▁Third	-7049
▁Update	-7050
▁EI	-7051
▁Hand	-7052
▁shipp	-7053
▁Private	-7054
▁Commit	-7055
An	-7056
▁compr	-7057
▁mem	-7058
▁makers	-7059
▁Respond	-7060
▁respecting	-7061
▁Coordination	-7062
ibly	-7063
▁Mid	-7064
casts	-7065
▁Latin	-7066
▁investors	-7067
▁Before	-7068
▁carrier	-7069
▁sea	-7070
▁Renew	-7071
▁McG	-7072
zen	-7073
▁Cod	-7074
adequ	-7075
▁difficulty	-7076
iam	-7077
▁despite	-7078
▁colle	-7079
▁transparent	-7080
▁returned	-7081
▁cr	-7082
▁analyz	-7083
gov	-7084
▁radiation	-7085
▁routine	-7086
atform	-7087
▁ones	-7088
table	-7089
▁consultants	-7090
▁reviewing	-7091
icide	-7092
▁careg	-7093
▁seems	-7094
▁Updated	-7095
leted	-7096
ulative	-7097
▁REP	-7098
▁atmosp	-7099
▁Reserve	-7100
▁parameters	-7101
▁observations	-7102
▁subsequently	-7103
▁gradu	-7104
▁adapted	-7105
iliar	-7106
▁minister	-7107
EST	-7108
▁hop	-7109
▁accuracy	-7110
▁Ministerial	-7111
state	-7112
ranches	-7113
▁director	-7114
▁intent	-7115
OUN	-7116
▁Michael	-7117
▁HP	-7118
▁Similarly	-7119
▁fourth	-7120
borne	-7121
▁Belg	-7122
▁prosec	-7123
UB	-7124
▁deep	-7125
▁environments	-7126
ella	-7127
employed	-7128
ROM	-7129
ère	-7130
▁magn	-7131
▁verification	-7132
▁assemb	-7133
▁licences	-7134
▁cere	-7135
▁contents	-7136
▁mineral	-7137
arding	-7138
▁Certific	-7139
▁Military	-7140
▁emission	-7141
▁(->	-7142
▁miss	-7143
▁cigarettes	-7144
▁Links	-7145
▁Round	-7146
▁infections	-7147
ewardship	-7148
▁Average	-7149
▁proposes	-7150
Ex	-7151
aired	-7152
▁weather	-7153
▁diplom	-7154
▁focuses	-7155
▁apparent	-7156
▁Switzerland	-7157
▁clust	-7158
▁tables	-7159
▁behind	-7160
▁organisations	-7161
▁hope	-7162
▁spirit	-7163
cin	-7164
▁Datab	-7165
▁disorders	-7166
▁orders	-7167
▁presentations	-7168
identiality	-7169
▁Eastern	-7170
▁welcomed	-7171
aceuticals	-7172
▁Devices	-7173
▁assurance	-7174
▁stakeholder	-7175
▁Costs	-7176
▁liabilities	-7177
▁container	-7178
▁Diff	-7179
▁raw	-7180
▁substantive	-7181
ARD	-7182
▁LDCT	-7183
sels	-7184
▁sciences	-7185
servic	-7186
▁Grant	-7187
▁stations	-7188
▁subsidy	-7189
▁engagement	-7190
▁perceived	-7191
irm	-7192
▁explicit	-7193
▁mm	-7194
position	-7195
▁Purpose	-7196
▁papers	-7197
under	-7198
▁phen	-7199
▁solely	-7200
zone	-7201
▁Students	-7202
▁moved	-7203
▁Portug	-7204
FC	-7205
▁dram	-7206
▁remove	-7207
▁−	-7208
▁arise	-7209
tte	-7210
▁Success	-7211
athe	-7212
▁maxim	-7213
orb	-7214
▁enabling	-7215
▁recommends	-7216
▁judicial	-7217
▁skin	-7218
▁ahead	-7219
▁manufactured	-7220
▁Cross	-7221
▁Micro	-7222
income	-7223
▁Wild	-7224
ye	-7225
▁pi	-7226
MD	-7227
▁complement	-7228
osph	-7229
ticulturalism	-7230
▁Capacity	-7231
▁Should	-7232
▁heavy	-7233
▁Volunt	-7234
▁classes	-7235
overed	-7236
▁aspect	-7237
▁Climate	-7238
rich	-7239
▁Procedure	-7240
HC	-7241
PER	-7242
▁evaluations	-7243
alle	-7244
▁transl	-7245
▁Chart	-7246
▁dil	-7247
▁declined	-7248
sk	-7249
▁conjunction	-7250
▁antib	-7251
▁CN	-7252
▁map	-7253
▁supplied	-7254
▁Marketing	-7255
▁nuclear	-7256
▁beneficial	-7257
FF	-7258
▁attended	-7259
▁FR	-7260
isors	-7261
▁aquatic	-7262
aste	-7263
▁transform	-7264
ville	-7265
▁refus	-7266
▁Wind	-7267
▁hour	-7268
▁Right	-7269
pector	-7270
▁extremely	-7271
letter	-7272
ha	-7273
▁suc	-7274
omy	-7275
▁facts	-7276
▁accompanied	-7277
▁ADM	-7278
▁Low	-7279
▁sti	-7280
▁electricity	-7281
group	-7282
▁ment	-7283
▁versus	-7284
▁somewhat	-7285
▁performing	-7286
IE	-7287
▁Gender	-7288
▁fit	-7289
▁Carib	-7290
PR	-7291
▁MD	-7292
ealand	-7293
▁Map	-7294
▁Les	-7295
▁passed	-7296
▁affiliate	-7297
▁domin	-7298
▁match	-7299
▁packaging	-7300
▁crops	-7301
▁protein	-7302
▁someone	-7303
▁cited	-7304
elled	-7305
▁everyone	-7306
▁interaction	-7307
▁seem	-7308
▁chart	-7309
▁moder	-7310
▁friends	-7311
▁External	-7312
▁contrast	-7313
Res	-7314
duct	-7315
▁rot	-7316
idity	-7317
▁penalty	-7318
▁supervision	-7319
culos	-7320
▁divers	-7321
▁Again	-7322
▁Zealand	-7323
▁probably	-7324
▁milk	-7325
ruptcy	-7326
▁designs	-7327
▁jointly	-7328
ips	-7329
▁Expenses	-7330
oration	-7331
▁budgets	-7332
▁machines	-7333
esity	-7334
▁resolve	-7335
▁Certain	-7336
▁fix	-7337
▁Today	-7338
▁Detailed	-7339
▁statutory	-7340
▁registrant	-7341
▁squ	-7342
▁manual	-7343
▁stressed	-7344
▁Legislation	-7345
▁tissue	-7346
▁significance	-7347
▁MS	-7348
FORMATION	-7349
site	-7350
▁Client	-7351
▁assumed	-7352
vals	-7353
▁injuries	-7354
pret	-7355
umes	-7356
▁entering	-7357
fr	-7358
▁Primary	-7359
hr	-7360
▁Who	-7361
HQ	-7362
▁advances	-7363
▁dealt	-7364
▁combat	-7365
▁visitors	-7366
▁consistency	-7367
AFC	-7368
▁Areas	-7369
▁Full	-7370
maries	-7371
▁capability	-7372
chers	-7373
iencies	-7374
▁consulting	-7375
▁legitim	-7376
▁Focus	-7377
▁Elections	-7378
▁publicly	-7379
▁athletes	-7380
col	-7381
undred	-7382
▁sponsor	-7383
▁licensed	-7384
isting	-7385
▁purchased	-7386
▁Does	-7387
shore	-7388
itime	-7389
▁formation	-7390
ham	-7391
▁Proposed	-7392
▁unf	-7393
can	-7394
▁releases	-7395
ecting	-7396
▁attach	-7397
angible	-7398
▁MEP	-7399
assess	-7400
▁refuge	-7401
▁theme	-7402
▁failed	-7403
ils	-7404
ropriate	-7405
OME	-7406
▁Between	-7407
auth	-7408
▁dissemin	-7409
do	-7410
▁publishing	-7411
▁scheme	-7412
▁linguistic	-7413
▁Volume	-7414
▁closed	-7415
▁tit	-7416
▁aging	-7417
▁Ur	-7418
▁HE	-7419
▁Asian	-7420
▁Wash	-7421
▁Partners	-7422
III	-7423
▁Pati	-7424
▁confidential	-7425
ford	-7426
▁SA	-7427
▁contr	-7428
▁Open	-7429
▁Policies	-7430
▁appell	-7431
▁epidemi	-7432
▁popular	-7433
umulative	-7434
▁Arab	-7435
▁Mark	-7436
▁profits	-7437
▁journal	-7438
▁getting	-7439
emy	-7440
itative	-7441
▁meat	-7442
▁eliminate	-7443
▁OL	-7444
▁Exchange	-7445
▁mom	-7446
▁concepts	-7447
▁Procedures	-7448
▁IMP	-7449
▁insu	-7450
VI	-7451
▁executive	-7452
▁Events	-7453
▁directions	-7454
uneration	-7455
tax	-7456
▁catal	-7457
las	-7458
unch	-7459
estival	-7460
▁fast	-7461
▁nations	-7462
▁pour	-7463
▁Consequently	-7464
▁Haz	-7465
▁Manual	-7466
▁democratic	-7467
▁INFORMATION	-7468
iled	-7469
▁Financing	-7470
▁audits	-7471
▁polling	-7472
oints	-7473
▁Examples	-7474
▁mining	-7475
▁believes	-7476
EU	-7477
building	-7478
▁ending	-7479
▁transmitted	-7480
HG	-7481
▁Percent	-7482
▁compris	-7483
ruption	-7484
▁sil	-7485
▁SEC	-7486
▁integrate	-7487
▁Terms	-7488
▁acquire	-7489
▁letters	-7490
▁Bio	-7491
▁Start	-7492
▁ministers	-7493
stract	-7494
▁gr	-7495
▁distinct	-7496
▁consulted	-7497
▁linkages	-7498
▁council	-7499
▁really	-7500
rup	-7501
▁incident	-7502
▁ice	-7503
▁commonly	-7504
▁fruit	-7505
▁protocol	-7506
▁Peter	-7507
▁Consultations	-7508
▁kil	-7509
▁Avenue	-7510
▁Gra	-7511
▁Never	-7512
▁reject	-7513
▁introduce	-7514
tims	-7515
agne	-7516
▁determinants	-7517
▁liberal	-7518
▁banking	-7519
▁diagnostic	-7520
▁satellite	-7521
IAL	-7522
Comm	-7523
ortive	-7524
▁identifies	-7525
ierre	-7526
sm	-7527
▁museum	-7528
▁lik	-7529
▁cultures	-7530
▁apparatus	-7531
which	-7532
▁Card	-7533
▁royal	-7534
▁purchases	-7535
▁RO	-7536
▁formats	-7537
▁rare	-7538
▁lessons	-7539
board	-7540
entification	-7541
▁MAN	-7542
▁IB	-7543
▁■	-7544
▁Forest	-7545
▁Victoria	-7546
▁His	-7547
FER	-7548
otyp	-7549
▁deductions	-7550
▁Job	-7551
▁excise	-7552
▁Registered	-7553
▁IS	-7554
▁Frequ	-7555
▁REC	-7556
grams	-7557
▁Corre	-7558
▁audience	-7559
▁treaties	-7560
▁mL	-7561
▁falls	-7562
▁interactions	-7563
▁analytical	-7564
▁Duration	-7565
▁Excellence	-7566
▁contributes	-7567
def	-7568
oured	-7569
▁Concer	-7570
▁VI	-7571
ensing	-7572
PH	-7573
▁Exhibit	-7574
▁Alternative	-7575
▁Supply	-7576
▁mobile	-7577
ANCE	-7578
▁tell	-7579
▁cust	-7580
▁obvious	-7581
▁geographic	-7582
▁constitu	-7583
▁Conservation	-7584
▁forth	-7585
▁brain	-7586
ander	-7587
IPS	-7588
▁District	-7589
arms	-7590
▁ast	-7591
▁listing	-7592
agues	-7593
▁Mill	-7594
rig	-7595
▁Lar	-7596
▁balanced	-7597
▁rig	-7598
▁Dig	-7599
▁operator	-7600
▁entrepreneurs	-7601
▁au	-7602
tistic	-7603
▁errors	-7604
lam	-7605
▁minor	-7606
▁advised	-7607
ait	-7608
uct	-7609
▁cancell	-7610
▁Headquarters	-7611
▁Less	-7612
▁Releases	-7613
▁pertaining	-7614
▁Understanding	-7615
▁Fees	-7616
▁Category	-7617
endly	-7618
▁Preliminary	-7619
atter	-7620
▁Ra	-7621
▁exec	-7622
▁Increased	-7623
▁stop	-7624
▁marketplace	-7625
odium	-7626
▁counselling	-7627
▁machinery	-7628
▁Workplace	-7629
▁dro	-7630
▁winter	-7631
▁farming	-7632
▁variable	-7633
ERAL	-7634
▁alter	-7635
▁Self	-7636
▁exporter	-7637
▁mig	-7638
▁easier	-7639
▁motiv	-7640
▁Russia	-7641
atur	-7642
▁hundred	-7643
▁therapeutic	-7644
▁uniform	-7645
▁object	-7646
▁delivering	-7647
▁Currently	-7648
▁alternatives	-7649
▁disciplines	-7650
ds	-7651
ghan	-7652
▁north	-7653
▁printed	-7654
▁ASS	-7655
▁roll	-7656
▁perhaps	-7657
factory	-7658
Other	-7659
▁operated	-7660
▁Identification	-7661
▁Criminal	-7662
ELL	-7663
xx	-7664
▁mac	-7665
▁minimize	-7666
irls	-7667
▁alternate	-7668
othe	-7669
▁Available	-7670
enic	-7671
▁notified	-7672
▁functioning	-7673
▁Broadcasting	-7674
reland	-7675
▁Obs	-7676
cher	-7677
afe	-7678
hesis	-7679
▁organisms	-7680
▁played	-7681
▁Lakes	-7682
rier	-7683
▁Black	-7684
BER	-7685
▁ANN	-7686
▁Committees	-7687
▁FIN	-7688
▁indicator	-7689
▁municipalities	-7690
▁utilization	-7691
RL	-7692
▁evaluating	-7693
▁AS	-7694
▁proof	-7695
enary	-7696
▁**	-7697
▁affairs	-7698
▁ep	-7699
▁ster	-7700
▁Fiscal	-7701
amer	-7702
from	-7703
ventive	-7704
UT	-7705
▁boards	-7706
▁insufficient	-7707
itarian	-7708
▁NGOs	-7709
▁Cur	-7710
▁adding	-7711
▁trustee	-7712
▁outreach	-7713
▁incorporate	-7714
isons	-7715
scale	-7716
▁strengthened	-7717
▁Sol	-7718
▁greenhouse	-7719
ivest	-7720
▁arbit	-7721
▁faced	-7722
onds	-7723
▁toler	-7724
▁random	-7725
▁systematic	-7726
alk	-7727
airy	-7728
amber	-7729
▁heat	-7730
abinet	-7731
▁email	-7732
ders	-7733
▁granting	-7734
ireless	-7735
itivity	-7736
▁Chairman	-7737
▁deduct	-7738
▁Ow	-7739
UD	-7740
patitis	-7741
▁TBS	-7742
▁prescription	-7743
▁skilled	-7744
▁ban	-7745
ormal	-7746
▁inadequ	-7747
itis	-7748
▁egg	-7749
▁Session	-7750
aby	-7751
aining	-7752
▁adequately	-7753
ICS	-7754
▁Place	-7755
▁worker	-7756
▁reality	-7757
▁creative	-7758
▁secret	-7759
border	-7760
▁retention	-7761
▁qualifying	-7762
gu	-7763
ercury	-7764
KF	-7765
▁Caribbean	-7766
▁Coordinator	-7767
▁Film	-7768
▁Submission	-7769
▁Eff	-7770
▁Industries	-7771
trans	-7772
▁familiar	-7773
▁Art	-7774
▁adoles	-7775
▁SE	-7776
▁went	-7777
▁SS	-7778
orti	-7779
oe	-7780
▁LA	-7781
▁CPP	-7782
urable	-7783
▁Effects	-7784
▁elections	-7785
iner	-7786
▁welfare	-7787
mist	-7788
plant	-7789
▁Appeal	-7790
▁discretion	-7791
▁meth	-7792
roy	-7793
obile	-7794
▁File	-7795
▁curric	-7796
▁Histor	-7797
http	-7798
▁Mé	-7799
▁Neg	-7800
▁agri	-7801
▁Funds	-7802
PI	-7803
▁coll	-7804
ivestock	-7805
TML	-7806
andemic	-7807
▁Officers	-7808
▁Fort	-7809
▁hepatitis	-7810
▁COMP	-7811
▁infected	-7812
rust	-7813
▁threats	-7814
▁proceeds	-7815
▁Well	-7816
▁plas	-7817
▁Ireland	-7818
▁millions	-7819
MI	-7820
▁branch	-7821
▁fax	-7822
▁integral	-7823
zy	-7824
public	-7825
▁instances	-7826
▁illegal	-7827
▁Practice	-7828
▁respiratory	-7829
itizen	-7830
▁volunteer	-7831
▁preventing	-7832
try	-7833
▁colleagues	-7834
▁attributable	-7835
▁connected	-7836
▁graph	-7837
cribe	-7838
IES	-7839
▁equitable	-7840
▁merg	-7841
eeping	-7842
▁Payment	-7843
▁dynamic	-7844
itch	-7845
▁antimicrobial	-7846
▁visual	-7847
▁stores	-7848
yle	-7849
▁ACT	-7850
simile	-7851
▁cul	-7852
urch	-7853
▁accomplish	-7854
Ad	-7855
▁Enterpr	-7856
▁Harbour	-7857
OW	-7858
▁attitudes	-7859
▁Arrange	-7860
▁Resear	-7861
▁NAT	-7862
▁signature	-7863
▁figure	-7864
▁biom	-7865
▁accountable	-7866
ritis	-7867
▁heard	-7868
▁completely	-7869
▁equally	-7870
▁Rail	-7871
▁Speaker	-7872
ontin	-7873
▁originating	-7874
apore	-7875
▁Interpret	-7876
▁quantitative	-7877
▁Uk	-7878
▁Young	-7879
▁Dri	-7880
▁infectious	-7881
xy	-7882
▁reflecting	-7883
▁fertil	-7884
▁Resolution	-7885
▁emphasized	-7886
tainment	-7887
▁Indigenous	-7888
▁doses	-7889
▁premiums	-7890
▁outlines	-7891
▁Pos	-7892
▁exemp	-7893
▁behaviours	-7894
anol	-7895
▁advantages	-7896
artmental	-7897
teen	-7898
▁showing	-7899
▁Database	-7900
▁Parks	-7901
▁unp	-7902
▁highlighted	-7903
ston	-7904
funded	-7905
▁Mess	-7906
▁CFIA	-7907
▁charities	-7908
▁completing	-7909
▁households	-7910
▁containers	-7911
▁Université	-7912
▁correction	-7913
▁Criteria	-7914
▁sun	-7915
▁obst	-7916
▁Adjust	-7917
ding	-7918
▁White	-7919
▁repay	-7920
▁headquarters	-7921
▁topic	-7922
▁advise	-7923
▁charitable	-7924
▁brand	-7925
▁Employee	-7926
date	-7927
▁repair	-7928
▁thousands	-7929
▁radi	-7930
▁Prior	-7931
▁pharmaceutical	-7932
▁Citizenship	-7933
rators	-7934
▁COR	-7935
▁CONS	-7936
▁complementary	-7937
▁cooperative	-7938
He	-7939
▁sedi	-7940
TAL	-7941
bility	-7942
inter	-7943
▁projected	-7944
▁Sus	-7945
▁Generally	-7946
arity	-7947
▁Comb	-7948
▁screen	-7949
▁separately	-7950
▁homes	-7951
▁moment	-7952
▁Operational	-7953
ama	-7954
▁sulph	-7955
uls	-7956
▁Swiss	-7957
irable	-7958
▁Clear	-7959
▁Departments	-7960
▁Notification	-7961
___	-7962
▁opened	-7963
▁PER	-7964
▁Cell	-7965
▁wast	-7966
▁CIAT	-7967
▁picture	-7968
DD	-7969
GRT	-7970
▁kg	-7971
▁contaminated	-7972
▁newly	-7973
▁Groups	-7974
▁pref	-7975
▁DNA	-7976
▁stead	-7977
▁consistently	-7978
▁perspectives	-7979
▁wishes	-7980
▁Français	-7981
TIES	-7982
▁Wood	-7983
orient	-7984
ég	-7985
▁Olymp	-7986
▁holds	-7987
▁Growth	-7988
marks	-7989
▁Soft	-7990
advant	-7991
▁players	-7992
▁cas	-7993
▁binding	-7994
▁ultimately	-7995
****	-7996
IZ	-7997
sufficient	-7998
▁sports	-7999
▁Lis	-8000
▁USA	-8001
pections	-8002
amine	-8003
▁discharge	-8004
▁facilitating	-8005
.).	-8006
▁Tradem	-8007
iaison	-8008
isual	-8009
▁OT	-8010
roleum	-8011
▁neither	-8012
▁Accordingly	-8013
▁Afghan	-8014
This	-8015
▁witness	-8016
uber	-8017
▁lung	-8018
▁south	-8019
▁Washington	-8020
▁unlike	-8021
▁MEPs	-8022
▁belief	-8023
▁settings	-8024
▁!	-8025
rais	-8026
BS	-8027
iant	-8028
GRTKF	-8029
▁opinions	-8030
▁Materials	-8031
▁Item	-8032
▁Persons	-8033
▁Stock	-8034
▁leads	-8035
▁exclusively	-8036
▁Turkey	-8037
▁confidentiality	-8038
▁GAT	-8039
▁Role	-8040
▁Chile	-8041
iovascular	-8042
▁tail	-8043
rus	-8044
▁Legislative	-8045
▁Spect	-8046
▁remuneration	-8047
ificant	-8048
EAS	-8049
▁CONT	-8050
▁Why	-8051
▁complexity	-8052
olklore	-8053
▁establishments	-8054
▁offset	-8055
▁donors	-8056
▁pestic	-8057
▁supplementary	-8058
▁conventional	-8059
ulum	-8060
amil	-8061
▁HST	-8062
iable	-8063
ENCE	-8064
anda	-8065
▁viewed	-8066
ponent	-8067
▁examining	-8068
word	-8069
▁prefer	-8070
▁prison	-8071
▁Toxic	-8072
▁specify	-8073
▁portfolio	-8074
▁floor	-8075
cs	-8076
porter	-8077
vailing	-8078
▁counsel	-8079
▁pressures	-8080
▁ware	-8081
cel	-8082
▁penalties	-8083
▁GEN	-8084
▁supportive	-8085
▁parliamentary	-8086
uters	-8087
armon	-8088
▁shape	-8089
▁remin	-8090
▁kinds	-8091
▁sustained	-8092
olute	-8093
▁Retail	-8094
▁intern	-8095
▁Peoples	-8096
sized	-8097
gr	-8098
large	-8099
▁achievements	-8100
▁staffing	-8101
UE	-8102
▁focusing	-8103
▁electors	-8104
▁Example	-8105
▁compati	-8106
LD	-8107
▁Vehic	-8108
▁meaningful	-8109
la	-8110
▁comprom	-8111
▁expanding	-8112
ROU	-8113
omas	-8114
▁Argent	-8115
▁evolution	-8116
▁Instruc	-8117
▁Singapore	-8118
▁Concerning	-8119
▁Salmon	-8120
atre	-8121
▁CIDA	-8122
RM	-8123
▁SY	-8124
▁serves	-8125
▁Up	-8126
▁Personnel	-8127
▁surrounding	-8128
rec	-8129
▁adj	-8130
gments	-8131
▁Eurosystem	-8132
▁stem	-8133
▁store	-8134
ORK	-8135
▁rental	-8136
▁receipts	-8137
▁precise	-8138
▁furniture	-8139
▁highlight	-8140
▁contamination	-8141
▁deadline	-8142
▁gift	-8143
▁retained	-8144
oultry	-8145
uses	-8146
▁counterpar	-8147
▁elev	-8148
▁UNDP	-8149
▁diet	-8150
HO	-8151
▁Point	-8152
ician	-8153
▁recru	-8154
gage	-8155
▁wheat	-8156
▁motion	-8157
▁colour	-8158
▁prosper	-8159
▁Prem	-8160
ibraries	-8161
▁deposits	-8162
▁Calc	-8163
DUC	-8164
▁females	-8165
▁boundaries	-8166
Con	-8167
irty	-8168
▁rely	-8169
▁ca	-8170
▁Space	-8171
tier	-8172
▁PCH	-8173
▁chair	-8174
▁victims	-8175
▁elder	-8176
CES	-8177
▁males	-8178
▁EUROPA	-8179
▁Power	-8180
▁coordinate	-8181
▁strengths	-8182
▁GR	-8183
iversary	-8184
▁Sources	-8185
▁Week	-8186
▁Governments	-8187
▁nur	-8188
▁Mrs	-8189
▁Trend	-8190
▁productive	-8191
▁accompany	-8192
mpos	-8193
▁preferred	-8194
apping	-8195
thritis	-8196
AV	-8197
▁Feed	-8198
▁Developing	-8199
rome	-8200
▁Brus	-8201
▁Month	-8202
▁western	-8203
bursement	-8204
▁FI	-8205
ocols	-8206
▁Participation	-8207
TR	-8208
▁Complete	-8209
▁qualifications	-8210
▁fill	-8211
▁Without	-8212
▁spend	-8213
TAWA	-8214
entical	-8215
▁channels	-8216
▁EDC	-8217
▁Alliance	-8218
▁minorities	-8219
▁Isra	-8220
▁Register	-8221
▁Dan	-8222
▁Online	-8223
▁experimental	-8224
appro	-8225
▁Pan	-8226
▁passenger	-8227
▁substit	-8228
Table	-8229
▁tru	-8230
▁Evidence	-8231
▁Floor	-8232
▁IMF	-8233
▁constraints	-8234
▁Scre	-8235
▁Past	-8236
▁reproduction	-8237
▁survival	-8238
opath	-8239
▁»	-8240
▁Gall	-8241
iodiversity	-8242
case	-8243
▁ingredient	-8244
▁disputes	-8245
▁Spanish	-8246
▁independence	-8247
▁Ky	-8248
▁laboratories	-8249
▁dé	-8250
▁CCCT	-8251
▁carriers	-8252
▁Supplementary	-8253
▁monitored	-8254
▁Eligible	-8255
▁Mil	-8256
▁Living	-8257
▁religious	-8258
▁Av	-8259
▁Gl	-8260
▁wage	-8261
▁coh	-8262
▁carcin	-8263
▁Rob	-8264
letion	-8265
▁importation	-8266
band	-8267
▁flows	-8268
elihood	-8269
▁Inform	-8270
▁Consider	-8271
▁white	-8272
raf	-8273
OT	-8274
▁privi	-8275
▁Complain	-8276
▁Expenditures	-8277
▁Have	-8278
▁MAR	-8279
▁overse	-8280
▁Pal	-8281
▁decades	-8282
▁won	-8283
▁Governance	-8284
▁verify	-8285
▁Profile	-8286
▁prop	-8287
▁mobility	-8288
ulates	-8289
▁owing	-8290
▁Info	-8291
▁composed	-8292
▁CAP	-8293
ows	-8294
ourse	-8295
▁vit	-8296
▁Indeed	-8297
WIPO	-8298
▁stip	-8299
▁Max	-8300
▁aggregate	-8301
sub	-8302
jections	-8303
▁precedence	-8304
emia	-8305
berg	-8306
▁Superv	-8307
▁Genetic	-8308
COM	-8309
▁phone	-8310
▁prohibited	-8311
▁Gulf	-8312
▁ships	-8313
▁Physical	-8314
ABLE	-8315
▁readily	-8316
▁occurring	-8317
▁liver	-8318
▁renewed	-8319
▁endors	-8320
▁disadvant	-8321
field	-8322
▁vast	-8323
iovisual	-8324
departmental	-8325
▁wages	-8326
▁speaking	-8327
▁Principal	-8328
▁appreciation	-8329
▁argued	-8330
▁withdrawal	-8331
▁San	-8332
▁Fellow	-8333
▁weekly	-8334
raine	-8335
▁opposed	-8336
▁platform	-8337
GRA	-8338
THER	-8339
▁Methods	-8340
▁Brussels	-8341
▁graduates	-8342
▁researcher	-8343
▁entitlement	-8344
▁meant	-8345
▁Denmark	-8346
▁accessing	-8347
▁reproductive	-8348
▁navig	-8349
▁enact	-8350
▁closer	-8351
▁Indicators	-8352
Al	-8353
iences	-8354
▁Prepar	-8355
auses	-8356
▁Check	-8357
FP	-8358
▁modifications	-8359
LY	-8360
▁occasion	-8361
▁medicinal	-8362
▁consisting	-8363
▁incomp	-8364
▁revealed	-8365
▁TCE	-8366
▁reaching	-8367
ij	-8368
▁MED	-8369
▁Martin	-8370
▁mother	-8371
▁TOTAL	-8372
▁EA	-8373
▁girls	-8374
▁subsidies	-8375
omic	-8376
▁Now	-8377
PM	-8378
▁greatly	-8379
▁premises	-8380
roke	-8381
allel	-8382
ediatric	-8383
CBs	-8384
▁scal	-8385
▁termination	-8386
▁OTTAWA	-8387
arn	-8388
▁investigate	-8389
▁View	-8390
▁vs	-8391
▁underway	-8392
▁possession	-8393
▁Construction	-8394
▁tum	-8395
HRC	-8396
▁Habitat	-8397
pring	-8398
▁strict	-8399
oxide	-8400
▁bulk	-8401
▁pollut	-8402
mistry	-8403
▁travellers	-8404
▁exact	-8405
▁McGill	-8406
▁studied	-8407
▁CANADIAN	-8408
▁Mand	-8409
▁corn	-8410
▁Lou	-8411
▁marginal	-8412
utation	-8413
▁signal	-8414
iances	-8415
gun	-8416
antities	-8417
▁History	-8418
edia	-8419
▁WO	-8420
▁MHz	-8421
hand	-8422
▁Finland	-8423
▁acknowledge	-8424
▁ou	-8425
uity	-8426
▁LTD	-8427
▁mice	-8428
▁bottom	-8429
pread	-8430
▁preparations	-8431
▁Mond	-8432
▁Letter	-8433
▁baseline	-8434
▁promotes	-8435
▁Aging	-8436
ras	-8437
▁Supreme	-8438
▁Music	-8439
▁stored	-8440
anged	-8441
▁journ	-8442
▁stabil	-8443
▁alumin	-8444
▁Monetary	-8445
▁RPP	-8446
erving	-8447
idespread	-8448
éd	-8449
▁Equity	-8450
▁amending	-8451
▁Political	-8452
▁narrow	-8453
Article	-8454
NS	-8455
uing	-8456
illage	-8457
fficiency	-8458
▁recover	-8459
▁Actual	-8460
▁injection	-8461
▁ISO	-8462
irie	-8463
▁AAFC	-8464
▁detected	-8465
▁Due	-8466
▁plays	-8467
▁desired	-8468
ike	-8469
oices	-8470
▁importers	-8471
▁cm	-8472
▁operates	-8473
▁pregnant	-8474
▁fran	-8475
▁metabol	-8476
▁vaccines	-8477
UAL	-8478
▁Modern	-8479
VEL	-8480
▁Constitution	-8481
▁wealth	-8482
▁alleged	-8483
▁encourages	-8484
▁Offer	-8485
▁Geor	-8486
aur	-8487
entist	-8488
▁nomin	-8489
▁joined	-8490
▁licensee	-8491
oked	-8492
▁grown	-8493
▁paying	-8494
▁assume	-8495
▁obstac	-8496
ULT	-8497
▁intelligence	-8498
ÁÁ	-8499
▁oversight	-8500
▁identical	-8501
▁Interpretation	-8502
▁seminars	-8503
▁exploitation	-8504
▁skill	-8505
▁exchanges	-8506
▁Manufacture	-8507
App	-8508
▁answers	-8509
▁Objective	-8510
▁essentially	-8511
▁É	-8512
EE	-8513
eric	-8514
Europe	-8515
lining	-8516
▁REL	-8517
▁excessive	-8518
▁migration	-8519
▁Tun	-8520
▁estate	-8521
▁deputy	-8522
▁km	-8523
▁denied	-8524
▁hyper	-8525
▁rationale	-8526
▁signing	-8527
▁Responsible	-8528
ading	-8529
▁Hung	-8530
loph	-8531
▁responding	-8532
ested	-8533
ATED	-8534
▁cooper	-8535
▁certificates	-8536
▁compens	-8537
▁welcome	-8538
GA	-8539
▁Oil	-8540
afood	-8541
▁Nevertheless	-8542
▁pet	-8543
aut	-8544
oche	-8545
▁edition	-8546
▁TRA	-8547
▁carefully	-8548
▁liable	-8549
▁deliber	-8550
▁computing	-8551
TP	-8552
ENDI	-8553
▁sheets	-8554
▁agrees	-8555
▁incons	-8556
▁References	-8557
europ	-8558
▁thorough	-8559
▁horizontal	-8560
CIS	-8561
▁Consum	-8562
iger	-8563
▁commodity	-8564
▁Certificate	-8565
▁William	-8566
▁missing	-8567
▁contem	-8568
▁Recipient	-8569
▁investigators	-8570
▁Master	-8571
▁Norway	-8572
oline	-8573
▁cards	-8574
▁James	-8575
▁Compar	-8576
▁Ach	-8577
▁Sud	-8578
▁comparative	-8579
▁neighbour	-8580
raction	-8581
through	-8582
non	-8583
acher	-8584
▁tracking	-8585
▁Processing	-8586
▁absolute	-8587
▁instruction	-8588
rozen	-8589
itrogen	-8590
▁Cro	-8591
▁workload	-8592
▁Autom	-8593
▁treatments	-8594
holder	-8595
▁attributed	-8596
FN	-8597
▁specialists	-8598
tial	-8599
▁sequence	-8600
ENDIX	-8601
dumping	-8602
bro	-8603
uction	-8604
▁mount	-8605
▁Compan	-8606
▁likelihood	-8607
▁politi	-8608
▁ecological	-8609
▁electronically	-8610
▁automatically	-8611
withstanding	-8612
onald	-8613
▁bonds	-8614
▁initially	-8615
▁quantities	-8616
▁Japanese	-8617
▁orientation	-8618
▁votes	-8619
idation	-8620
pporteur	-8621
▁disclosed	-8622
▁Fire	-8623
▁inadequate	-8624
▁objects	-8625
▁Steering	-8626
▁pace	-8627
arians	-8628
▁Insufficient	-8629
New	-8630
▁accordingly	-8631
umptions	-8632
▁medication	-8633
ANS	-8634
▁Facts	-8635
▁destroy	-8636
lank	-8637
▁download	-8638
▁quarterly	-8639
▁reinfor	-8640
▁library	-8641
▁scholars	-8642
akings	-8643
▁Hold	-8644
▁quota	-8645
▁Belgium	-8646
▁Contacts	-8647
▁explanation	-8648
▁inclusive	-8649
▁conversion	-8650
▁Municipal	-8651
▁INTERN	-8652
▁acknowledged	-8653
▁exclusion	-8654
▁san	-8655
▁Student	-8656
▁fairly	-8657
▁hazards	-8658
▁mere	-8659
▁Registry	-8660
▁opposition	-8661
ogens	-8662
▁democracy	-8663
ache	-8664
hetic	-8665
▁constitutes	-8666
▁Findings	-8667
▁breed	-8668
▁seeks	-8669
orous	-8670
▁bacteria	-8671
▁named	-8672
plate	-8673
▁exceeds	-8674
▁succeed	-8675
▁Christ	-8676
cultural	-8677
▁raising	-8678
RAP	-8679
▁Democ	-8680
▁Economy	-8681
▁twice	-8682
▁Strategies	-8683
▁repeated	-8684
▁command	-8685
▁wait	-8686
▁Du	-8687
▁SUM	-8688
▁Digital	-8689
▁Romania	-8690
▁Smoking	-8691
roph	-8692
▁societies	-8693
▁Short	-8694
▁films	-8695
▁defining	-8696
▁controlling	-8697
▁Adop	-8698
▁OFFIC	-8699
▁Stakehold	-8700
arbon	-8701
▁Early	-8702
▁inside	-8703
▁harmful	-8704
rey	-8705
▁story	-8706
▁consequence	-8707
sor	-8708
rance	-8709
Health	-8710
▁Instructions	-8711
▁neuro	-8712
▁images	-8713
▁hunt	-8714
▁Blood	-8715
▁considerably	-8716
orized	-8717
▁twenty	-8718
▁predict	-8719
▁DG	-8720
▁Log	-8721
▁slip	-8722
▁differ	-8723
▁Cabinet	-8724
▁hands	-8725
▁brings	-8726
RB	-8727
▁harmonization	-8728
▁CW	-8729
▁Opin	-8730
▁deducted	-8731
▁isolated	-8732
▁BE	-8733
etit	-8734
▁Domestic	-8735
▁Depos	-8736
▁middle	-8737
▁wid	-8738
▁machine	-8739
▁Ber	-8740
▁Smith	-8741
▁networking	-8742
▁quit	-8743
Net	-8744
lit	-8745
▁packages	-8746
▁Researchers	-8747
▁consecutive	-8748
gi	-8749
▁ign	-8750
▁Deleg	-8751
▁trying	-8752
▁immunization	-8753
IGH	-8754
▁Guard	-8755
▁Ensure	-8756
▁venture	-8757
▁unan	-8758
report	-8759
▁rising	-8760
▁variation	-8761
▁PhD	-8762
▁Direc	-8763
▁installation	-8764
licated	-8765
▁Collection	-8766
▁Plant	-8767
▁Census	-8768
President	-8769
▁deposited	-8770
▁accessibility	-8771
ompass	-8772
▁hazardous	-8773
▁Spectrum	-8774
agnetic	-8775
▁zone	-8776
▁voice	-8777
▁eating	-8778
▁affects	-8779
▁Increase	-8780
▁thank	-8781
oriented	-8782
▁ranging	-8783
▁recall	-8784
ken	-8785
▁formulation	-8786
▁Dou	-8787
▁obesity	-8788
▁DES	-8789
▁Records	-8790
onie	-8791
▁recreational	-8792
▁ACC	-8793
▁SUB	-8794
▁chance	-8795
▁doctor	-8796
▁wider	-8797
▁requesting	-8798
aire	-8799
iology	-8800
sector	-8801
▁compos	-8802
▁southern	-8803
held	-8804
heric	-8805
▁subclass	-8806
▁MB	-8807
▁encompass	-8808
▁BY	-8809
▁solic	-8810
inafter	-8811
▁Species	-8812
▁Translation	-8813
stein	-8814
▁announcement	-8815
▁contractor	-8816
▁publishers	-8817
▁recyc	-8818
▁rehabilitation	-8819
No	-8820
▁CFI	-8821
▁warning	-8822
▁(%)	-8823
mers	-8824
▁bad	-8825
▁catch	-8826
▁Decisions	-8827
▁subsections	-8828
CL	-8829
▁Influ	-8830
____________	-8831
▁FN	-8832
▁deals	-8833
otive	-8834
▁Renewal	-8835
ried	-8836
▁PART	-8837
▁Lawrence	-8838
▁issuance	-8839
▁route	-8840
▁contrary	-8841
MARY	-8842
ographs	-8843
▁Structure	-8844
▁Achie	-8845
athered	-8846
Re	-8847
▁graduate	-8848
▁notably	-8849
▁Fuel	-8850
▁SERVICES	-8851
▁Temporary	-8852
▁metals	-8853
▁compete	-8854
▁informants	-8855
▁Invent	-8856
avail	-8857
▁rend	-8858
▁conflicts	-8859
▁suspected	-8860
▁driven	-8861
EF	-8862
▁possibly	-8863
▁declared	-8864
rin	-8865
gery	-8866
▁drive	-8867
▁destination	-8868
▁weakness	-8869
▁Publication	-8870
▁Individuals	-8871
ISION	-8872
▁demographic	-8873
▁Housing	-8874
▁fraud	-8875
▁frequent	-8876
umped	-8877
▁SCH	-8878
quality	-8879
andon	-8880
▁establishes	-8881
▁organisation	-8882
▁Clo	-8883
▁farms	-8884
▁Best	-8885
▁widespread	-8886
▁interesting	-8887
▁sugar	-8888
.),	-8889
▁Permanent	-8890
ructuring	-8891
unicipality	-8892
cap	-8893
▁Kong	-8894
▁Army	-8895
▁respondent	-8896
▁Afghanistan	-8897
▁induc	-8898
▁wanted	-8899
etermin	-8900
▁Richard	-8901
▁maintains	-8902
uous	-8903
▁Grand	-8904
organiz	-8905
▁commerce	-8906
dehyd	-8907
▁stra	-8908
ceptable	-8909
iesel	-8910
▁fleet	-8911
▁borders	-8912
▁originally	-8913
ANG	-8914
▁enables	-8915
▁Price	-8916
uations	-8917
▁aboriginal	-8918
▁regarded	-8919
BR	-8920
▁governed	-8921
▁lands	-8922
▁appeared	-8923
▁wildlife	-8924
▁Pack	-8925
▁driving	-8926
top	-8927
▁peak	-8928
▁Trends	-8929
▁Pharmac	-8930
▁meter	-8931
▁characterized	-8932
▁MUST	-8933
▁inequ	-8934
▁begins	-8935
▁Subst	-8936
▁Explore	-8937
▁refusal	-8938
▁Festival	-8939
▁Infectious	-8940
▁evident	-8941
she	-8942
▁Tools	-8943
▁mercury	-8944
▁Mari	-8945
▁Sites	-8946
▁coastal	-8947
▁bear	-8948
▁schemes	-8949
▁SIM	-8950
▁grade	-8951
▁thinking	-8952
▁inspections	-8953
national	-8954
▁responded	-8955
aught	-8956
▁accommodate	-8957
▁allowances	-8958
sci	-8959
▁telec	-8960
Is	-8961
▁veterinary	-8962
ustion	-8963
▁disag	-8964
▁regim	-8965
▁Eg	-8966
▁holid	-8967
▁SO	-8968
▁beneficiaries	-8969
tre	-8970
▁lifesty	-8971
▁Diversity	-8972
ags	-8973
▁modification	-8974
heading	-8975
▁Dest	-8976
▁TRIPS	-8977
▁Recent	-8978
▁benchmark	-8979
▁desire	-8980
▁Hong	-8981
▁Approach	-8982
CS	-8983
▁¶	-8984
▁EXP	-8985
▁rich	-8986
▁CAR	-8987
film	-8988
▁Bulg	-8989
▁ozone	-8990
▁frameworks	-8991
exc	-8992
▁CG	-8993
▁lending	-8994
▁indirectly	-8995
ga	-8996
▁Reduction	-8997
▁Topic	-8998
▁valued	-8999
▁utility	-9000
▁NIHB	-9001
▁entirely	-9002
▁retailers	-9003
herent	-9004
▁comprised	-9005
▁surpr	-9006
print	-9007
▁mill	-9008
▁multip	-9009
▁Advisor	-9010
GH	-9011
▁Acts	-9012
▁expiry	-9013
▁parallel	-9014
▁voc	-9015
organisms	-9016
▁Tables	-9017
▁Principles	-9018
▁Argentina	-9019
▁Pen	-9020
▁youn	-9021
posure	-9022
▁Down	-9023
▁black	-9024
▁sufficiently	-9025
tian	-9026
▁CEPA	-9027
▁Potential	-9028
▁electrical	-9029
▁Bu	-9030
alse	-9031
▁Disp	-9032
▁SH	-9033
▁kit	-9034
▁wine	-9035
▁Definition	-9036
▁coal	-9037
▁timing	-9038
lict	-9039
▁Rock	-9040
rison	-9041
▁APPENDIX	-9042
▁incentive	-9043
inees	-9044
▁mobil	-9045
▁FAS	-9046
▁Hazard	-9047
▁Supporting	-9048
ERN	-9049
▁Election	-9050
▁Aquaculture	-9051
access	-9052
▁Liter	-9053
develop	-9054
▁excluding	-9055
▁Sun	-9056
▁collecting	-9057
▁protocols	-9058
▁Six	-9059
ilipp	-9060
▁contra	-9061
▁renewable	-9062
exp	-9063
▁INT	-9064
▁TA	-9065
ISH	-9066
omics	-9067
▁Ec	-9068
▁ES	-9069
▁Neuro	-9070
▁Companies	-9071
▁goes	-9072
ingent	-9073
▁Clean	-9074
▁Inspector	-9075
▁citizen	-9076
doc	-9077
ruction	-9078
▁cold	-9079
▁doubt	-9080
earing	-9081
▁Lisbon	-9082
▁leaving	-9083
▁mixed	-9084
▁livestock	-9085
LT	-9086
uxem	-9087
▁Conn	-9088
▁Maj	-9089
FR	-9090
▁proceeding	-9091
riterion	-9092
▁convey	-9093
▁elderly	-9094
▁feasibility	-9095
▁Pers	-9096
tting	-9097
▁clarification	-9098
▁TPD	-9099
▁artistic	-9100
ITH	-9101
▁Earth	-9102
▁helpful	-9103
▁telehealth	-9104
▁generations	-9105
▁offences	-9106
▁Cop	-9107
eless	-9108
yan	-9109
▁chrom	-9110
▁Expert	-9111
▁resolved	-9112
▁purchasing	-9113
▁ratification	-9114
ains	-9115
▁circulation	-9116
▁Sett	-9117
▁Wildlife	-9118
MO	-9119
▁assisted	-9120
▁CRTC	-9121
▁childhood	-9122
▁colon	-9123
stand	-9124
▁Olympic	-9125
▁expressions	-9126
troll	-9127
▁yes	-9128
▁Traditional	-9129
▁Australian	-9130
▁STAT	-9131
▁labels	-9132
▁Pilot	-9133
annuation	-9134
▁undertakings	-9135
ALTH	-9136
▁SARS	-9137
▁competence	-9138
▁Fair	-9139
verages	-9140
▁Making	-9141
▁Sloven	-9142
loro	-9143
▁none	-9144
▁annex	-9145
▁francoph	-9146
▁terrorism	-9147
▁told	-9148
STEM	-9149
▁Base	-9150
▁lawy	-9151
▁dividends	-9152
▁Duty	-9153
▁conclude	-9154
▁lesser	-9155
▁Ukraine	-9156
▁lob	-9157
▁Em	-9158
▁Interview	-9159
iological	-9160
orney	-9161
▁ND	-9162
▁cleaning	-9163
▁capac	-9164
eb	-9165
▁grie	-9166
▁conformity	-9167
ships	-9168
▁architect	-9169
It	-9170
▁Procurement	-9171
▁Electric	-9172
ndrome	-9173
▁block	-9174
qual	-9175
▁Mechan	-9176
ologic	-9177
Ind	-9178
eav	-9179
▁calculating	-9180
▁transformation	-9181
▁differenti	-9182
▁Poll	-9183
▁infant	-9184
▁talk	-9185
.(	-9186
atisf	-9187
lant	-9188
▁cargo	-9189
▁sensitivity	-9190
ichel	-9191
ricts	-9192
uxembourg	-9193
▁transitional	-9194
▁upper	-9195
▁PROC	-9196
▁Indep	-9197
▁drawing	-9198
▁PAC	-9199
▁Approval	-9200
ias	-9201
▁Option	-9202
▁attending	-9203
▁proven	-9204
▁Testing	-9205
▁mamm	-9206
▁SUMMARY	-9207
▁Consulting	-9208
▁Debt	-9209
ICAL	-9210
▁degrad	-9211
▁ordinary	-9212
fficial	-9213
▁impair	-9214
reight	-9215
▁frame	-9216
▁prejud	-9217
▁Austria	-9218
▁elimination	-9219
otional	-9220
▁competit	-9221
▁moderate	-9222
side	-9223
zech	-9224
▁Skills	-9225
▁publish	-9226
▁Associate	-9227
▁contaminants	-9228
inces	-9229
▁Acqu	-9230
▁depart	-9231
▁disposed	-9232
▁RFA	-9233
ativity	-9234
section	-9235
▁magazine	-9236
ctive	-9237
▁Improve	-9238
cle	-9239
▁Series	-9240
▁faculty	-9241
▁performances	-9242
ipped	-9243
culosis	-9244
▁claimant	-9245
▁ages	-9246
▁hoc	-9247
▁Vacc	-9248
▁Monday	-9249
▁HTML	-9250
asters	-9251
gy	-9252
mposium	-9253
▁Poland	-9254
▁Urban	-9255
▁barg	-9256
igned	-9257
spe	-9258
vak	-9259
ua	-9260
▁innovations	-9261
▁Certification	-9262
▁trip	-9263
▁atmosphere	-9264
▁NOT	-9265
▁salaries	-9266
rog	-9267
titude	-9268
▁civilian	-9269
▁Refer	-9270
▁compare	-9271
▁negotiation	-9272
▁appropriately	-9273
▁Senator	-9274
▁satisfactory	-9275
HN	-9276
▁exploration	-9277
AGE	-9278
▁adopting	-9279
▁highlights	-9280
▁validation	-9281
▁pricing	-9282
▁wording	-9283
▁Portugal	-9284
▁Percentage	-9285
▁communicated	-9286
▁Inj	-9287
arts	-9288
▁deriv	-9289
▁universal	-9290
uberculosis	-9291
▁endorsed	-9292
▁POL	-9293
▁Origin	-9294
EAR	-9295
▁oxy	-9296
▁franc	-9297
▁Hydro	-9298
▁SCT	-9299
▁Sea	-9300
▁Alcohol	-9301
▁expensive	-9302
▁neut	-9303
▁stories	-9304
▁explains	-9305
▁Purs	-9306
▁GPT	-9307
▁directives	-9308
▁ppm	-9309
▁Hague	-9310
▁delays	-9311
▁possess	-9312
▁epidemic	-9313
dehyde	-9314
▁correspondence	-9315
MENTS	-9316
str	-9317
RP	-9318
▁Psych	-9319
▁Fraser	-9320
▁invested	-9321
ANT	-9322
▁justified	-9323
itude	-9324
▁Mer	-9325
▁branches	-9326
▁Transition	-9327
▁negotiating	-9328
▁promoted	-9329
▁qualitative	-9330
▁viruses	-9331
MIS	-9332
well	-9333
▁intra	-9334
▁birds	-9335
ios	-9336
▁amp	-9337
▁commence	-9338
▁CSA	-9339
▁approve	-9340
▁Maintenance	-9341
▁Freed	-9342
▁detect	-9343
▁varied	-9344
▁ocean	-9345
▁newspapers	-9346
▁assumptions	-9347
asive	-9348
sec	-9349
orre	-9350
bound	-9351
ologists	-9352
▁specially	-9353
▁nationally	-9354
▁dental	-9355
▁Here	-9356
compliance	-9357
Last	-9358
▁intends	-9359
▁protective	-9360
vertise	-9361
▁flight	-9362
▁segment	-9363
▁realized	-9364
▁legitimate	-9365
Ab	-9366
ASS	-9367
osing	-9368
▁Leader	-9369
▁INS	-9370
▁theory	-9371
count	-9372
▁disclose	-9373
▁suscep	-9374
▁glob	-9375
▁Parts	-9376
▁unanim	-9377
▁responsive	-9378
▁Ice	-9379
▁dual	-9380
▁dimensions	-9381
RAC	-9382
▁mostly	-9383
rar	-9384
▁begun	-9385
▁chief	-9386
▁tissues	-9387
▁deployment	-9388
For	-9389
▁inputs	-9390
whe	-9391
engers	-9392
▁Embass	-9393
▁generic	-9394
▁cumulative	-9395
▁Applicant	-9396
rued	-9397
▁taxpayers	-9398
▁gained	-9399
▁Luxembourg	-9400
▁Text	-9401
▁plate	-9402
eries	-9403
▁Harmon	-9404
▁Opinion	-9405
▁sick	-9406
thal	-9407
erver	-9408
▁Suite	-9409
▁Preparedness	-9410
▁anniversary	-9411
▁elabor	-9412
ented	-9413
▁SCIT	-9414
▁viable	-9415
▁intensive	-9416
▁Hep	-9417
▁Czech	-9418
▁Provisions	-9419
▁caregivers	-9420
▁institutes	-9421
▁ruling	-9422
▁propose	-9423
▁accident	-9424
▁Selection	-9425
elect	-9426
▁thing	-9427
▁Mean	-9428
uant	-9429
▁Grad	-9430
▁overl	-9431
elle	-9432
▁periodic	-9433
▁tabled	-9434
ourage	-9435
▁Ban	-9436
ewater	-9437
apons	-9438
▁diam	-9439
▁Sex	-9440
▁sew	-9441
▁Applicants	-9442
tension	-9443
flow	-9444
service	-9445
▁extract	-9446
▁outline	-9447
▁coordinating	-9448
▁Chris	-9449
intendent	-9450
▁preserve	-9451
▁defines	-9452
gical	-9453
▁inquiry	-9454
▁partial	-9455
▁DFA	-9456
uay	-9457
conf	-9458
FT	-9459
▁accr	-9460
▁warm	-9461
▁ecosystems	-9462
▁fear	-9463
▁nothing	-9464
▁propri	-9465
▁judgment	-9466
oxy	-9467
via	-9468
▁ICR	-9469
VER	-9470
▁hereby	-9471
▁assisting	-9472
▁cigarette	-9473
▁fell	-9474
▁citizenship	-9475
▁desirable	-9476
▁glass	-9477
▁Métis	-9478
▁PROGRA	-9479
▁Programming	-9480
▁virtually	-9481
▁Against	-9482
▁Challenges	-9483
▁fellow	-9484
▁ended	-9485
▁capita	-9486
business	-9487
▁evolving	-9488
▁endeav	-9489
▁impose	-9490
▁suspension	-9491
▁Provinces	-9492
▁Advance	-9493
▁shipments	-9494
▁Therapeutic	-9495
▁INTERNATIONAL	-9496
olve	-9497
▁Visit	-9498
▁Ocean	-9499
▁Epid	-9500
▁born	-9501
▁Sound	-9502
▁Reason	-9503
reatment	-9504
▁scan	-9505
ibration	-9506
▁historic	-9507
▁TCEs	-9508
▁preservation	-9509
Eng	-9510
born	-9511
▁Body	-9512
▁Summaries	-9513
▁é	-9514
vency	-9515
▁Regular	-9516
▁Er	-9517
▁appellant	-9518
▁Accounting	-9519
▁Biological	-9520
▁insured	-9521
▁libraries	-9522
▁Meetings	-9523
▁validity	-9524
rame	-9525
==	-9526
▁shar	-9527
ervative	-9528
▁curriculum	-9529
▁Commitments	-9530
▁Colomb	-9531
miss	-9532
▁structured	-9533
ATA	-9534
▁ITA	-9535
▁ren	-9536
▁Aware	-9537
▁Five	-9538
▁Pierre	-9539
▁discipline	-9540
▁toll	-9541
▁Diabetes	-9542
▁€	-9543
▁simult	-9544
▁computers	-9545
▁constitutional	-9546
▁lit	-9547
▁descriptions	-9548
▁Ha	-9549
week	-9550
▁Consid	-9551
▁George	-9552
▁warehouse	-9553
RS	-9554
▁macro	-9555
uition	-9556
▁pollutants	-9557
CIHR	-9558
▁Clause	-9559
▁Grain	-9560
▁pun	-9561
▁servants	-9562
▁nutrient	-9563
▁prud	-9564
mentation	-9565
▁Event	-9566
▁inherent	-9567
stitutional	-9568
▁performers	-9569
▁calling	-9570
▁unlikely	-9571
df	-9572
atitis	-9573
▁cool	-9574
▁mode	-9575
▁HEALTH	-9576
▁introducing	-9577
▁infringement	-9578
▁CCA	-9579
▁Savings	-9580
▁favourable	-9581
▁Licensing	-9582
▁Peace	-9583
izations	-9584
▁Patents	-9585
unity	-9586
▁snow	-9587
▁Others	-9588
LP	-9589
▁Band	-9590
▁BO	-9591
▁indeed	-9592
▁negotiated	-9593
uds	-9594
▁cle	-9595
add	-9596
▁Regina	-9597
▁RESP	-9598
▁Fisher	-9599
▁Middle	-9600
▁impossible	-9601
▁intermediate	-9602
▁Wil	-9603
▁minimal	-9604
▁Cree	-9605
▁Organisation	-9606
▁Israel	-9607
▁cat	-9608
▁vacation	-9609
▁permission	-9610
ams	-9611
UBLIC	-9612
night	-9613
▁Town	-9614
été	-9615
▁rub	-9616
▁phosph	-9617
▁varieties	-9618
▁biennium	-9619
▁pandemic	-9620
▁rough	-9621
▁shell	-9622
▁fibres	-9623
▁creates	-9624
▁Mt	-9625
▁NB	-9626
XXXX	-9627
▁nitrogen	-9628
▁complainant	-9629
alian	-9630
yes	-9631
notes	-9632
▁Steel	-9633
▁rose	-9634
aux	-9635
ATOR	-9636
regist	-9637
▁aluminum	-9638
▁influenced	-9639
▁pill	-9640
▁DFAIT	-9641
▁satisfy	-9642
etting	-9643
▁typical	-9644
▁audiovisual	-9645
▁accreditation	-9646
▁rejected	-9647
▁NHPD	-9648
▁shap	-9649
▁write	-9650
▁Gallery	-9651
▁creat	-9652
▁Embassy	-9653
▁harbour	-9654
▁folklore	-9655
ndering	-9656
▁Indones	-9657
▁trademarks	-9658
▁para	-9659
▁Advertising	-9660
▁collections	-9661
▁<!	-9662
▁Men	-9663
▁bus	-9664
party	-9665
ponents	-9666
▁cutting	-9667
▁retro	-9668
▁environmentally	-9669
▁Sections	-9670
MHA	-9671
▁Barb	-9672
▁Animal	-9673
▁anyone	-9674
▁Francophonie	-9675
faces	-9676
▁Rates	-9677
▁volumes	-9678
hereinafter	-9679
▁tick	-9680
▁Negoti	-9681
▁advocacy	-9682
▁guideline	-9683
▁counterparts	-9684
door	-9685
▁maximize	-9686
car	-9687
▁varies	-9688
▁blue	-9689
▁transit	-9690
▁height	-9691
ashion	-9692
▁editor	-9693
▁molecular	-9694
erk	-9695
fri	-9696
▁consolidated	-9697
▁iron	-9698
▁Scope	-9699
▁safeguard	-9700
Reg	-9701
▁depth	-9702
▁provisional	-9703
▁Bulgaria	-9704
▁adolesc	-9705
▁GC	-9706
▁flo	-9707
▁younger	-9708
inder	-9709
▁night	-9710
▁campaigns	-9711
▁degrees	-9712
▁partly	-9713
▁Outcome	-9714
di	-9715
kers	-9716
▁exped	-9717
▁clothing	-9718
gam	-9719
▁Congress	-9720
▁projections	-9721
▁suit	-9722
▁artic	-9723
▁fulfil	-9724
▁audiences	-9725
▁Ir	-9726
▁sear	-9727
▁visited	-9728
▁interpreted	-9729
▁stewardship	-9730
▁fulfill	-9731
▁gathered	-9732
ograms	-9733
▁Bell	-9734
▁gases	-9735
▁renov	-9736
▁Philipp	-9737
▁Nursing	-9738
alling	-9739
▁usage	-9740
▁Winter	-9741
Ph	-9742
▁Kenya	-9743
och	-9744
ishment	-9745
tin	-9746
eces	-9747
▁issuing	-9748
ctoral	-9749
▁Viet	-9750
▁restructuring	-9751
▁SYSTEM	-9752
essation	-9753
ago	-9754
▁criterion	-9755
▁initiate	-9756
▁perception	-9757
▁Mail	-9758
▁hydrogen	-9759
▁pose	-9760
▁meters	-9761
▁enforce	-9762
▁Chamber	-9763
▁summarized	-9764
izer	-9765
edical	-9766
▁Seniors	-9767
Based	-9768
aling	-9769
iveness	-9770
▁eventually	-9771
Sc	-9772
▁Conclusion	-9773
inated	-9774
▁Immunization	-9775
▁unknown	-9776
▁ju	-9777
▁merch	-9778
▁Claims	-9779
▁oxygen	-9780
▁Concern	-9781
elve	-9782
▁legally	-9783
▁interviewed	-9784
▁Summer	-9785
▁Outcomes	-9786
▁finished	-9787
ospace	-9788
rh	-9789
▁Amendments	-9790
▁travelling	-9791
▁exceeded	-9792
▁Portfolio	-9793
▁Determination	-9794
eff	-9795
▁disinf	-9796
▁NMB	-9797
▁Egyp	-9798
▁Veterans	-9799
▁rain	-9800
▁immune	-9801
▁nutritional	-9802
▁Superintendent	-9803
▁breakdown	-9804
▁OB	-9805
▁exceptional	-9806
▁humanitarian	-9807
abe	-9808
▁standardized	-9809
licate	-9810
▁enlarge	-9811
▁urgent	-9812
▁variations	-9813
▁unions	-9814
itations	-9815
▁reduces	-9816
▁healthcare	-9817
▁Territorial	-9818
arest	-9819
▁Build	-9820
▁proud	-9821
▁mechanical	-9822
but	-9823
▁depreci	-9824
▁pH	-9825
▁bed	-9826
ersed	-9827
necess	-9828
mentioned	-9829
▁inhal	-9830
▁upgrad	-9831
▁Chronic	-9832
▁Managers	-9833
▁dangerous	-9834
▁forecasts	-9835
sing	-9836
▁analyzed	-9837
▁Blue	-9838
▁Biotechnology	-9839
▁whereby	-9840
▁displayed	-9841
▁Mot	-9842
▁sponsored	-9843
▁Networks	-9844
cf	-9845
▁COMMUN	-9846
hma	-9847
cium	-9848
▁HRDC	-9849
▁advertise	-9850
▁competencies	-9851
▁cardiovascular	-9852
▁attempts	-9853
▁Awareness	-9854
osme	-9855
keeping	-9856
▁distinc	-9857
▁integrating	-9858
enth	-9859
▁ends	-9860
▁determines	-9861
▁rob	-9862
▁profiles	-9863
▁nationals	-9864
anté	-9865
ITIES	-9866
▁merit	-9867
▁Conduct	-9868
▁exhibit	-9869
▁save	-9870
▁Exporter	-9871
▁Poly	-9872
▁printing	-9873
▁Leadership	-9874
▁Foods	-9875
▁faith	-9876
▁produces	-9877
▁Hill	-9878
▁Deduc	-9879
▁efficiently	-9880
▁fuels	-9881
▁APPLIC	-9882
▁Exports	-9883
▁×	-9884
▁Statements	-9885
▁commodities	-9886
▁hal	-9887
unately	-9888
aine	-9889
atics	-9890
▁Brief	-9891
▁wrong	-9892
anging	-9893
▁eastern	-9894
▁woman	-9895
▁MON	-9896
▁Hungary	-9897
NP	-9898
ón	-9899
▁Grade	-9900
▁running	-9901
▁WITH	-9902
oter	-9903
▁auton	-9904
▁interactive	-9905
▁prompt	-9906
▁automatic	-9907
▁Slovak	-9908
▁Allowance	-9909
▁Provision	-9910
▁methodologies	-9911
lights	-9912
▁habit	-9913
▁Prairie	-9914
▁Addic	-9915
▁disaster	-9916
▁districts	-9917
▁SCP	-9918
▁signals	-9919
ART	-9920
▁Gold	-9921
▁Vision	-9922
▁investigated	-9923
efficient	-9924
▁Infection	-9925
rine	-9926
▁Francophones	-9927
▁pending	-9928
▁literacy	-9929
page	-9930
▁railway	-9931
▁suicide	-9932
?"	-9933
occ	-9934
▁Miss	-9935
▁powerful	-9936
▁wet	-9937
▁gifts	-9938
mond	-9939
▁Oral	-9940
▁shareholders	-9941
▁Supplement	-9942
▁Screening	-9943
▁Coal	-9944
▁volati	-9945
▁overcome	-9946
imb	-9947
ooth	-9948
▁Ke	-9949
én	-9950
▁Skip	-9951
ylene	-9952
▁react	-9953
▁eliminated	-9954
▁Pa	-9955
▁contributor	-9956
represent	-9957
ails	-9958
▁outputs	-9959
nia	-9960
iatric	-9961
▁Greece	-9962
▁Single	-9963
▁Revised	-9964
▁Presentation	-9965
omal	-9966
▁OTHER	-9967
▁acids	-9968
▁cable	-9969
▁chloride	-9970
appropriate	-9971
▁Facsimile	-9972
▁certainly	-9973
▁HOME	-9974
▁Examin	-9975
speaking	-9976
▁Proposals	-9977
▁Niger	-9978
▁devoted	-9979
HI	-9980
ka	-9981
▁SDS	-9982
scape	-9983
▁Make	-9984
▁mention	-9985
aph	-9986
▁causing	-9987
▁formally	-9988
CM	-9989
avily	-9990
treatment	-9991
▁predomin	-9992
▁observation	-9993
▁dispar	-9994
▁inspect	-9995
▁bulletin	-9996
▁fairness	-9997
▁distinction	-9998
▁Disability	-9999
▁Enc	-10000
▁phases	-10001
▁kn	-10002
▁McM	-10003
▁wholes	-10004
▁Jac	-10005
zation	-10006
adic	-10007
European	-10008
▁sho	-10009
owned	-10010
▁bloc	-10011
ulsory	-10012
▁square	-10013
▁Stephen	-10014
▁doub	-10015
").	-10016
▁salt	-10017
▁cad	-10018
▁Large	-10019
▁anything	-10020
▁purchaser	-10021
▁passengers	-10022
▁boost	-10023
▁rated	-10024
▁waiting	-10025
▁adhe	-10026
▁Identify	-10027
ILL	-10028
▁MANAG	-10029
normal	-10030
▁England	-10031
▁Aer	-10032
▁aux	-10033
▁capacities	-10034
▁Content	-10035
▁tangible	-10036
▁measurements	-10037
▁ED	-10038
assment	-10039
iac	-10040
▁GHG	-10041
▁comfort	-10042
▁faster	-10043
▁forestry	-10044
▁dosage	-10045
▁shipping	-10046
▁ven	-10047
▁eggs	-10048
▁looked	-10049
▁overseas	-10050
▁bargaining	-10051
▁beef	-10052
▁Georg	-10053
▁frozen	-10054
▁respected	-10055
ailand	-10056
▁usual	-10057
▁destruction	-10058
▁Hall	-10059
▁demonstration	-10060
ois	-10061
▁---	-10062
▁false	-10063
▁Sug	-10064
tional	-10065
▁Workers	-10066
▁isolates	-10067
▁promotional	-10068
▁SAR	-10069
▁versions	-10070
ona	-10071
▁LES	-10072
▁attr	-10073
▁fashion	-10074
asure	-10075
▁airport	-10076
▁gold	-10077
▁playing	-10078
▁focussed	-10079
▁defer	-10080
▁distributors	-10081
▁Mach	-10082
▁updates	-10083
▁CAS	-10084
▁incidents	-10085
▁Topics	-10086
▁Exc	-10087
idency	-10088
▁Core	-10089
▁recalled	-10090
▁accompl	-10091
▁Saskatoon	-10092
ki	-10093
▁Attend	-10094
▁putting	-10095
▁Mem	-10096
bate	-10097
▁vegetables	-10098
▁Organizational	-10099
▁Fer	-10100
▁Statis	-10101
▁tempor	-10102
▁mailing	-10103
▁inval	-10104
▁NATO	-10105
BP	-10106
▁Size	-10107
▁Nic	-10108
▁Wal	-10109
auc	-10110
▁SIMA	-10111
leep	-10112
▁hosted	-10113
▁shipment	-10114
▁Domin	-10115
RQ	-10116
▁Wel	-10117
▁Greater	-10118
▁closing	-10119
▁HPFB	-10120
▁Deposit	-10121
Dec	-10122
anctions	-10123
▁Pursuant	-10124
▁Spring	-10125
NRC	-10126
▁Native	-10127
▁Proceed	-10128
▁phenomen	-10129
OURC	-10130
▁street	-10131
▁ther	-10132
hibition	-10133
▁biodiversity	-10134
▁titles	-10135
▁Command	-10136
▁Epidemi	-10137
----------------	-10138
▁UI	-10139
▁globalization	-10140
▁Values	-10141
▁ceremon	-10142
▁drafting	-10143
▁scenario	-10144
▁emerged	-10145
▁fostering	-10146
▁stimulate	-10147
oir	-10148
▁broadly	-10149
▁parental	-10150
▁reliability	-10151
▁earn	-10152
▁Definitions	-10153
▁Airport	-10154
burs	-10155
assessment	-10156
CD	-10157
▁reinforce	-10158
rane	-10159
arios	-10160
▁Loans	-10161
▁Southern	-10162
▁sentence	-10163
▁compatible	-10164
sharing	-10165
▁poultry	-10166
▁Exposure	-10167
▁Regarding	-10168
▁combustion	-10169
▁confirmation	-10170
ourcing	-10171
cript	-10172
▁truly	-10173
▁Establishment	-10174
▁Sl	-10175
▁Berne	-10176
▁enzy	-10177
▁discover	-10178
See	-10179
▁Mary	-10180
▁falling	-10181
▁rendered	-10182
iny	-10183
▁Television	-10184
▁Years	-10185
▁menu	-10186
▁calculations	-10187
ECTION	-10188
minent	-10189
▁emotional	-10190
▁NHPs	-10191
▁adaptation	-10192
▁Faculty	-10193
wear	-10194
▁Having	-10195
▁discontin	-10196
LI	-10197
▁une	-10198
▁Angloph	-10199
▁terrorist	-10200
activity	-10201
▁Statute	-10202
▁duplication	-10203
rames	-10204
▁arrival	-10205
▁surgery	-10206
▁automated	-10207
international	-10208
▁bills	-10209
▁ap	-10210
etric	-10211
▁ii	-10212
ivable	-10213
▁fluid	-10214
▁cultiv	-10215
▁feasible	-10216
▁Indonesia	-10217
▁guarantees	-10218
ester	-10219
hentic	-10220
▁unnecess	-10221
NE	-10222
▁attendance	-10223
▁Preparation	-10224
▁Peer	-10225
▁recognizing	-10226
▁Superannuation	-10227
▁schedules	-10228
INT	-10229
iment	-10230
▁REFER	-10231
▁viability	-10232
▁Jose	-10233
▁Upon	-10234
▁ultimate	-10235
▁Correction	-10236
▁Submissions	-10237
ITED	-10238
▁earth	-10239
gencies	-10240
▁Investigator	-10241
▁SSHRC	-10242
▁remit	-10243
▁francs	-10244
▁Enhance	-10245
▁creativity	-10246
▁q	-10247
▁NEW	-10248
▁dividend	-10249
▁progressive	-10250
▁contest	-10251
▁©	-10252
▁Cash	-10253
otherap	-10254
▁Agencies	-10255
idney	-10256
▁Explorer	-10257
▁donations	-10258
▁installed	-10259
▁CIPO	-10260
▁Laur	-10261
▁amongst	-10262
POR	-10263
▁sn	-10264
▁Frid	-10265
▁concentrated	-10266
)-	-10267
▁ARTIC	-10268
ologist	-10269
▁master	-10270
▁separation	-10271
▁inventions	-10272
▁Factors	-10273
▁heating	-10274
▁Tex	-10275
▁happen	-10276
▁PROGRAM	-10277
▁balances	-10278
uana	-10279
erves	-10280
▁obstacles	-10281
alities	-10282
Provincial	-10283
▁Inventory	-10284
▁limitation	-10285
hour	-10286
▁pick	-10287
▁mitigation	-10288
▁DM	-10289
vents	-10290
▁Vote	-10291
▁Proble	-10292
▁challenging	-10293
▁consumed	-10294
▁develops	-10295
▁furnish	-10296
apters	-10297
▁actors	-10298
▁engines	-10299
▁subheading	-10300
▁subsidiary	-10301
▁Speech	-10302
▁Adverse	-10303
▁Improving	-10304
▁demonstrates	-10305
ortium	-10306
▁«	-10307
▁lumber	-10308
▁argument	-10309
▁Veterinary	-10310
▁Bon	-10311
▁advis	-10312
▁Experts	-10313
▁Trademark	-10314
▁finally	-10315
▁realize	-10316
▁unders	-10317
▁Academy	-10318
▁Advanced	-10319
▁memorandum	-10320
▁enfor	-10321
▁reputation	-10322
RF	-10323
▁Michel	-10324
▁accomplished	-10325
)?	-10326
dri	-10327
▁apprais	-10328
▁donation	-10329
▁NW	-10330
▁oceans	-10331
▁infants	-10332
gs	-10333
▁enabled	-10334
▁targeting	-10335
▁DIS	-10336
tered	-10337
▁baby	-10338
▁Semin	-10339
▁nurse	-10340
oters	-10341
ictions	-10342
▁Croati	-10343
▁depression	-10344
inning	-10345
eased	-10346
▁Improved	-10347
▁broadcasters	-10348
▁Frank	-10349
▁Markets	-10350
▁ang	-10351
▁incomes	-10352
▁contractual	-10353
▁Responsibility	-10354
▁heavily	-10355
▁fifth	-10356
▁REPORT	-10357
ulings	-10358
▁Message	-10359
English	-10360
▁divisions	-10361
OLOG	-10362
PO	-10363
▁Heart	-10364
uten	-10365
▁GENERAL	-10366
▁Announce	-10367
VA	-10368
▁transmit	-10369
▁MAT	-10370
▁Transf	-10371
▁thanks	-10372
▁gathering	-10373
▁isolation	-10374
▁Observ	-10375
▁specim	-10376
havi	-10377
▁invitation	-10378
▁royalties	-10379
▁IND	-10380
▁Cover	-10381
▁straight	-10382
allow	-10383
▁tack	-10384
patient	-10385
▁eye	-10386
▁prosperity	-10387
▁grew	-10388
▁race	-10389
▁absorb	-10390
▁Incorpor	-10391
ACH	-10392
▁gar	-10393
management	-10394
ysts	-10395
▁allerg	-10396
▁attain	-10397
▁extending	-10398
▁probability	-10399
▁practitioner	-10400
▁Mort	-10401
▁investor	-10402
▁embry	-10403
▁submitting	-10404
▁arms	-10405
BA	-10406
▁clarity	-10407
▁elector	-10408
▁accurately	-10409
▁HCV	-10410
▁gall	-10411
▁nomination	-10412
▁thirty	-10413
▁guaranteed	-10414
▁imper	-10415
▁sodium	-10416
▁consultant	-10417
▁checks	-10418
▁Purch	-10419
crimination	-10420
algam	-10421
aneously	-10422
authorized	-10423
▁OJ	-10424
▁pra	-10425
▁Waste	-10426
▁Domain	-10427
ilty	-10428
▁Station	-10429
▁Existing	-10430
▁exercised	-10431
rone	-10432
▁heads	-10433
▁Util	-10434
▁Interim	-10435
mbuds	-10436
▁None	-10437
type	-10438
▁plastic	-10439
▁investing	-10440
▁cast	-10441
▁Medium	-10442
▁Jo	-10443
docu	-10444
▁fishers	-10445
▁Specifically	-10446
eer	-10447
erend	-10448
▁mainstream	-10449
▁reti	-10450
▁turb	-10451
▁warran	-10452
▁hem	-10453
▁generating	-10454
▁Authorization	-10455
él	-10456
▁varying	-10457
▁arguments	-10458
▁leaves	-10459
iative	-10460
▁Chairs	-10461
▁observers	-10462
▁authorize	-10463
▁sort	-10464
▁analyze	-10465
▁Fishing	-10466
▁surveyed	-10467
▁accompanying	-10468
RIF	-10469
▁Laval	-10470
▁prove	-10471
amilton	-10472
▁IA	-10473
▁Bou	-10474
▁Majesty	-10475
▁cohesion	-10476
▁Slovenia	-10477
rob	-10478
▁URL	-10479
techn	-10480
isition	-10481
▁pesticides	-10482
▁Cyp	-10483
▁inject	-10484
atever	-10485
▁modest	-10486
▁pursuing	-10487
otoxic	-10488
▁arran	-10489
▁Highlights	-10490
▁wor	-10491
acent	-10492
support	-10493
een	-10494
ycle	-10495
▁appointments	-10496
▁pays	-10497
▁flood	-10498
▁auditor	-10499
▁declining	-10500
emics	-10501
▁enhancement	-10502
nity	-10503
▁Po	-10504
▁DS	-10505
how	-10506
▁weigh	-10507
▁medicines	-10508
missible	-10509
▁hearings	-10510
▁Tow	-10511
ticular	-10512
▁IH	-10513
program	-10514
▁census	-10515
▁Hepatitis	-10516
ipo	-10517
▁mothers	-10518
▁±	-10519
▁filled	-10520
▁GROU	-10521
▁abandon	-10522
▁investigating	-10523
▁;	-10524
▁Peru	-10525
▁clauses	-10526
operatives	-10527
▁proactive	-10528
OUR	-10529
▁Link	-10530
▁plain	-10531
▁offenders	-10532
▁mist	-10533
▁therapies	-10534
▁organizing	-10535
▁Intelligence	-10536
▁crew	-10537
▁Hot	-10538
▁PAY	-10539
▁default	-10540
▁Diplom	-10541
Rs	-10542
▁SOC	-10543
▁cattle	-10544
▁Accommod	-10545
▁bridge	-10546
▁MANAGEMENT	-10547
▁NR	-10548
▁pan	-10549
asion	-10550
▁Function	-10551
▁Recognition	-10552
EMENTS	-10553
▁efflu	-10554
▁notices	-10555
▁encount	-10556
▁Gh	-10557
▁EPA	-10558
▁Kit	-10559
▁alph	-10560
▁partially	-10561
▁Determin	-10562
odies	-10563
▁vendor	-10564
▁productions	-10565
ilos	-10566
cious	-10567
▁coup	-10568
▁Highway	-10569
▁movements	-10570
▁distribute	-10571
▁exclude	-10572
▁refused	-10573
ENTI	-10574
▁west	-10575
using	-10576
▁handle	-10577
▁immigrant	-10578
▁MM	-10579
▁Safe	-10580
▁Lie	-10581
▁Tw	-10582
▁MOU	-10583
▁cluster	-10584
▁Better	-10585
▁Thailand	-10586
▁disorder	-10587
▁LO	-10588
▁insec	-10589
▁density	-10590
venth	-10591
▁ease	-10592
▁NL	-10593
▁incorporating	-10594
▁SM	-10595
ulin	-10596
▁Friday	-10597
▁convergence	-10598
▁consolidation	-10599
▁Patient	-10600
▁guides	-10601
▁Entry	-10602
committee	-10603
YS	-10604
imer	-10605
▁trees	-10606
▁Egypt	-10607
▁honor	-10608
▁Instru	-10609
KE	-10610
▁Whether	-10611
▁seriously	-10612
▁affordable	-10613
inson	-10614
lay	-10615
emen	-10616
▁ESC	-10617
▁EM	-10618
▁withdrawn	-10619
▁fluct	-10620
▁CEO	-10621
▁Counter	-10622
▁suspended	-10623
▁barrier	-10624
▁allocations	-10625
▁credibility	-10626
Qs	-10627
caution	-10628
▁confusion	-10629
▁ANNEX	-10630
▁Expected	-10631
▁Maritime	-10632
▁exposures	-10633
JEC	-10634
ym	-10635
▁native	-10636
▁Voluntary	-10637
bury	-10638
▁speech	-10639
▁cohort	-10640
▁Active	-10641
▁cheque	-10642
▁reconcil	-10643
▁residual	-10644
▁hired	-10645
▁Significant	-10646
ethe	-10647
▁legisl	-10648
▁passport	-10649
▁gear	-10650
▁textile	-10651
▁realistic	-10652
▁TEL	-10653
▁Fall	-10654
▁Facility	-10655
▁abund	-10656
▁reiter	-10657
▁Mis	-10658
▁administrators	-10659
fect	-10660
▁Yet	-10661
▁Analy	-10662
▁diplomatic	-10663
FS	-10664
bank	-10665
▁Mass	-10666
▁situated	-10667
reen	-10668
▁Fed	-10669
▁governmental	-10670
▁Representatives	-10671
▁culturally	-10672
entral	-10673
▁Publishing	-10674
▁diagn	-10675
timedia	-10676
outs	-10677
▁Ath	-10678
▁por	-10679
▁Assemblies	-10680
▁wants	-10681
▁Printable	-10682
▁Destination	-10683
▁McC	-10684
▁Photo	-10685
▁Struc	-10686
raising	-10687
▁imaging	-10688
▁journals	-10689
▁organize	-10690
▁Experience	-10691
▁unc	-10692
alliative	-10693
▁Controlled	-10694
▁Enhanced	-10695
▁possibilities	-10696
▁Rome	-10697
aments	-10698
ocation	-10699
▁engaging	-10700
▁Improvement	-10701
CISTI	-10702
ULE	-10703
IO	-10704
▁ballot	-10705
▁envelop	-10706
▁limiting	-10707
▁SK	-10708
▁DOC	-10709
angered	-10710
▁Strong	-10711
▁Wed	-10712
▁meal	-10713
▁explicitly	-10714
▁Consolid	-10715
▁Independent	-10716
organic	-10717
▁Integration	-10718
▁Squ	-10719
Chair	-10720
▁seasonal	-10721
▁Documentation	-10722
▁lin	-10723
▁slips	-10724
▁custod	-10725
▁outbreaks	-10726
Man	-10727
▁grass	-10728
TON	-10729
▁Delegations	-10730
ifer	-10731
▁everything	-10732
IGN	-10733
▁dumped	-10734
▁equipped	-10735
tr	-10736
▁pump	-10737
▁marketed	-10738
Part	-10739
▁seafood	-10740
▁seals	-10741
▁Mexican	-10742
▁WORK	-10743
▁Daily	-10744
▁overtime	-10745
wealth	-10746
▁technique	-10747
▁competitors	-10748
▁packaged	-10749
▁trainees	-10750
Figure	-10751
olvency	-10752
heast	-10753
▁bankruptcy	-10754
▁repeal	-10755
▁cessation	-10756
▁scr	-10757
anz	-10758
▁hiring	-10759
expected	-10760
▁deterior	-10761
▁BG	-10762
▁Fred	-10763
▁regulate	-10764
],	-10765
icken	-10766
▁Bud	-10767
▁Emp	-10768
▁resistant	-10769
mm	-10770
▁Hamilton	-10771
▁Influenza	-10772
onym	-10773
▁revisions	-10774
▁symbols	-10775
▁disapp	-10776
▁Measuring	-10777
▁occurrence	-10778
▁deficiencies	-10779
VE	-10780
▁Rout	-10781
.-	-10782
ocal	-10783
▁symbol	-10784
▁Quarter	-10785
▁linking	-10786
▁Hazardous	-10787
KS	-10788
ben	-10789
▁Sam	-10790
▁Goals	-10791
▁magazines	-10792
▁Respiratory	-10793
ensed	-10794
▁Eligibility	-10795
irmed	-10796
▁Spons	-10797
▁rank	-10798
CTS	-10799
▁fo	-10800
cost	-10801
cton	-10802
▁drain	-10803
▁holdings	-10804
hp	-10805
▁comparisons	-10806
▁idrc	-10807
▁optimal	-10808
controlled	-10809
NR	-10810
UND	-10811
pass	-10812
changed	-10813
▁specification	-10814
▁DO	-10815
▁mandated	-10816
▁Luc	-10817
▁finds	-10818
▁Nature	-10819
▁batter	-10820
▁Codes	-10821
▁nutrients	-10822
▁Respondents	-10823
▁PP	-10824
▁Syn	-10825
osl	-10826
▁dietary	-10827
▁instal	-10828
▁racism	-10829
▁medications	-10830
="	-10831
front	-10832
while	-10833
▁Imports	-10834
br	-10835
inger	-10836
▁armed	-10837
▁trace	-10838
▁refuse	-10839
mbudsman	-10840
itigation	-10841
▁trips	-10842
▁Managing	-10843
▁magnitude	-10844
burg	-10845
▁Break	-10846
▁Approximately	-10847
▁asking	-10848
▁Sher	-10849
ecutives	-10850
▁pursued	-10851
olly	-10852
▁caution	-10853
oler	-10854
▁ace	-10855
▁inser	-10856
▁refugees	-10857
▁sectoral	-10858
▁particles	-10859
▁bone	-10860
▁Conflict	-10861
▁prospects	-10862
ibli	-10863
▁TEC	-10864
▁meals	-10865
una	-10866
vert	-10867
▁careful	-10868
establ	-10869
▁Software	-10870
▁interact	-10871
▁interven	-10872
▁Bull	-10873
udinal	-10874
ERC	-10875
rick	-10876
▁Vendor	-10877
▁removing	-10878
▁sediment	-10879
istance	-10880
▁clearance	-10881
▁DEC	-10882
▁lifetime	-10883
▁withhold	-10884
▁Viol	-10885
▁unfair	-10886
▁justify	-10887
▁strains	-10888
bl	-10889
▁sanctions	-10890
▁Investigators	-10891
plan	-10892
▁sides	-10893
▁Video	-10894
LES	-10895
grat	-10896
erendum	-10897
ounter	-10898
▁maturity	-10899
▁que	-10900
▁scenarios	-10901
nce	-10902
▁oils	-10903
▁Filing	-10904
▁mine	-10905
▁competing	-10906
▁forwarded	-10907
▁describing	-10908
▁Arrangements	-10909
▁Together	-10910
▁deferred	-10911
▁Banks	-10912
▁terminal	-10913
▁park	-10914
▁Accord	-10915
▁corrective	-10916
grade	-10917
PCT	-10918
otton	-10919
rian	-10920
▁lifestyle	-10921
▁vocational	-10922
▁dans	-10923
▁delegates	-10924
▁twelve	-10925
graduate	-10926
▁ammon	-10927
▁Vehicle	-10928
▁seminar	-10929
▁advancement	-10930
▁merely	-10931
▁locally	-10932
▁incorporation	-10933
▁sending	-10934
▁Americas	-10935
▁Character	-10936
▁prime	-10937
▁kilomet	-10938
▁reimbursement	-10939
cut	-10940
sis	-10941
rency	-10942
IDE	-10943
▁stating	-10944
▁pathogens	-10945
.;	-10946
astro	-10947
▁museums	-10948
that	-10949
▁COUN	-10950
ancies	-10951
Cs	-10952
friendly	-10953
▁Abstract	-10954
▁Educational	-10955
▁blank	-10956
▁doctors	-10957
iders	-10958
▁discovery	-10959
▁Gross	-10960
▁click	-10961
iration	-10962
▁Dal	-10963
mod	-10964
▁invite	-10965
▁antibio	-10966
▁Refuge	-10967
▁disabled	-10968
▁constructed	-10969
ruce	-10970
▁costly	-10971
▁college	-10972
▁restoration	-10973
tificial	-10974
▁outlook	-10975
rix	-10976
▁regimes	-10977
WL	-10978
europa	-10979
mitt	-10980
▁Lith	-10981
▁east	-10982
▁explored	-10983
ugosl	-10984
▁Like	-10985
▁weapons	-10986
▁certainty	-10987
▁sto	-10988
▁Fail	-10989
▁guiding	-10990
ENTS	-10991
take	-10992
▁VII	-10993
▁reply	-10994
istence	-10995
▁Collective	-10996
";	-10997
▁Cape	-10998
▁prejudice	-10999
Territorial	-11000
▁Partner	-11001
▁transplant	-11002
▁Paid	-11003
elig	-11004
added	-11005
▁studying	-11006
lab	-11007
▁syn	-11008
depth	-11009
▁robust	-11010
▁Sample	-11011
race	-11012
▁Hig	-11013
▁panels	-11014
▁visiting	-11015
▁Notwithstanding	-11016
▁degradation	-11017
▁Searching	-11018
▁facilitated	-11019
▁psychological	-11020
ano	-11021
ophistic	-11022
ML	-11023
atching	-11024
▁upcoming	-11025
▁Economics	-11026
▁presenting	-11027
ficiency	-11028
▁dairy	-11029
▁approxim	-11030
regional	-11031
▁yourself	-11032
half	-11033
iforn	-11034
▁Ship	-11035
▁deductible	-11036
▁procedural	-11037
DUCTION	-11038
third	-11039
▁photo	-11040
▁Counsel	-11041
▁Telefilm	-11042
DCs	-11043
URES	-11044
▁FROM	-11045
entre	-11046
▁edge	-11047
▁breeding	-11048
▁administering	-11049
▁MEM	-11050
▁ult	-11051
▁Instead	-11052
leton	-11053
etheless	-11054
inity	-11055
▁Champ	-11056
▁exercises	-11057
ipe	-11058
▁allowable	-11059
isure	-11060
hing	-11061
▁competitions	-11062
▁municipality	-11063
odes	-11064
▁Yugosl	-11065
▁Democratic	-11066
▁PROV	-11067
▁deceased	-11068
riage	-11069
▁eros	-11070
▁freight	-11071
▁Franc	-11072
▁disturb	-11073
▁payroll	-11074
▁examines	-11075
▁Abuse	-11076
▁Recovery	-11077
▁Registrar	-11078
▁temperatures	-11079
stan	-11080
▁Bos	-11081
▁Handbook	-11082
▁flat	-11083
▁pure	-11084
▁sizes	-11085
▁Challenge	-11086
▁Consumers	-11087
▁Crop	-11088
▁leaf	-11089
▁specialist	-11090
cihr	-11091
▁coli	-11092
▁artist	-11093
▁inquiries	-11094
▁ranged	-11095
▁remark	-11096
▁sovere	-11097
▁honour	-11098
country	-11099
VELOP	-11100
▁Universities	-11101
▁noting	-11102
▁indoor	-11103
▁ordered	-11104
▁Click	-11105
arel	-11106
laim	-11107
▁root	-11108
▁disclos	-11109
wa	-11110
ida	-11111
▁guided	-11112
▁Term	-11113
▁prosecution	-11114
▁sen	-11115
▁Respect	-11116
▁restriction	-11117
▁Taking	-11118
▁Magaz	-11119
million	-11120
▁Contamin	-11121
JD	-11122
▁Commonwealth	-11123
▁inappropriate	-11124
▁dimin	-11125
▁posed	-11126
▁Facilities	-11127
▁Maximum	-11128
apse	-11129
▁Leave	-11130
▁Increasing	-11131
▁prospective	-11132
▁died	-11133
ilosoph	-11134
uesday	-11135
▁fails	-11136
▁score	-11137
▁colleges	-11138
▁supervisor	-11139
▁Needs	-11140
▁comprises	-11141
▁IGC	-11142
▁certify	-11143
▁handled	-11144
▁forced	-11145
rose	-11146
▁looks	-11147
emb	-11148
▁quot	-11149
utenant	-11150
▁claiming	-11151
oving	-11152
▁Crime	-11153
▁Facilit	-11154
▁Moncton	-11155
coh	-11156
uba	-11157
▁DU	-11158
▁audio	-11159
cue	-11160
name	-11161
▁river	-11162
▁Providing	-11163
VD	-11164
▁suffer	-11165
▁ties	-11166
mend	-11167
▁Ast	-11168
tes	-11169
▁Ul	-11170
▁bands	-11171
▁systemic	-11172
▁fluor	-11173
▁Identity	-11174
▁broch	-11175
▁contacted	-11176
ALL	-11177
▁carries	-11178
▁Restric	-11179
ucle	-11180
▁fibre	-11181
▁vitro	-11182
ener	-11183
▁enacted	-11184
imension	-11185
▁Ni	-11186
▁Inspectorate	-11187
▁existed	-11188
▁margins	-11189
orrect	-11190
▁constructive	-11191
▁Croatia	-11192
Gs	-11193
▁od	-11194
▁CIS	-11195
▁minus	-11196
▁accredited	-11197
▁influences	-11198
▁Ce	-11199
nrc	-11200
▁WD	-11201
▁cry	-11202
▁onto	-11203
▁Producers	-11204
▁valuation	-11205
▁spaces	-11206
▁thanked	-11207
▁gradually	-11208
▁initiation	-11209
▁Nuclear	-11210
uble	-11211
utch	-11212
▁ISS	-11213
▁financed	-11214
▁Marks	-11215
ups	-11216
▁Moroc	-11217
▁selecting	-11218
▁semi	-11219
▁grand	-11220
▁tariffs	-11221
rolment	-11222
▁Select	-11223
▁organs	-11224
▁exporting	-11225
▁interference	-11226
lamm	-11227
▁tried	-11228
▁Career	-11229
▁Mur	-11230
▁tes	-11231
▁notion	-11232
▁window	-11233
▁Teachers	-11234
▁registry	-11235
▁Addiction	-11236
sured	-11237
▁wireless	-11238
▁genes	-11239
ifornia	-11240
▁Rental	-11241
ho	-11242
▁FY	-11243
▁PUBLIC	-11244
▁smooth	-11245
▁beverages	-11246
▁adolescents	-11247
pol	-11248
apest	-11249
▁Iran	-11250
▁modify	-11251
▁Mounted	-11252
aundering	-11253
mic	-11254
▁segments	-11255
sex	-11256
aming	-11257
▁Phot	-11258
▁Word	-11259
▁turned	-11260
▁bearing	-11261
▁Consular	-11262
▁Selected	-11263
▁Settlement	-11264
rafts	-11265
▁DEVELOP	-11266
▁Colombia	-11267
▁negotiate	-11268
▁Way	-11269
▁independently	-11270
Qu	-11271
▁councils	-11272
––	-11273
▁founded	-11274
▁Strengthening	-11275
▁continuation	-11276
bursed	-11277
▁envis	-11278
▁practic	-11279
cra	-11280
▁DR	-11281
▁champ	-11282
ordinary	-11283
regular	-11284
acceptable	-11285
▁sophistic	-11286
▁Aid	-11287
▁Ant	-11288
▁unchanged	-11289
▁Options	-11290
▁Anne	-11291
▁accrual	-11292
fortunately	-11293
▁asthma	-11294
▁captured	-11295
▁placement	-11296
▁ARTICLE	-11297
▁willingness	-11298
respon	-11299
▁PRODU	-11300
▁Georgia	-11301
▁hardware	-11302
▁feeding	-11303
▁hoped	-11304
▁shelter	-11305
run	-11306
▁Norm	-11307
▁Diagnos	-11308
▁exemptions	-11309
▁incomplete	-11310
▁preparedness	-11311
wipo	-11312
setting	-11313
▁morning	-11314
▁investigator	-11315
▁CSC	-11316
▁mandates	-11317
tifications	-11318
pet	-11319
icted	-11320
▁Much	-11321
▁Divers	-11322
▁distinguish	-11323
▁incremental	-11324
▁Orders	-11325
▁copper	-11326
▁erosion	-11327
▁observer	-11328
Co	-11329
▁Charities	-11330
arial	-11331
▁enlargement	-11332
▁unnecessary	-11333
▁casual	-11334
▁drivers	-11335
rel	-11336
▁Show	-11337
▁attractive	-11338
▁Motion	-11339
▁experiencing	-11340
▁Van	-11341
▁Death	-11342
▁Telec	-11343
▁nominal	-11344
▁nit	-11345
▁delegated	-11346
▁grievance	-11347
)).	-11348
▁Subsid	-11349
▁Initial	-11350
iterran	-11351
▁Korean	-11352
cellaneous	-11353
FM	-11354
▁Recon	-11355
▁proteins	-11356
▁foundations	-11357
▁hypot	-11358
▁af	-11359
▁bw	-11360
▁restrict	-11361
▁Fil	-11362
▁bases	-11363
ignment	-11364
............	-11365
chen	-11366
▁corner	-11367
effectiveness	-11368
▁Ill	-11369
▁info	-11370
▁KT	-11371
nesday	-11372
▁Compet	-11373
▁prioritiz	-11374
▁perceptions	-11375
▁navigation	-11376
SH	-11377
dec	-11378
▁FDA	-11379
▁moral	-11380
▁admission	-11381
▁yields	-11382
▁Rapporteur	-11383
oses	-11384
istant	-11385
orship	-11386
▁recovered	-11387
arbours	-11388
▁neutral	-11389
trollership	-11390
▁Sheet	-11391
▁individually	-11392
asse	-11393
▁SPEC	-11394
▁Frequently	-11395
▁Expenditure	-11396
▁internet	-11397
▁Emissions	-11398
ref	-11399
▁Light	-11400
▁groundwater	-11401
▁tom	-11402
▁Electricity	-11403
▁ble	-11404
▁drawings	-11405
▁behavioural	-11406
SPR	-11407
▁alia	-11408
▁filter	-11409
▁variability	-11410
Le	-11411
body	-11412
edge	-11413
▁GATS	-11414
▁crimes	-11415
▁Tuesday	-11416
excluding	-11417
▁statutes	-11418
▁converted	-11419
▁preventive	-11420
▁defend	-11421
urt	-11422
▁COL	-11423
▁amalgam	-11424
▁Advis	-11425
▁prolong	-11426
▁seats	-11427
▁organised	-11428
holm	-11429
▁cuts	-11430
utures	-11431
iterranean	-11432
▁creditors	-11433
trad	-11434
amph	-11435
▁exhibition	-11436
▁Examination	-11437
▁Statistical	-11438
)]	-11439
▁Schools	-11440
▁continuity	-11441
▁Fri	-11442
▁Microb	-11443
▁recept	-11444
▁Islands	-11445
DO	-11446
▁dioxide	-11447
▁mixture	-11448
ITS	-11449
▁split	-11450
▁danger	-11451
places	-11452
▁Balance	-11453
▁Italian	-11454
▁authentic	-11455
eor	-11456
▁Lithu	-11457
▁Ambass	-11458
▁Host	-11459
▁County	-11460
▁Doug	-11461
▁accelerate	-11462
▁assembly	-11463
Toronto	-11464
velo	-11465
▁Has	-11466
▁accessed	-11467
▁mutually	-11468
▁belonging	-11469
▁Accommodation	-11470
▁discussing	-11471
obe	-11472
▁MO	-11473
▁Fee	-11474
▁Idris	-11475
▁Module	-11476
rows	-11477
criptive	-11478
▁Hy	-11479
▁Sand	-11480
xi	-11481
etown	-11482
▁Trial	-11483
▁Mi	-11484
irsc	-11485
▁liaison	-11486
▁ABC	-11487
▁Privy	-11488
ths	-11489
▁forming	-11490
▁trig	-11491
ENCES	-11492
ritten	-11493
▁illustrate	-11494
▁shore	-11495
▁REGION	-11496
▁racial	-11497
▁Various	-11498
▁institute	-11499
▁flag	-11500
▁Kyoto	-11501
▁soils	-11502
▁theore	-11503
▁Welfare	-11504
▁advancing	-11505
▁mic	-11506
▁Cyprus	-11507
▁proved	-11508
▁mediation	-11509
▁inconsistent	-11510
Ac	-11511
vo	-11512
▁TD	-11513
▁severity	-11514
cyc	-11515
▁deleted	-11516
▁sulphur	-11517
▁objection	-11518
▁Enterprise	-11519
▁warrant	-11520
conn	-11521
▁Appoint	-11522
▁musical	-11523
neum	-11524
▁EMP	-11525
▁remitt	-11526
ogenicity	-11527
▁discrimin	-11528
enter	-11529
bsites	-11530
inner	-11531
best	-11532
ickel	-11533
▁assumption	-11534
▁cars	-11535
▁auction	-11536
▁hospitality	-11537
▁prohibition	-11538
▁hyd	-11539
▁destroyed	-11540
arf	-11541
▁Invol	-11542
▁liberalization	-11543
▁coordinator	-11544
▁huge	-11545
▁Territory	-11546
hous	-11547
▁utilized	-11548
▁visibility	-11549
canada	-11550
▁wished	-11551
▁Actions	-11552
▁Clients	-11553
▁Anderson	-11554
▁credited	-11555
▁accidents	-11556
▁encountered	-11557
▁registrations	-11558
"),	-11559
commercial	-11560
▁Take	-11561
▁appeals	-11562
▁template	-11563
▁onset	-11564
▁surfaces	-11565
▁updating	-11566
▁epidemiological	-11567
▁Marie	-11568
▁virtue	-11569
▁electro	-11570
▁violations	-11571
▁representations	-11572
Ontario	-11573
▁steady	-11574
laws	-11575
GAN	-11576
▁Brit	-11577
autions	-11578
▁Fem	-11579
▁reader	-11580
▁invoice	-11581
▁intensity	-11582
▁freshwater	-11583
▁Rather	-11584
agen	-11585
▁Sil	-11586
gression	-11587
▁Plenary	-11588
eches	-11589
▁audited	-11590
▁Bang	-11591
▁postal	-11592
▁nearest	-11593
ineau	-11594
▁lies	-11595
▁remainder	-11596
▁Chairperson	-11597
ropol	-11598
▁Drive	-11599
▁BR	-11600
▁Multiple	-11601
▁liquidity	-11602
▁Fif	-11603
▁tank	-11604
▁forests	-11605
rorism	-11606
▁Nurses	-11607
▁Palest	-11608
▁confident	-11609
isher	-11610
mun	-11611
▁Tom	-11612
▁monitors	-11613
▁connections	-11614
uits	-11615
▁vig	-11616
ethylene	-11617
hydro	-11618
▁Labelling	-11619
▁Associations	-11620
▁breat	-11621
KH	-11622
ingly	-11623
▁burn	-11624
Official	-11625
▁delayed	-11626
▁optical	-11627
▁shareholder	-11628
▁MIN	-11629
▁heter	-11630
▁retrie	-11631
▁streams	-11632
▁Component	-11633
▁convenience	-11634
EG	-11635
former	-11636
ursday	-11637
han	-11638
▁promising	-11639
▁aver	-11640
▁Conclusions	-11641
▁brid	-11642
▁Context	-11643
▁Revenues	-11644
▁Examining	-11645
▁comprising	-11646
vie	-11647
▁Hol	-11648
ologics	-11649
▁designate	-11650
▁SUPP	-11651
▁lump	-11652
akistan	-11653
▁Drinking	-11654
▁commissions	-11655
Section	-11656
▁Injury	-11657
▁Valley	-11658
▁Railway	-11659
▁manages	-11660
andise	-11661
▁teacher	-11662
▁OP	-11663
tibility	-11664
▁holiday	-11665
▁commissioned	-11666
▁lose	-11667
▁Campaign	-11668
driven	-11669
▁Mater	-11670
eliness	-11671
▁ranges	-11672
weight	-11673
▁Bra	-11674
▁qui	-11675
▁Joseph	-11676
▁Bankruptcy	-11677
▁Wednesday	-11678
▁Publishers	-11679
▁ICTs	-11680
irical	-11681
▁INV	-11682
▁Applied	-11683
▁roughly	-11684
itary	-11685
▁salts	-11686
▁declar	-11687
zz	-11688
IRAP	-11689
info	-11690
ucks	-11691
▁wastewater	-11692
▁games	-11693
▁IMHA	-11694
▁Andrew	-11695
▁stands	-11696
▁weaknesses	-11697
pat	-11698
egal	-11699
except	-11700
▁congrat	-11701
▁scales	-11702
▁terminated	-11703
▁contractors	-11704
▁Windsor	-11705
▁Expl	-11706
▁rooms	-11707
▁Operation	-11708
▁readiness	-11709
▁compromise	-11710
▁manif	-11711
▁Candid	-11712
stone	-11713
EB	-11714
▁deployed	-11715
▁Lower	-11716
▁lakes	-11717
placement	-11718
▁Requests	-11719
▁speakers	-11720
▁Daniel	-11721
▁IAB	-11722
▁unre	-11723
▁aside	-11724
ootnote	-11725
▁communicating	-11726
prov	-11727
stat	-11728
inational	-11729
▁Associates	-11730
▁attacks	-11731
▁counterfe	-11732
▁traditions	-11733
LC	-11734
▁Maur	-11735
▁outdoor	-11736
riers	-11737
▁retroactive	-11738
▁Deg	-11739
search	-11740
cers	-11741
▁preference	-11742
▁IG	-11743
▁placing	-11744
pres	-11745
▁predominant	-11746
sur	-11747
▁Brown	-11748
▁pa	-11749
▁Shared	-11750
▁smoked	-11751
▁discount	-11752
iler	-11753
hus	-11754
▁switch	-11755
▁RESOURC	-11756
▁Additionally	-11757
▁complications	-11758
▁demonstrating	-11759
▁gly	-11760
▁Radiation	-11761
▁California	-11762
▁wal	-11763
▁piece	-11764
acking	-11765
▁fraction	-11766
ratory	-11767
ectivity	-11768
▁naturally	-11769
▁expiration	-11770
▁unus	-11771
▁Behavi	-11772
eligible	-11773
▁calcium	-11774
▁posting	-11775
CG	-11776
ICH	-11777
▁Sa	-11778
▁EPO	-11779
▁enorm	-11780
▁tubes	-11781
GST	-11782
raq	-11783
origin	-11784
▁MET	-11785
▁pieces	-11786
▁specialty	-11787
▁discovered	-11788
▁RA	-11789
▁Alex	-11790
▁Pharmaceutical	-11791
arl	-11792
▁zones	-11793
▁je	-11794
brid	-11795
oster	-11796
▁bias	-11797
▁justification	-11798
cribing	-11799
▁Parent	-11800
▁Thomas	-11801
▁referral	-11802
▁rigorous	-11803
▁Radi	-11804
▁entries	-11805
▁Feedback	-11806
▁thousand	-11807
▁collaborate	-11808
Cl	-11809
UES	-11810
contin	-11811
▁cancellation	-11812
ORD	-11813
▁Arbit	-11814
▁guilty	-11815
▁HQ	-11816
arer	-11817
total	-11818
▁Guarant	-11819
cipitation	-11820
▁suffering	-11821
▁accumulated	-11822
▁appropriations	-11823
kes	-11824
nam	-11825
▁FO	-11826
Line	-11827
▁Tier	-11828
▁trafficking	-11829
inea	-11830
▁thick	-11831
process	-11832
▁restaur	-11833
▁unemployed	-11834
▁Coalition	-11835
home	-11836
▁INMHA	-11837
▁ion	-11838
▁buying	-11839
▁Forecast	-11840
▁Treaties	-11841
▁Licensee	-11842
▁addiction	-11843
▁Jul	-11844
▁Path	-11845
▁Substance	-11846
▁proposing	-11847
▁tight	-11848
▁Latvia	-11849
▁reverse	-11850
▁got	-11851
▁sand	-11852
taking	-11853
umbers	-11854
▁noise	-11855
ESCO	-11856
▁inters	-11857
▁compli	-11858
▁enrolled	-11859
oo	-11860
▁posts	-11861
▁plasma	-11862
▁Investigation	-11863
ORS	-11864
▁DIN	-11865
▁asser	-11866
valuation	-11867
lif	-11868
kele	-11869
▁coherent	-11870
ingency	-11871
logical	-11872
▁Adjustment	-11873
Que	-11874
mium	-11875
▁FTA	-11876
ruguay	-11877
▁TAR	-11878
▁Motor	-11879
gressive	-11880
▁suggestion	-11881
▁stamp	-11882
▁oversee	-11883
▁Very	-11884
▁layer	-11885
▁Philippines	-11886
▁eliminating	-11887
▁alle	-11888
▁spoke	-11889
▁gasoline	-11890
points	-11891
▁offshore	-11892
fold	-11893
▁Catal	-11894
▁Recre	-11895
▁DEP	-11896
▁Thursday	-11897
▁remember	-11898
leading	-11899
▁maternal	-11900
▁federally	-11901
▁finalized	-11902
▁CIC	-11903
▁petroleum	-11904
itious	-11905
keletal	-11906
▁economically	-11907
▁incumb	-11908
▁spirits	-11909
▁virtual	-11910
▁dramatic	-11911
haus	-11912
▁alg	-11913
▁comparing	-11914
▁selective	-11915
activ	-11916
▁buyers	-11917
▁damages	-11918
▁Involvement	-11919
CON	-11920
▁sleep	-11921
▁portable	-11922
▁plenary	-11923
▁Receiver	-11924
▁Announces	-11925
▁reward	-11926
tici	-11927
▁Ongoing	-11928
▁illnesses	-11929
▁accused	-11930
▁Patients	-11931
▁Organic	-11932
▁searches	-11933
▁landscape	-11934
zing	-11935
▁arrive	-11936
▁Old	-11937
▁Morocco	-11938
▁impairment	-11939
zed	-11940
function	-11941
▁Designs	-11942
▁judges	-11943
▁editorial	-11944
▁GU	-11945
▁CBC	-11946
▁replacing	-11947
TU	-11948
▁imag	-11949
▁Malta	-11950
▁whatever	-11951
▁derivatives	-11952
abeth	-11953
▁Iraq	-11954
itimes	-11955
▁texts	-11956
▁Explan	-11957
▁airports	-11958
▁boys	-11959
▁wire	-11960
▁mature	-11961
▁exploring	-11962
▁Arm	-11963
▁pertin	-11964
▁Charge	-11965
▁rock	-11966
▁dropped	-11967
▁Pakistan	-11968
▁urged	-11969
▁TECHN	-11970
▁Loss	-11971
▁theatre	-11972
▁whenever	-11973
▁Just	-11974
▁precaution	-11975
▁TABLE	-11976
▁GROUP	-11977
▁Stage	-11978
▁Church	-11979
▁conducts	-11980
▁realities	-11981
▁synthesis	-11982
pend	-11983
CCR	-11984
▁maritime	-11985
mo	-11986
matic	-11987
▁pipe	-11988
▁implies	-11989
▁admitted	-11990
▁tolerance	-11991
▁tradition	-11992
▁Manufacturers	-11993
▁_	-11994
▁remedies	-11995
▁Consultants	-11996
▁hence	-11997
▁ports	-11998
▁Alger	-11999
▁cogn	-12000
▁diagnosed	-12001
▁participatory	-12002
Aboriginal	-12003
▁distributor	-12004
March	-12005
icals	-12006
▁commented	-12007
▁attributes	-12008
▁oxide	-12009
▁door	-12010
▁metres	-12011
OND	-12012
▁town	-12013
ennial	-12014
opharm	-12015
▁Lieutenant	-12016
bel	-12017
▁eat	-12018
▁batch	-12019
▁intens	-12020
ublished	-12021
▁refugee	-12022
▁repayment	-12023
▁harvesting	-12024
▁Share	-12025
▁Opening	-12026
.]	-12027
▁ideal	-12028
▁reaff	-12029
▁kidney	-12030
▁surprising	-12031
▁potato	-12032
main	-12033
▁FED	-12034
▁Advoc	-12035
▁Leban	-12036
▁Emerging	-12037
▁tap	-12038
▁dominant	-12039
▁game	-12040
▁REGUL	-12041
▁leasing	-12042
▁imprison	-12043
▁tab	-12044
▁POLIC	-12045
▁touch	-12046
▁Outreach	-12047
HV	-12048
NO	-12049
May	-12050
phal	-12051
▁talent	-12052
▁Dispos	-12053
▁houses	-12054
▁clinics	-12055
▁Jack	-12056
▁COMMIT	-12057
▁intend	-12058
▁FM	-12059
atin	-12060
▁NCE	-12061
▁conceptual	-12062
housie	-12063
▁Experi	-12064
▁Budapest	-12065
▁collaborations	-12066
▁Lind	-12067
enture	-12068
▁Genetics	-12069
ées	-12070
▁traditionally	-12071
EV	-12072
IMS	-12073
▁Fle	-12074
claim	-12075
otype	-12076
▁Scott	-12077
▁Solutions	-12078
▁Stockholm	-12079
▁Enterprises	-12080
▁acquiring	-12081
▁Jim	-12082
▁NOR	-12083
indust	-12084
herche	-12085
▁stroke	-12086
financial	-12087
▁Chemicals	-12088
oud	-12089
rell	-12090
▁Gar	-12091
▁cellular	-12092
▁interval	-12093
ropriation	-12094
▁translated	-12095
▁VDD	-12096
▁bacterial	-12097
vate	-12098
lang	-12099
▁Violence	-12100
▁Direction	-12101
▁ger	-12102
▁tet	-12103
▁broken	-12104
▁treating	-12105
▁violation	-12106
throp	-12107
▁Stakeholders	-12108
▁Kos	-12109
▁Newsletter	-12110
▁seemed	-12111
child	-12112
thirds	-12113
▁surviv	-12114
rugg	-12115
▁boxes	-12116
▁absent	-12117
▁Download	-12118
▁harassment	-12119
CIAL	-12120
cond	-12121
▁Books	-12122
RIB	-12123
▁statistically	-12124
▁Guideline	-12125
▁Uruguay	-12126
▁ré	-12127
April	-12128
▁absor	-12129
residents	-12130
▁BA	-12131
aughter	-12132
▁Concent	-12133
)/	-12134
▁successes	-12135
▁aviation	-12136
▁officially	-12137
▁modernization	-12138
lots	-12139
umed	-12140
▁CORPOR	-12141
▁neglig	-12142
▁mitigate	-12143
ruits	-12144
▁Costa	-12145
itudinal	-12146
response	-12147
▁respects	-12148
▁corrected	-12149
▁PD	-12150
ounds	-12151
▁pest	-12152
▁diver	-12153
▁auditors	-12154
▁philosoph	-12155
▁Millennium	-12156
▁concurrent	-12157
▁norms	-12158
vol	-12159
athy	-12160
itan	-12161
▁style	-12162
contract	-12163
▁Dispute	-12164
▁referendum	-12165
▁canad	-12166
▁Dental	-12167
▁bat	-12168
▁custody	-12169
▁AF	-12170
ilation	-12171
▁Ambassador	-12172
▁sponsorship	-12173
▁da	-12174
▁stic	-12175
▁newspaper	-12176
▁Profession	-12177
hema	-12178
▁MAP	-12179
▁happens	-12180
▁clusters	-12181
play	-12182
ichever	-12183
▁vitamin	-12184
▁anc	-12185
▁president	-12186
fall	-12187
▁Estonia	-12188
▁shif	-12189
gestion	-12190
▁appearance	-12191
▁lod	-12192
▁validated	-12193
ACK	-12194
▁advisors	-12195
▁Salmonella	-12196
▁PEI	-12197
ighth	-12198
▁accelerated	-12199
RIC	-12200
▁OFFICE	-12201
▁Charges	-12202
▁Maritimes	-12203
▁departure	-12204
▁occupation	-12205
▁regulators	-12206
erated	-12207
erical	-12208
▁Ghana	-12209
▁administrator	-12210
▁NF	-12211
▁medi	-12212
▁surgical	-12213
▁conventions	-12214
tiles	-12215
▁Elim	-12216
▁arbitration	-12217
▁matching	-12218
ky	-12219
imp	-12220
▁pir	-12221
▁soy	-12222
▁Ba	-12223
▁banknotes	-12224
soft	-12225
▁Stewardship	-12226
▁refine	-12227
▁creators	-12228
▁abilities	-12229
October	-12230
▁implant	-12231
estinal	-12232
▁Levels	-12233
RATION	-12234
▁scrut	-12235
▁Indians	-12236
took	-12237
▁terminology	-12238
ele	-12239
▁vide	-12240
ateur	-12241
▁soldiers	-12242
▁vulnerability	-12243
RES	-12244
Term	-12245
called	-12246
▁Refund	-12247
▁Correctional	-12248
▁Wheat	-12249
▁adequacy	-12250
▁Promoting	-12251
▁benz	-12252
▁victim	-12253
▁Lithuania	-12254
▁Investments	-12255
▁Collaboration	-12256
▁diesel	-12257
▁prohibit	-12258
▁persistent	-12259
TIN	-12260
esis	-12261
achment	-12262
▁simultaneously	-12263
Total	-12264
▁endorse	-12265
▁continuously	-12266
▁driver	-12267
onograms	-12268
▁Aviation	-12269
▁disparities	-12270
▁CTC	-12271
▁Britain	-12272
▁secured	-12273
▁Estimated	-12274
▁unused	-12275
▁benefited	-12276
ENS	-12277
▁weights	-12278
olf	-12279
▁die	-12280
ateway	-12281
▁builds	-12282
▁cotton	-12283
▁APPLICATION	-12284
▁Clin	-12285
▁illustrated	-12286
onic	-12287
asted	-12288
▁Camb	-12289
▁tube	-12290
UC	-12291
▁DA	-12292
▁Questionna	-12293
▁enrich	-12294
▁petition	-12295
▁Nov	-12296
▁inhalation	-12297
▁illustrates	-12298
▁measurable	-12299
▁questionnaires	-12300
tra	-12301
▁Assets	-12302
▁unexpected	-12303
▁CSB	-12304
▁magnetic	-12305
kind	-12306
▁emergence	-12307
▁PROT	-12308
mediate	-12309
document	-12310
▁Storage	-12311
▁alignment	-12312
iat	-12313
fast	-12314
medic	-12315
▁merger	-12316
▁Ly	-12317
▁wheel	-12318
▁EV	-12319
ière	-12320
▁Items	-12321
▁Breast	-12322
▁routes	-12323
▁adjacent	-12324
▁tailored	-12325
▁attachment	-12326
▁Confederation	-12327
▁evolved	-12328
available	-12329
Nor	-12330
OUS	-12331
rals	-12332
▁Ens	-12333
tual	-12334
▁Device	-12335
▁wishing	-12336
▁newsletter	-12337
entia	-12338
▁Used	-12339
iliary	-12340
▁compiled	-12341
▁incorrect	-12342
▁unauthorized	-12343
Col	-12344
▁Sir	-12345
lymph	-12346
▁seeds	-12347
▁extends	-12348
▁habitats	-12349
▁affiliated	-12350
▁SI	-12351
▁Carol	-12352
▁hosting	-12353
▁Magazine	-12354
judic	-12355
▁inhibit	-12356
▁Diplomatic	-12357
▁distinctive	-12358
Ms	-12359
▁viv	-12360
made	-12361
▁COP	-12362
ressive	-12363
gue	-12364
human	-12365
▁importing	-12366
da	-12367
▁PLAN	-12368
▁français	-12369
▁decentral	-12370
▁pertinent	-12371
obenz	-12372
▁santé	-12373
▁Throughout	-12374
▁strugg	-12375
ISA	-12376
eck	-12377
benef	-12378
▁poore	-12379
▁Slovakia	-12380
▁Tro	-12381
aturated	-12382
▁Include	-12383
▁warnings	-12384
ften	-12385
▁Metal	-12386
spons	-12387
▁Currency	-12388
▁Cat	-12389
ogene	-12390
particip	-12391
▁Accession	-12392
ffee	-12393
▁pulp	-12394
▁neighb	-12395
▁recycling	-12396
Environment	-12397
▁Then	-12398
▁Trials	-12399
▁Controls	-12400
▁ministerial	-12401
▁visa	-12402
▁Degree	-12403
▁Ground	-12404
▁rarely	-12405
▁Impacts	-12406
▁abnormal	-12407
▁allocate	-12408
chair	-12409
▁User	-12410
icides	-12411
▁raises	-12412
▁STR	-12413
▁guard	-12414
ATEG	-12415
June	-12416
▁ambient	-12417
▁lawyers	-12418
▁emergencies	-12419
▁phr	-12420
▁trib	-12421
ovember	-12422
▁Petroleum	-12423
▁whichever	-12424
sen	-12425
▁weighted	-12426
Government	-12427
TEE	-12428
ensitive	-12429
▁Distrib	-12430
▁dynamics	-12431
▁emphasize	-12432
map	-12433
▁ratios	-12434
▁Dead	-12435
▁sulf	-12436
▁relie	-12437
▁Hospitality	-12438
▁Collaborative	-12439
rote	-12440
▁Dalhousie	-12441
▁placebo	-12442
▁quarters	-12443
▁memory	-12444
win	-12445
▁clarified	-12446
▁Pharmaceuticals	-12447
November	-12448
▁tremend	-12449
▁bankrupt	-12450
ses	-12451
▁PB	-12452
▁Nam	-12453
▁Rog	-12454
▁breach	-12455
▁Minority	-12456
▁Ombudsman	-12457
▁REQU	-12458
ila	-12459
▁experiment	-12460
▁PAT	-12461
Donald	-12462
PPT	-12463
prin	-12464
antit	-12465
▁remedy	-12466
▁Methodology	-12467
▁Physicians	-12468
▁GMP	-12469
▁unt	-12470
▁Pest	-12471
osc	-12472
▁characteristic	-12473
▁Marc	-12474
▁dramatically	-12475
▁sophisticated	-12476
▁Mandate	-12477
▁artificial	-12478
▁dependence	-12479
ión	-12480
OVERN	-12481
▁Alan	-12482
▁suggesting	-12483
▁ESCB	-12484
▁Historical	-12485
ERE	-12486
▁Cou	-12487
▁saying	-12488
▁Fast	-12489
United	-12490
RODUCTION	-12491
bell	-12492
▁tox	-12493
▁drafted	-12494
▁Frequency	-12495
▁interface	-12496
▁unw	-12497
▁debtor	-12498
otic	-12499
▁tract	-12500
▁overlap	-12501
▁coordinators	-12502
▁Million	-12503
▁fabrics	-12504
▁Nigeria	-12505
▁presently	-12506
export	-12507
▁neighbourhood	-12508
irms	-12509
chlor	-12510
otherapy	-12511
▁undertook	-12512
▁ax	-12513
▁trusts	-12514
emoranda	-12515
▁CAT	-12516
haust	-12517
▁ascertain	-12518
ager	-12519
▁aligned	-12520
▁himself	-12521
▁compulsory	-12522
anne	-12523
▁Far	-12524
▁USD	-12525
▁horm	-12526
▁Acting	-12527
▁Fourth	-12528
▁Poverty	-12529
▁renal	-12530
▁automotive	-12531
▁readers	-12532
▁reception	-12533
vy	-12534
heimer	-12535
▁Course	-12536
▁summarizes	-12537
▁temporarily	-12538
▁careers	-12539
isp	-12540
▁complied	-12541
▁suffered	-12542
entions	-12543
plates	-12544
CAN	-12545
SCE	-12546
▁spok	-12547
▁microb	-12548
▁repairs	-12549
▁vertical	-12550
box	-12551
▁Corp	-12552
▁maps	-12553
▁subd	-12554
▁beliefs	-12555
▁empower	-12556
▁TE	-12557
▁bit	-12558
▁Taxation	-12559
▁Issued	-12560
▁Retirement	-12561
MG	-12562
▁Engine	-12563
▁characterised	-12564
▁appl	-12565
▁array	-12566
▁moist	-12567
▁licenses	-12568
weet	-12569
▁NCBs	-12570
▁preferences	-12571
▁Consolidated	-12572
▁CENT	-12573
WS	-12574
▁Sund	-12575
▁quotas	-12576
Sm	-12577
▁RM	-12578
▁ring	-12579
rovers	-12580
▁Yellow	-12581
▁commercially	-12582
▁syner	-12583
▁contemporary	-12584
▁Nice	-12585
review	-12586
▁Asked	-12587
▁shorter	-12588
GR	-12589
▁module	-12590
enna	-12591
uine	-12592
▁mould	-12593
ni	-12594
▁PSC	-12595
oping	-12596
▁Arti	-12597
enh	-12598
▁TAX	-12599
▁taxed	-12600
▁Liaison	-12601
▁Units	-12602
▁PLT	-12603
▁Steps	-12604
▁Bosnia	-12605
Cont	-12606
liant	-12607
▁referring	-12608
▁Presidency	-12609
atisfaction	-12610
▁appreciate	-12611
posed	-12612
▁Seed	-12613
acks	-12614
lose	-12615
▁adopts	-12616
▁tender	-12617
ilization	-12618
▁vegetable	-12619
▁currencies	-12620
▁Discussions	-12621
▁experiments	-12622
▁vaccination	-12623
▁PHAC	-12624
▁insight	-12625
▁Did	-12626
▁Establishing	-12627
aysia	-12628
▁Passport	-12629
▁minerals	-12630
▁Specified	-12631
▁economics	-12632
EI	-12633
▁marking	-12634
▁Administrator	-12635
▁Conv	-12636
▁hire	-12637
▁loading	-12638
▁importantly	-12639
▁Unfortunately	-12640
▁forums	-12641
grap	-12642
▁ORGAN	-12643
agers	-12644
ACT	-12645
▁bag	-12646
▁Mining	-12647
▁Directives	-12648
▁enthus	-12649
▁leisure	-12650
▁Minimum	-12651
▁autonomy	-12652
▁Gal	-12653
urate	-12654
▁seiz	-12655
▁Laurier	-12656
▁kilometres	-12657
Of	-12658
itives	-12659
▁Bond	-12660
▁OLMC	-12661
▁Equal	-12662
▁globally	-12663
▁Epidemiology	-12664
▁CV	-12665
▁cooperate	-12666
▁francophone	-12667
▁biology	-12668
▁verified	-12669
▁conditional	-12670
SOs	-12671
▁FTE	-12672
▁adds	-12673
leting	-12674
▁bread	-12675
▁irrig	-12676
▁Weather	-12677
ffice	-12678
ocultural	-12679
knowledge	-12680
▁Supplies	-12681
▁finances	-12682
▁EDI	-12683
▁AUCC	-12684
▁tension	-12685
dam	-12686
luor	-12687
▁facilitates	-12688
▁CTA	-12689
▁Phil	-12690
▁Failure	-12691
dependent	-12692
ba	-12693
▁troops	-12694
▁PROCESS	-12695
▁undergo	-12696
▁optional	-12697
▁phenomenon	-12698
ema	-12699
▁Comparison	-12700
ena	-12701
▁FS	-12702
▁clearing	-12703
▁Camer	-12704
▁syndrome	-12705
▁websites	-12706
▁milest	-12707
▁cancelled	-12708
▁moves	-12709
▁receivable	-12710
▁Almost	-12711
▁median	-12712
▁GO	-12713
bidity	-12714
▁sac	-12715
▁theoretical	-12716
▁pharmaceuticals	-12717
▁complicated	-12718
▁PIP	-12719
▁STI	-12720
▁fron	-12721
ouncil	-12722
default	-12723
▁welcomes	-12724
information	-12725
▁irre	-12726
▁enquiries	-12727
▁outlining	-12728
▁Ess	-12729
▁eco	-12730
▁DB	-12731
▁Pollution	-12732
▁designing	-12733
ommunication	-12734
▁appreciated	-12735
▁***	-12736
issau	-12737
rying	-12738
▁favor	-12739
▁Points	-12740
▁reproduced	-12741
▁GM	-12742
’.	-12743
▁SW	-12744
▁HOM	-12745
▁apart	-12746
▁lymph	-12747
▁ranked	-12748
▁extraction	-12749
▁installations	-12750
etus	-12751
atial	-12752
groups	-12753
▁enormous	-12754
▁EUROPE	-12755
▁Critical	-12756
assion	-12757
▁remarks	-12758
▁Circular	-12759
********	-12760
▁briefly	-12761
▁obliged	-12762
▁recipro	-12763
▁sitting	-12764
ITC	-12765
▁NPRI	-12766
▁Types	-12767
ordinate	-12768
▁decreasing	-12769
▁Lam	-12770
▁argue	-12771
▁drink	-12772
Comp	-12773
▁CMF	-12774
▁collateral	-12775
▁disseminate	-12776
▁LIM	-12777
▁abstract	-12778
▁exactly	-12779
▁nevertheless	-12780
▁Heads	-12781
▁Until	-12782
▁Element	-12783
▁Monograph	-12784
▁approvals	-12785
▁DEVELOPMENT	-12786
▁Dian	-12787
▁arrived	-12788
▁Structural	-12789
▁NGO	-12790
▁RESOURCES	-12791
ASE	-12792
▁unpaid	-12793
▁firearms	-12794
▁Attorney	-12795
éri	-12796
farm	-12797
▁Cas	-12798
▁Appell	-12799
▁attitude	-12800
GET	-12801
Int	-12802
quarter	-12803
▁Brian	-12804
▁therein	-12805
▁shortage	-12806
▁Mut	-12807
▁safeguards	-12808
▁PRE	-12809
▁incub	-12810
▁educate	-12811
▁prevented	-12812
▁Outs	-12813
▁hundreds	-12814
▁Applicable	-12815
Ann	-12816
ORY	-12817
▁BI	-12818
▁Rac	-12819
▁lived	-12820
zheimer	-12821
▁statute	-12822
▁Continue	-12823
▁Symposium	-12824
▁susceptible	-12825
▁Ho	-12826
▁gun	-12827
▁broker	-12828
▁INTRODUCTION	-12829
▁Mold	-12830
▁crossing	-12831
POS	-12832
▁Louis	-12833
JECT	-12834
okine	-12835
worth	-12836
▁Tower	-12837
▁withheld	-12838
Or	-12839
▁Mel	-12840
▁roads	-12841
▁dust	-12842
▁executives	-12843
▁solve	-12844
▁processors	-12845
ny	-12846
dig	-12847
▁differently	-12848
▁Announcement	-12849
▁OS	-12850
seen	-12851
▁Vit	-12852
▁wall	-12853
▁closure	-12854
▁Diversification	-12855
▁linkage	-12856
▁Answ	-12857
▁cosme	-12858
▁pressing	-12859
▁APEC	-12860
ums	-12861
▁ALL	-12862
▁Unless	-12863
▁chaired	-12864
▁enrolment	-12865
isc	-12866
▁Ten	-12867
▁aggressive	-12868
▁harmonized	-12869
▁Ox	-12870
etermination	-12871
▁accomplishments	-12872
▁GE	-12873
▁Mob	-12874
▁Counsell	-12875
▁Palestin	-12876
▁avoided	-12877
▁additions	-12878
▁threatened	-12879
▁logic	-12880
▁Boards	-12881
▁critic	-12882
apt	-12883
▁imprisonment	-12884
▁spot	-12885
▁yearly	-12886
▁Liberal	-12887
▁deficits	-12888
▁supervisory	-12889
▁necessity	-12890
▁ARE	-12891
▁REB	-12892
▁insights	-12893
▁Architect	-12894
estation	-12895
rait	-12896
▁Club	-12897
▁dign	-12898
▁Listing	-12899
▁inventor	-12900
▁RF	-12901
duced	-12902
▁Lack	-12903
▁Quick	-12904
▁restrictive	-12905
▁chem	-12906
▁tree	-12907
▁Includes	-12908
ultinational	-12909
iners	-12910
▁openness	-12911
ackets	-12912
adron	-12913
▁malaria	-12914
▁unacceptable	-12915
offs	-12916
▁inm	-12917
▁settled	-12918
▁Universal	-12919
▁gone	-12920
clinical	-12921
▁occupations	-12922
agr	-12923
olicy	-12924
▁extraordinary	-12925
OCI	-12926
▁Nan	-12927
▁empirical	-12928
▁Flow	-12929
ancell	-12930
▁Move	-12931
▁Marsh	-12932
▁Comprehensive	-12933
LU	-12934
ERSON	-12935
▁lasting	-12936
five	-12937
atineau	-12938
▁decreases	-12939
ora	-12940
enez	-12941
▁allot	-12942
▁turnover	-12943
kin	-12944
▁Acadian	-12945
▁homeless	-12946
▁constantly	-12947
▁Ug	-12948
▁Ris	-12949
▁shifts	-12950
▁separated	-12951
upp	-12952
EARCH	-12953
▁push	-12954
cripts	-12955
▁Iceland	-12956
▁Kingston	-12957
▁diligence	-12958
▁execution	-12959
▁reflection	-12960
▁thereafter	-12961
eding	-12962
▁Which	-12963
▁bought	-12964
▁restore	-12965
▁McMaster	-12966
▁substitute	-12967
mann	-12968
ochemical	-12969
▁restrain	-12970
Gu	-12971
▁cart	-12972
▁memb	-12973
prot	-12974
▁iii	-12975
SR	-12976
izabeth	-12977
▁Algeria	-12978
▁feeling	-12979
▁fi	-12980
▁ads	-12981
▁spaw	-12982
▁Transfers	-12983
▁constituted	-12984
dose	-12985
▁grades	-12986
KI	-12987
cor	-12988
▁Dos	-12989
▁Creation	-12990
▁feet	-12991
doctoral	-12992
▁Monthly	-12993
▁physically	-12994
▁rivers	-12995
▁consequently	-12996
▁deliberations	-12997
▁nan	-12998
reserve	-12999
▁fighting	-13000
ACE	-13001
▁pig	-13002
▁Rica	-13003
▁Comment	-13004
▁footnote	-13005
▁fishermen	-13006
▁recordings	-13007
▁educated	-13008
▁Tool	-13009
▁Pages	-13010
▁paint	-13011
December	-13012
▁regulating	-13013
▁assignments	-13014
KB	-13015
▁genuine	-13016
ski	-13017
▁educators	-13018
▁Outlook	-13019
▁Importer	-13020
iro	-13021
ocial	-13022
english	-13023
lorobenz	-13024
▁steadily	-13025
▁leverage	-13026
▁macroeconomic	-13027
feed	-13028
uffs	-13029
▁rubber	-13030
▁premature	-13031
▁Appropriate	-13032
STR	-13033
▁Professionals	-13034
STRU	-13035
ordan	-13036
ISSION	-13037
▁altered	-13038
▁Designated	-13039
virus	-13040
coholic	-13041
▁laying	-13042
▁merchandise	-13043
▁microorganisms	-13044
ylum	-13045
▁Brig	-13046
▁failing	-13047
▁RESEARCH	-13048
▁explaining	-13049
▁ministries	-13050
LOY	-13051
▁ho	-13052
▁recruiting	-13053
prop	-13054
Quebec	-13055
viations	-13056
▁exhaust	-13057
▁combating	-13058
▁inspectors	-13059
▁Effectiveness	-13060
▁Guy	-13061
natal	-13062
▁Warnings	-13063
▁discusses	-13064
▁viral	-13065
▁cycles	-13066
▁academics	-13067
cfm	-13068
▁Sit	-13069
▁Gill	-13070
omatic	-13071
▁tuition	-13072
▁alliances	-13073
▁consisted	-13074
▁translate	-13075
▁Jos	-13076
▁Furn	-13077
▁concludes	-13078
CY	-13079
▁acted	-13080
▁Responses	-13081
▁NOC	-13082
charge	-13083
▁enters	-13084
▁reimbursed	-13085
▁GATT	-13086
▁cope	-13087
Language	-13088
▁Stability	-13089
▁predicted	-13090
four	-13091
▁caps	-13092
▁spin	-13093
▁Assurance	-13094
▁§	-13095
▁py	-13096
▁mari	-13097
▁SECTION	-13098
▁claimants	-13099
uma	-13100
control	-13101
▁coaches	-13102
▁combine	-13103
▁strictly	-13104
▁tanks	-13105
vin	-13106
▁safer	-13107
▁politics	-13108
▁calibration	-13109
▁Deb	-13110
▁Charles	-13111
▁controvers	-13112
NAICS	-13113
▁overnight	-13114
oic	-13115
▁ratified	-13116
Americ	-13117
▁corrections	-13118
▁CMA	-13119
▁tends	-13120
umption	-13121
▁NATIONAL	-13122
▁modelling	-13123
emn	-13124
rimp	-13125
reton	-13126
▁abst	-13127
▁mouth	-13128
▁Rebate	-13129
▁Alzheimer	-13130
▁contracted	-13131
nic	-13132
amble	-13133
isite	-13134
▁Dairy	-13135
▁Former	-13136
▁assists	-13137
▁Nos	-13138
▁modes	-13139
▁storm	-13140
▁microbi	-13141
▁Secondary	-13142
La	-13143
ranet	-13144
▁religion	-13145
▁particulate	-13146
To	-13147
ÁÁÁÁ	-13148
▁credible	-13149
▁desk	-13150
▁secre	-13151
▁Inquiry	-13152
▁envelope	-13153
▁Negotiations	-13154
▁expectation	-13155
▁tur	-13156
▁Backgrounders	-13157
▁herb	-13158
▁recognised	-13159
elph	-13160
▁Div	-13161
▁tuberculosis	-13162
▁aids	-13163
▁friendly	-13164
▁promptly	-13165
arr	-13166
▁eyes	-13167
▁formaldehyde	-13168
▁BGTD	-13169
▁pamph	-13170
▁pneum	-13171
▁debates	-13172
▁Signature	-13173
loo	-13174
▁Elizabeth	-13175
▁disasters	-13176
eld	-13177
ione	-13178
senic	-13179
arbons	-13180
▁Cases	-13181
▁corruption	-13182
ERM	-13183
acters	-13184
▁arrest	-13185
▁inorganic	-13186
((	-13187
paid	-13188
▁Tunis	-13189
▁REFERENCES	-13190
▁reinforced	-13191
▁empow	-13192
▁attempted	-13193
▁irregular	-13194
ede	-13195
▁Cuba	-13196
▁Tanz	-13197
▁Jus	-13198
▁Islam	-13199
▁AGRE	-13200
▁refined	-13201
▁Liqu	-13202
▁seat	-13203
det	-13204
olds	-13205
▁arises	-13206
▁Promote	-13207
restim	-13208
▁accrued	-13209
FIN	-13210
ORE	-13211
drug	-13212
▁tumours	-13213
▁headings	-13214
▁celebrate	-13215
▁esc	-13216
▁dependant	-13217
▁blocks	-13218
▁Consideration	-13219
tains	-13220
▁Clerk	-13221
▁biomass	-13222
▁ensured	-13223
IDA	-13224
▁RSS	-13225
▁Approved	-13226
▁DC	-13227
▁chains	-13228
▁litigation	-13229
▁timeliness	-13230
▁barley	-13231
September	-13232
ws	-13233
▁Rati	-13234
▁NEX	-13235
▁perman	-13236
restrial	-13237
▁intervals	-13238
TF	-13239
HIP	-13240
annual	-13241
▁Wireless	-13242
▁superior	-13243
▁McL	-13244
▁observe	-13245
▁privilege	-13246
commerce	-13247
▁village	-13248
▁Purposes	-13249
▁fur	-13250
uitant	-13251
▁expects	-13252
▁tremendous	-13253
osa	-13254
▁Syd	-13255
▁aug	-13256
▁Salary	-13257
▁borrowing	-13258
TB	-13259
hi	-13260
▁LW	-13261
▁WAV	-13262
▁walk	-13263
tifiable	-13264
▁promise	-13265
pi	-13266
▁disciplinary	-13267
▁BP	-13268
▁insp	-13269
▁cheques	-13270
▁declines	-13271
▁atmospheric	-13272
▁Ta	-13273
itors	-13274
Par	-13275
▁(+	-13276
gone	-13277
isted	-13278
erenced	-13279
▁choosing	-13280
▁profound	-13281
▁collectively	-13282
▁Hom	-13283
▁voters	-13284
▁consultative	-13285
direct	-13286
enezuel	-13287
▁arranged	-13288
▁comprise	-13289
▁Statutory	-13290
ONE	-13291
▁repeat	-13292
▁occupied	-13293
▁informing	-13294
▁Acquisition	-13295
▁Proceedings	-13296
dn	-13297
URAL	-13298
▁fed	-13299
▁venti	-13300
▁answered	-13301
lyn	-13302
▁CEA	-13303
▁Pic	-13304
▁Tai	-13305
losed	-13306
▁fung	-13307
aska	-13308
▁invoices	-13309
▁ECU	-13310
▁commenced	-13311
▁absorption	-13312
olar	-13313
▁mild	-13314
otions	-13315
▁MEDIA	-13316
▁wholly	-13317
▁Rational	-13318
▁Look	-13319
▁shop	-13320
▁unusual	-13321
osite	-13322
▁Malaysia	-13323
▁Revision	-13324
HD	-13325
idal	-13326
▁STA	-13327
▁Processes	-13328
▁synthetic	-13329
▁metabolism	-13330
iop	-13331
itz	-13332
rem	-13333
▁reorganiz	-13334
▁concentrate	-13335
oha	-13336
uese	-13337
▁faces	-13338
▁paras	-13339
ometric	-13340
▁Edition	-13341
etermined	-13342
▁laundering	-13343
▁evolve	-13344
specified	-13345
▁securing	-13346
▁analyzing	-13347
▁OBJEC	-13348
okers	-13349
▁LDCs	-13350
ethane	-13351
▁shelf	-13352
▁elevated	-13353
▁Verification	-13354
▁Arthritis	-13355
▁Contracts	-13356
▁Rehabilitation	-13357
▁reconstruction	-13358
lott	-13359
▁Dial	-13360
▁Coverage	-13361
▁attracting	-13362
De	-13363
who	-13364
▁Ray	-13365
▁Vin	-13366
▁vap	-13367
toxic	-13368
▁classroom	-13369
▁prominent	-13370
▁Contractor	-13371
▁precautionary	-13372
▁Der	-13373
▁Chlor	-13374
▁doesn	-13375
▁Specifications	-13376
▁Shel	-13377
▁counts	-13378
▁sharp	-13379
▁starts	-13380
▁Considerations	-13381
'.	-13382
▁therefor	-13383
▁envisaged	-13384
▁administers	-13385
lades	-13386
▁Adoption	-13387
▁distinguished	-13388
▁qualification	-13389
▁wastes	-13390
▁Banking	-13391
traditional	-13392
▁landf	-13393
ressions	-13394
▁conviction	-13395
▁unclear	-13396
ovo	-13397
▁Plants	-13398
▁coating	-13399
icit	-13400
xiety	-13401
rosion	-13402
▁Editor	-13403
▁timber	-13404
▁Reaction	-13405
ami	-13406
▁passage	-13407
▁Memorial	-13408
GDP	-13409
seed	-13410
ération	-13411
▁scores	-13412
▁pictures	-13413
▁Depending	-13414
▁Sudan	-13415
éc	-13416
▁Pear	-13417
▁SCHED	-13418
National	-13419
▁residues	-13420
▁entertainment	-13421
▁anten	-13422
▁enemy	-13423
▁Amounts	-13424
enzie	-13425
aug	-13426
elong	-13427
▁adversely	-13428
▁AMEND	-13429
▁nic	-13430
Ottawa	-13431
TV	-13432
FPA	-13433
help	-13434
▁Taxes	-13435
▁cease	-13436
▁impar	-13437
▁arthritis	-13438
▁CFB	-13439
ienne	-13440
▁____	-13441
▁Indicator	-13442
▁tac	-13443
▁Corps	-13444
▁Uganda	-13445
▁pensions	-13446
▁reliance	-13447
▁Scientist	-13448
▁subjected	-13449
▁TC	-13450
ERT	-13451
▁marriage	-13452
▁simplified	-13453
▁architecture	-13454
etitive	-13455
▁legacy	-13456
▁Neurosci	-13457
</	-13458
Jan	-13459
▁emerge	-13460
▁examinations	-13461
sct	-13462
ijing	-13463
▁fora	-13464
▁couple	-13465
▁SERVICE	-13466
▁ambitious	-13467
▁resolving	-13468
▁Portuguese	-13469
▁BSE	-13470
▁Guinea	-13471
▁grains	-13472
estivals	-13473
outheast	-13474
▁Forward	-13475
▁characters	-13476
▁Rod	-13477
▁Postal	-13478
administ	-13479
ominated	-13480
grou	-13481
tite	-13482
▁Francis	-13483
▁Keep	-13484
▁crises	-13485
▁knowledgeable	-13486
ado	-13487
lon	-13488
▁era	-13489
▁Apply	-13490
▁fragment	-13491
▁benchmarks	-13492
▁OSCE	-13493
▁Zone	-13494
▁boundary	-13495
▁societal	-13496
▁Representation	-13497
▁DATE	-13498
▁Minutes	-13499
▁pursuit	-13500
▁wherever	-13501
▁fulfilling	-13502
▁NET	-13503
▁gro	-13504
▁flights	-13505
▁Institut	-13506
▁spiritual	-13507
▁Hen	-13508
▁muscle	-13509
WHO	-13510
TICE	-13511
▁Beg	-13512
▁Susan	-13513
▁seeing	-13514
▁shortly	-13515
▁coins	-13516
▁interf	-13517
▁continuum	-13518
▁compliments	-13519
▁Adobe	-13520
▁IR	-13521
▁RRIF	-13522
▁Required	-13523
Mail	-13524
▁coc	-13525
grounder	-13526
▁labelled	-13527
▁fatty	-13528
rastruc	-13529
▁Figures	-13530
▁Profiles	-13531
▁COMMITTEE	-13532
▁prisoners	-13533
jan	-13534
▁Higher	-13535
▁organism	-13536
▁Commitment	-13537
backs	-13538
two	-13539
▁Clos	-13540
▁INDU	-13541
▁Cô	-13542
▁spon	-13543
▁ethylene	-13544
▁competency	-13545
▁Questionnaire	-13546
EPP	-13547
first	-13548
▁Creek	-13549
▁Maced	-13550
IFIC	-13551
▁Set	-13552
▁actu	-13553
cholar	-13554
▁Branches	-13555
▁senators	-13556
▁Analytical	-13557
▁Bruce	-13558
ateness	-13559
▁Letters	-13560
▁Fellowship	-13561
bu	-13562
endices	-13563
▁displays	-13564
▁fulfilled	-13565
▁SCM	-13566
▁teen	-13567
▁Venezuel	-13568
▁momentum	-13569
▁genetically	-13570
ipher	-13571
▁debts	-13572
▁Demand	-13573
Sh	-13574
arden	-13575
▁kits	-13576
payment	-13577
▁highway	-13578
▁warranted	-13579
▁misleading	-13580
dem	-13581
lants	-13582
▁bath	-13583
letins	-13584
▁penet	-13585
ethanol	-13586
▁anywhere	-13587
▁reiterated	-13588
▁Provides	-13589
▁chemistry	-13590
▁customary	-13591
▁MCO	-13592
▁outlets	-13593
▁genetics	-13594
▁specifies	-13595
▁commencement	-13596
entials	-13597
▁Stras	-13598
▁academia	-13599
▁CWB	-13600
▁inhib	-13601
▁joining	-13602
▁Scholars	-13603
OMM	-13604
▁buyer	-13605
▁expressly	-13606
GS	-13607
ilers	-13608
▁segreg	-13609
▁uptake	-13610
▁endeavour	-13611
▁challenged	-13612
▁recreation	-13613
assium	-13614
▁deciding	-13615
▁backgrounds	-13616
▁tied	-13617
▁Received	-13618
▁diameter	-13619
ulator	-13620
▁UNESCO	-13621
▁Mineral	-13622
▁illicit	-13623
Trans	-13624
henyl	-13625
ongue	-13626
▁Strasbourg	-13627
./	-13628
Ps	-13629
ocyt	-13630
▁ranks	-13631
▁proxim	-13632
▁mentoring	-13633
▁convenient	-13634
▁differential	-13635
▁hect	-13636
▁vill	-13637
tility	-13638
▁Channel	-13639
▁advisor	-13640
▁Waters	-13641
▁Membership	-13642
▁runs	-13643
olistic	-13644
▁Seminar	-13645
▁evening	-13646
▁declare	-13647
▁occasions	-13648
▁systematically	-13649
arked	-13650
▁Fresh	-13651
lottetown	-13652
▁summaries	-13653
▁Herz	-13654
▁Shell	-13655
▁cardiac	-13656
▁Prairies	-13657
ERY	-13658
uis	-13659
▁Sustainability	-13660
▁camer	-13661
limited	-13662
▁concess	-13663
OMS	-13664
iff	-13665
▁pt	-13666
TIVES	-13667
▁song	-13668
▁Recruit	-13669
▁watershed	-13670
▁influencing	-13671
aylor	-13672
eyond	-13673
resistant	-13674
▁Freedoms	-13675
▁Immunity	-13676
▁shortages	-13677
▁allegations	-13678
Ns	-13679
eals	-13680
igan	-13681
▁hab	-13682
▁coinc	-13683
▁Modified	-13684
▁Businesses	-13685
▁photographs	-13686
Ts	-13687
▁knew	-13688
▁Refugee	-13689
rea	-13690
▁NON	-13691
▁Bever	-13692
▁parks	-13693
▁Theatre	-13694
▁judgement	-13695
▁GHz	-13696
▁SYSTEMS	-13697
▁correctly	-13698
sum	-13699
▁injured	-13700
▁appraisal	-13701
▁continually	-13702
▁sewage	-13703
▁SCHEDULE	-13704
registered	-13705
▁personally	-13706
ovina	-13707
▁FORM	-13708
▁relied	-13709
▁deadlines	-13710
▁Laure	-13711
▁HA	-13712
▁DIR	-13713
IZATION	-13714
Pacific	-13715
▁van	-13716
▁pleasure	-13717
▁thresholds	-13718
▁lake	-13719
▁Risks	-13720
▁Reduce	-13721
▁charter	-13722
▁decides	-13723
▁ceremony	-13724
▁Arrangement	-13725
TIA	-13726
▁imbal	-13727
▁shipped	-13728
▁beverage	-13729
▁simplify	-13730
▁professions	-13731
▁fatal	-13732
▁lever	-13733
▁clinic	-13734
ICE	-13735
arus	-13736
▁cord	-13737
▁canola	-13738
▁Gatineau	-13739
esting	-13740
▁Except	-13741
▁chlorine	-13742
▁LEG	-13743
hy	-13744
empl	-13745
ladesh	-13746
▁Securities	-13747
▁lip	-13748
▁transferring	-13749
mg	-13750
▁FNIHB	-13751
▁payer	-13752
▁eradic	-13753
▁biggest	-13754
▁induced	-13755
▁Intervention	-13756
▁profitability	-13757
▁metric	-13758
reported	-13759
International	-13760
tele	-13761
▁craft	-13762
▁config	-13763
liest	-13764
▁Jordan	-13765
YH	-13766
ownt	-13767
▁disadvantaged	-13768
rach	-13769
▁ICRH	-13770
▁Senegal	-13771
▁convened	-13772
▁stresses	-13773
▁Alternate	-13774
▁Prec	-13775
▁upgrade	-13776
tbs	-13777
▁biomedical	-13778
MAC	-13779
ican	-13780
▁FDI	-13781
▁Goal	-13782
▁tended	-13783
▁Friends	-13784
▁friend	-13785
▁LC	-13786
vive	-13787
otine	-13788
▁partnering	-13789
high	-13790
▁surge	-13791
▁timef	-13792
▁Sydney	-13793
▁reclass	-13794
dy	-13795
▁saving	-13796
▁Looking	-13797
INGS	-13798
▁Measure	-13799
▁parking	-13800
▁extensively	-13801
▁gluc	-13802
▁Chain	-13803
▁molec	-13804
▁Providers	-13805
▁proportions	-13806
ANC	-13807
perform	-13808
▁Create	-13809
Public	-13810
▁logistics	-13811
▁>>	-13812
▁Toll	-13813
▁Jacques	-13814
API	-13815
▁IF	-13816
▁epis	-13817
▁dried	-13818
▁Clearly	-13819
▁frames	-13820
▁exhibits	-13821
▁principally	-13822
’,	-13823
Cons	-13824
egovina	-13825
OH	-13826
▁Sale	-13827
▁Star	-13828
timony	-13829
▁Advice	-13830
▁hybrid	-13831
▁Innovative	-13832
▁Dam	-13833
▁Incen	-13834
▁Taiwan	-13835
cuador	-13836
▁charts	-13837
▁father	-13838
▁proc	-13839
▁pensionable	-13840
▁IX	-13841
▁palliative	-13842
▁socioeconomic	-13843
ROL	-13844
▁dur	-13845
▁outer	-13846
▁mortgage	-13847
ulp	-13848
▁Si	-13849
▁Bol	-13850
▁plates	-13851
▁annuity	-13852
▁healthier	-13853
▁TRE	-13854
▁Associated	-13855
▁workplaces	-13856
▁NSERC	-13857
▁ASSOCI	-13858
▁filling	-13859
▁positively	-13860
ball	-13861
ounced	-13862
▁Liber	-13863
▁PROPER	-13864
▁literary	-13865
▁recherche	-13866
▁revolution	-13867
ahar	-13868
▁FISH	-13869
▁Hence	-13870
▁advocate	-13871
▁anticipate	-13872
▁Arbitration	-13873
Form	-13874
▁Penal	-13875
▁irrit	-13876
▁Kosovo	-13877
▁Prosec	-13878
▁Johnson	-13879
ICA	-13880
▁Brain	-13881
▁fruits	-13882
sch	-13883
▁Hard	-13884
▁Brazilian	-13885
▁predecess	-13886
▁periodically	-13887
Fe	-13888
Rel	-13889
▁Doha	-13890
▁Jane	-13891
▁abol	-13892
▁Mobile	-13893
▁multimedia	-13894
link	-13895
▁Lank	-13896
▁Miscellaneous	-13897
ervice	-13898
▁monop	-13899
▁Vehicles	-13900
▁wave	-13901
▁detention	-13902
ALS	-13903
OUND	-13904
▁watch	-13905
▁tel	-13906
▁cognitive	-13907
▁commentary	-13908
▁transfusion	-13909
pert	-13910
▁dark	-13911
CRA	-13912
Per	-13913
ained	-13914
▁blind	-13915
▁industrialized	-13916
▁vice	-13917
WTO	-13918
▁Quantit	-13919
▁postpon	-13920
▁ranking	-13921
▁resolutions	-13922
▁Unlike	-13923
▁adjudic	-13924
AIN	-13925
ighter	-13926
▁coupled	-13927
▁auto	-13928
▁Macedonia	-13929
▁explanations	-13930
▁countervailing	-13931
▁appren	-13932
▁Telecom	-13933
▁Published	-13934
otech	-13935
▁Names	-13936
VEN	-13937
▁ceases	-13938
▁hunting	-13939
▁questioned	-13940
▁destinations	-13941
▁efficiencies	-13942
kn	-13943
lie	-13944
▁Times	-13945
▁GL	-13946
territ	-13947
▁undue	-13948
research	-13949
▁outset	-13950
▁Advisories	-13951
ATES	-13952
▁commencing	-13953
▁Wa	-13954
▁bon	-13955
ambia	-13956
▁FAQs	-13957
qualified	-13958
▁vitality	-13959
ILITY	-13960
▁Serb	-13961
▁disagree	-13962
▁Cad	-13963
▁inev	-13964
American	-13965
▁Stakeholder	-13966
▁Coll	-13967
nement	-13968
▁Demonst	-13969
LQ	-13970
▁grouped	-13971
ographical	-13972
▁sa	-13973
idad	-13974
kins	-13975
▁intakes	-13976
GP	-13977
▁Swedish	-13978
▁BEN	-13979
omers	-13980
▁Ross	-13981
▁aspir	-13982
▁Tanzania	-13983
▁vegetation	-13984
acer	-13985
▁tips	-13986
▁entitlements	-13987
uming	-13988
▁Mack	-13989
methyl	-13990
▁Budgetary	-13991
▁abundance	-13992
ivic	-13993
▁Meals	-13994
▁Lebanon	-13995
▁instalment	-13996
▁GOVERN	-13997
lle	-13998
▁manip	-13999
▁analysed	-14000
▁recommending	-14001
▁Sri	-14002
ierarch	-14003
▁Indicate	-14004
▁Residential	-14005
At	-14006
Year	-14007
both	-14008
tien	-14009
▁Alban	-14010
cribers	-14011
onymous	-14012
imensional	-14013
▁automation	-14014
▁Recommended	-14015
▁participates	-14016
▁Resistance	-14017
this	-14018
▁pillars	-14019
▁problematic	-14020
▁Users	-14021
alers	-14022
▁Breton	-14023
▁Jun	-14024
ECTOR	-14025
anger	-14026
▁Vietnam	-14027
▁modules	-14028
adi	-14029
▁beds	-14030
▁Input	-14031
APH	-14032
▁boat	-14033
▁Deadline	-14034
max	-14035
ignificant	-14036
▁Excellency	-14037
▁Strengthen	-14038
Note	-14039
▁chapters	-14040
▁Roundtable	-14041
▁withholding	-14042
▁incorporates	-14043
▁Aircraft	-14044
▁Humanities	-14045
▁Means	-14046
▁POLICY	-14047
▁Beijing	-14048
▁Locator	-14049
▁Whereas	-14050
▁Intern	-14051
▁leases	-14052
▁piracy	-14053
▁ourselves	-14054
▁peers	-14055
▁engineers	-14056
▁Falls	-14057
▁Advant	-14058
▁Analyst	-14059
production	-14060
culoskeletal	-14061
▁furnishings	-14062
gar	-14063
▁Secure	-14064
▁connect	-14065
▁assure	-14066
▁routinely	-14067
▁bars	-14068
endium	-14069
▁refunds	-14070
▁Enquiries	-14071
.);	-14072
▁nin	-14073
▁rulings	-14074
▁Historic	-14075
bursements	-14076
▁declarations	-14077
▁distributing	-14078
▁Ensuring	-14079
▁pride	-14080
development	-14081
▁HB	-14082
products	-14083
▁comfortable	-14084
teb	-14085
adone	-14086
agency	-14087
▁Result	-14088
▁asylum	-14089
▁Appeals	-14090
▁Ecuador	-14091
▁Moldova	-14092
▁Completed	-14093
▁entrepreneur	-14094
monary	-14095
orture	-14096
▁Elements	-14097
On	-14098
zes	-14099
▁merits	-14100
▁intense	-14101
▁Directory	-14102
▁Exporters	-14103
▁unanimously	-14104
▁André	-14105
▁prudent	-14106
',	-14107
FTA	-14108
ROV	-14109
forward	-14110
▁freely	-14111
▁surpluses	-14112
anes	-14113
huana	-14114
liaments	-14115
▁moisture	-14116
▁accepting	-14117
▁epidemiology	-14118
▁reconciliation	-14119
▁ICH	-14120
ulators	-14121
▁perfect	-14122
supported	-14123
▁incumbent	-14124
bc	-14125
▁PCBs	-14126
▁Bangladesh	-14127
press	-14128
▁UNDER	-14129
▁relies	-14130
▁Supports	-14131
▁fundament	-14132
imm	-14133
▁Charlottetown	-14134
▁lots	-14135
▁overhead	-14136
▁annuitant	-14137
▁?	-14138
EDA	-14139
▁furnished	-14140
▁searching	-14141
▁hotel	-14142
▁pal	-14143
▁Nord	-14144
▁Dun	-14145
lders	-14146
▁deposition	-14147
▁Mig	-14148
▁Accred	-14149
ropolitan	-14150
▁Reducing	-14151
▁forecasting	-14152
▁nickel	-14153
▁EMPLOY	-14154
BE	-14155
▁combinations	-14156
social	-14157
▁Adult	-14158
▁Basis	-14159
▁Moving	-14160
▁Household	-14161
oli	-14162
▁retaining	-14163
▁infrastruc	-14164
mans	-14165
▁ITCs	-14166
▁wear	-14167
endence	-14168
tique	-14169
▁asks	-14170
benefit	-14171
▁Sunday	-14172
▁upgrading	-14173
sey	-14174
▁Features	-14175
▁conferred	-14176
▁Palestinian	-14177
▁Justification	-14178
kal	-14179
▁ammonia	-14180
▁exploit	-14181
▁financially	-14182
▁Separ	-14183
▁spray	-14184
▁Efforts	-14185
▁frust	-14186
▁Mediterranean	-14187
▁NWT	-14188
▁VAC	-14189
▁specimens	-14190
za	-14191
ères	-14192
▁Turn	-14193
▁Aquatic	-14194
▁Specialist	-14195
Bri	-14196
▁pil	-14197
value	-14198
▁Allan	-14199
▁generis	-14200
▁assuming	-14201
▁permanently	-14202
roid	-14203
subs	-14204
▁PRES	-14205
▁Seal	-14206
▁Bonds	-14207
▁Commander	-14208
▁shellfish	-14209
igent	-14210
▁Sudbury	-14211
▁advertis	-14212
▁Continuing	-14213
▁inventories	-14214
only	-14215
rium	-14216
▁Solid	-14217
▁Fishery	-14218
▁cancers	-14219
▁EUROPEAN	-14220
ostructure	-14221
▁Venezuela	-14222
▁Implications	-14223
▁Laboratories	-14224
▁accumulation	-14225
▁constitution	-14226
initi	-14227
▁strike	-14228
▁MF	-14229
aded	-14230
▁Jeff	-14231
▁ratings	-14232
rears	-14233
▁Basin	-14234
▁advising	-14235
▁uncertainties	-14236
▁sixth	-14237
▁reserved	-14238
▁PAP	-14239
▁Acute	-14240
▁hopes	-14241
BRD	-14242
mia	-14243
nty	-14244
▁Throne	-14245
▁Behaviour	-14246
▁Completion	-14247
▁Unemployment	-14248
▁authorisation	-14249
▁TAC	-14250
▁convers	-14251
▁performs	-14252
ght	-14253
power	-14254
▁chose	-14255
▁PROPERTY	-14256
▁fever	-14257
▁exhaus	-14258
▁Environments	-14259
space	-14260
▁yellow	-14261
▁mathema	-14262
▁inception	-14263
represented	-14264
▁roots	-14265
services	-14266
▁viewing	-14267
▁supervisors	-14268
▁Reproduction	-14269
TIS	-14270
▁Interviews	-14271
▁secretariat	-14272
TITU	-14273
opathic	-14274
▁estimation	-14275
onn	-14276
▁Jama	-14277
▁Loan	-14278
ipping	-14279
atherine	-14280
▁avoiding	-14281
▁PRI	-14282
ignty	-14283
▁adherence	-14284
▁bure	-14285
graphy	-14286
▁gastro	-14287
▁linear	-14288
▁chicken	-14289
▁steering	-14290
▁weighing	-14291
▁Christian	-14292
brooke	-14293
▁Biologics	-14294
▁cooling	-14295
▁Eco	-14296
product	-14297
▁portions	-14298
ito	-14299
▁son	-14300
▁predictable	-14301
eded	-14302
▁dignity	-14303
▁mammals	-14304
▁bra	-14305
ewise	-14306
velopp	-14307
▁revise	-14308
▁enjoyed	-14309
▁gaining	-14310
▁leak	-14311
▁entail	-14312
▁solidarity	-14313
hea	-14314
whel	-14315
▁damaged	-14316
▁multinational	-14317
▁SOR	-14318
burn	-14319
▁vivo	-14320
▁Infant	-14321
▁Virtual	-14322
pur	-14323
▁sud	-14324
illary	-14325
accessible	-14326
ervous	-14327
▁Anglophone	-14328
▁underlined	-14329
▁Send	-14330
pendable	-14331
▁Douglas	-14332
vied	-14333
apsed	-14334
▁subt	-14335
▁Proper	-14336
▁centers	-14337
▁expired	-14338
▁NAICS	-14339
giene	-14340
▁underp	-14341
▁auditing	-14342
liferation	-14343
▁subsidized	-14344
WIC	-14345
data	-14346
cture	-14347
▁talking	-14348
▁TECHNOLOG	-14349
availability	-14350
VIR	-14351
TRAC	-14352
idrc	-14353
▁vib	-14354
entif	-14355
▁flour	-14356
▁Copies	-14357
▁impaired	-14358
▁preserving	-14359
▁Assessments	-14360
gested	-14361
▁ng	-14362
▁Hem	-14363
▁teach	-14364
▁hydroc	-14365
▁Premium	-14366
▁witnesses	-14367
step	-14368
▁tendency	-14369
▁disseminated	-14370
mL	-14371
ront	-14372
uras	-14373
▁infer	-14374
▁PERSON	-14375
▁battle	-14376
▁retailer	-14377
▁tribunal	-14378
▁expectancy	-14379
Rec	-14380
▁cents	-14381
WH	-14382
rip	-14383
apped	-14384
▁gang	-14385
▁Including	-14386
▁attempting	-14387
▁Horiz	-14388
▁mills	-14389
▁truck	-14390
▁massive	-14391
▁immunity	-14392
▁accessories	-14393
▁Modernization	-14394
▁borne	-14395
▁manus	-14396
▁analog	-14397
standard	-14398
▁automobile	-14399
)"	-14400
▁focal	-14401
▁Sharing	-14402
OJ	-14403
▁Fun	-14404
▁SAL	-14405
FICATION	-14406
▁Ré	-14407
▁Navig	-14408
▁doors	-14409
▁precisely	-14410
ETY	-14411
▁Lanka	-14412
▁Respondent	-14413
aires	-14414
▁Play	-14415
▁improper	-14416
▁Chic	-14417
venant	-14418
▁analyse	-14419
▁Problems	-14420
operability	-14421
▁WPPT	-14422
▁owns	-14423
▁aerospace	-14424
▁HS	-14425
▁Teams	-14426
ressing	-14427
▁Surveys	-14428
▁Ecosystem	-14429
▁Virus	-14430
▁dealers	-14431
▁knowing	-14432
▁scrutiny	-14433
▁Determine	-14434
▁Travellers	-14435
ès	-14436
inced	-14437
▁LWOP	-14438
▁Limits	-14439
▁portal	-14440
▁privileges	-14441
Es	-14442
▁NCB	-14443
▁jun	-14444
▁Else	-14445
▁summit	-14446
▁earliest	-14447
▁contacting	-14448
▁coordinates	-14449
abolic	-14450
▁Vienna	-14451
▁precautions	-14452
▁SB	-14453
▁reluct	-14454
▁Forestry	-14455
▁commemor	-14456
uum	-14457
▁Dutch	-14458
▁serum	-14459
▁Disposal	-14460
▁revocation	-14461
▁Burn	-14462
▁cancel	-14463
▁Oversight	-14464
▁Consistent	-14465
▁supplements	-14466
▁definitive	-14467
▁nl	-14468
berta	-14469
▁herein	-14470
▁Towards	-14471
▁Campbell	-14472
[...]
