<pad>	0
<s>	0
</s>	0
<unk>	0
▁the	-2.80143
,	-3.0939
.	-3.3819
▁of	-3.47871
▁to	-3.55401
▁and	-3.7159
▁in	-3.96802
▁that	-4.20573
▁a	-4.24286
▁is	-4.24413
▁	-4.5623
▁for	-4.63851
▁I	-4.64563
▁on	-4.76716
▁be	-4.86468
▁this	-4.87375
s	-4.90869
▁we	-4.91167
▁are	-5.0586
▁have	-5.10456
▁it	-5.10959
▁not	-5.1546
▁with	-5.22084
▁as	-5.22476
▁which	-5.25314
0	-5.28353
▁European	-5.29456
-	-5.37455
▁The	-5.38877
▁will	-5.40953
▁by	-5.42114
▁has	-5.53679
'	-5.63043
▁Mr	-5.69126
▁Commission	-5.80293
2	-5.82725
▁an	-5.84492
▁at	-5.8496
▁would	-5.85681
1	-5.86609
▁also	-5.87127
▁should	-5.91514
▁all	-5.91748
▁President	-5.95262
▁from	-5.96532
▁-	-5.97416
▁We	-5.97888
▁our	-5.98879
▁must	-5.99796
▁but	-6.05031
▁been	-6.08154
▁Union	-6.1354
▁Parliament	-6.17686
▁It	-6.18745
▁you	-6.19818
▁can	-6.21225
▁was	-6.25124
▁Member	-6.25644
▁more	-6.26801
▁report	-6.28478
▁or	-6.2925
▁States	-6.30311
▁its	-6.32106
▁their	-6.33878
▁Council	-6.33981
▁do	-6.34341
▁like	-6.3527
▁there	-6.35412
9	-6.35656
▁very	-6.38985
▁Europe	-6.40544
▁This	-6.43307
▁In	-6.43359
▁these	-6.45563
▁EU	-6.4607
▁they	-6.47562
)	-6.48723
▁one	-6.48954
▁(	-6.51243
▁countries	-6.5201
▁so	-6.54803
▁who	-6.5564
▁about	-6.58443
▁other	-6.58932
▁what	-6.59776
▁need	-6.60638
▁us	-6.61306
▁important	-6.65822
▁my	-6.67043
▁people	-6.67063
▁only	-6.6851
▁new	-6.68802
:	-6.69556
▁time	-6.70025
▁policy	-6.71057
5	-6.71863
▁because	-6.73276
▁if	-6.73742
▁no	-6.76759
▁up	-6.81623
▁am	-6.82371
▁support	-6.83671
▁out	-6.83993
▁now	-6.84157
ing	-6.84485
?	-6.84636
▁such	-6.8556
3	-6.86835
▁take	-6.87915
▁make	-6.88063
▁into	-6.90444
▁between	-6.9099
▁those	-6.91579
▁work	-6.91738
▁rights	-6.97557
▁therefore	-6.98611
▁when	-6.98628
4	-6.99063
▁some	-6.99663
▁any	-7.00976
▁being	-7.01097
▁political	-7.03416
▁them	-7.03515
▁made	-7.04372
▁were	-7.05167
▁way	-7.06707
▁than	-7.0734
▁economic	-7.075
▁believe	-7.08049
;	-7.08114
▁Commissioner	-7.08125
▁say	-7.11928
▁proposal	-7.13954
▁many	-7.14675
▁against	-7.14753
▁fact	-7.15134
7	-7.15869
▁first	-7.17467
▁debate	-7.18475
6	-7.18727
8	-7.18774
▁social	-7.1948
▁market	-7.19704
▁That	-7.21985
▁think	-7.2224
▁development	-7.2446
▁issue	-7.24555
▁Committee	-7.24665
▁just	-7.24791
▁well	-7.25357
▁point	-7.25478
’	-7.25712
▁years	-7.27374
▁human	-7.27691
▁order	-7.28163
ed	-7.29178
▁situation	-7.29185
▁future	-7.29772
▁right	-7.29924
▁question	-7.30097
▁two	-7.30807
▁country	-7.31069
▁cannot	-7.31377
▁citizens	-7.32167
▁want	-7.32184
▁here	-7.3222
▁same	-7.32875
▁does	-7.33112
▁even	-7.33126
▁had	-7.33279
▁possible	-7.33588
▁As	-7.33971
▁measures	-7.34238
▁part	-7.35898
▁could	-7.36037
▁public	-7.36675
▁said	-7.37311
▁'	-7.3742
▁today	-7.37707
▁most	-7.37816
▁me	-7.39013
▁agreement	-7.3923
▁much	-7.39817
▁already	-7.40649
/	-7.4082
▁where	-7.40936
▁clear	-7.40961
▁good	-7.41131
▁national	-7.41676
▁too	-7.425
▁–	-7.42562
▁financial	-7.42793
▁vote	-7.43044
▁within	-7.43602
▁over	-7.43776
▁know	-7.44633
▁still	-7.4488
▁year	-7.44949
▁how	-7.45558
▁There	-7.46397
▁use	-7.46831
▁see	-7.46871
▁under	-7.47079
▁both	-7.47107
▁However	-7.47158
▁particular	-7.47178
▁common	-7.4738
▁Mrs	-7.4785
▁cooperation	-7.49405
▁course	-7.49448
▁view	-7.50114
▁hope	-7.5102
▁Community	-7.51024
▁world	-7.51118
▁your	-7.51348
▁taken	-7.52933
▁level	-7.53228
▁international	-7.5329
▁ensure	-7.53405
▁own	-7.53529
▁system	-7.53672
▁case	-7.54127
▁area	-7.5519
▁able	-7.55276
▁his	-7.55833
▁place	-7.57201
▁process	-7.5864
▁why	-7.58801
▁energy	-7.59147
▁put	-7.59429
▁rapporteur	-7.60172
▁number	-7.61021
▁means	-7.61867
▁last	-7.6205
▁problem	-7.62175
▁action	-7.62224
▁example	-7.6257
▁information	-7.62809
▁then	-7.62892
▁may	-7.63101
▁gentlemen	-7.63685
▁without	-7.64638
▁through	-7.65171
▁however	-7.65911
▁House	-7.65928
▁directive	-7.66221
▁he	-7.66385
▁If	-7.66816
▁problems	-7.67291
▁budget	-7.69157
▁Madam	-7.69562
▁necessary	-7.69943
▁particularly	-7.70024
▁end	-7.70549
ly	-7.70852
▁A	-7.70991
▁give	-7.7111
▁great	-7.71361
▁protection	-7.71389
▁long	-7.71523
▁before	-7.71873
▁resolution	-7.72569
▁issues	-7.72636
▁security	-7.73452
▁far	-7.73571
▁given	-7.74057
▁regard	-7.74143
▁respect	-7.74176
▁position	-7.74179
▁legal	-7.74497
▁law	-7.7465
▁areas	-7.75246
▁Treaty	-7.75325
▁matter	-7.75701
▁Group	-7.76548
▁women	-7.78071
%	-7.78608
▁whether	-7.79576
d	-7.79596
▁thank	-7.79755
▁decision	-7.79975
▁again	-7.80265
▁ladies	-7.80344
▁sector	-7.80351
▁amendments	-7.80661
▁set	-7.80769
▁United	-7.81456
▁further	-7.82175
▁role	-7.82216
▁favour	-7.83015
▁behalf	-7.83044
▁since	-7.83077
▁programme	-7.83742
▁basis	-7.84707
▁proposals	-7.84743
▁terms	-7.84895
▁Members	-7.85195
▁next	-7.8546
▁certain	-7.86228
▁trade	-7.8629
▁aid	-7.86957
▁services	-7.87031
▁done	-7.87568
▁rules	-7.87895
▁come	-7.8804
▁health	-7.88494
▁adopted	-7.89521
▁crisis	-7.8962
▁legislation	-7.89736
▁help	-7.89966
▁agree	-7.90113
▁better	-7.90257
▁different	-7.90406
▁present	-7.91396
▁framework	-7.91759
▁continue	-7.93965
▁What	-7.94231
▁needs	-7.94525
▁opinion	-7.94583
▁change	-7.94677
▁But	-7.95482
▁institutions	-7.95953
in	-7.96182
▁progress	-7.96314
▁ask	-7.96466
▁s	-7.96829
▁For	-7.96854
▁wish	-7.97377
▁after	-7.97498
▁concerned	-7.98461
▁group	-7.98947
▁result	-7.99122
▁forward	-7.99579
▁going	-8.0002
▁State	-8.00363
▁working	-8.00595
▁welcome	-8.0073
▁whole	-8.00973
▁three	-8.01079
▁towards	-8.01664
▁few	-8.01683
▁approach	-8.02883
▁something	-8.02888
▁voted	-8.02978
▁principle	-8.04453
▁subject	-8.05366
▁go	-8.056
▁current	-8.05745
▁resources	-8.06155
▁conditions	-8.06328
▁including	-8.07595
▁importance	-8.08324
▁Presidency	-8.08406
▁proposed	-8.08485
▁opportunity	-8.08565
▁million	-8.08742
▁specific	-8.0904
▁really	-8.09048
▁shall	-8.09151
▁did	-8.09431
▁provide	-8.09582
▁employment	-8.09681
▁increase	-8.10103
▁second	-8.10144
▁authorities	-8.10186
▁On	-8.10195
▁state	-8.10254
▁policies	-8.10354
▁together	-8.10438
▁used	-8.11056
▁especially	-8.12024
▁account	-8.12321
▁every	-8.12333
▁during	-8.12427
▁down	-8.12512
▁regulation	-8.12709
▁industry	-8.1297
▁find	-8.1305
▁general	-8.13214
▁strategy	-8.14223
▁clearly	-8.14251
▁negotiations	-8.14268
▁become	-8.14282
▁transport	-8.14641
▁high	-8.14824
▁itself	-8.15039
▁another	-8.15221
▁environmental	-8.1537
▁third	-8.15385
▁greater	-8.15537
▁responsibility	-8.15737
▁serious	-8.15982
▁quite	-8.1601
▁least	-8.16028
▁safety	-8.16715
▁products	-8.16934
▁research	-8.17511
▁rather	-8.17564
▁small	-8.17994
▁They	-8.18776
▁reason	-8.19269
▁democracy	-8.2027
▁call	-8.20422
▁always	-8.20486
▁real	-8.20594
▁No	-8.20747
▁difficult	-8.21153
▁essential	-8.21344
▁fundamental	-8.21363
▁attention	-8.2141
▁access	-8.21672
▁effective	-8.21923
▁making	-8.2213
▁achieve	-8.22241
▁once	-8.22258
▁These	-8.22312
▁deal	-8.22567
▁freedom	-8.22708
▁regions	-8.2301
▁interests	-8.23682
▁things	-8.23797
e	-8.23821
▁society	-8.24023
▁major	-8.24203
▁implementation	-8.24548
▁taking	-8.24609
▁based	-8.24753
▁economy	-8.24799
▁internal	-8.24917
▁At	-8.24934
▁democratic	-8.25428
▁get	-8.25649
▁efforts	-8.26287
▁back	-8.26292
▁environment	-8.26429
▁various	-8.26678
▁money	-8.26869
▁hand	-8.26982
▁government	-8.27284
▁positive	-8.27347
m	-8.27516
▁free	-8.28184
▁large	-8.28213
▁each	-8.28685
▁words	-8.29396
▁points	-8.30314
▁yet	-8.30321
▁allow	-8.30387
▁procedure	-8.30957
▁while	-8.3099
▁committee	-8.31646
▁So	-8.31922
▁competition	-8.32042
▁look	-8.32287
▁region	-8.32439
▁single	-8.32451
▁consider	-8.32498
▁less	-8.32601
▁funds	-8.32958
▁involved	-8.32966
al	-8.33328
▁full	-8.33612
▁growth	-8.33958
▁having	-8.34328
▁Affairs	-8.34357
▁concerns	-8.34455
▁children	-8.34599
▁Government	-8.34629
▁workers	-8.34645
▁control	-8.34662
▁reform	-8.34963
▁EUR	-8.36326
▁peace	-8.36425
▁companies	-8.36459
▁step	-8.36511
▁power	-8.36521
▁objectives	-8.37215
▁Lisbon	-8.3727
▁interest	-8.38038
▁solution	-8.38092
n	-8.38261
ou	-8.38578
▁fully	-8.38626
▁quality	-8.38632
▁food	-8.38692
▁programmes	-8.38744
▁best	-8.38825
▁amendment	-8.39052
▁majority	-8.39078
▁global	-8.39271
▁agreements	-8.3988
▁standards	-8.40398
▁dialogue	-8.4059
▁often	-8.40605
▁simply	-8.40719
▁following	-8.4072
▁her	-8.4089
▁certainly	-8.40917
▁recent	-8.41286
▁decisions	-8.41719
▁bring	-8.42007
▁agricultural	-8.42213
▁concern	-8.42428
▁production	-8.42695
▁extremely	-8.42766
▁force	-8.42845
▁Turkey	-8.4305
▁aware	-8.43187
▁relations	-8.43203
▁main	-8.43616
▁text	-8.43666
▁accept	-8.43676
▁context	-8.43741
▁create	-8.44504
▁To	-8.44538
▁groups	-8.44988
▁ago	-8.45676
y	-8.45712
se	-8.45899
▁initiative	-8.45921
▁period	-8.4605
▁enlargement	-8.46742
▁risk	-8.46808
▁might	-8.46841
▁life	-8.46883
▁objective	-8.47165
t	-8.47224
▁actually	-8.47316
▁fight	-8.4736
▁developing	-8.47414
▁form	-8.47606
▁states	-8.48369
er	-8.48617
▁mentioned	-8.48776
▁Court	-8.48797
▁improve	-8.48806
▁available	-8.49037
▁start	-8.49383
▁regional	-8.49722
▁Let	-8.49782
▁questions	-8.49817
▁non	-8.4986
▁indeed	-8.4999
▁jobs	-8.50027
▁Article	-8.50267
▁appropriate	-8.50269
▁meeting	-8.50375
▁climate	-8.50445
▁impact	-8.51052
▁open	-8.51071
▁And	-8.51101
▁Finally	-8.51138
▁currently	-8.51478
▁Russia	-8.51484
▁concerning	-8.51668
▁field	-8.51743
▁results	-8.52198
▁understand	-8.52678
▁education	-8.53174
▁others	-8.53964
▁responsible	-8.54206
▁let	-8.5516
▁consumers	-8.5517
▁themselves	-8.55223
▁key	-8.55238
▁months	-8.5569
▁data	-8.56176
▁writing	-8.56247
▁doing	-8.56665
▁members	-8.5684
▁thing	-8.56969
▁needed	-8.57108
▁euro	-8.57114
es	-8.57119
▁management	-8.57129
▁cases	-8.57537
▁With	-8.57789
▁systems	-8.58518
▁matters	-8.5885
▁principles	-8.58976
▁enough	-8.59145
▁compromise	-8.59205
▁day	-8.59391
▁tax	-8.59487
▁reasons	-8.59643
▁individual	-8.59811
▁kind	-8.59838
▁projects	-8.61698
▁parties	-8.61752
▁though	-8.61777
▁longer	-8.61804
▁costs	-8.61861
▁achieved	-8.62152
▁Convention	-8.62326
▁feel	-8.6253
▁lack	-8.62616
▁promote	-8.62719
▁regards	-8.62908
▁special	-8.62924
▁activities	-8.63083
▁commitment	-8.63342
▁local	-8.63353
▁funding	-8.63481
▁draft	-8.63483
▁among	-8.63489
▁plan	-8.63536
▁idea	-8.63725
▁joint	-8.63879
▁priority	-8.64296
▁significant	-8.64739
▁past	-8.64972
▁aim	-8.65168
▁although	-8.65506
▁true	-8.65574
A	-8.65614
▁congratulate	-8.65747
▁little	-8.65964
▁act	-8.66329
▁mean	-8.66333
▁line	-8.6636
▁due	-8.66474
▁labour	-8.66503
▁governments	-8.66664
▁legislative	-8.6673
▁sure	-8.66789
▁nothing	-8.67095
▁excellent	-8.67134
▁final	-8.67246
▁provided	-8.67305
▁effect	-8.67352
▁strong	-8.67419
▁My	-8.67449
▁re	-8.67606
▁prevent	-8.67691
a	-8.67695
▁sustainable	-8.68159
▁perhaps	-8.68468
▁Amendment	-8.68599
▁lead	-8.68866
▁include	-8.68933
▁guarantee	-8.69435
▁nuclear	-8.69517
Office	-8.69526
▁reports	-8.69854
▁solidarity	-8.69981
▁moment	-8.70203
▁above	-8.7038
▁young	-8.70567
▁agenda	-8.70728
▁regarding	-8.70771
▁Rights	-8.71136
▁play	-8.71139
▁agreed	-8.71365
▁aspects	-8.71626
▁remain	-8.71815
▁Directive	-8.72148
▁foreign	-8.72319
▁markets	-8.72424
▁project	-8.72545
▁transparency	-8.72711
▁integration	-8.72734
▁pay	-8.72845
▁consumer	-8.72853
▁seen	-8.7288
▁several	-8.7362
▁relation	-8.73955
▁civil	-8.73975
▁addition	-8.73981
▁Our	-8.74352
▁response	-8.7455
▁contribution	-8.74599
(	-8.7465
▁benefit	-8.74686
▁apply	-8.75163
▁population	-8.75181
▁tomorrow	-8.75581
▁upon	-8.75636
▁comes	-8.75659
▁short	-8.75952
▁makes	-8.75978
▁business	-8.76219
▁C	-8.76328
▁actions	-8.76722
▁share	-8.76849
▁speak	-8.76898
▁discussion	-8.76926
▁technical	-8.77183
▁communication	-8.7722
▁move	-8.77915
▁answer	-8.77998
▁Therefore	-8.7801
▁Secondly	-8.78105
▁practice	-8.78172
▁values	-8.78362
▁him	-8.78518
▁terrorism	-8.78566
▁investment	-8.78743
▁criteria	-8.78762
▁seems	-8.78921
▁colleagues	-8.79167
▁provisions	-8.79258
▁elections	-8.79386
▁pleased	-8.79443
term	-8.7949
▁accession	-8.79754
▁voting	-8.79756
▁existing	-8.79807
▁One	-8.79833
r	-8.80406
▁changes	-8.81029
▁stability	-8.81146
▁ourselves	-8.81465
▁procedures	-8.81617
▁Minister	-8.81693
▁soon	-8.82205
▁violence	-8.82211
▁war	-8.82342
DE	-8.82355
▁express	-8.82658
▁China	-8.82867
▁until	-8.82937
▁mind	-8.82977
▁cohesion	-8.83011
▁creation	-8.83052
▁assistance	-8.83065
▁basic	-8.83293
▁adopt	-8.83352
▁poverty	-8.83401
▁crucial	-8.83578
▁everyone	-8.83582
▁service	-8.8374
▁never	-8.83856
▁off	-8.84293
▁success	-8.84319
▁carried	-8.84607
▁saying	-8.84673
▁protect	-8.85281
▁draw	-8.85602
▁military	-8.85645
▁asked	-8.85707
▁statement	-8.85714
▁consequences	-8.85748
▁tabled	-8.85763
▁increased	-8.85795
▁regulations	-8.85835
▁sense	-8.86084
▁cultural	-8.86132
▁equal	-8.86267
▁balance	-8.86307
▁organisations	-8.86349
▁held	-8.86473
▁relating	-8.86521
▁reduce	-8.86533
▁farmers	-8.86639
▁develop	-8.8683
▁term	-8.86907
▁increasing	-8.86943
▁item	-8.87079
▁show	-8.87116
▁rule	-8.87232
▁application	-8.87247
▁close	-8.87256
▁namely	-8.87331
▁training	-8.87467
▁request	-8.87784
▁requirements	-8.88078
▁UN	-8.88224
▁required	-8.88252
▁fishing	-8.88541
▁meet	-8.88609
▁everything	-8.88787
▁All	-8.88817
▁presented	-8.88959
▁job	-8.89131
▁Thank	-8.89619
▁thus	-8.89667
▁stage	-8.89922
▁instruments	-8.89937
▁value	-8.89994
▁opportunities	-8.90439
▁closed	-8.90718
▁B	-8.90769
▁When	-8.90813
▁throughout	-8.91092
▁face	-8.91346
▁nature	-8.91644
▁priorities	-8.91708
▁either	-8.91847
▁cost	-8.91922
l	-8.91935
▁budgetary	-8.91949
▁week	-8.91956
▁she	-8.92501
▁mention	-8.92612
▁keep	-8.92714
▁called	-8.93109
▁around	-8.93438
▁demand	-8.93522
▁community	-8.93724
▁initiatives	-8.93863
▁conflict	-8.93991
▁times	-8.94023
▁tell	-8.94087
▁decided	-8.94091
▁Party	-8.94167
▁movement	-8.94467
▁external	-8.94542
▁road	-8.94726
▁instrument	-8.95612
c	-8.9567
▁pressure	-8.95768
▁de	-8.95847
▁task	-8.96057
▁Fund	-8.96097
▁across	-8.96143
▁address	-8.96187
▁reached	-8.96375
▁previous	-8.96388
▁five	-8.966
▁prepared	-8.96657
▁package	-8.96741
▁potential	-8.96827
▁raised	-8.97016
▁expressed	-8.97042
▁monitoring	-8.97335
▁effort	-8.97652
▁conclusion	-8.97679
▁water	-8.97712
▁reading	-8.97899
▁talking	-8.97989
▁review	-8.98065
▁justice	-8.98272
▁four	-8.9828
▁using	-8.98334
▁establish	-8.98335
▁doubt	-8.98588
▁powers	-8.98625
▁implement	-8.98761
▁illegal	-8.98803
▁challenges	-8.9908
▁implemented	-8.99081
▁direction	-8.9931
▁billion	-8.99455
▁experience	-8.99489
▁medium	-8.99748
▁try	-8.99754
▁waste	-8.99808
▁private	-8.99837
▁Ireland	-8.99899
▁included	-9.00009
▁fisheries	-9.0005
▁fellow	-9.0005
▁fair	-9.00416
▁focus	-9.00421
▁vital	-9.00507
▁immigration	-9.00546
▁levels	-9.00631
▁enable	-9.00744
▁crime	-9.00768
▁absolutely	-9.00948
▁ever	-9.01025
▁quickly	-9.01079
▁French	-9.01122
▁partners	-9.01276
▁reduction	-9.01308
▁light	-9.01533
▁established	-9.01586
▁presidency	-9.01727
▁borders	-9.01788
▁recently	-9.01851
▁victims	-9.02024
et	-9.02131
▁outside	-9.02176
▁coming	-9.02429
▁reality	-9.02503
▁agriculture	-9.0271
▁talk	-9.02722
▁Conference	-9.0288
▁supported	-9.03388
▁France	-9.0349
▁price	-9.03618
▁effects	-9.03659
▁Development	-9.03818
▁found	-9.04226
▁completely	-9.04339
▁live	-9.04507
▁sectors	-9.04552
▁structural	-9.04597
▁note	-9.04981
▁brought	-9.05212
▁thanks	-9.05665
▁treatment	-9.05903
▁motion	-9.05965
▁giving	-9.0599
▁reforms	-9.05998
▁left	-9.06052
▁reach	-9.06054
re	-9.06672
▁cause	-9.06764
▁direct	-9.06805
▁finally	-9.06927
▁emissions	-9.06936
▁extent	-9.07096
▁prices	-9.07103
▁amount	-9.0712
▁December	-9.07362
▁S	-9.07393
▁encourage	-9.07473
▁additional	-9.07486
▁model	-9.07565
▁unemployment	-9.07614
▁Republic	-9.07718
▁received	-9.07737
▁representatives	-9.07788
▁businesses	-9.07833
▁possibility	-9.07896
▁applied	-9.07911
▁Nations	-9.07926
▁took	-9.07943
▁follow	-9.08047
▁document	-9.08101
▁stress	-9.0818
▁along	-9.08215
▁Africa	-9.08268
▁heard	-9.08303
▁almost	-9.08492
▁approved	-9.08653
▁Firstly	-9.08683
▁coordination	-9.08747
ers	-9.08815
▁ensuring	-9.08987
▁care	-9.09598
▁US	-9.09764
▁discussed	-9.09782
▁away	-9.09793
▁natural	-9.09882
▁air	-9.10087
▁relevant	-9.10151
▁behind	-9.10273
▁living	-9.10318
▁strengthen	-9.10458
▁practical	-9.10472
▁creating	-9.10554
▁Furthermore	-9.10639
▁assessment	-9.10689
▁list	-9.10749
▁avoid	-9.10799
▁competitiveness	-9.10935
▁adoption	-9.11017
▁offer	-9.11134
▁Bank	-9.11146
▁East	-9.11203
▁add	-9.11499
▁lot	-9.11536
▁confidence	-9.11565
▁turn	-9.11798
o	-9.11918
▁events	-9.12031
▁discussions	-9.12104
▁begin	-9.12404
▁unacceptable	-9.1263
▁men	-9.12652
▁British	-9.12673
▁guidelines	-9.12729
▁cross	-9.12729
▁parliamentary	-9.12848
▁expect	-9.13125
▁proper	-9.1313
▁nor	-9.1317
▁discuss	-9.13386
▁remains	-9.13406
▁Of	-9.13453
▁capacity	-9.13485
▁knowledge	-9.1372
▁scope	-9.14327
▁stop	-9.14333
▁days	-9.14615
▁summit	-9.15016
▁He	-9.1531
▁considered	-9.1551
▁family	-9.15683
▁side	-9.15854
▁affected	-9.15999
▁discrimination	-9.16058
▁solutions	-9.16086
▁despite	-9.162
▁aimed	-9.16232
▁humanitarian	-9.1635
▁rate	-9.16407
▁old	-9.16453
▁effectively	-9.1646
▁six	-9.16497
▁Democrats	-9.16588
▁contribute	-9.16693
▁Agreement	-9.1703
▁takes	-9.17225
▁Central	-9.17272
▁sitting	-9.17294
▁precisely	-9.17388
▁May	-9.17469
▁difficulties	-9.17539
▁asylum	-9.1755
▁trying	-9.17562
▁criminal	-9.17568
▁per	-9.1775
▁defence	-9.17808
▁International	-9.17886
▁remind	-9.17937
▁First	-9.18146
▁Economic	-9.18355
▁efficiency	-9.18388
▁shown	-9.18402
▁combat	-9.18554
▁carry	-9.18565
▁June	-9.1857
▁instead	-9.18736
▁Justice	-9.18758
▁goods	-9.18796
▁message	-9.18834
▁connection	-9.18885
▁reference	-9.18969
▁developed	-9.19083
▁honourable	-9.19254
▁hard	-9.19516
▁partnership	-9.19546
▁accordance	-9.19618
▁regime	-9.19638
▁circumstances	-9.19668
▁World	-9.19701
▁beginning	-9.1977
▁huge	-9.19807
▁People	-9.19924
▁culture	-9.1996
▁technology	-9.20403
▁active	-9.20769
▁improving	-9.20794
▁according	-9.20877
▁administrative	-9.20913
▁capital	-9.20925
▁committed	-9.21134
▁challenge	-9.21261
▁conclusions	-9.21398
▁personal	-9.21418
up	-9.21462
th	-9.21513
▁speech	-9.21556
▁allowed	-9.21659
▁Germany	-9.21697
▁death	-9.21749
▁institutional	-9.21798
▁providing	-9.21814
▁goes	-9.21893
▁total	-9.21956
▁forces	-9.22029
▁created	-9.2204
▁oil	-9.22076
▁comments	-9.22136
▁propose	-9.22328
▁innovation	-9.22333
▁Regulation	-9.22354
▁enterprises	-9.22356
▁independent	-9.22507
▁return	-9.22528
▁date	-9.22623
▁minimum	-9.22655
▁stand	-9.22694
▁purpose	-9.22706
▁status	-9.22707
▁consideration	-9.22875
▁content	-9.22969
▁self	-9.22997
▁duty	-9.23104
▁considerable	-9.23109
or	-9.23202
▁Social	-9.23208
▁accepted	-9.23271
▁half	-9.2329
▁rightly	-9.23447
▁benefits	-9.23776
▁Policy	-9.23782
▁Now	-9.23932
▁WTO	-9.2405
▁successful	-9.2409
▁supply	-9.2414
▁provides	-9.24298
▁anti	-9.24299
▁implementing	-9.2439
▁Brussels	-9.24633
▁participation	-9.24715
▁media	-9.24852
▁stated	-9.24855
▁receive	-9.24872
▁central	-9.24916
▁unfortunately	-9.24969
▁provision	-9.25025
▁rural	-9.25185
▁promoting	-9.25335
▁colleague	-9.25338
▁calls	-9.25453
▁lives	-9.25574
▁%	-9.25612
▁referred	-9.25665
▁closely	-9.25818
▁dealing	-9.25996
▁seriously	-9.26136
▁specifically	-9.26173
▁forms	-9.26378
▁overall	-9.26403
▁p	-9.26529
▁Israel	-9.26875
European	-9.27153
▁decide	-9.27226
▁beyond	-9.27727
▁complete	-9.28169
▁introduction	-9.28259
▁urgent	-9.28321
▁history	-9.28455
▁scientific	-9.28479
C	-9.28569
▁happen	-9.28646
▁industrial	-9.28665
▁Kosovo	-9.28747
▁wanted	-9.28827
▁Human	-9.29015
▁plans	-9.2911
▁strategic	-9.29131
▁un	-9.29144
▁expenditure	-9.29151
▁directly	-9.29244
▁views	-9.29284
▁Today	-9.29432
▁financing	-9.29626
▁exchange	-9.29671
▁G	-9.29826
able	-9.29982
▁Mediterranean	-9.29996
▁produce	-9.30026
▁wrong	-9.30104
▁steps	-9.30214
▁Iraq	-9.3026
▁requires	-9.30289
▁maintain	-9.30325
▁leave	-9.30441
▁measure	-9.3069
▁Irish	-9.30857
▁ban	-9.30857
sized	-9.31122
▁commitments	-9.3123
▁equality	-9.31415
▁setting	-9.31814
▁myself	-9.31893
▁Constitution	-9.31953
▁intended	-9.32036
▁January	-9.3208
▁Summit	-9.32137
▁demands	-9.32191
▁activity	-9.3229
▁event	-9.3245
▁home	-9.32473
▁join	-9.32512
▁sufficient	-9.32576
▁How	-9.326
▁German	-9.32625
▁ten	-9.32696
▁low	-9.32718
▁entire	-9.32736
▁aspect	-9.32756
▁party	-9.3279
▁similar	-9.33083
▁exist	-9.33145
▁paid	-9.33171
▁gas	-9.33286
▁poor	-9.33556
▁respond	-9.33782
▁alone	-9.33877
st	-9.33945
▁speaking	-9.33953
▁represent	-9.34157
▁highly	-9.34177
▁bodies	-9.34185
▁paragraph	-9.34264
▁anything	-9.3434
▁Greece	-9.34398
▁efficient	-9.34424
▁conclude	-9.3444
▁police	-9.3457
▁competitive	-9.34578
▁refer	-9.34868
▁properly	-9.349
The	-9.35012
▁supporting	-9.351
▁led	-9.35129
▁ambitious	-9.35233
▁yesterday	-9.35352
▁higher	-9.3546
▁product	-9.35471
▁ways	-9.35555
▁fund	-9.35668
▁co	-9.35715
i	-9.35772
▁type	-9.35813
▁animal	-9.35818
▁weeks	-9.35898
▁limited	-9.35908
b	-9.3595
▁discussing	-9.35956
▁Although	-9.36098
▁known	-9.36194
▁shows	-9.36308
▁Rules	-9.36365
▁increasingly	-9.36547
▁caused	-9.36568
▁calling	-9.36634
▁border	-9.36677
▁Unfortunately	-9.3693
▁whom	-9.3698
▁establishing	-9.37013
▁opposition	-9.37029
▁genuine	-9.37104
▁authority	-9.37111
▁improved	-9.37207
▁early	-9.37728
▁study	-9.37802
▁regret	-9.37817
▁achieving	-9.37906
border	-9.37928
▁represents	-9.38026
▁risks	-9.38063
▁urge	-9.38364
▁happened	-9.38365
▁emphasise	-9.38372
▁hear	-9.38463
▁strengthening	-9.38896
▁annual	-9.39016
▁reducing	-9.3914
▁Minutes	-9.3916
▁limit	-9.39194
▁produced	-9.39226
▁obviously	-9.39297
▁threat	-9.39377
▁Security	-9.39425
▁Since	-9.39486
called	-9.3956
FR	-9.39579
▁manner	-9.3959
▁influence	-9.39752
▁South	-9.39782
▁spirit	-9.39834
▁candidate	-9.39902
▁thought	-9.39992
▁aims	-9.39993
▁March	-9.4033
▁useful	-9.40397
▁later	-9.40435
▁convinced	-9.4046
▁outcome	-9.40527
▁require	-9.40535
▁name	-9.40644
▁gives	-9.40658
▁statements	-9.40669
B	-9.40709
▁infrastructure	-9.40728
▁currency	-9.40738
▁producers	-9.40832
▁former	-9.41127
ation	-9.4118
▁looking	-9.41199
▁broad	-9.41234
▁Moreover	-9.41422
▁rise	-9.41523
▁Foreign	-9.41525
responsibilities	-9.41546
▁animals	-9.41572
▁language	-9.416
▁remember	-9.41665
▁Italy	-9.41859
▁hold	-9.41895
▁developments	-9.41915
making	-9.42048
▁recognise	-9.42175
▁cut	-9.42178
▁combating	-9.42202
▁firstly	-9.42217
▁met	-9.42299
no	-9.42368
▁balanced	-9.42373
▁monetary	-9.42402
▁conference	-9.42555
▁sometimes	-9.42698
▁damage	-9.42705
▁comment	-9.4276
▁rest	-9.42774
▁press	-9.42863
▁member	-9.42873
▁earlier	-9.43014
▁recognition	-9.43043
▁analysis	-9.43056
▁trust	-9.43189
S	-9.43243
▁concrete	-9.43331
▁dangerous	-9.43397
▁building	-9.43628
▁concept	-9.43674
▁acceptable	-9.43695
▁introduce	-9.43697
▁elements	-9.43805
▁E	-9.43921
▁entirely	-9.43955
▁Spanish	-9.44011
▁word	-9.44156
▁contrary	-9.44182
▁becoming	-9.44268
▁documents	-9.44463
▁Romania	-9.44604
▁prevention	-9.44614
▁introduced	-9.4463
▁thinking	-9.44668
▁comprehensive	-9.44673
ity	-9.4472
▁facing	-9.44739
▁American	-9.44883
▁After	-9.44954
▁commercial	-9.45005
▁pointed	-9.45024
▁delegation	-9.45216
▁Nevertheless	-9.45321
▁origin	-9.45343
▁reduced	-9.45373
▁Internet	-9.45408
▁alternative	-9.45477
▁consensus	-9.45581
to	-9.45598
▁differences	-9.45879
▁union	-9.46052
▁relationship	-9.46093
le	-9.46171
▁mandate	-9.4619
▁flexibility	-9.46517
▁liberalisation	-9.46629
▁sources	-9.46673
▁recommendations	-9.46755
▁raise	-9.46863
▁establishment	-9.46921
▁September	-9.47115
▁asking	-9.47237
▁added	-9.47238
▁probably	-9.4733
▁morning	-9.47396
▁forget	-9.47461
▁Spain	-9.47529
▁closer	-9.47733
▁sort	-9.47794
▁Indeed	-9.47861
▁wants	-9.47943
▁Some	-9.48181
▁else	-9.48193
▁Green	-9.48206
▁America	-9.48423
▁perspective	-9.48577
▁body	-9.4864
▁negative	-9.48864
▁Italian	-9.48908
▁ground	-9.48915
▁networks	-9.49008
▁organisation	-9.49084
▁strongly	-9.49121
▁Environment	-9.49167
▁intervention	-9.49218
▁bear	-9.49316
▁methods	-9.49351
▁applies	-9.49402
▁Ukraine	-9.4941
▁rapporteurs	-9.49457
▁exactly	-9.49523
▁correct	-9.49801
▁chance	-9.49892
▁laws	-9.49931
▁staff	-9.49974
ism	-9.50241
▁Ministers	-9.50326
▁build	-9.50405
▁November	-9.5042
▁drawn	-9.50441
▁says	-9.50498
▁sanctions	-9.50542
▁attempt	-9.50608
▁company	-9.50625
▁seek	-9.50654
▁failure	-9.50717
▁read	-9.5073
▁Procedure	-9.50762
▁discharge	-9.50831
▁Palestinian	-9.51061
▁fall	-9.51117
▁UK	-9.51426
▁dimension	-9.5143
▁practices	-9.51433
▁opening	-9.5144
▁parts	-9.51504
▁reply	-9.5161
▁laid	-9.51634
▁dealt	-9.51709
g	-9.51839
▁refugees	-9.51906
▁method	-9.51916
▁person	-9.5212
▁MEPs	-9.52192
▁submitted	-9.52235
▁institution	-9.52396
▁Paper	-9.52443
▁agencies	-9.52489
▁mechanism	-9.525
▁network	-9.52768
▁targets	-9.5287
▁enormous	-9.52886
▁constructive	-9.52916
▁happy	-9.52931
▁ideas	-9.53038
▁Ladies	-9.53071
▁addressed	-9.53425
▁improvement	-9.53456
▁Why	-9.53869
▁governance	-9.53932
ic	-9.53977
▁informed	-9.53991
▁integrated	-9.53999
▁send	-9.54078
▁critical	-9.54106
▁fraud	-9.54166
▁By	-9.54215
▁putting	-9.54387
▁Programme	-9.54388
▁directives	-9.54548
▁burden	-9.54717
▁choice	-9.54747
▁obligations	-9.54767
▁big	-9.54823
▁simple	-9.54966
▁immediately	-9.55021
▁managed	-9.55033
▁complex	-9.55045
▁growing	-9.55045
▁Middle	-9.55052
▁Kingdom	-9.55219
▁definition	-9.55276
▁transparent	-9.55301
▁consultation	-9.55373
▁contains	-9.55393
▁unable	-9.55446
▁sensitive	-9.55652
▁Even	-9.55668
▁run	-9.55691
▁October	-9.55698
▁parliaments	-9.55752
▁organised	-9.55805
▁ahead	-9.56048
an	-9.56143
▁mutual	-9.56182
▁child	-9.56225
▁Prime	-9.56323
▁fear	-9.56336
▁Russian	-9.56404
▁mainly	-9.56461
▁desire	-9.56476
▁sound	-9.56499
▁operation	-9.56548
▁mechanisms	-9.56554
▁rejected	-9.56623
▁Strategy	-9.56662
▁seem	-9.56699
M	-9.56743
▁Trade	-9.57001
▁administration	-9.57096
▁understanding	-9.57237
▁intention	-9.57452
▁merely	-9.57528
▁Iran	-9.57539
▁leaders	-9.57647
▁easy	-9.57659
▁evidence	-9.5783
▁resolve	-9.58084
▁Health	-9.58111
▁Charter	-9.58125
▁leading	-9.58163
▁signed	-9.5832
▁Agency	-9.5842
▁continuing	-9.58642
▁Chamber	-9.58667
▁Turkish	-9.58855
▁persons	-9.58856
▁age	-9.58984
▁repeat	-9.59187
▁exercise	-9.59286
▁fish	-9.59568
▁thousands	-9.59577
▁Amsterdam	-9.59592
▁came	-9.59696
▁impossible	-9.59834
ness	-9.59875
▁elected	-9.6007
▁guarantees	-9.60143
▁disaster	-9.60205
▁renewable	-9.60305
▁figures	-9.60362
▁lost	-9.60537
▁Amendments	-9.60561
▁resolutions	-9.60571
▁told	-9.60701
▁substantial	-9.60737
▁adequate	-9.60781
▁Many	-9.60842
▁worked	-9.60877
▁cover	-9.60907
▁independence	-9.60988
▁land	-9.61009
the	-9.61267
▁recommendation	-9.61454
▁totally	-9.61463
▁ought	-9.61498
▁technologies	-9.61516
▁speakers	-9.61629
▁table	-9.61714
▁includes	-9.61795
▁positions	-9.6181
▁degree	-9.61991
▁payments	-9.6204
▁structure	-9.62041
▁attitude	-9.62068
▁defend	-9.62132
▁intend	-9.62234
▁promotion	-9.62377
▁wishes	-9.62388
▁expression	-9.62544
▁extend	-9.62824
▁subsidiarity	-9.62884
▁failed	-9.62909
▁M	-9.62994
▁economies	-9.63034
▁instance	-9.63207
▁Schengen	-9.63333
▁An	-9.6349
▁income	-9.6358
▁sea	-9.63586
▁related	-9.63617
▁grateful	-9.63759
▁secure	-9.6377
PL	-9.63795
▁SMEs	-9.63939
▁traffic	-9.63978
▁territory	-9.64071
▁membership	-9.64205
▁bringing	-9.64222
▁linked	-9.64361
▁affairs	-9.64377
▁Pact	-9.64386
▁treaty	-9.64445
▁rates	-9.64471
▁Monetary	-9.64489
▁families	-9.64857
▁obvious	-9.64891
▁trafficking	-9.64979
▁involvement	-9.65151
▁opposed	-9.65351
▁North	-9.65389
▁tackle	-9.65422
▁actual	-9.65435
▁P	-9.65453
on	-9.65456
▁involving	-9.65511
▁Cyprus	-9.65542
▁Structural	-9.65569
▁original	-9.65633
▁getting	-9.65794
k	-9.65952
▁debates	-9.65975
▁Thirdly	-9.65978
▁Portugal	-9.66099
▁highlight	-9.66154
▁office	-9.66434
▁heart	-9.66518
▁travel	-9.66573
▁weapons	-9.66643
▁Euro	-9.6678
p	-9.66903
▁ready	-9.66926
▁controls	-9.6699
▁goal	-9.67013
▁immediate	-9.67044
▁truly	-9.67062
▁plenary	-9.67089
▁acts	-9.6716
▁talks	-9.67165
▁happening	-9.67218
▁lines	-9.67349
▁faced	-9.67364
▁official	-9.67378
▁drugs	-9.67396
▁finance	-9.67503
en	-9.67663
▁protecting	-9.67788
▁advantage	-9.67812
▁tourism	-9.67998
ist	-9.68094
▁disease	-9.68143
▁election	-9.68188
▁forced	-9.68205
▁enter	-9.68291
▁credit	-9.68348
▁greatest	-9.68348
▁appeal	-9.68353
▁Funds	-9.68507
▁recognised	-9.68549
▁Poland	-9.68633
▁starting	-9.68818
▁followed	-9.6903
▁adopting	-9.69046
▁campaign	-9.69221
te	-9.69274
▁F	-9.69413
▁interesting	-9.69491
▁granted	-9.69578
▁African	-9.69765
▁round	-9.69927
▁sign	-9.69937
▁appear	-9.70066
▁sides	-9.70075
▁July	-9.70204
▁bad	-9.7024
▁diversity	-9.70293
▁board	-9.70302
▁conduct	-9.70368
▁danger	-9.70493
▁element	-9.70576
▁seeking	-9.70587
▁gender	-9.70728
▁votes	-9.7074
▁bilateral	-9.70756
▁export	-9.70907
I	-9.70962
▁range	-9.71014
▁covered	-9.7111
▁shared	-9.71195
▁situations	-9.71263
▁minorities	-9.71316
▁mobility	-9.71381
▁Sweden	-9.71428
▁serve	-9.71497
▁carefully	-9.71599
▁vehicles	-9.717
▁reject	-9.71752
Applause	-9.7179
▁suffering	-9.71828
▁explain	-9.71903
▁late	-9.71918
▁substances	-9.71922
▁involve	-9.71973
▁comply	-9.71997
▁Public	-9.72046
est	-9.72059
▁ability	-9.72187
▁globalisation	-9.72436
▁Nos	-9.72449
▁evaluation	-9.72763
▁standard	-9.72799
▁designed	-9.72808
▁monitor	-9.72833
▁proposing	-9.72954
▁competence	-9.72963
▁changed	-9.72997
▁presence	-9.7304
▁subsidies	-9.73162
▁Greek	-9.73182
▁criticism	-9.73221
▁meetings	-9.73227
▁communities	-9.73411
▁thereby	-9.73483
▁detailed	-9.73564
▁Belarus	-9.73603
▁car	-9.73609
▁pollution	-9.73656
▁committees	-9.73683
▁Bulgaria	-9.74005
▁While	-9.74043
▁R	-9.74087
▁floor	-9.741
▁target	-9.74204
▁Swedish	-9.74273
▁delay	-9.74293
▁voice	-9.74368
▁safe	-9.74384
it	-9.74393
▁judicial	-9.74448
▁detail	-9.74749
▁naturally	-9.74764
▁harmonisation	-9.74911
▁spent	-9.74969
▁series	-9.75027
▁Barroso	-9.75085
▁structures	-9.75105
▁arms	-9.75268
▁Auditors	-9.75348
lo	-9.7536
▁binding	-9.75395
▁participate	-9.7557
▁emphasis	-9.75625
▁hours	-9.75643
▁consistent	-9.75742
▁approval	-9.7582
▁minority	-9.75965
▁anyone	-9.75985
▁consumption	-9.76064
▁supports	-9.76194
▁Sea	-9.7623
▁oral	-9.76269
▁causes	-9.76368
▁expected	-9.76531
▁Eastern	-9.76736
▁credibility	-9.76788
▁representative	-9.76798
▁improvements	-9.76799
▁taxation	-9.76873
isation	-9.76886
uestion	-9.76921
▁initial	-9.7698
▁continues	-9.77163
▁affect	-9.7718
▁reasonable	-9.77218
▁April	-9.77352
▁ACP	-9.7744
▁worth	-9.77491
▁planning	-9.77537
▁ones	-9.77587
▁otherwise	-9.7774
▁inform	-9.77773
▁peoples	-9.77936
▁limits	-9.7804
▁Rule	-9.7805
▁employees	-9.78084
▁transfer	-9.78172
▁obtain	-9.78195
▁nations	-9.78337
▁pre	-9.78452
▁Energy	-9.7846
▁gave	-9.7861
▁declaration	-9.78693
▁professional	-9.78825
▁amongst	-9.79092
▁lower	-9.79345
▁Only	-9.79366
ment	-9.79423
▁factor	-9.79425
▁source	-9.79441
▁arrangements	-9.79521
▁Such	-9.79522
ge	-9.79577
▁solve	-9.79705
▁entry	-9.79732
▁recovery	-9.79737
▁maximum	-9.79763
▁obligation	-9.79793
u	-9.79964
as	-9.80008
▁rapid	-9.80024
▁citizen	-9.80069
▁religious	-9.80073
▁De	-9.80127
▁Do	-9.80187
▁immigrants	-9.80252
▁started	-9.80288
▁neither	-9.80313
▁signal	-9.80319
▁regulatory	-9.80405
▁Roma	-9.80457
▁lies	-9.80556
▁domestic	-9.8059
▁goals	-9.80661
▁compensation	-9.80789
▁session	-9.8087
▁PPE	-9.80959
▁politicians	-9.80994
▁Those	-9.81114
▁factors	-9.81157
▁terrorist	-9.81174
▁easier	-9.81207
▁D	-9.81209
▁modern	-9.81241
▁generally	-9.81291
▁whilst	-9.81455
▁encouraging	-9.81548
h	-9.81596
▁rail	-9.82013
▁Vice	-9.82119
▁grounds	-9.82193
▁fail	-9.82327
▁Agriculture	-9.82358
▁politics	-9.82358
▁attacks	-9.82404
EC	-9.82512
▁Socialist	-9.82515
▁freedoms	-9.82525
▁Czech	-9.82609
based	-9.82728
▁From	-9.82861
▁banks	-9.82977
▁continent	-9.8298
▁permanent	-9.83163
▁facilitate	-9.83193
▁moving	-9.83368
▁speaker	-9.83483
▁post	-9.83516
▁contributions	-9.8364
▁Legal	-9.8365
▁delighted	-9.83655
▁appears	-9.83664
▁scale	-9.83786
▁flexible	-9.8384
ive	-9.83867
▁Research	-9.83872
▁constitutional	-9.83972
▁languages	-9.83973
▁month	-9.8398
▁debt	-9.8403
▁Western	-9.84063
▁welfare	-9.84159
▁Europeans	-9.84208
▁imposed	-9.84263
▁respected	-9.84265
▁Market	-9.84895
President	-9.85008
▁equally	-9.85046
▁endorse	-9.8511
▁manage	-9.85145
▁compliance	-9.85199
▁restrictions	-9.85295
PT	-9.85304
▁appropriations	-9.85307
▁migration	-9.85408
▁partner	-9.85417
▁sent	-9.85528
▁inclusion	-9.85539
▁construction	-9.85548
▁General	-9.85604
▁capable	-9.85605
▁requirement	-9.85688
▁evening	-9.85797
ch	-9.85949
▁reflect	-9.8604
▁century	-9.86122
▁conflicts	-9.86304
▁forthcoming	-9.86317
▁link	-9.86405
▁firm	-9.86426
▁proposes	-9.86501
▁awareness	-9.86509
▁experts	-9.86648
▁separate	-9.86689
▁crimes	-9.86705
▁guaranteed	-9.8671
▁Copenhagen	-9.86774
▁speed	-9.86847
▁spending	-9.8685
▁negotiating	-9.86905
▁Strasbourg	-9.86916
▁interested	-9.87009
▁impose	-9.87019
▁visa	-9.87062
▁Stability	-9.87103
▁learn	-9.87137
▁placed	-9.87147
▁helping	-9.87207
▁NATO	-9.87272
▁operations	-9.87311
▁tobacco	-9.8753
▁Afghanistan	-9.87596
▁Netherlands	-9.87596
P	-9.87601
▁payment	-9.87637
▁personally	-9.87654
▁lose	-9.8789
▁fighting	-9.87904
▁man	-9.87944
▁numerous	-9.88025
IT	-9.8804
▁referendum	-9.88098
▁investments	-9.88122
▁resolved	-9.8818
▁diseases	-9.88257
▁truth	-9.88324
▁likely	-9.88347
▁labelling	-9.88589
▁Luxembourg	-9.88628
▁safeguard	-9.88719
▁T	-9.88766
▁allowing	-9.88907
▁customs	-9.88944
▁mass	-9.89037
▁trading	-9.89129
▁path	-9.89131
▁glad	-9.89181
▁Action	-9.89206
▁tasks	-9.89307
▁realise	-9.89375
ri	-9.89378
▁traditional	-9.8942
▁continued	-9.89456
▁demonstrate	-9.8963
▁peaceful	-9.89631
▁defined	-9.89666
▁existence	-9.89674
▁purposes	-9.89678
▁II	-9.89746
▁voluntary	-9.89786
ne	-9.8994
▁worse	-9.89945
▁Agenda	-9.90033
▁examine	-9.90105
▁letter	-9.90293
▁demonstrated	-9.90379
▁base	-9.90382
▁pension	-9.90409
▁option	-9.90461
▁distribution	-9.90473
▁remarks	-9.90686
▁opinions	-9.90768
▁Balkans	-9.90811
H	-9.90932
▁functioning	-9.90972
▁via	-9.91007
▁material	-9.91031
▁attack	-9.91057
▁effectiveness	-9.91078
▁associated	-9.91125
▁ECU	-9.9116
▁scheme	-9.91175
▁assure	-9.91184
▁disasters	-9.91298
▁occasions	-9.91405
▁mission	-9.91447
▁exists	-9.91644
▁According	-9.91769
▁Baltic	-9.91806
▁Another	-9.91841
▁vision	-9.91854
▁maritime	-9.9191
ion	-9.91961
▁strict	-9.91962
▁space	-9.92013
▁counter	-9.92037
▁operate	-9.92055
▁Commissioners	-9.92056
▁average	-9.92082
▁Budgets	-9.92119
▁written	-9.92208
▁Framework	-9.9222
▁tried	-9.92335
▁protected	-9.92571
▁operators	-9.92607
▁ultimately	-9.9265
▁revision	-9.92671
▁e	-9.92689
▁Austria	-9.92809
▁Ombudsman	-9.92844
▁Lastly	-9.92844
▁legitimate	-9.92904
▁contained	-9.92966
▁Not	-9.92993
▁India	-9.93004
im	-9.93086
▁cooperate	-9.93256
▁suggest	-9.93258
▁entitled	-9.93263
▁USA	-9.93267
▁Portuguese	-9.93332
▁wide	-9.93411
▁primarily	-9.93647
▁concluded	-9.9365
▁officials	-9.93653
▁ethnic	-9.93715
▁overcome	-9.93791
▁approve	-9.93858
▁appreciate	-9.93957
▁corruption	-9.93964
▁New	-9.94031
▁justified	-9.94081
▁brief	-9.9427
▁top	-9.94413
▁individuals	-9.94442
▁millions	-9.94475
▁difference	-9.94537
▁dignity	-9.94881
▁substance	-9.95144
▁visit	-9.95219
ES	-9.95382
▁technological	-9.95389
▁lay	-9.95616
de	-9.95624
▁passed	-9.95726
▁Despite	-9.95808
▁Treaties	-9.95808
▁statistics	-9.95918
▁played	-9.96007
▁Chinese	-9.9607
▁amounts	-9.96117
▁i	-9.96117
▁extended	-9.96153
▁H	-9.96163
▁Dutch	-9.96202
▁allocated	-9.96213
▁d	-9.96231
▁prepare	-9.96234
▁involves	-9.96237
▁High	-9.9625
▁violations	-9.96261
▁penalty	-9.96383
▁Organisation	-9.96419
▁clause	-9.96588
▁collective	-9.96591
f	-9.96614
▁pursue	-9.9663
▁sexual	-9.96683
▁firmly	-9.9672
▁temporary	-9.96833
▁constitution	-9.96876
▁nevertheless	-9.97033
▁loss	-9.97086
▁emergency	-9.97287
▁February	-9.97296
▁whatever	-9.97315
el	-9.97382
▁imports	-9.97414
▁treated	-9.97633
▁Given	-9.97651
▁impression	-9.97688
▁passengers	-9.97751
▁ministers	-9.97957
▁got	-9.97997
▁wonder	-9.98022
▁Financial	-9.9809
▁vulnerable	-9.98126
▁unless	-9.98132
▁Perhaps	-9.98273
▁CAP	-9.98316
▁farming	-9.98321
▁decisive	-9.9835
▁planned	-9.98352
▁please	-9.9853
▁electronic	-9.98687
il	-9.98699
▁hands	-9.9873
▁industries	-9.98751
▁requested	-9.98846
▁centre	-9.98907
▁obstacles	-9.98925
▁proceed	-9.98954
▁latter	-9.98973
▁secondly	-9.99008
▁extension	-9.99121
▁abuse	-9.99129
▁excessive	-9.99188
▁Assembly	-9.99195
▁taxes	-9.99383
▁confirm	-9.9943
▁somewhat	-9.99458
▁Head	-9.99504
▁Here	-9.99819
▁Women	-9.99865
▁prove	-10.0012
▁gone	-10.002
▁court	-10.0022
▁offers	-10.0027
▁agency	-10.0035
▁examples	-10.0035
▁happens	-10.0035
▁preparing	-10.0039
▁compared	-10.0059
▁succeed	-10.0063
▁fulfil	-10.0066
▁spoke	-10.0074
▁exclusion	-10.008
▁gain	-10.0098
▁property	-10.01
▁phase	-10.0109
▁Israeli	-10.011
▁highest	-10.0114
▁contact	-10.0117
▁seven	-10.0121
▁preventing	-10.0124
▁undoubtedly	-10.0133
▁Prodi	-10.014
▁considering	-10.0141
▁knows	-10.0148
▁occasion	-10.0155
▁Fundamental	-10.0159
▁insurance	-10.0163
▁normal	-10.0169
▁spoken	-10.0173
▁behaviour	-10.0178
▁operational	-10.0187
▁drawing	-10.0189
▁record	-10.0202
▁CO	-10.0203
▁constantly	-10.0205
and	-10.0212
▁Transport	-10.0213
▁urgently	-10.0214
▁NGOs	-10.0229
▁fishermen	-10.0251
▁Because	-10.027
▁fiscal	-10.0297
▁latest	-10.0302
▁applying	-10.0304
▁fuel	-10.0316
▁duties	-10.032
▁relates	-10.032
▁processes	-10.0323
▁codecision	-10.0324
▁pillar	-10.0326
▁tool	-10.0329
▁quotas	-10.0332
▁expectations	-10.0344
D	-10.0352
▁introducing	-10.0359
▁details	-10.0364
▁Alliance	-10.0366
▁stronger	-10.0367
▁determined	-10.0373
▁ratification	-10.0378
▁courage	-10.0382
▁described	-10.0387
▁works	-10.0389
▁keeping	-10.0397
▁announced	-10.0398
▁allows	-10.0412
▁sensible	-10.0413
▁Croatia	-10.0417
▁prosperity	-10.0421
▁precise	-10.0432
li	-10.0432
▁noted	-10.0435
▁W	-10.0438
▁function	-10.0439
▁welcomed	-10.0444
▁Then	-10.0451
▁Report	-10.0452
▁supervision	-10.0456
▁association	-10.0457
▁proceedings	-10.0459
▁Asia	-10.0481
▁historic	-10.0483
▁stocks	-10.0508
▁pass	-10.0508
▁operating	-10.0519
▁strategies	-10.0523
ur	-10.0524
▁choose	-10.053
▁strengthened	-10.0536
▁inter	-10.0548
▁confirmed	-10.0553
▁studies	-10.0554
▁arguments	-10.0556
▁exploitation	-10.0578
▁represented	-10.0591
▁fine	-10.0594
ise	-10.0597
▁convergence	-10.0599
▁clarify	-10.0599
▁minutes	-10.0602
▁coordinated	-10.0608
▁barriers	-10.0611
▁Fisheries	-10.0613
▁conciliation	-10.0621
▁submit	-10.0637
▁types	-10.0646
▁kept	-10.0649
NL	-10.0671
▁Consumer	-10.0676
F	-10.0691
▁briefly	-10.0698
▁intends	-10.0712
ear	-10.0713
terinstitutional	-10.0716
▁debating	-10.0725
▁largest	-10.0737
O	-10.074
▁largely	-10.0744
▁trans	-10.0747
ve	-10.0754
▁accounts	-10.0765
year	-10.0772
▁sovereignty	-10.0774
▁published	-10.0792
▁equipment	-10.0798
▁coherent	-10.0808
▁realistic	-10.0811
▁leadership	-10.0814
our	-10.0815
▁Protection	-10.0834
▁electricity	-10.0863
▁materials	-10.0865
▁condition	-10.0875
ised	-10.0882
▁insist	-10.0884
▁condemn	-10.0884
▁politically	-10.09
▁nation	-10.0909
▁assess	-10.091
▁innovative	-10.0912
▁maintaining	-10.0919
▁contracts	-10.0935
▁Employment	-10.0936
▁dependent	-10.0939
is	-10.0939
▁undertaken	-10.0942
General	-10.0947
us	-10.0951
▁O	-10.0953
▁paper	-10.0957
▁urgency	-10.0973
▁perfectly	-10.098
▁suffer	-10.0989
▁room	-10.0989
▁fields	-10.0991
▁united	-10.0998
▁transition	-10.1
▁unfair	-10.1002
▁honour	-10.1003
▁Constitutional	-10.1003
▁Instead	-10.1006
▁enjoy	-10.1015
▁offered	-10.1029
▁restructuring	-10.1035
▁advance	-10.104
▁finding	-10.1041
▁felt	-10.1048
▁amending	-10.1049
▁cars	-10.1058
▁deliver	-10.1065
▁follows	-10.1069
▁Serbia	-10.1071
▁identity	-10.1073
▁ongoing	-10.1073
▁shadow	-10.1077
▁regular	-10.1078
▁patients	-10.1088
at	-10.1089
▁careful	-10.1094
▁wine	-10.1097
▁define	-10.1099
▁absence	-10.1102
out	-10.1105
▁argument	-10.1116
▁significantly	-10.1117
▁L	-10.1136
▁concentrate	-10.1139
▁invest	-10.114
▁universal	-10.1147
▁test	-10.1147
▁school	-10.1147
▁stable	-10.1157
▁wait	-10.1169
▁territorial	-10.117
▁waiting	-10.1175
▁formal	-10.1181
▁determination	-10.1184
ling	-10.1186
z	-10.1211
▁acknowledge	-10.1217
▁accidents	-10.1238
▁proved	-10.1245
▁changing	-10.125
▁legally	-10.1263
▁More	-10.1263
▁brings	-10.1266
▁qualified	-10.1271
▁parliament	-10.1285
T	-10.1288
▁Dur	-10.129
▁medical	-10.1291
▁difficulty	-10.1297
▁answers	-10.1301
▁understood	-10.1312
▁Consequently	-10.1338
▁places	-10.1357
▁release	-10.1364
▁pro	-10.1365
▁highlighted	-10.1374
▁genuinely	-10.1377
▁amended	-10.1395
▁figure	-10.1406
▁claim	-10.1406
▁learning	-10.1415
▁willing	-10.1435
▁vessels	-10.1438
▁disposal	-10.145
▁holding	-10.145
ar	-10.1455
▁near	-10.1456
▁Georgia	-10.1459
▁Hungarian	-10.1462
▁significance	-10.1463
▁neighbours	-10.1464
▁valuable	-10.1471
▁listen	-10.148
▁VAT	-10.1484
▁deficit	-10.1489
▁sport	-10.1519
▁Control	-10.1528
▁Protocol	-10.1528
▁satisfactory	-10.1528
▁referring	-10.1532
▁Cooperation	-10.1563
▁driving	-10.1578
▁sub	-10.1579
▁extra	-10.1585
▁Austrian	-10.1589
▁seeing	-10.1605
▁apart	-10.1606
ary	-10.1619
▁Last	-10.1621
▁negotiation	-10.1625
▁Thursday	-10.1628
▁primary	-10.1628
▁resulting	-10.1633
ntergovernmental	-10.1643
▁sustainability	-10.165
▁remove	-10.165
ia	-10.1656
▁Internal	-10.1659
▁exports	-10.166
▁destruction	-10.1663
▁absolute	-10.1685
▁milk	-10.1685
▁Finland	-10.169
▁Latin	-10.1692
▁head	-10.1705
▁preparation	-10.1714
▁V	-10.1717
ated	-10.1723
▁daily	-10.1734
▁assume	-10.1737
▁facts	-10.1762
un	-10.1782
▁suggested	-10.1783
▁television	-10.1792
▁saw	-10.1793
▁Can	-10.18
▁drug	-10.18
▁stake	-10.1802
▁Before	-10.1814
▁constitute	-10.1818
▁neighbouring	-10.1819
▁grant	-10.1827
▁moral	-10.1832
▁someone	-10.184
▁Food	-10.1841
▁users	-10.1848
▁actively	-10.1849
▁medicines	-10.1854
▁contain	-10.1855
▁meat	-10.1867
▁Northern	-10.1868
ate	-10.1877
▁code	-10.1885
▁leads	-10.1885
▁determine	-10.1887
▁playing	-10.1888
▁built	-10.1888
▁Greens	-10.1895
rs	-10.1895
▁Once	-10.1921
▁version	-10.1931
▁Britain	-10.1945
▁Common	-10.1959
▁urban	-10.1972
▁elsewhere	-10.1972
Christian	-10.1973
▁depend	-10.1979
▁friends	-10.1992
▁White	-10.1995
▁speeches	-10.1996
▁multilateral	-10.1999
▁deep	-10.2002
▁GDP	-10.2004
▁wider	-10.2006
▁timetable	-10.2011
▁investigation	-10.2013
▁Safety	-10.2019
▁plants	-10.2023
▁opposite	-10.2032
▁identify	-10.2035
▁Are	-10.204
▁spread	-10.2044
▁bit	-10.2052
▁indicated	-10.2053
▁satisfied	-10.2055
▁maintained	-10.2058
▁requests	-10.2065
▁sufficiently	-10.2075
▁previously	-10.2075
▁double	-10.2077
▁meant	-10.2079
▁budgets	-10.2089
▁greatly	-10.209
▁feed	-10.2091
▁zone	-10.2092
▁possibly	-10.2097
▁inadequate	-10.21
▁Regional	-10.2101
▁External	-10.2105
▁obliged	-10.2106
▁massive	-10.2115
▁Without	-10.2126
▁plant	-10.2126
▁etc	-10.2134
▁nan	-10.2135
▁transitional	-10.2141
▁check	-10.2149
▁van	-10.2152
▁stands	-10.2167
ul	-10.2171
▁tragic	-10.2179
▁moreover	-10.218
▁proportion	-10.2181
co	-10.2194
▁thanking	-10.2195
▁background	-10.2212
▁links	-10.2219
▁West	-10.2226
▁dynamic	-10.2232
▁waters	-10.224
▁competent	-10.2249
▁running	-10.2249
▁prisoners	-10.2253
▁aviation	-10.2254
▁becomes	-10.2255
▁topic	-10.2258
▁compulsory	-10.2258
▁Thus	-10.2258
▁identified	-10.2268
▁considers	-10.2275
▁partly	-10.2276
▁Europol	-10.2291
▁suffered	-10.2299
▁interpretation	-10.2308
▁enforcement	-10.2308
▁himself	-10.231
▁beings	-10.2316
▁f	-10.2323
▁Kyoto	-10.2329
▁afternoon	-10.2329
▁launched	-10.233
RO	-10.233
▁Belgian	-10.2343
▁adapt	-10.2345
▁BSE	-10.2347
▁chosen	-10.2348
▁affects	-10.2351
▁spend	-10.2351
▁Budget	-10.2353
ti	-10.2361
▁deserves	-10.2362
▁recall	-10.2364
▁hearing	-10.237
▁possibilities	-10.2376
▁reconstruction	-10.2386
▁completed	-10.2391
U	-10.2394
▁attempts	-10.2396
▁societies	-10.24
▁front	-10.2404
▁Having	-10.2405
▁carrying	-10.2407
▁conducted	-10.2407
▁debated	-10.241
▁diplomatic	-10.2416
▁Pakistan	-10.2418
▁implications	-10.2434
▁helped	-10.2446
▁went	-10.2447
▁uniform	-10.2447
▁species	-10.2473
ry	-10.2475
▁stock	-10.2485
▁options	-10.2489
▁ports	-10.2489
ci	-10.2489
▁guaranteeing	-10.2493
▁believes	-10.2493
▁complicated	-10.251
▁issued	-10.251
▁dis	-10.2515
▁eight	-10.2515
▁Nice	-10.2524
▁National	-10.2524
▁gap	-10.2528
▁schemes	-10.2541
▁spite	-10.2548
▁sorry	-10.2555
▁poorest	-10.2559
▁extreme	-10.2568
ating	-10.2569
▁enhance	-10.2577
▁facilities	-10.2577
▁surely	-10.2584
▁Danish	-10.2596
▁Bosnia	-10.2599
▁intellectual	-10.2601
▁ratified	-10.2601
▁Hungary	-10.2606
▁definitely	-10.2608
▁size	-10.2609
▁assist	-10.2609
▁tragedy	-10.2611
▁proof	-10.2618
▁replace	-10.2625
▁seeks	-10.2631
▁Secretary	-10.2646
ra	-10.2647
free	-10.2653
ising	-10.2656
▁whereby	-10.2659
▁southern	-10.2664
▁Representative	-10.2669
▁successfully	-10.2677
▁heavy	-10.2679
ro	-10.2681
▁worldwide	-10.2684
▁mistake	-10.2687
▁openness	-10.2698
scale	-10.2726
▁sugar	-10.2733
▁addressing	-10.2738
▁constant	-10.2738
▁Subject	-10.2748
▁purely	-10.2783
▁intentions	-10.2792
▁advertising	-10.2792
▁cities	-10.2797
▁prospects	-10.2797
▁centres	-10.2806
▁sets	-10.2812
▁Barcelona	-10.2813
▁wealth	-10.282
▁exception	-10.283
▁generation	-10.2834
COM	-10.2841
▁Will	-10.2843
▁Liberal	-10.2862
▁Home	-10.2862
▁extensive	-10.2872
▁solely	-10.2874
▁Partnership	-10.2876
▁quote	-10.2885
▁harmful	-10.2886
▁Belgium	-10.2891
▁Socialists	-10.2894
▁unanimously	-10.29
▁rich	-10.29
▁Polish	-10.2901
▁worst	-10.2916
▁J	-10.2918
▁Re	-10.2919
▁worrying	-10.293
related	-10.293
▁reiterate	-10.2932
▁Time	-10.2939
G	-10.2941
ally	-10.2941
▁players	-10.2943
▁demanding	-10.2947
▁opened	-10.2961
▁Where	-10.2964
▁foremost	-10.2976
▁producing	-10.2978
▁accident	-10.2979
na	-10.2983
▁skills	-10.2985
▁phenomenon	-10.2986
economic	-10.2998
▁stressed	-10.2999
▁numbers	-10.3001
▁Korea	-10.3004
▁dispute	-10.3005
▁governing	-10.3011
▁essentially	-10.3012
▁taxpayers	-10.3019
▁Does	-10.302
ta	-10.3021
▁hundreds	-10.3024
▁Japan	-10.303
▁extending	-10.3032
▁healthy	-10.3035
▁acting	-10.3041
▁profits	-10.3042
▁...	-10.3058
▁easily	-10.3062
EL	-10.3066
▁correctly	-10.3093
▁schools	-10.3095
▁pensions	-10.3101
▁heritage	-10.3108
▁Nor	-10.3113
▁Both	-10.3113
▁depends	-10.3114
▁achievement	-10.3121
▁prior	-10.3127
▁proud	-10.3134
▁rapidly	-10.3136
▁Growth	-10.3139
▁Under	-10.3144
relatively	-10.3148
▁tools	-10.3151
tergovernmental	-10.3155
one	-10.3155
▁considerations	-10.3167
▁advice	-10.3174
▁considerably	-10.3176
▁texts	-10.3177
▁crises	-10.3185
▁Left	-10.319
ad	-10.3191
▁savings	-10.3219
▁feeling	-10.3226
▁enabling	-10.3226
▁threats	-10.3236
▁thorough	-10.3237
▁launch	-10.3239
▁charges	-10.3246
▁environmentally	-10.3252
▁secret	-10.3256
▁decades	-10.3269
▁promised	-10.3281
▁sum	-10.3282
▁chairman	-10.3289
▁deals	-10.3295
▁reliable	-10.3303
▁geographical	-10.3305
▁remaining	-10.331
▁strength	-10.3323
▁Cuba	-10.3325
▁experienced	-10.3329
▁granting	-10.3331
▁break	-10.3334
▁manufacturers	-10.3341
▁core	-10.3349
▁clarity	-10.3356
▁oppose	-10.3357
session	-10.3362
▁focused	-10.337
▁profit	-10.3372
▁favourable	-10.3372
ant	-10.3374
▁encouraged	-10.338
▁cuts	-10.3382
▁bureaucracy	-10.3382
▁green	-10.3384
ting	-10.3387
▁performance	-10.3387
▁claims	-10.3387
▁refers	-10.3395
▁regrettable	-10.3398
▁willingness	-10.3409
▁EC	-10.3409
▁powerful	-10.3416
▁reaction	-10.343
▁heading	-10.3437
▁paying	-10.344
▁Plan	-10.3445
▁advantages	-10.3445
▁ECB	-10.3446
▁declared	-10.3448
▁suitable	-10.345
▁emphasised	-10.3462
▁imagine	-10.3478
▁contributed	-10.3479
▁admit	-10.3492
▁applicable	-10.3496
▁entered	-10.35
▁reflected	-10.3503
▁certainty	-10.3506
▁wording	-10.3519
▁modified	-10.3526
▁carbon	-10.3545
▁legitimacy	-10.3551
▁passenger	-10.3552
▁increases	-10.3554
▁Just	-10.3561
man	-10.3562
▁succeeded	-10.3571
▁intervene	-10.3573
▁article	-10.3574
▁undertakings	-10.3579
▁historical	-10.3582
▁biggest	-10.3583
ce	-10.3584
▁supposed	-10.359
▁affecting	-10.3602
▁engage	-10.3609
▁unnecessary	-10.3609
▁protocol	-10.3627
▁island	-10.3633
▁convention	-10.3635
▁arise	-10.3642
Parliament	-10.3645
▁violation	-10.3649
age	-10.3653
▁eastern	-10.3658
▁save	-10.3659
▁communications	-10.3679
▁Arab	-10.369
▁doubts	-10.3696
▁Denmark	-10.3701
▁port	-10.371
▁competences	-10.3716
▁negotiated	-10.3716
▁whereas	-10.3723
▁summer	-10.3723
▁beef	-10.3731
ol	-10.3747
mo	-10.3753
▁restore	-10.3762
▁news	-10.3765
▁constitutes	-10.3768
▁vast	-10.3772
▁removed	-10.3777
▁Rur	-10.3783
▁simplification	-10.3785
▁regarded	-10.3795
▁Christian	-10.38
ance	-10.3828
▁fruit	-10.3829
▁retain	-10.3831
▁leader	-10.3835
▁ships	-10.3836
▁utmost	-10.3837
▁consequence	-10.3846
E	-10.3846
▁hit	-10.3848
▁Parliamentary	-10.3857
▁Slovakia	-10.386
▁greenhouse	-10.3865
▁sake	-10.387
▁healthcare	-10.3871
tic	-10.3878
▁deeply	-10.3881
▁reservations	-10.3882
▁sought	-10.3888
▁Culture	-10.39
▁reaching	-10.39
▁bank	-10.3902
▁multi	-10.3903
▁supplementary	-10.3903
ous	-10.3905
▁K	-10.3906
▁incorporated	-10.3906
▁afraid	-10.3914
▁regulate	-10.3923
▁Authority	-10.3925
am	-10.3929
▁courts	-10.3938
▁explanation	-10.3941
▁Civil	-10.3942
▁airlines	-10.3962
▁cancer	-10.3962
▁firms	-10.3983
▁Maastricht	-10.3992
▁boost	-10.3992
▁citizenship	-10.3993
▁everybody	-10.3997
▁negotiate	-10.3999
▁buy	-10.4015
▁science	-10.4025
▁fairly	-10.4026
ty	-10.4027
▁applicant	-10.403
▁eye	-10.403
▁weak	-10.4041
▁noon	-10.4041
▁presenting	-10.4047
▁south	-10.4051
wide	-10.4054
▁respects	-10.4057
▁battle	-10.4059
▁Joint	-10.4064
▁prospect	-10.4072
▁deserve	-10.4083
▁obtained	-10.4083
v	-10.4109
▁piece	-10.4114
▁religion	-10.4115
▁smaller	-10.4117
▁racism	-10.4126
▁targeted	-10.4128
▁slow	-10.4132
▁eliminate	-10.4145
▁Citizens	-10.4149
▁Berlin	-10.4159
▁leaving	-10.416
▁patent	-10.4161
▁applications	-10.4163
▁raising	-10.4167
▁aside	-10.4169
▁excluded	-10.4179
▁charge	-10.4189
▁clean	-10.4211
▁tests	-10.4214
▁commit	-10.4215
▁preserve	-10.4219
▁te	-10.4219
▁Burma	-10.4223
ities	-10.4233
▁Follow	-10.4245
▁Association	-10.4251
▁Over	-10.4257
▁nationals	-10.4268
▁ordinary	-10.4268
▁employers	-10.4275
▁treaties	-10.428
N	-10.4285
▁struggle	-10.4297
▁meaning	-10.4301
▁Tourism	-10.4303
▁electoral	-10.4308
ugoslavia	-10.4311
▁incentives	-10.4313
▁mark	-10.4338
less	-10.4339
▁declarations	-10.4344
▁disabled	-10.4354
▁stay	-10.4355
▁fleet	-10.4357
▁jointly	-10.4358
▁Industry	-10.436
▁credible	-10.436
▁hopes	-10.4366
▁revised	-10.4368
la	-10.4368
▁armed	-10.4368
▁necessarily	-10.4372
▁settlement	-10.4391
▁combined	-10.4392
▁suggestions	-10.4404
▁pact	-10.4407
▁bureaucratic	-10.4412
▁terrible	-10.4418
▁She	-10.4418
▁outstanding	-10.4428
ful	-10.4431
▁surprised	-10.4433
▁amend	-10.4433
▁eyes	-10.4437
▁pleasure	-10.4441
▁author	-10.4451
▁familiar	-10.4453
▁contract	-10.4461
▁shortcomings	-10.4472
▁tonnes	-10.4482
▁justify	-10.4502
▁representation	-10.451
▁import	-10.451
▁examined	-10.4515
▁showing	-10.4516
▁complaints	-10.4518
▁declare	-10.4519
▁Well	-10.4521
▁importantly	-10.4521
▁shape	-10.4525
▁repeatedly	-10.4528
▁yes	-10.4532
▁radical	-10.4536
▁marketing	-10.4546
▁drafting	-10.4548
▁reflects	-10.4562
▁afford	-10.4574
▁undertake	-10.4581
▁nearly	-10.4582
▁weight	-10.4592
▁exceptional	-10.4592
▁grow	-10.4597
▁Bureau	-10.46
▁trend	-10.46
sh	-10.4604
▁underline	-10.461
ent	-10.4613
▁expressing	-10.4619
▁buildings	-10.4633
▁stance	-10.4647
▁prefer	-10.4648
ma	-10.4659
▁arrest	-10.4669
▁broader	-10.4671
▁prison	-10.4672
ine	-10.4678
▁unemployed	-10.4696
▁turned	-10.4697
▁suspended	-10.4698
R	-10.4704
▁transactions	-10.4705
▁bearing	-10.4705
▁foundations	-10.4708
▁subjects	-10.4718
▁educational	-10.4718
lecommunications	-10.4735
▁Van	-10.4746
▁honest	-10.4754
▁hardly	-10.4759
▁Act	-10.4761
▁Macedonia	-10.4763
▁belong	-10.4765
▁belief	-10.4766
▁widespread	-10.4767
▁creates	-10.4777
▁picture	-10.4778
▁preparations	-10.4782
▁economically	-10.4783
▁alcohol	-10.4799
▁students	-10.4799
▁resulted	-10.48
▁undermine	-10.4805
▁fewer	-10.4809
▁fresh	-10.481
▁biodiversity	-10.4815
▁below	-10.4822
▁checks	-10.4826
▁deadline	-10.4827
ex	-10.4839
▁PSE	-10.4839
▁forest	-10.4846
▁quota	-10.4861
▁ambition	-10.4863
▁warmly	-10.4873
▁liability	-10.4876
L	-10.4877
▁penalties	-10.4888
ted	-10.4888
▁airports	-10.4891
▁inflation	-10.4894
▁allocation	-10.49
▁relate	-10.4909
▁unity	-10.491
▁War	-10.4913
▁candidates	-10.4916
▁disagree	-10.4918
▁Free	-10.4918
▁repeated	-10.4925
▁tackling	-10.4931
ir	-10.4933
▁physical	-10.4938
▁expense	-10.4949
▁bound	-10.4951
▁none	-10.4954
▁abolition	-10.4967
▁night	-10.4967
▁coordinate	-10.497
▁delays	-10.4988
▁count	-10.4994
▁unfortunate	-10.4994
▁losses	-10.4995
▁category	-10.5004
SV	-10.5009
▁transatlantic	-10.501
▁lie	-10.5011
ke	-10.5014
ors	-10.5022
▁red	-10.5029
▁restricted	-10.5035
▁withdraw	-10.5042
▁invite	-10.505
▁enhanced	-10.5053
▁unique	-10.506
▁faith	-10.5061
▁became	-10.5066
▁satisfaction	-10.5068
▁falls	-10.5078
▁Islamic	-10.5079
▁lessons	-10.5081
▁civilian	-10.5081
▁widely	-10.5086
▁insufficient	-10.5089
▁city	-10.5099
▁welcomes	-10.5105
▁freely	-10.5107
▁minute	-10.5109
▁Geneva	-10.511
▁door	-10.5112
▁condemned	-10.5114
▁youth	-10.5116
▁track	-10.5121
▁qualifications	-10.5125
▁Albania	-10.5132
▁occurred	-10.5135
▁Clearly	-10.5135
id	-10.5141
▁fast	-10.5144
po	-10.5145
▁presentation	-10.5145
▁explained	-10.5149
▁Morocco	-10.515
▁English	-10.5153
▁army	-10.5154
▁expensive	-10.5159
▁drafted	-10.516
▁regulated	-10.5164
▁digital	-10.5166
▁aircraft	-10.5166
▁EMU	-10.5178
▁uncertainty	-10.5178
do	-10.5179
▁informal	-10.5183
w	-10.5183
▁twenty	-10.5185
▁gradually	-10.5188
▁Palestinians	-10.5191
ll	-10.5202
▁Gaza	-10.5203
▁indicate	-10.5208
▁lasting	-10.5211
▁kinds	-10.5213
▁distinction	-10.5217
time	-10.5217
x	-10.5222
▁Lithuania	-10.5223
▁harm	-10.5224
▁team	-10.5225
▁larger	-10.5237
▁processing	-10.5239
▁ignore	-10.5239
▁recommend	-10.5257
▁offering	-10.526
▁demographic	-10.526
▁nonetheless	-10.5266
▁periods	-10.5268
▁unanimous	-10.5268
▁reserve	-10.5278
▁causing	-10.5279
▁receiving	-10.5285
▁outset	-10.5292
▁railway	-10.5301
▁sovereign	-10.5304
▁turning	-10.5316
▁suggestion	-10.5321
▁regardless	-10.5322
for	-10.5331
▁collaboration	-10.5336
▁procurement	-10.5336
con	-10.5349
▁permit	-10.5359
▁indicators	-10.5359
▁raw	-10.5362
▁ethical	-10.5364
▁acquis	-10.5366
▁Obviously	-10.5368
ver	-10.5376
▁sphere	-10.5378
▁terrorists	-10.5379
▁promises	-10.5389
▁hence	-10.5396
▁reflection	-10.5398
▁listened	-10.5404
▁demonstrates	-10.5405
▁ecological	-10.5408
▁parents	-10.5408
▁covers	-10.5413
▁warning	-10.5423
▁trial	-10.5431
▁elderly	-10.5432
▁extraordinary	-10.544
▁began	-10.5445
▁Investment	-10.5445
▁blame	-10.5454
▁financed	-10.5454
▁minister	-10.5455
▁chain	-10.5456
▁undertaking	-10.5457
▁observed	-10.5468
▁register	-10.5471
▁motor	-10.5477
▁engaged	-10.5489
▁journalists	-10.5498
▁deaths	-10.5509
▁basically	-10.5512
▁severe	-10.5512
▁con	-10.5516
▁strike	-10.5521
▁shares	-10.5523
▁generations	-10.5528
imbabwe	-10.5531
▁liberal	-10.5532
▁tribute	-10.5536
▁motions	-10.5536
▁promise	-10.5536
▁noise	-10.5541
▁push	-10.5557
▁killed	-10.5559
▁transit	-10.5569
▁reinforce	-10.5581
▁finances	-10.5582
▁necessity	-10.5594
▁couple	-10.5596
▁section	-10.5606
▁congratulations	-10.5614
em	-10.562
▁Nonetheless	-10.562
▁spring	-10.562
▁territories	-10.5633
▁organise	-10.5662
▁prevented	-10.5665
▁abstained	-10.567
▁torture	-10.5675
EEC	-10.5703
▁promoted	-10.5708
▁populations	-10.5714
▁collection	-10.572
▁supplies	-10.5726
▁viable	-10.5726
EU	-10.5728
▁parallel	-10.5732
▁frequently	-10.5754
level	-10.5774
▁beneficial	-10.5785
▁sending	-10.579
▁Declaration	-10.5792
▁Americans	-10.5793
▁drivers	-10.5797
▁Chechnya	-10.5799
▁troops	-10.5799
▁compatible	-10.5802
▁nobody	-10.5805
ner	-10.5808
▁looked	-10.581
▁contacts	-10.5815
▁rejection	-10.5821
▁IGC	-10.5826
▁pursued	-10.5833
▁clearer	-10.5835
▁sincerely	-10.5836
▁Soviet	-10.5845
▁arising	-10.5852
▁shortly	-10.5853
▁Second	-10.5855
%.	-10.5856
▁associations	-10.5857
▁Any	-10.5859
▁revenue	-10.588
▁Centre	-10.5886
▁moved	-10.5891
▁ex	-10.5895
▁Rome	-10.5899
▁dumping	-10.5904
▁wage	-10.5906
▁react	-10.5923
▁Also	-10.5926
▁mid	-10.5939
▁accompanied	-10.594
▁Canada	-10.5941
▁solid	-10.5947
▁congratulating	-10.596
▁emerging	-10.596
▁clarification	-10.5961
ha	-10.5962
ni	-10.5964
▁OLAF	-10.5964
▁occur	-10.5968
▁Every	-10.5974
▁Ma	-10.5995
▁banking	-10.6001
▁forum	-10.6004
▁divided	-10.6004
▁talked	-10.6006
▁Le	-10.6009
▁Egypt	-10.6015
▁approximately	-10.6019
▁London	-10.6021
▁exclusively	-10.6025
▁enlarged	-10.6029
▁alongside	-10.6032
▁observe	-10.6036
▁vehicle	-10.6061
▁accessible	-10.6064
▁opt	-10.6066
▁refuse	-10.6067
▁efficiently	-10.6071
▁fire	-10.6076
▁marine	-10.6083
▁forests	-10.6092
om	-10.6102
▁percentage	-10.6106
▁simplify	-10.6107
▁Their	-10.6107
▁choices	-10.6109
▁harmonised	-10.612
▁conventions	-10.6122
▁apparent	-10.6127
▁defending	-10.6132
▁division	-10.6134
▁Labour	-10.6138
▁Great	-10.6138
▁observation	-10.6141
▁Like	-10.6145
▁surveillance	-10.6152
▁Moldova	-10.6155
▁protest	-10.6157
▁strictly	-10.6161
▁occupation	-10.6162
▁northern	-10.6179
▁Office	-10.618
▁Statute	-10.6186
▁Most	-10.6187
▁roads	-10.6189
▁judgment	-10.6189
ho	-10.6191
country	-10.62
▁crops	-10.6203
▁route	-10.6231
▁postal	-10.6233
▁stations	-10.6234
by	-10.6239
▁ill	-10.6248
▁b	-10.6252
▁statute	-10.6256
▁disappointed	-10.6257
▁Education	-10.6263
▁evident	-10.6275
▁Petitions	-10.6277
▁rising	-10.6277
▁valid	-10.6281
▁coherence	-10.6284
▁experiencing	-10.6284
▁begun	-10.6284
▁respecting	-10.6285
▁Objective	-10.6285
▁Otherwise	-10.6291
debate	-10.6292
▁unanimity	-10.6298
com	-10.6298
▁loans	-10.6303
▁surrounding	-10.6327
▁treat	-10.633
▁fourth	-10.6341
▁notice	-10.6348
▁Cohesion	-10.6354
▁jurisdiction	-10.6354
▁mere	-10.6358
▁campaigns	-10.6366
land	-10.6379
▁neighbourhood	-10.6382
▁consulted	-10.6386
ter	-10.639
Mediterranean	-10.6391
▁friend	-10.6391
▁compete	-10.6396
▁chemical	-10.64
▁justification	-10.6407
▁pilot	-10.641
▁Finnish	-10.6411
▁host	-10.6411
▁friendly	-10.6412
▁Service	-10.6415
▁ruling	-10.6415
▁perspectives	-10.6416
▁timely	-10.6419
▁directed	-10.6422
▁desirable	-10.6425
▁restrict	-10.6426
▁Atlantic	-10.6428
▁usual	-10.6449
▁Palestine	-10.6456
▁yourself	-10.6461
▁threatened	-10.6465
▁Communist	-10.6465
ig	-10.6466
▁unions	-10.6473
▁resource	-10.648
▁tangible	-10.6482
fi	-10.6488
▁image	-10.6494
me	-10.6503
▁Two	-10.6503
pe	-10.6504
▁pursuan	-10.651
▁threshold	-10.6516
▁nine	-10.6518
▁tradition	-10.652
▁replaced	-10.6524
▁genetically	-10.6525
▁permitted	-10.6525
led	-10.6528
CS	-10.6531
▁conservation	-10.6532
▁connected	-10.6533
▁victim	-10.6538
▁drive	-10.6542
▁authorisation	-10.6546
▁standing	-10.6547
▁alternatives	-10.6552
▁Co	-10.6553
▁forgotten	-10.6557
▁sharing	-10.6558
▁refused	-10.6565
▁acceptance	-10.6568
▁traditions	-10.6569
ac	-10.657
▁lacking	-10.6577
udgetary	-10.6578
▁emission	-10.6581
▁procedural	-10.6582
▁excuse	-10.659
ba	-10.6593
▁blood	-10.6595
▁Single	-10.6597
▁house	-10.6602
▁residence	-10.6626
▁examination	-10.6633
▁joined	-10.6659
▁respective	-10.666
▁defining	-10.6662
▁sad	-10.6663
▁hoped	-10.6663
ag	-10.6675
▁impetus	-10.6677
▁observers	-10.6677
V	-10.668
▁mobile	-10.6681
▁Allow	-10.6685
▁socio	-10.6695
▁controversial	-10.6698
▁consequently	-10.6699
quality	-10.67
▁puts	-10.6701
▁confusion	-10.6706
▁sight	-10.6708
ca	-10.6709
▁net	-10.6713
▁categories	-10.6713
ized	-10.6718
▁soil	-10.672
▁north	-10.6725
▁integrity	-10.6735
▁Defence	-10.6742
▁equivalent	-10.6742
▁ideal	-10.6745
▁dramatic	-10.6764
▁contributing	-10.6764
▁worthy	-10.6769
▁underlying	-10.6779
ian	-10.6787
▁raises	-10.6789
▁Regarding	-10.6794
▁imposing	-10.6801
▁textile	-10.6802
▁showed	-10.6806
▁win	-10.6807
HU	-10.6809
▁items	-10.6813
▁Information	-10.6816
▁resumed	-10.6818
▁helpful	-10.6818
outh	-10.6822
▁reconciliation	-10.6831
▁logical	-10.6837
▁length	-10.6843
▁characteristics	-10.6845
▁slightly	-10.6847
▁flow	-10.6849
der	-10.6851
▁migrants	-10.6863
▁expansion	-10.6875
▁farms	-10.6897
▁housing	-10.6905
▁estimated	-10.6906
ies	-10.6912
▁scrutiny	-10.6912
▁Bar	-10.6915
▁intensive	-10.6916
▁destroy	-10.6925
▁Criminal	-10.6935
):	-10.6937
▁preventive	-10.6939
▁interim	-10.6943
▁arrive	-10.6952
▁missing	-10.6954
▁funded	-10.6954
▁comparison	-10.6959
▁warm	-10.6962
▁signing	-10.6963
▁N	-10.6964
▁withdrawal	-10.6975
▁search	-10.6976
▁highlights	-10.6983
▁whatsoever	-10.6987
▁keen	-10.699
▁railways	-10.6999
ure	-10.6999
▁coastal	-10.7004
▁joining	-10.7006
▁agrees	-10.7011
▁perfect	-10.7013
hi	-10.7013
▁systematic	-10.7017
▁preliminary	-10.7017
▁Solidarity	-10.7019
▁Friday	-10.7025
▁Malta	-10.7025
▁distributed	-10.7026
▁chapter	-10.7027
▁commend	-10.7032
▁ambitions	-10.7033
▁organizations	-10.7034
▁notably	-10.7035
governmental	-10.7044
▁subsequently	-10.7044
▁contrast	-10.7047
▁subsequent	-10.7058
▁achievements	-10.7059
ritten	-10.7061
▁Monday	-10.707
▁managing	-10.707
▁inside	-10.7073
▁advocate	-10.7076
▁thousand	-10.708
▁Please	-10.7093
▁train	-10.7093
▁breach	-10.7096
▁approaches	-10.7098
▁confident	-10.7098
▁exchanges	-10.7105
▁reported	-10.7108
▁controlled	-10.7113
▁violent	-10.7135
▁c	-10.7136
▁assessments	-10.7137
▁investors	-10.7141
▁judge	-10.7141
▁integrate	-10.7142
▁advanced	-10.7146
outermost	-10.7146
bo	-10.7151
▁Or	-10.7153
▁destroyed	-10.7153
▁accordingly	-10.7159
▁representing	-10.718
▁envisaged	-10.7186
▁ratify	-10.7189
▁grave	-10.72
▁murder	-10.7203
ts	-10.7213
▁imported	-10.7216
▁failing	-10.7221
▁Dublin	-10.7223
▁losing	-10.7223
▁restrictive	-10.7231
▁Iraqi	-10.7238
▁birth	-10.7238
▁woman	-10.7241
▁Doha	-10.7241
▁August	-10.7253
▁consent	-10.7253
▁cultures	-10.7266
ot	-10.7269
▁participating	-10.7269
▁universities	-10.7269
▁chemicals	-10.7272
▁regularly	-10.7277
▁conviction	-10.7281
▁sentence	-10.7285
ga	-10.7285
▁System	-10.7292
▁banned	-10.7293
▁appointment	-10.7297
▁resistance	-10.73
▁solved	-10.7302
▁discipline	-10.7313
▁inhabitants	-10.7313
▁plays	-10.7315
▁flows	-10.7323
▁exceptions	-10.7329
▁Wednesday	-10.7331
▁fixed	-10.7333
▁Tunisia	-10.7337
▁sales	-10.7352
▁die	-10.7353
▁Sudan	-10.7354
▁safeguarding	-10.7356
▁founded	-10.7375
▁gained	-10.7376
▁eventually	-10.7379
▁reductions	-10.7382
▁mistakes	-10.7385
lu	-10.7386
▁infringement	-10.7391
▁hundred	-10.7398
▁error	-10.7398
▁covering	-10.7403
▁providers	-10.7403
▁convince	-10.7405
▁tough	-10.7408
▁St	-10.7411
▁sit	-10.7411
▁Democratic	-10.7413
▁absurd	-10.7416
▁disputes	-10.7429
▁Lebanon	-10.7432
▁pretext	-10.744
▁design	-10.7444
▁Brazil	-10.7453
▁concentration	-10.7454
reaching	-10.7464
▁card	-10.7467
▁decent	-10.747
▁fires	-10.7482
▁rational	-10.7488
vi	-10.7494
▁tolerance	-10.7495
ization	-10.7498
▁abroad	-10.7503
▁incorporate	-10.7503
▁monitored	-10.7506
▁mandatory	-10.7511
ning	-10.7518
▁touch	-10.7524
▁dead	-10.7525
▁shift	-10.7534
wing	-10.7534
▁Similarly	-10.7535
um	-10.7546
off	-10.7546
▁executive	-10.7551
▁decline	-10.7555
▁stringent	-10.7559
▁exploit	-10.7588
▁rely	-10.7592
▁abuses	-10.7613
▁fails	-10.7618
▁fit	-10.7622
ability	-10.763
▁Solana	-10.7631
▁supervisory	-10.7631
▁movements	-10.7634
▁freight	-10.7639
▁ignored	-10.7644
▁Hence	-10.7648
▁dangers	-10.7649
▁foundation	-10.765
▁listening	-10.7658
▁den	-10.766
▁acknowledged	-10.7671
▁anniversary	-10.7671
▁coal	-10.7673
▁Ms	-10.7679
▁Who	-10.7679
▁humanity	-10.7681
▁older	-10.7681
▁containing	-10.7682
▁surprise	-10.7683
▁marked	-10.7684
day	-10.769
▁hour	-10.7691
▁wages	-10.7694
▁black	-10.7694
▁ALDE	-10.7703
ten	-10.7705
▁fears	-10.7706
▁Reform	-10.771
▁pursuing	-10.7711
▁registration	-10.7715
ab	-10.7715
▁delegations	-10.7718
▁popular	-10.7718
▁fuels	-10.7719
▁consistency	-10.7719
▁investigations	-10.7728
▁object	-10.7729
▁assets	-10.7731
▁president	-10.7741
▁regimes	-10.7742
▁block	-10.7742
▁micro	-10.7743
▁Services	-10.7746
▁accepting	-10.7748
▁Patten	-10.7752
▁stakeholders	-10.7752
bi	-10.7757
▁suggests	-10.7759
▁sincere	-10.7762
line	-10.7767
▁albeit	-10.7768
Rule	-10.7777
▁expertise	-10.7784
▁signs	-10.7788
▁EIB	-10.7792
▁organic	-10.7793
▁resolving	-10.78
▁liked	-10.7814
▁Al	-10.782
▁functions	-10.7831
▁visited	-10.7832
ial	-10.7837
▁Chairman	-10.784
▁catch	-10.7841
▁invited	-10.7847
▁cent	-10.7858
▁Romanian	-10.7861
▁evaluate	-10.787
▁farm	-10.7872
of	-10.7873
▁Syria	-10.7878
▁infrastructures	-10.7878
▁La	-10.7881
▁outlined	-10.7884
pr	-10.7886
▁Liberals	-10.7888
▁imperative	-10.789
▁accountability	-10.7893
▁experiences	-10.7895
▁Could	-10.7899
▁actors	-10.7899
▁furthermore	-10.7908
▁fifteen	-10.7915
▁accounting	-10.792
▁variety	-10.7923
▁Decision	-10.7924
vote	-10.7925
▁answered	-10.7933
▁female	-10.794
▁meantime	-10.7942
▁Libya	-10.7943
▁collapse	-10.7952
▁proven	-10.7953
▁prime	-10.7956
▁finish	-10.7964
▁compromises	-10.7964
▁criterion	-10.7973
▁denied	-10.7973
ence	-10.7977
▁immunity	-10.799
pa	-10.8001
os	-10.8012
▁modernisation	-10.8016
▁cast	-10.802
▁consolidation	-10.8023
▁pharmaceutical	-10.8024
▁falling	-10.8028
▁tonight	-10.8039
▁unilateral	-10.8043
ov	-10.8043
▁offices	-10.8051
yes	-10.8052
▁ship	-10.8053
▁sympathy	-10.8056
▁employed	-10.8064
▁fifth	-10.8065
▁en	-10.8068
▁usually	-10.8078
▁incentive	-10.8083
▁voters	-10.8084
▁refugee	-10.8084
▁gradual	-10.8085
▁stages	-10.8089
▁ceiling	-10.81
▁autonomy	-10.8106
▁detention	-10.8106
▁endeavour	-10.8108
▁concludes	-10.8113
▁learned	-10.8115
▁visible	-10.8123
▁dossier	-10.8126
▁criminals	-10.8137
▁Ashton	-10.814
▁except	-10.8143
▁fate	-10.8167
▁models	-10.8168
▁maintenance	-10.8174
▁Other	-10.8177
▁indication	-10.8177
▁dictatorship	-10.8177
▁cutting	-10.8182
▁backing	-10.8183
▁looks	-10.8187
▁endorsed	-10.821
▁sites	-10.8219
▁OSCE	-10.822
▁badly	-10.8221
▁notion	-10.823
▁corresponding	-10.823
▁wind	-10.8231
▁GMOs	-10.8232
▁released	-10.8233
▁character	-10.824
▁disastrous	-10.8242
▁substantially	-10.8248
▁false	-10.825
▁died	-10.8252
▁hopefully	-10.8254
▁Bush	-10.8259
▁virtually	-10.826
discrimination	-10.8265
▁Millennium	-10.8267
▁appointed	-10.8268
▁renewed	-10.827
▁storage	-10.8276
▁features	-10.8281
▁adequately	-10.8282
▁productive	-10.8286
▁recognises	-10.8292
▁Iranian	-10.8297
▁entering	-10.8301
▁argue	-10.8301
▁Above	-10.8301
▁visas	-10.8313
▁observations	-10.8324
▁acted	-10.8326
▁Naturally	-10.8327
▁ageing	-10.833
▁conscience	-10.8344
▁examining	-10.8357
▁essence	-10.8362
▁Annex	-10.8362
▁names	-10.8386
▁explanations	-10.8389
▁consistently	-10.8392
▁productivity	-10.8396
▁clauses	-10.8399
▁Scotland	-10.8405
▁cope	-10.8409
▁safeguards	-10.8413
▁avoided	-10.8417
▁heads	-10.8418
▁game	-10.8418
▁apparently	-10.8419
▁privacy	-10.8422
ill	-10.8423
▁scientists	-10.843
▁borne	-10.8432
▁statistical	-10.8435
▁revolution	-10.8439
▁damaging	-10.844
▁blind	-10.8444
▁consultations	-10.8445
▁airport	-10.8454
▁Schulz	-10.8466
be	-10.8467
▁emerged	-10.8469
▁Verheugen	-10.8474
▁inquiry	-10.8474
▁devoted	-10.8479
▁Fischler	-10.8483
▁Slovenia	-10.8489
ists	-10.8495
▁assurance	-10.8506
▁inspection	-10.8506
way	-10.8506
▁completion	-10.8509
▁satellite	-10.8518
▁initially	-10.8522
▁closure	-10.8523
▁everywhere	-10.8527
men	-10.853
▁adaptation	-10.8533
▁focusing	-10.855
va	-10.8551
▁stick	-10.8551
▁book	-10.8557
per	-10.8561
▁programming	-10.8571
▁foot	-10.8578
use	-10.8597
▁straight	-10.8606
▁deficits	-10.8631
▁rigorous	-10.8637
▁tackled	-10.8637
▁Congo	-10.8641
▁consolidate	-10.8646
▁title	-10.865
▁Switzerland	-10.8659
▁progressive	-10.8664
▁leaves	-10.867
▁Whilst	-10.8677
▁Santer	-10.8677
▁reserves	-10.8682
▁partnerships	-10.8684
▁paragraphs	-10.8684
▁attend	-10.8685
▁reporting	-10.8685
▁seat	-10.8686
over	-10.8692
▁dream	-10.8701
▁MEP	-10.8702
▁embargo	-10.8703
▁Brok	-10.8704
▁arrived	-10.8709
▁Stockholm	-10.8712
▁gross	-10.8717
ward	-10.8721
▁recommended	-10.8722
▁exclusive	-10.8726
▁silence	-10.873
▁repression	-10.873
all	-10.8735
▁testing	-10.8735
▁struck	-10.8739
▁Tibet	-10.8747
▁democratically	-10.8753
▁stimulate	-10.8762
▁inappropriate	-10.8765
▁sums	-10.8767
▁punishment	-10.8776
▁accused	-10.8777
▁precautionary	-10.8784
▁attach	-10.8792
▁minor	-10.88
ring	-10.8801
▁cheap	-10.8804
friendly	-10.8806
▁expert	-10.8809
▁autumn	-10.8829
▁divide	-10.883
▁class	-10.8837
▁volume	-10.8837
fe	-10.8842
▁investigate	-10.8843
▁Liberties	-10.8847
▁distance	-10.8849
▁planet	-10.8859
▁explicitly	-10.886
▁Tampere	-10.8865
▁fought	-10.8874
▁ensured	-10.8882
vo	-10.8892
▁enabled	-10.8892
▁vocational	-10.8893
▁deny	-10.8894
▁cycle	-10.89
▁sections	-10.8903
▁complement	-10.8916
▁irregularities	-10.892
▁fundamentally	-10.8921
▁fault	-10.8929
▁continuation	-10.8934
▁desired	-10.8935
▁emphasize	-10.8937
▁soldiers	-10.8937
▁story	-10.8938
▁personnel	-10.894
▁simplified	-10.8941
▁era	-10.8949
▁middle	-10.8956
▁exemption	-10.8966
▁sports	-10.8973
))	-10.8975
▁enshrined	-10.8975
▁sold	-10.8978
▁orientation	-10.8984
▁repercussions	-10.8984
▁disadvantaged	-10.8996
res	-10.8998
▁enables	-10.9001
▁football	-10.9002
ck	-10.9004
ork	-10.9013
▁Would	-10.9021
▁fulfilled	-10.9021
▁cease	-10.9026
▁wherever	-10.9029
▁sell	-10.9043
▁shipping	-10.9048
▁harmonise	-10.9053
▁Globalisation	-10.9058
▁handling	-10.9059
▁symbol	-10.907
▁delivered	-10.9072
▁laying	-10.9085
▁democratisation	-10.9085
old	-10.9086
▁t	-10.9087
▁adapted	-10.9098
▁inequalities	-10.9104
▁seekers	-10.9104
▁exposed	-10.9115
▁sex	-10.9118
▁speculation	-10.9122
und	-10.9124
▁innocent	-10.9141
▁component	-10.9142
medicinal	-10.9142
▁criticise	-10.9146
▁removal	-10.915
▁horizontal	-10.915
▁flights	-10.9151
▁detriment	-10.9154
▁sole	-10.9155
▁meets	-10.9156
▁GUE	-10.916
FI	-10.917
▁Mar	-10.9174
▁attractive	-10.9178
▁Special	-10.9178
▁pace	-10.9178
▁lifelong	-10.9179
initiative	-10.9186
▁participants	-10.9187
DA	-10.9188
▁initiated	-10.9191
nt	-10.9201
▁Helsinki	-10.9206
▁presidential	-10.9216
SK	-10.9217
▁attached	-10.9222
▁terror	-10.9224
▁preparatory	-10.9225
▁won	-10.9225
▁socially	-10.9231
▁ideological	-10.9234
▁ownership	-10.9244
▁openly	-10.9247
▁transferred	-10.9257
▁sale	-10.9267
▁notes	-10.9267
▁narrow	-10.9272
▁twice	-10.9272
NGL	-10.9282
▁foster	-10.9283
▁combine	-10.9287
▁Olympic	-10.9301
▁assured	-10.9302
qui	-10.9309
▁multiannual	-10.931
ize	-10.9313
▁dependence	-10.9315
▁objections	-10.9315
▁logic	-10.9317
▁quick	-10.9322
▁strive	-10.9329
▁obstacle	-10.9332
▁Everyone	-10.9339
▁accurate	-10.9344
▁principal	-10.9344
ious	-10.9345
placing	-10.9346
▁inevitably	-10.9348
▁linguistic	-10.9348
▁alarming	-10.9354
▁forestry	-10.9358
▁differ	-10.9359
▁pressing	-10.9367
ka	-10.9367
▁patient	-10.937
▁stricter	-10.9373
▁facility	-10.9377
▁mine	-10.9385
▁bio	-10.9385
▁precedent	-10.9386
▁persecution	-10.9386
▁saving	-10.9389
▁enterprise	-10.9389
▁Institute	-10.9396
▁Day	-10.9397
▁fallen	-10.9398
▁feature	-10.9424
▁hunger	-10.9424
▁constraints	-10.9424
pp	-10.9426
▁tape	-10.9428
▁potentially	-10.9437
▁modest	-10.9438
he	-10.944
ative	-10.9444
▁race	-10.9447
▁abortion	-10.9447
▁foodstuffs	-10.945
▁appalling	-10.9453
ens	-10.9458
▁praise	-10.9459
▁concessions	-10.9464
▁wished	-10.9479
▁originally	-10.948
ut	-10.949
▁draftsman	-10.9492
▁comparable	-10.9501
▁ended	-10.9502
▁monopoly	-10.9504
▁internationally	-10.9511
▁wholeheartedly	-10.9512
ALE	-10.9513
▁USD	-10.9514
ak	-10.9514
so	-10.9518
▁characterised	-10.9522
▁Fourthly	-10.9522
▁errors	-10.9524
▁islands	-10.9528
▁homes	-10.9529
▁incident	-10.9534
▁responses	-10.9536
▁lists	-10.9538
▁helps	-10.954
▁transposition	-10.954
▁inspections	-10.9553
▁findings	-10.9558
▁constituency	-10.9559
▁donors	-10.9566
▁appreciation	-10.9569
▁AIDS	-10.9576
▁western	-10.9578
▁systematically	-10.9579
▁generate	-10.9579
▁His	-10.9585
▁Federal	-10.9589
▁Latvia	-10.9613
▁assessing	-10.9614
▁irrespective	-10.9618
sa	-10.962
▁stating	-10.9628
▁m	-10.963
▁warrant	-10.9633
ru	-10.9636
▁researchers	-10.9636
▁practically	-10.9637
W	-10.9648
▁broadly	-10.9649
▁abandon	-10.9649
▁biofuels	-10.9651
▁remained	-10.9652
▁adverse	-10.9653
▁eco	-10.9653
▁serves	-10.9658
▁Algeria	-10.9662
▁hazardous	-10.9666
▁closing	-10.9667
▁Among	-10.9668
▁rating	-10.9671
▁deciding	-10.9677
▁telling	-10.9688
▁recorded	-10.9694
▁automatically	-10.9697
▁stopped	-10.9697
▁convey	-10.9699
▁Mexico	-10.9703
▁posts	-10.9708
▁workplace	-10.9708
depth	-10.971
▁adjustment	-10.9712
▁Vienna	-10.9716
▁composition	-10.9716
▁demanded	-10.9719
▁criticised	-10.972
▁await	-10.9725
▁refusal	-10.9726
▁routes	-10.9731
min	-10.9732
mi	-10.9737
▁decade	-10.9742
▁publication	-10.9742
▁pillars	-10.9746
▁complied	-10.9746
employed	-10.975
▁interference	-10.9762
▁survival	-10.9765
▁intelligent	-10.9781
▁xenophobia	-10.9785
▁mother	-10.9786
▁disabilities	-10.9795
▁audit	-10.9797
▁Galileo	-10.9805
▁travelling	-10.9807
▁mental	-10.9808
▁Law	-10.9816
▁producer	-10.982
▁thoroughly	-10.9824
▁retirement	-10.9825
▁tuna	-10.9835
▁worried	-10.9835
▁guilty	-10.9856
▁missions	-10.9859
▁Third	-10.9861
▁Hamas	-10.9865
▁civilians	-10.9874
▁recycling	-10.9875
▁offences	-10.9881
▁Saddam	-10.9885
▁deadlines	-10.9886
▁Estonia	-10.9888
▁label	-10.989
▁assessed	-10.9892
▁channels	-10.9897
▁computer	-10.9902
▁wake	-10.9905
▁Resolution	-10.9905
▁organization	-10.9913
▁Kurdish	-10.9915
▁coordinating	-10.9915
▁remit	-10.9917
ish	-10.9917
▁ch	-10.9925
▁lesson	-10.9932
▁Timor	-10.9935
▁delicate	-10.9936
▁root	-10.9936
▁bottom	-10.9939
▁genocide	-10.9946
▁strange	-10.9956
▁subjected	-10.9963
▁comitology	-10.9966
si	-10.9966
▁remark	-10.9966
▁Code	-10.9967
▁pays	-10.9969
▁formally	-10.9971
▁bases	-10.9971
▁marks	-10.9973
▁unit	-10.9988
▁topical	-10.9995
▁Verts	-10.9996
▁euros	-11.0002
▁criticisms	-11.0003
ton	-11.0005
▁creative	-11.0017
▁zero	-11.0017
▁victory	-11.0017
▁camps	-11.0018
▁Ba	-11.002
▁indirect	-11.002
▁uphold	-11.0021
▁roll	-11.0025
▁atmosphere	-11.0027
▁scheduled	-11.003
▁incidents	-11.0032
▁reminded	-11.0039
▁authorised	-11.004
▁thirdly	-11.0043
▁minds	-11.0053
▁everyday	-11.0081
▁moratorium	-11.0088
▁unprecedented	-11.0098
▁flag	-11.0098
▁demonstration	-11.0107
side	-11.0108
▁relief	-11.0108
▁Guinea	-11.0108
▁topics	-11.0115
io	-11.0117
▁protectionism	-11.0118
cu	-11.0121
▁obtaining	-11.0124
▁g	-11.0125
▁Con	-11.0126
▁audiovisual	-11.0129
▁generous	-11.0135
▁estimates	-11.0136
iv	-11.014
▁condemnation	-11.0145
▁Presidents	-11.0148
▁contradiction	-11.0159
▁empty	-11.016
▁invitation	-11.016
▁grants	-11.0163
▁Christians	-11.0166
▁realised	-11.0169
▁remedy	-11.017
▁town	-11.0172
▁analyse	-11.0176
ub	-11.0176
▁Black	-11.0181
nd	-11.0186
▁rid	-11.0187
▁combination	-11.0191
▁isolation	-11.0191
▁presents	-11.0199
▁trouble	-11.0208
▁beneficiaries	-11.0212
▁references	-11.0212
▁withdrawn	-11.0215
ster	-11.0218
▁arrangement	-11.0222
▁vague	-11.0222
▁onto	-11.0231
▁federal	-11.0245
▁persuade	-11.0249
▁avoiding	-11.0252
▁Federation	-11.0253
▁heavily	-11.0253
▁passing	-11.0271
▁facilitating	-11.0274
▁workforce	-11.0276
▁Me	-11.0278
▁returned	-11.0284
▁Should	-11.0284
▁depth	-11.0291
▁arises	-11.0291
▁fashion	-11.03
▁floods	-11.03
▁arrested	-11.0307
▁Asian	-11.0309
▁privatisation	-11.0316
▁genetic	-11.0326
▁reviewed	-11.0337
▁stem	-11.0337
ap	-11.0345
▁born	-11.0346
▁Baroness	-11.0347
▁abolish	-11.0351
▁transfers	-11.0351
▁dear	-11.0352
▁enforce	-11.0352
▁pesticides	-11.0355
▁remarkable	-11.0359
▁wonderful	-11.0359
▁addresses	-11.0362
tre	-11.0367
▁banana	-11.037
LT	-11.0372
▁Democrat	-11.0374
▁HIV	-11.0379
▁Hague	-11.0389
▁input	-11.039
▁reverse	-11.0396
▁Congress	-11.04
▁Ra	-11.04
▁contributes	-11.0411
▁anywhere	-11.0413
au	-11.0427
▁drop	-11.0432
▁clarified	-11.0432
▁telephone	-11.0432
▁instability	-11.0432
▁radio	-11.0433
▁exclude	-11.045
▁articles	-11.045
▁U	-11.0456
▁consists	-11.0468
uite	-11.0471
▁disadvantage	-11.0471
▁irresponsible	-11.0474
▁wise	-11.049
▁ultimate	-11.0496
▁indicates	-11.0502
▁prerequisite	-11.0508
▁Ukrainian	-11.0509
▁devote	-11.0512
▁towns	-11.0515
▁di	-11.0516
ably	-11.0516
▁posed	-11.0521
▁perform	-11.053
▁incomes	-11.053
▁stresses	-11.0531
▁macro	-11.0549
▁Perspective	-11.0549
▁integral	-11.0549
▁exert	-11.0553
▁corporate	-11.0554
▁reinforced	-11.0556
▁Kinnock	-11.056
▁quantity	-11.056
▁differently	-11.0567
▁Through	-11.057
▁phrase	-11.0581
▁dual	-11.0582
▁attempting	-11.0588
▁Apart	-11.0594
pro	-11.0594
▁solving	-11.0595
▁governed	-11.0597
▁responding	-11.0597
▁emerge	-11.0601
▁gases	-11.0603
▁diverse	-11.0603
▁investing	-11.0609
▁Madrid	-11.0614
▁indispensable	-11.0614
▁monopolies	-11.0614
▁shame	-11.0616
▁registered	-11.0625
▁map	-11.0627
ns	-11.0631
▁normally	-11.0637
▁disparities	-11.0646
▁abolished	-11.0653
▁describe	-11.0655
▁relative	-11.0661
▁witnessed	-11.0673
▁r	-11.0677
▁Caucasus	-11.0679
▁assembly	-11.0689
ations	-11.0691
▁livestock	-11.07
▁sustained	-11.0704
▁civilisation	-11.0709
state	-11.071
▁smoking	-11.0711
▁recognising	-11.0711
▁removing	-11.0711
▁resort	-11.0711
▁served	-11.0716
▁isolated	-11.0723
j	-11.0726
COD	-11.0733
king	-11.0734
▁Monti	-11.0739
▁CFSP	-11.0742
▁trends	-11.0743
▁affair	-11.0758
▁recession	-11.0766
▁Democracy	-11.0777
▁democracies	-11.0777
vis	-11.0777
▁remote	-11.0787
▁cl	-11.0795
ging	-11.0795
▁translation	-11.0802
▁adding	-11.0804
▁unlike	-11.0817
▁identification	-11.0821
▁problematic	-11.0821
▁lowest	-11.0824
▁survive	-11.0828
▁inevitable	-11.0832
▁strikes	-11.0835
▁Nordic	-11.0841
▁emphasises	-11.0842
ow	-11.0847
▁whenever	-11.0849
▁expenses	-11.0853
▁availability	-11.0854
▁satisfy	-11.0854
▁expand	-11.0859
fer	-11.0859
▁rare	-11.0861
▁aspirations	-11.0863
▁inequality	-11.0865
▁Ar	-11.0865
▁believed	-11.0867
mer	-11.0867
▁illegally	-11.0868
▁donor	-11.087
▁poorer	-11.0877
▁Na	-11.0881
▁Be	-11.0886
pi	-11.0891
▁Montenegro	-11.0892
▁interventions	-11.0893
▁merit	-11.0896
▁transnational	-11.0901
▁profound	-11.0905
▁symbolic	-11.0906
▁Blair	-11.0909
▁pick	-11.0915
▁enjoyed	-11.0916
▁enthusiasm	-11.092
di	-11.0936
▁Neighbourhood	-11.0943
▁footing	-11.0945
od	-11.0946
ach	-11.0947
▁Nigeria	-11.0949
▁Slovak	-11.0963
▁securing	-11.0965
▁caught	-11.0965
▁Against	-11.0966
▁energies	-11.0976
▁match	-11.0979
▁burdens	-11.0986
we	-11.0992
▁pan	-11.0993
▁claimed	-11.0994
▁philosophy	-11.0999
▁lend	-11.1
▁cells	-11.1002
▁advances	-11.1006
ranging	-11.1007
▁la	-11.1011
ide	-11.1012
disproportionate	-11.1012
▁patents	-11.102
ber	-11.1021
▁bar	-11.1024
▁owe	-11.1029
▁steel	-11.1032
▁limiting	-11.1046
▁Directorate	-11.1047
▁doors	-11.1051
▁Taiwan	-11.1055
▁Arctic	-11.1055
▁dioxide	-11.1055
▁appeared	-11.106
▁bill	-11.1061
▁interpreted	-11.1061
▁gratitude	-11.1066
▁chair	-11.1076
▁occupied	-11.1077
▁concepts	-11.1082
▁maybe	-11.1084
▁earmarked	-11.109
▁frankly	-11.1092
▁dairy	-11.11
▁disappointment	-11.11
▁Eurostat	-11.1102
▁manufacturing	-11.1111
▁cattle	-11.1111
▁Frontex	-11.1112
▁publicly	-11.1118
▁threatening	-11.1118
▁mo	-11.1118
ator	-11.1128
▁definitive	-11.113
op	-11.1141
▁Kong	-11.1146
▁Each	-11.1146
▁pointing	-11.1147
▁cr	-11.1152
▁guide	-11.1153
▁Paris	-11.1156
▁hide	-11.1157
▁Prize	-11.1157
▁location	-11.1158
ph	-11.1158
▁pose	-11.1161
du	-11.1162
▁preference	-11.1164
▁repair	-11.1168
▁von	-11.1169
▁handled	-11.1176
▁Until	-11.118
▁messages	-11.1181
▁encouragement	-11.1184
▁relationships	-11.1186
red	-11.1189
▁confirms	-11.1199
▁concluding	-11.1203
▁focuses	-11.1207
▁broken	-11.1215
▁licences	-11.1217
▁tremendous	-11.1221
▁requiring	-11.1226
▁scandal	-11.1232
▁fleets	-11.1233
▁pragmatic	-11.1237
esterday	-11.1237
▁reproductive	-11.1239
▁safer	-11.1243
▁Sa	-11.1247
▁swift	-11.1256
▁multinational	-11.1256
▁Neither	-11.126
▁warming	-11.1265
ign	-11.127
▁split	-11.1271
▁formula	-11.1278
▁aiming	-11.1283
▁Hong	-11.1283
▁neighbour	-11.1286
▁abandoned	-11.1303
▁Indonesia	-11.1303
▁Peace	-11.1306
▁displaced	-11.1306
tra	-11.1308
▁delayed	-11.131
▁multinationals	-11.131
▁indirectly	-11.1311
misunderstanding	-11.1312
▁Colombia	-11.1314
ned	-11.1318
▁electorate	-11.1318
▁reaffirm	-11.1323
▁wall	-11.1326
▁write	-11.1342
ler	-11.1349
▁wars	-11.1355
▁cod	-11.1361
▁overwhelming	-11.1361
▁convincing	-11.1364
▁quantities	-11.1364
▁licence	-11.1372
▁Conciliation	-11.1376
▁preferred	-11.1376
▁initiate	-11.1383
▁veto	-11.1388
▁biological	-11.1388
▁elimination	-11.1399
dy	-11.14
▁postponed	-11.1403
▁exploited	-11.1407
▁positively	-11.1407
▁roots	-11.1429
▁tariff	-11.1434
▁suspension	-11.1434
▁Ecofin	-11.1434
▁Afghan	-11.1446
▁intelligence	-11.1446
▁tend	-11.1457
▁conjunction	-11.1458
▁Process	-11.1458
▁doctors	-11.1465
▁expressly	-11.1468
▁Hussein	-11.1469
▁secondary	-11.1477
▁violated	-11.1484
mp	-11.1488
▁regulating	-11.1491
▁sectoral	-11.1503
▁dedicated	-11.1506
▁consult	-11.151
▁publish	-11.151
▁judiciary	-11.1517
K	-11.1518
▁player	-11.1526
▁uses	-11.1529
▁organized	-11.153
call	-11.1533
▁explicit	-11.1536
▁Milosevic	-11.154
▁determining	-11.154
▁teachers	-11.1551
▁transmission	-11.1564
▁charter	-11.1566
ee	-11.157
▁brutal	-11.1582
▁destination	-11.1588
▁Rather	-11.1588
▁enforced	-11.1592
▁recognize	-11.1594
▁El	-11.1597
▁prompt	-11.16
sp	-11.1604
▁invested	-11.1607
▁pipeline	-11.161
▁weaknesses	-11.1613
▁driven	-11.1619
▁Ka	-11.162
▁complexity	-11.1627
▁update	-11.1628
▁pity	-11.1629
▁signals	-11.1634
▁Cuban	-11.1634
▁interfere	-11.1635
▁Adjustment	-11.1635
)).	-11.1657
▁Chancellor	-11.1659
▁understandable	-11.166
▁controlling	-11.1666
▁communicate	-11.1667
▁deplore	-11.1671
▁feasible	-11.1671
qu	-11.168
▁wave	-11.1683
▁Certainly	-11.1686
▁broadcasting	-11.17
▁OECD	-11.1703
▁harmonization	-11.1707
▁shortage	-11.171
▁moves	-11.1711
▁announcement	-11.1714
▁recital	-11.1718
▁derogation	-11.1719
ick	-11.1723
accession	-11.1724
▁urged	-11.1732
▁complaint	-11.1732
▁generated	-11.1733
▁execution	-11.1735
▁faster	-11.1736
▁exact	-11.174
tro	-11.1744
▁Beijing	-11.1756
▁minors	-11.1757
▁toxic	-11.1758
▁flight	-11.1766
▁foods	-11.1767
▁Relations	-11.1768
▁ho	-11.177
▁adjustments	-11.1773
▁v	-11.1777
▁banning	-11.1781
drew	-11.1789
▁spectrum	-11.1792
▁integrating	-11.1792
istic	-11.1799
▁separation	-11.1804
CNS	-11.1804
▁renewal	-11.1805
ud	-11.1807
▁copyright	-11.1816
▁traceability	-11.1816
▁profile	-11.1818
▁online	-11.1823
▁disregard	-11.1823
▁pluralism	-11.1829
▁administrations	-11.183
▁units	-11.1831
▁halt	-11.1836
▁IMF	-11.1839
▁faces	-11.1841
▁implies	-11.1841
▁specified	-11.1841
▁preservation	-11.1841
▁radioactive	-11.1841
▁east	-11.1844
tu	-11.1844
▁Martin	-11.1846
▁applaud	-11.1846
▁disappear	-11.1847
▁abstain	-11.1848
▁coast	-11.1851
ible	-11.1851
▁platform	-11.1853
determination	-11.1859
▁escape	-11.1861
ie	-11.187
▁drinking	-11.187
▁belonging	-11.1875
▁concentrated	-11.1877
▁simplifying	-11.1884
▁DG	-11.1891
▁Li	-11.1893
▁imbalances	-11.1898
▁Freedoms	-11.19
▁zones	-11.1901
▁censure	-11.1902
▁unified	-11.1903
▁selection	-11.1904
▁establishes	-11.1907
▁slaughter	-11.1907
▁agents	-11.1909
▁white	-11.1909
▁manoeuvre	-11.1914
▁Board	-11.1914
▁deliberately	-11.193
▁threaten	-11.1938
▁Goals	-11.1939
▁promotes	-11.194
▁acquire	-11.1947
▁Area	-11.1948
▁kill	-11.1951
▁quarter	-11.196
▁surplus	-11.1962
▁Sever	-11.1965
▁suppliers	-11.1967
▁defended	-11.1972
▁prevail	-11.1972
▁Thanks	-11.1975
▁Communities	-11.1976
▁Balkan	-11.1977
▁deregulation	-11.1977
▁San	-11.1981
▁rejecting	-11.1986
▁Laeken	-11.1988
▁margin	-11.1991
▁feels	-11.1991
▁weekend	-11.2002
▁acquired	-11.2005
▁entrepreneurs	-11.2009
▁Sch	-11.2012
▁venture	-11.2013
▁medicine	-11.2014
▁substantive	-11.2025
▁university	-11.2025
▁Working	-11.2032
▁eligible	-11.2038
▁demonstrations	-11.204
cy	-11.2045
▁echo	-11.2057
▁sadly	-11.2058
▁continuous	-11.2058
▁coalition	-11.2063
▁analyses	-11.2064
▁station	-11.2064
▁Industrial	-11.2072
▁painful	-11.2073
▁Washington	-11.2075
▁mobilisation	-11.2075
▁sheep	-11.2076
▁backed	-11.2079
▁encourages	-11.208
▁enhancing	-11.2081
▁confine	-11.2084
▁Frattini	-11.2088
▁Swoboda	-11.2088
▁fragile	-11.2088
vent	-11.2092
▁Muslim	-11.2092
▁runs	-11.2095
▁components	-11.2099
▁ties	-11.21
▁Darfur	-11.21
▁alter	-11.2103
▁reconcile	-11.2109
▁bananas	-11.2112
▁intolerable	-11.2113
▁refrain	-11.2113
▁SIS	-11.2116
rate	-11.2121
▁adhere	-11.2121
▁Director	-11.2123
▁Di	-11.2123
▁famous	-11.2125
▁Freedom	-11.2127
▁reassure	-11.2134
▁compare	-11.2134
wi	-11.2141
▁arisen	-11.2143
▁responded	-11.2144
gi	-11.2148
▁macroeconomic	-11.2151
gu	-11.2151
▁professionals	-11.2153
▁Political	-11.2163
▁circulation	-11.2163
▁holds	-11.2164
▁tension	-11.2167
ana	-11.2167
▁Forum	-11.2169
▁postpone	-11.217
▁Climate	-11.2176
▁approving	-11.2176
▁Indian	-11.2179
▁girls	-11.218
▁entails	-11.2185
▁Michel	-11.2188
ug	-11.2199
▁dare	-11.2199
▁Moscow	-11.2201
▁unsatisfactory	-11.2201
▁Anyone	-11.2202
▁derogations	-11.2202
▁consolidated	-11.2207
▁salaries	-11.2214
▁intense	-11.2214
▁momentum	-11.2216
ip	-11.2224
▁Danube	-11.2226
▁earth	-11.2226
▁stabilisation	-11.2228
▁deprived	-11.2231
▁pensioners	-11.2231
▁tensions	-11.2237
▁diplomacy	-11.2239
▁eliminating	-11.2239
▁wishing	-11.2246
▁owners	-11.2246
▁Chair	-11.2249
▁seats	-11.2256
▁existed	-11.2259
▁demonstrating	-11.2264
▁Dr	-11.227
▁cofinancing	-11.2278
▁located	-11.2278
ates	-11.2282
▁toys	-11.2285
▁Ro	-11.2288
▁Communication	-11.229
▁rescue	-11.229
▁packaging	-11.229
▁tabling	-11.2294
▁entail	-11.2299
▁Paragraph	-11.2303
▁Organization	-11.2303
▁formulated	-11.2307
▁detrimental	-11.2311
▁socialist	-11.2312
▁seemed	-11.2313
▁Round	-11.2316
▁fulfilling	-11.2317
▁journey	-11.2319
▁Regions	-11.2324
if	-11.2329
▁autonomous	-11.2333
▁hoping	-11.2341
▁preserving	-11.2341
▁Part	-11.2342
▁prejudice	-11.2342
▁lawyers	-11.2343
▁Vietnam	-11.2345
▁underlined	-11.235
▁reactions	-11.2353
▁residents	-11.2359
▁shoulder	-11.2363
▁mines	-11.2363
▁ad	-11.2365
▁cloning	-11.2367
▁guidance	-11.2367
▁harsh	-11.2367
▁revealed	-11.2371
▁mountain	-11.2377
known	-11.2377
▁undermining	-11.238
▁neutral	-11.2381
▁interpret	-11.2392
▁Barnier	-11.2393
▁optimistic	-11.2393
▁gets	-11.2399
▁mis	-11.2399
▁advocates	-11.2401
▁courageous	-11.2402
ans	-11.2403
▁explanatory	-11.2406
▁exemptions	-11.2406
▁sensitivity	-11.241
▁knowing	-11.2411
▁worker	-11.2422
▁ministerial	-11.2423
▁depending	-11.2436
▁grown	-11.2436
▁knew	-11.2444
▁Tuesday	-11.2457
▁airline	-11.2464
▁REACH	-11.247
▁organising	-11.2471
▁bridge	-11.2475
wa	-11.2475
▁customers	-11.2476
▁watch	-11.2479
▁officially	-11.2479
▁definite	-11.2479
▁smooth	-11.2479
▁blocked	-11.2481
operation	-11.2482
▁purchase	-11.2483
▁Basque	-11.2483
▁Palacio	-11.2483
▁fishery	-11.2483
▁witness	-11.249
▁offence	-11.249
▁indications	-11.2492
▁bears	-11.2492
▁continuity	-11.2496
tt	-11.25
▁listed	-11.2502
▁accountable	-11.2504
▁hypocrisy	-11.2509
▁worthwhile	-11.2509
▁subsidy	-11.2516
▁marking	-11.252
nce	-11.2522
▁Equality	-11.2525
▁swiftly	-11.2527
▁formed	-11.2528
▁insecurity	-11.2531
▁Christmas	-11.2535
▁Poettering	-11.2535
▁suddenly	-11.2538
▁tariffs	-11.2539
▁Ex	-11.254
▁earthquake	-11.2541
go	-11.2541
▁Car	-11.2546
▁proactive	-11.2549
▁tourist	-11.2555
▁learnt	-11.2557
productive	-11.2561
▁selling	-11.2564
▁misleading	-11.2564
▁disappointing	-11.2564
▁meaningful	-11.2569
▁noticed	-11.257
▁surprising	-11.257
▁newspaper	-11.258
▁Haiti	-11.2584
▁issuing	-11.2588
her	-11.2591
▁Bolkestein	-11.2591
▁infringements	-11.2593
▁vigilant	-11.2601
▁Concerning	-11.2602
▁objection	-11.2608
▁pursuit	-11.2614
▁proves	-11.2622
▁distortions	-11.2624
▁attended	-11.2624
▁prosecution	-11.2627
▁senior	-11.2627
▁delivery	-11.2634
▁EP	-11.2634
▁compensate	-11.2637
▁contradict	-11.264
▁frontiers	-11.2652
regulation	-11.2654
▁breaches	-11.2657
▁engagement	-11.2657
▁judges	-11.2662
▁carriers	-11.2664
▁reforming	-11.2665
▁apologise	-11.2667
▁arbitrary	-11.2667
▁refusing	-11.2667
▁scenario	-11.2673
▁Albanian	-11.2678
▁College	-11.268
▁capacities	-11.268
▁definitions	-11.2689
▁domain	-11.2694
▁mercury	-11.2694
▁software	-11.2694
▁tendency	-11.2694
▁Pa	-11.27
▁merits	-11.2702
▁mix	-11.2703
▁mobilise	-11.2707
▁govern	-11.2708
▁identifying	-11.2711
izing	-11.2713
▁Serbian	-11.2716
▁career	-11.2718
▁summary	-11.272
▁operates	-11.2723
▁gaps	-11.2723
▁streets	-11.2724
les	-11.2725
▁seas	-11.2734
▁expresses	-11.2742
▁transportation	-11.2744
az	-11.275
▁love	-11.275
▁distinguish	-11.2751
▁ending	-11.2755
▁ECHO	-11.276
▁injustice	-11.276
▁propaganda	-11.276
▁twelve	-11.276
▁nationality	-11.2771
▁God	-11.2772
▁redundancies	-11.2774
▁Islands	-11.2774
▁Gender	-11.2787
▁moderate	-11.2787
▁awaiting	-11.2788
▁scandalous	-11.2801
ical	-11.2811
ven	-11.2814
▁accepts	-11.2816
▁wholly	-11.2817
▁partial	-11.282
▁restriction	-11.2822
▁disability	-11.2828
ki	-11.2831
▁theory	-11.2833
▁Ca	-11.2836
▁Has	-11.2841
oriented	-11.2841
▁Islam	-11.2847
▁condemning	-11.2849
▁opponents	-11.2854
▁complementary	-11.2855
▁fruitful	-11.2855
ugoslav	-11.2861
▁undermined	-11.2864
▁deterioration	-11.2868
▁advocated	-11.2875
▁jeopardise	-11.2877
ang	-11.2881
▁handle	-11.2887
right	-11.2898
▁lengthy	-11.2899
▁judgement	-11.2902
▁counterfeiting	-11.2904
rn	-11.2908
▁devastating	-11.2909
▁excise	-11.2909
▁biotechnology	-11.2909
▁officers	-11.2924
▁fill	-11.2929
▁III	-11.293
▁weapon	-11.2931
▁mutually	-11.2934
▁Much	-11.2937
str	-11.2941
US	-11.2942
▁mixed	-11.2943
▁allies	-11.2945
▁tolerate	-11.2945
mit	-11.2947
▁Mugabe	-11.2949
▁prohibition	-11.2951
▁successes	-11.2958
▁Bulgarian	-11.2958
▁redundant	-11.2963
▁Articles	-11.2967
▁realities	-11.297
ria	-11.2974
▁Surely	-11.2977
▁virtue	-11.2977
▁ends	-11.2978
▁caution	-11.2981
comprehensible	-11.2982
▁dates	-11.2984
▁financially	-11.2985
▁structured	-11.2985
▁alleged	-11.2986
▁sooner	-11.2988
▁contradictory	-11.299
che	-11.2992
back	-11.2992
Europe	-11.2994
▁permits	-11.2997
▁thoughts	-11.3003
▁automatic	-11.3004
▁inspectors	-11.3004
▁Herzegovina	-11.302
▁attract	-11.3024
▁Small	-11.3032
▁indigenous	-11.3032
▁evil	-11.3032
▁bigger	-11.3032
▁judgments	-11.3039
▁Next	-11.3045
▁academic	-11.3045
▁Trans	-11.3045
▁privileged	-11.3049
▁authors	-11.3051
▁reformed	-11.3051
▁constituents	-11.3052
▁centuries	-11.3059
▁bold	-11.3071
▁Southern	-11.3073
bu	-11.3074
▁geared	-11.3077
▁supranational	-11.3081
▁frequent	-11.3091
▁inclusive	-11.3109
▁attitudes	-11.3109
uestions	-11.311
mb	-11.3114
▁reconsider	-11.3122
cr	-11.313
▁teaching	-11.3133
▁suspend	-11.3139
▁coins	-11.3146
▁alliance	-11.3152
▁profession	-11.3155
▁rhetoric	-11.3157
being	-11.3159
▁organs	-11.3163
▁psychological	-11.317
▁cold	-11.3171
▁Ko	-11.3176
▁killing	-11.3178
▁seriousness	-11.3186
▁Confedera	-11.3198
▁Natura	-11.3198
▁memory	-11.3198
▁proportionality	-11.3198
▁assert	-11.32
▁belongs	-11.3201
makers	-11.3202
▁recover	-11.321
▁wanting	-11.3215
ship	-11.3221
▁papers	-11.3223
▁robust	-11.3226
▁assent	-11.3227
▁alert	-11.3227
▁sentences	-11.3232
▁costly	-11.3233
▁departments	-11.3238
▁absent	-11.324
▁blow	-11.3241
sch	-11.3251
▁vitally	-11.3257
▁discovered	-11.326
▁restricting	-11.3261
▁decrease	-11.3264
▁slowly	-11.3265
▁incompatible	-11.3266
▁Iceland	-11.3267
▁transformation	-11.327
▁conventional	-11.327
▁excessively	-11.3271
▁immense	-11.3278
▁Cotonou	-11.3282
▁adapting	-11.3286
sion	-11.3291
▁Mi	-11.3299
▁tested	-11.3306
▁deliberations	-11.3307
▁allowances	-11.3307
▁Conservative	-11.3308
▁petition	-11.3321
▁expecting	-11.3321
▁pain	-11.3329
▁newly	-11.3332
▁hitherto	-11.3339
▁newspapers	-11.3347
▁Aid	-11.335
▁textiles	-11.3352
▁certification	-11.3353
▁minimal	-11.3353
▁agreeing	-11.3355
▁Accordingly	-11.3357
▁schedule	-11.3363
▁Azerbaijan	-11.3367
▁liberty	-11.3367
▁reception	-11.3367
▁Ber	-11.337
▁exceed	-11.3376
▁differing	-11.3383
▁preferences	-11.3387
ell	-11.3392
▁conditional	-11.3395
▁Together	-11.3395
▁reunification	-11.3395
▁bid	-11.3396
▁Br	-11.3396
▁contamination	-11.3402
▁calm	-11.3406
▁ideology	-11.341
▁returning	-11.3412
ek	-11.3415
▁awarded	-11.3416
▁ridiculous	-11.3424
▁cheaper	-11.3427
▁books	-11.3435
ef	-11.3435
▁film	-11.3437
▁Finance	-11.3438
▁description	-11.3438
▁warn	-11.3438
▁lift	-11.3444
▁imperialist	-11.3445
nu	-11.3447
▁weaken	-11.345
▁weakness	-11.3453
▁allocate	-11.3463
▁charged	-11.3463
ep	-11.3465
ET	-11.3466
▁plus	-11.3468
▁continually	-11.3469
ice	-11.3474
▁Sakharov	-11.3481
ndez	-11.3482
▁user	-11.3484
interoperability	-11.3487
▁exempt	-11.349
▁competitors	-11.3493
▁Vi	-11.3494
▁supporters	-11.3494
▁Fortunately	-11.3496
▁Turning	-11.3496
▁switch	-11.35
▁art	-11.351
▁prostitution	-11.351
lin	-11.3513
▁ensures	-11.3518
cal	-11.352
▁murdered	-11.3523
▁buying	-11.3523
▁Pro	-11.3524
▁unclear	-11.3525
▁Norway	-11.3525
▁Putin	-11.3525
▁inland	-11.353
▁poses	-11.3531
▁bi	-11.3532
▁conceal	-11.3532
tal	-11.3538
▁feelings	-11.3543
▁outline	-11.3553
▁quantitative	-11.3568
▁liberalization	-11.3568
▁transform	-11.3571
▁mentioning	-11.3573
▁disarmament	-11.3583
▁recourse	-11.3583
▁Mo	-11.3589
▁trialogue	-11.3597
▁Jean	-11.3597
▁classification	-11.3597
▁petitions	-11.36
▁translated	-11.3601
how	-11.3607
▁assumed	-11.361
▁cooperating	-11.3612
▁site	-11.3616
▁voices	-11.3616
▁severely	-11.3622
▁revise	-11.3622
▁reputation	-11.3626
▁scourge	-11.3626
▁incapable	-11.3626
▁eurozone	-11.3626
▁Sport	-11.3627
▁Mercosur	-11.3633
▁intent	-11.3638
▁bomb	-11.364
▁anybody	-11.3641
▁collected	-11.3647
▁countryside	-11.365
▁substitute	-11.3655
▁Far	-11.3656
▁throw	-11.3657
▁pending	-11.3661
▁supplement	-11.3667
▁Chernobyl	-11.367
▁impunity	-11.367
ification	-11.368
ier	-11.3682
▁aggressive	-11.3685
▁Seventh	-11.3685
▁formulate	-11.3697
▁laundering	-11.3701
▁recognized	-11.3704
▁sees	-11.3709
▁capabilities	-11.3714
▁gesture	-11.3714
▁qualitative	-11.3714
▁cooperative	-11.3715
▁Su	-11.3719
▁appropriately	-11.3719
▁po	-11.372
▁drought	-11.3729
▁Posselt	-11.3729
▁maternity	-11.3729
▁Media	-11.3729
▁retained	-11.3732
port	-11.3734
▁breaking	-11.3736
mm	-11.374
▁drastic	-11.3743
▁Meanwhile	-11.3744
▁launching	-11.3744
▁profitable	-11.3746
▁prisons	-11.3748
▁forecasts	-11.3752
▁Whether	-11.3758
▁silent	-11.3758
▁fell	-11.3759
▁argued	-11.3765
av	-11.3771
ny	-11.3771
▁speaks	-11.3772
▁Further	-11.3773
▁pornography	-11.3773
▁promising	-11.3773
ants	-11.3774
▁reinforcing	-11.3788
▁boundaries	-11.3788
▁founding	-11.3794
lez	-11.3795
ff	-11.3801
▁precondition	-11.3804
▁hearings	-11.381
point	-11.3811
▁recommends	-11.3812
▁ingredients	-11.3817
▁stood	-11.3818
ade	-11.3819
ld	-11.3823
▁limitations	-11.3824
▁billions	-11.3825
▁suspect	-11.3827
▁handed	-11.3827
▁Equal	-11.3827
▁settle	-11.3827
▁viewed	-11.3832
▁UEN	-11.3833
▁CFP	-11.3833
▁techniques	-11.3841
son	-11.3843
▁capitalist	-11.385
▁mainstreaming	-11.3852
▁punished	-11.3853
▁Personally	-11.3863
▁technically	-11.3863
▁participated	-11.3868
▁finished	-11.3875
▁liberties	-11.3877
ja	-11.3878
▁entirety	-11.388
▁hot	-11.3883
▁Euratom	-11.3885
▁artificial	-11.3888
ze	-11.3891
▁Bo	-11.3892
▁Three	-11.3892
▁survey	-11.3894
▁Da	-11.3895
▁fairer	-11.39
▁likewise	-11.3907
▁olive	-11.3907
▁tens	-11.3908
▁Customs	-11.3912
▁simpler	-11.3917
▁organisms	-11.3918
▁prize	-11.3923
▁modes	-11.3924
▁manufacture	-11.3925
▁crossing	-11.3934
▁dimensions	-11.3935
▁clothing	-11.3937
gen	-11.3958
▁fossil	-11.3967
▁overlook	-11.3969
chi	-11.397
▁prohibited	-11.3988
▁soft	-11.3992
▁tight	-11.3993
▁debts	-11.3997
▁persist	-11.4
▁ruled	-11.4003
ries	-11.4003
▁rigid	-11.4012
▁vaccination	-11.402
▁judged	-11.4021
▁pushing	-11.4022
▁insisted	-11.4023
▁lifting	-11.4024
▁highlighting	-11.4028
building	-11.4028
▁exposure	-11.4028
▁commerce	-11.4028
▁worry	-11.4033
▁instances	-11.4033
ble	-11.4034
Russia	-11.4046
▁subscribe	-11.4049
▁mistaken	-11.405
ves	-11.4057
▁excellence	-11.4058
▁installations	-11.406
month	-11.4061
▁settled	-11.4063
▁mothers	-11.4073
▁attempted	-11.4073
▁Watson	-11.4074
▁guiding	-11.4074
▁injured	-11.4074
▁abide	-11.4074
▁activists	-11.4075
▁measured	-11.4076
▁professions	-11.4078
▁missed	-11.4079
ction	-11.4084
ard	-11.4088
▁MEDA	-11.4089
▁disagreement	-11.4093
▁guided	-11.4094
▁destroying	-11.4095
ping	-11.4099
▁anticipate	-11.41
▁conducting	-11.4102
▁entities	-11.4103
▁dismantling	-11.4104
▁referendums	-11.4105
▁ease	-11.411
▁harmonising	-11.412
▁viability	-11.412
▁threatens	-11.412
▁secretariat	-11.412
▁mentions	-11.4123
▁admitted	-11.4131
▁imp	-11.4132
date	-11.4133
▁Again	-11.4134
▁departure	-11.4135
▁Se	-11.4137
▁hoc	-11.4138
J	-11.4139
ped	-11.4147
▁na	-11.4152
▁guardian	-11.4152
▁underlines	-11.4156
▁formation	-11.4161
▁duration	-11.4166
▁discover	-11.4172
▁ineffective	-11.4174
▁confront	-11.4175
▁Pre	-11.4178
▁Lom	-11.4186
▁separately	-11.4187
▁advisory	-11.4195
▁identical	-11.4197
▁relevance	-11.4197
▁Conservatives	-11.4199
▁deemed	-11.42
▁cautious	-11.4215
▁nice	-11.4215
▁suspicion	-11.4216
▁requesting	-11.4223
▁touched	-11.4225
▁accusations	-11.4226
▁totalitarian	-11.4227
▁opposing	-11.4227
▁wrote	-11.4227
▁Good	-11.4228
▁Sixth	-11.4228
lic	-11.4238
▁chose	-11.4241
▁hatred	-11.4243
▁distortion	-11.4248
▁Foundation	-11.4258
▁austerity	-11.4258
▁lobby	-11.4263
▁confronted	-11.4265
▁conferences	-11.4271
▁bus	-11.4272
▁uncertain	-11.4274
▁striking	-11.4274
▁informing	-11.4275
▁spreading	-11.4279
▁display	-11.4288
board	-11.4294
▁imbalance	-11.4295
▁protests	-11.4299
▁correspond	-11.4299
▁peripheral	-11.4301
▁diversification	-11.4305
▁supplied	-11.4305
▁veterinary	-11.4305
▁Sarkozy	-11.4321
▁welcoming	-11.4321
▁vary	-11.4326
▁Global	-11.4327
▁globalised	-11.433
▁Network	-11.4336
▁dominant	-11.4336
▁precedence	-11.4336
▁sends	-11.4336
▁blocking	-11.4341
ions	-11.4344
▁advise	-11.4346
▁chapters	-11.4348
▁unrealistic	-11.4352
▁appreciated	-11.4355
▁partially	-11.4357
▁discriminatory	-11.4361
▁somewhere	-11.4371
ological	-11.4372
▁thinks	-11.4373
ient	-11.438
▁Gulf	-11.4384
▁letters	-11.4394
▁altogether	-11.4399
▁neo	-11.4401
▁attaches	-11.4403
▁receives	-11.4407
▁asks	-11.4412
▁Un	-11.4415
▁Erika	-11.4424
▁plain	-11.4426
▁Cambodia	-11.4427
▁gr	-11.4427
▁translate	-11.4427
▁website	-11.4437
▁emphasising	-11.4441
▁parameters	-11.4443
ments	-11.4444
▁adjust	-11.4445
▁pride	-11.4447
▁Support	-11.4463
▁exemplary	-11.4463
▁extradition	-11.4463
▁replacing	-11.4465
▁contents	-11.4467
og	-11.4471
▁thrust	-11.4478
▁coexistence	-11.4479
▁communist	-11.4481
tan	-11.4481
▁employ	-11.4486
▁premature	-11.449
▁ILO	-11.4494
▁deepening	-11.4503
▁precarious	-11.451
▁decommissioning	-11.4513
▁sentenced	-11.4519
▁Pi	-11.4526
▁Gothenburg	-11.4526
▁applause	-11.4526
▁finds	-11.4528
Maritime	-11.4535
▁independently	-11.4536
▁asset	-11.454
▁eat	-11.4544
▁theme	-11.4547
▁perpetrators	-11.4553
▁plenty	-11.4558
▁transposed	-11.4561
▁replacement	-11.4562
▁waiver	-11.4564
▁award	-11.4569
▁Taliban	-11.4574
▁impressive	-11.4574
▁earn	-11.4579
▁globally	-11.4589
▁airspace	-11.459
war	-11.4592
▁rigour	-11.4606
▁industrialised	-11.461
▁anticipated	-11.4611
▁Slovenian	-11.4611
▁outbreak	-11.4615
▁panel	-11.4623
▁reactors	-11.4623
▁facto	-11.4635
▁hinder	-11.4637
ger	-11.4638
▁racist	-11.4639
▁redress	-11.464
▁proliferation	-11.4641
▁forcing	-11.4643
da	-11.4651
▁Innovation	-11.4655
▁perception	-11.4655
▁anyway	-11.4655
za	-11.4661
hold	-11.467
▁incidentally	-11.4671
▁confined	-11.4676
▁disappeared	-11.468
▁Korean	-11.4688
▁database	-11.4695
▁flood	-11.4701
▁Pack	-11.4704
▁organ	-11.4707
▁annex	-11.4711
▁o	-11.4713
▁additives	-11.4715
▁shut	-11.4719
▁phenomena	-11.472
▁master	-11.472
aries	-11.4721
▁Reding	-11.4728
fa	-11.4733
ite	-11.4742
▁announce	-11.4747
▁cultivation	-11.4752
▁migratory	-11.4752
▁restoring	-11.4752
▁finger	-11.4752
▁shameful	-11.4755
▁mostly	-11.4758
▁typical	-11.4764
ko	-11.4767
▁notification	-11.4767
▁legislate	-11.4769
▁dark	-11.4769
las	-11.4776
▁visits	-11.4778
▁internally	-11.4783
▁exercising	-11.4785
▁preferential	-11.4785
▁delivering	-11.4794
▁secured	-11.4794
▁Go	-11.4795
▁wood	-11.4799
▁luck	-11.4799
▁virus	-11.4801
▁repressive	-11.4801
▁confused	-11.4804
▁inability	-11.4809
▁equipped	-11.4811
national	-11.4815
hy	-11.4817
▁permission	-11.4818
▁safeguarded	-11.4818
emen	-11.4819
▁produces	-11.4824
▁prominent	-11.4834
▁cash	-11.4835
▁deeper	-11.4842
▁protein	-11.4843
▁Israelis	-11.4845
gr	-11.4846
▁resume	-11.4847
▁pull	-11.4848
▁Jerusalem	-11.4851
▁Sri	-11.4856
▁strongest	-11.4861
▁Initiative	-11.4867
▁attain	-11.4868
▁vis	-11.4875
▁deliberate	-11.4879
▁Johannesburg	-11.4884
▁currencies	-11.4884
▁unresolved	-11.4884
▁accompanying	-11.4884
▁Canc	-11.4887
▁counterfeit	-11.489
▁taxpayer	-11.4894
▁Sahara	-11.4894
▁exceptionally	-11.4897
▁stone	-11.4905
▁exercised	-11.4911
▁disadvantages	-11.4915
▁Have	-11.492
▁collect	-11.4922
▁rape	-11.493
▁witnessing	-11.493
own	-11.4932
▁paramount	-11.4933
▁Somalia	-11.4935
▁linking	-11.4938
▁Gr	-11.4941
▁speedy	-11.4944
▁brain	-11.495
▁harassment	-11.495
▁screening	-11.4954
▁privilege	-11.4956
▁compliment	-11.496
▁distort	-11.4965
east	-11.4966
▁England	-11.4967
▁Monitoring	-11.4967
▁Eurojust	-11.4967
▁aquaculture	-11.4983
▁mining	-11.4984
▁processed	-11.4987
▁motivated	-11.4992
▁assumption	-11.4994
▁spare	-11.4996
▁spot	-11.4997
▁expanding	-11.4999
▁Change	-11.5
pproval	-11.5005
▁teams	-11.5011
▁frank	-11.5012
▁restored	-11.5013
▁guard	-11.5013
ib	-11.5014
▁purchasing	-11.5017
▁upheld	-11.502
lan	-11.5022
entrepreneurship	-11.5023
▁promptly	-11.5023
▁assurances	-11.5023
▁envisage	-11.5023
▁exceeded	-11.5025
▁blue	-11.5027
▁EDF	-11.5034
▁dependency	-11.5034
▁submitting	-11.5035
▁Caribbean	-11.5037
▁j	-11.5038
▁specialist	-11.5039
end	-11.504
▁complying	-11.5046
speed	-11.5047
▁emphatically	-11.5051
▁adjourned	-11.5051
down	-11.5053
▁investigated	-11.5058
bre	-11.5062
▁eliminated	-11.5063
▁lived	-11.5064
▁Environmental	-11.5066
▁Nobody	-11.5067
▁salary	-11.5067
▁ma	-11.5069
▁assisting	-11.5071
▁successive	-11.5075
ros	-11.5075
▁crop	-11.5079
▁modernise	-11.5082
▁colonial	-11.5083
▁signatures	-11.5085
ric	-11.5087
long	-11.5087
▁pressures	-11.5091
▁unite	-11.5097
▁marginal	-11.5098
▁reciprocity	-11.5101
▁stipulates	-11.5102
▁wisdom	-11.5118
▁pushed	-11.5119
▁optimism	-11.5119
▁relocation	-11.513
▁Jarzembowski	-11.5135
▁entity	-11.5135
▁alive	-11.5136
liberal	-11.515
▁Roth	-11.5151
▁incorporating	-11.5152
▁lacks	-11.5153
▁Pen	-11.5156
▁Erasmus	-11.516
▁adult	-11.5164
▁Corbett	-11.5169
▁presidencies	-11.5169
▁unification	-11.517
▁Anti	-11.5178
parliamentarians	-11.5179
▁circle	-11.5181
▁creativity	-11.5186
▁regain	-11.5186
▁Te	-11.5187
pol	-11.5195
▁inherent	-11.5197
▁breast	-11.52
▁cure	-11.5201
ok	-11.5202
▁cruel	-11.5203
▁duly	-11.5203
▁Jos	-11.5204
▁endeavours	-11.5215
ral	-11.522
▁Oomen	-11.522
▁deployment	-11.5221
▁Very	-11.5221
▁complain	-11.5227
▁street	-11.5232
▁barrier	-11.5232
▁gaining	-11.5234
▁benefiting	-11.5236
▁anxious	-11.5237
▁afterwards	-11.5237
▁curb	-11.5237
que	-11.5246
▁vessel	-11.525
▁acute	-11.525
▁elite	-11.5255
▁oppression	-11.5255
▁Unless	-11.5255
▁owing	-11.5255
▁affordable	-11.5257
looking	-11.526
▁commission	-11.5262
▁dollar	-11.5263
▁surface	-11.5272
▁Japanese	-11.5272
▁persistent	-11.5272
▁passive	-11.5274
▁records	-11.5275
uc	-11.5275
▁mouth	-11.5278
▁opens	-11.5279
▁occurs	-11.5285
▁alarm	-11.5289
▁arrival	-11.5289
▁deficiencies	-11.5289
▁insofar	-11.5289
▁wasted	-11.5291
▁Wallst	-11.5292
▁servants	-11.5304
▁Sunday	-11.5306
▁TV	-11.5307
▁confrontation	-11.5311
▁splendid	-11.5323
▁Nothing	-11.5323
▁simultaneously	-11.5325
▁utterly	-11.5326
▁ratio	-11.5326
▁trials	-11.533
▁sporting	-11.5331
▁Nuclear	-11.5341
▁hypocritical	-11.5341
▁boats	-11.5342
▁journalist	-11.5344
▁benefited	-11.5347
▁fairness	-11.5349
▁gains	-11.535
▁innovations	-11.535
▁divisions	-11.5351
▁Besides	-11.5358
▁PHARE	-11.5358
aw	-11.5365
▁Ad	-11.5369
▁humane	-11.5372
▁excess	-11.5373
▁incorrect	-11.5388
ack	-11.539
▁margins	-11.5391
▁prosperous	-11.5393
▁Ferrero	-11.5393
▁thrown	-11.5395
▁inspired	-11.5396
▁obligatory	-11.5399
▁radiation	-11.541
▁suggesting	-11.5411
▁standardisation	-11.5414
ey	-11.5417
▁arm	-11.5417
▁appoint	-11.5427
▁protectionist	-11.5432
▁emergence	-11.5433
▁par	-11.5434
▁unlikely	-11.5435
▁engine	-11.5441
▁Games	-11.5445
▁tone	-11.5449
ran	-11.5449
▁chances	-11.5451
▁Ho	-11.5455
▁alike	-11.5456
▁conversion	-11.5463
standing	-11.5468
▁EGF	-11.5475
▁command	-11.548
▁restoration	-11.548
▁recruitment	-11.548
▁Ha	-11.5493
ever	-11.5493
Ruijten	-11.5498
▁Vitorino	-11.5498
made	-11.5503
▁weaker	-11.5504
▁introduces	-11.5504
tur	-11.5515
▁rehabilitation	-11.5515
▁machinery	-11.5516
▁managers	-11.5518
▁ASEAN	-11.5524
▁predict	-11.5525
▁sharp	-11.5529
▁store	-11.5529
▁scene	-11.553
▁evaluating	-11.5533
▁straightforward	-11.5533
▁thirty	-11.5533
▁overcoming	-11.5533
▁alleviate	-11.5533
▁music	-11.5533
▁proportionate	-11.5534
▁channel	-11.5547
▁verify	-11.5551
▁coverage	-11.5553
▁updated	-11.5557
aire	-11.5562
▁decentralised	-11.5568
▁evolution	-11.5568
▁COM	-11.5574
▁coup	-11.5576
▁Cypriot	-11.5578
▁cornerstone	-11.5584
▁houses	-11.5589
ties	-11.5591
▁occupational	-11.5595
▁shipbuilding	-11.5604
▁vigorously	-11.5608
▁cards	-11.561
▁Armenia	-11.5614
▁lawyer	-11.562
▁politician	-11.562
▁damaged	-11.562
Waldner	-11.5622
▁pricing	-11.5622
▁Spring	-11.5622
▁disappearance	-11.5622
▁dramatically	-11.5622
▁imprisoned	-11.5623
▁render	-11.5634
▁hospital	-11.5637
tat	-11.5639
▁Pacific	-11.5639
▁navigation	-11.564
▁pure	-11.5656
lit	-11.5657
▁Annual	-11.5657
▁classes	-11.5661
▁neglected	-11.5663
▁lifted	-11.5666
▁denounce	-11.5671
tor	-11.5672
▁catastrophe	-11.5673
▁Liikanen	-11.5675
▁incredibly	-11.5675
▁uranium	-11.5675
den	-11.5681
▁nationalism	-11.5687
▁multiple	-11.5693
▁democrats	-11.5694
▁Chad	-11.5695
▁evaluated	-11.5702
Bendit	-11.5711
▁resist	-11.5711
▁risen	-11.5713
class	-11.5715
fin	-11.572
▁smuggling	-11.5729
▁Sometimes	-11.5729
▁assistants	-11.573
▁signature	-11.5746
▁retail	-11.5746
▁Cohn	-11.5747
▁TACIS	-11.5747
▁ignoring	-11.5747
▁Costa	-11.5747
▁fundamentalism	-11.5751
▁adults	-11.5753
▁selected	-11.5754
▁intensify	-11.5754
▁Per	-11.5758
EN	-11.5761
▁individually	-11.5762
▁John	-11.5763
▁Lukashenko	-11.5765
▁accommodate	-11.5765
▁hidden	-11.5765
▁defeat	-11.5776
▁allegations	-11.5777
int	-11.5779
AC	-11.5783
▁Lehne	-11.5783
▁unjustified	-11.5783
log	-11.5783
▁GM	-11.5786
act	-11.5787
hu	-11.5798
▁consulting	-11.5799
▁ELDR	-11.5801
▁challenging	-11.5801
hand	-11.5804
ay	-11.581
▁Up	-11.5814
▁saved	-11.5815
rit	-11.5815
▁pave	-11.5815
▁seize	-11.5816
▁camp	-11.5818
▁sustain	-11.5819
sided	-11.5819
▁wild	-11.5819
▁League	-11.5819
uartet	-11.582
▁checked	-11.5828
▁settlements	-11.5831
▁dominated	-11.5832
▁behave	-11.5834
lt	-11.5837
▁suicide	-11.5838
▁abolishing	-11.5838
▁bans	-11.5839
▁goodwill	-11.5839
▁workable	-11.5843
namo	-11.5848
▁loud	-11.5851
▁Berlusconi	-11.5856
▁completing	-11.5856
▁frustration	-11.5856
▁horse	-11.5856
▁Water	-11.5856
▁Non	-11.5856
work	-11.5871
▁observer	-11.5878
▁maintains	-11.5879
▁acknowledges	-11.5881
▁fines	-11.5882
▁miss	-11.5883
▁ha	-11.5883
▁score	-11.5893
▁page	-11.5896
tar	-11.5897
▁specify	-11.59
▁grass	-11.591
▁beautiful	-11.5911
▁contempt	-11.5911
▁millennium	-11.5911
▁Workers	-11.5912
▁perceived	-11.5913
▁w	-11.5923
▁Progress	-11.5928
▁poultry	-11.5929
▁stipulated	-11.5933
▁celebrate	-11.5943
▁retention	-11.5947
▁Socrates	-11.5948
▁forgetting	-11.595
▁reasonably	-11.5952
▁conservative	-11.5955
▁advocating	-11.5966
▁deadlock	-11.5966
▁selective	-11.5966
▁concerted	-11.5968
▁approaching	-11.5973
▁trained	-11.5973
▁insult	-11.5975
▁ethics	-11.5982
▁consolidating	-11.5984
▁fees	-11.5985
▁dying	-11.5985
▁disturbing	-11.5987
▁permanently	-11.5992
▁decides	-11.5994
▁distinct	-11.6001
▁strengthens	-11.6001
▁forefront	-11.6003
▁devices	-11.6009
▁Mann	-11.6011
▁suspected	-11.6011
▁Chile	-11.602
▁tender	-11.6021
▁Enlargement	-11.6021
▁dubious	-11.6021
▁hygiene	-11.6021
▁imprisonment	-11.6021
▁backwards	-11.6026
ert	-11.6028
▁GSP	-11.6032
▁striving	-11.604
▁admission	-11.604
▁draws	-11.6042
fully	-11.6047
▁contractual	-11.6054
▁reiterated	-11.6055
▁vegetables	-11.6057
▁forth	-11.6058
▁weather	-11.6058
▁occurring	-11.6059
ue	-11.6063
▁prevents	-11.6063
▁kilometres	-11.6064
▁yield	-11.6071
▁super	-11.6074
▁Jo	-11.6077
▁gallery	-11.6077
▁piracy	-11.6077
▁smart	-11.6077
▁Guant	-11.6077
▁flying	-11.6086
ight	-11.6089
▁counting	-11.6091
ons	-11.6096
▁holiday	-11.6097
▁Tibetan	-11.6098
▁transported	-11.6106
▁preserved	-11.6109
▁eve	-11.6112
▁formulation	-11.6116
▁postponement	-11.6116
▁confirmation	-11.6119
▁Belarusian	-11.6125
oc	-11.613
▁assuming	-11.6133
▁stepping	-11.6136
▁harder	-11.6138
ker	-11.6141
▁Tak	-11.6142
▁treating	-11.6143
▁Burmese	-11.6152
▁imposition	-11.6152
▁timing	-11.6152
▁urging	-11.6152
▁vegetable	-11.6154
▁passport	-11.6154
active	-11.6161
▁explaining	-11.6166
▁accelerate	-11.6167
▁spell	-11.6171
ified	-11.6173
▁cereals	-11.6173
unt	-11.6179
▁exporting	-11.6186
ied	-11.6189
▁Scientific	-11.6189
▁competing	-11.6189
▁overview	-11.6191
▁codes	-11.6197
▁Men	-11.6197
▁incurred	-11.6208
▁centralised	-11.6213
tion	-11.6217
▁claiming	-11.6217
▁derive	-11.6218
▁summits	-11.6222
▁punish	-11.6226
dent	-11.6226
amp	-11.6226
▁gambling	-11.6227
▁fortunately	-11.623
▁conform	-11.6231
▁conscious	-11.6237
▁male	-11.624
▁replied	-11.6246
▁studied	-11.6246
▁unequal	-11.6246
art	-11.625
▁Australia	-11.626
▁underestimate	-11.6261
▁tr	-11.6268
gl	-11.6273
▁Work	-11.6276
▁communautaire	-11.6284
▁incredible	-11.6284
▁breakthrough	-11.6284
▁brave	-11.6285
▁contradictions	-11.6286
▁validity	-11.6286
▁frontier	-11.6296
dis	-11.6297
▁Fa	-11.6301
ari	-11.6302
▁landscape	-11.6303
▁vice	-11.6303
▁cow	-11.6309
▁Lu	-11.6311
▁meal	-11.6319
▁corrected	-11.6322
▁Agricultural	-11.6322
▁scarcely	-11.6325
▁repeating	-11.6328
▁chaos	-11.6341
▁eradication	-11.6341
▁stimulating	-11.6341
▁liable	-11.6341
▁Lamy	-11.6342
▁deployed	-11.6345
▁catches	-11.6346
▁expanded	-11.6353
▁unambiguous	-11.6356
▁window	-11.6361
▁carries	-11.6361
▁undermines	-11.6363
▁epidemic	-11.6364
▁modification	-11.6364
▁Accession	-11.6371
cur	-11.6377
▁lobbyists	-11.638
▁pointless	-11.6382
▁provisional	-11.6382
▁analysed	-11.6387
ition	-11.6388
▁shocking	-11.6389
▁Harbour	-11.6399
▁lorries	-11.6399
▁dictator	-11.6403
rm	-11.6404
▁encountered	-11.6405
▁unilaterally	-11.6409
▁Section	-11.641
▁radically	-11.6414
▁Opportunities	-11.6418
▁Scottish	-11.6418
▁ruin	-11.642
▁mergers	-11.6426
▁Russians	-11.6428
▁weakened	-11.6428
rg	-11.6428
▁PNR	-11.6433
▁prevailing	-11.6435
▁penal	-11.6437
▁timber	-11.6438
▁fatal	-11.6438
▁detained	-11.6439
▁legislators	-11.6444
▁capitalism	-11.6446
ski	-11.6453
▁eradicate	-11.6453
▁Agreements	-11.6454
▁proving	-11.6457
rat	-11.6464
rac	-11.6464
▁reserved	-11.6469
▁underway	-11.647
▁allowance	-11.647
▁neoliberal	-11.6476
▁Her	-11.6477
▁barely	-11.6478
▁corrupt	-11.6495
▁Gonz	-11.6496
▁Thessaloniki	-11.6496
▁compatibility	-11.6496
▁replies	-11.6496
▁visibility	-11.6496
▁havens	-11.6498
▁applicants	-11.6498
▁Whatever	-11.65
▁quo	-11.651
▁federalist	-11.651
▁begins	-11.6514
▁internet	-11.6515
designate	-11.6518
party	-11.652
▁sick	-11.6521
▁Regulations	-11.6525
▁serving	-11.6529
▁minimise	-11.6533
▁Bangemann	-11.6535
▁illness	-11.6535
▁poorly	-11.6541
▁Professor	-11.6554
▁mankind	-11.6554
▁temptation	-11.6554
▁undemocratic	-11.6555
▁calculated	-11.6556
lia	-11.6557
▁occupying	-11.6561
han	-11.6562
▁Inter	-11.6565
▁submission	-11.6569
▁Instrument	-11.6574
▁Madeira	-11.6574
▁aggression	-11.6574
▁ascertain	-11.6574
▁tune	-11.6574
▁Mu	-11.6576
▁seal	-11.658
▁driver	-11.6583
DEM	-11.6586
▁enormously	-11.6592
▁underpin	-11.6593
▁roadmap	-11.6593
▁unknown	-11.6595
mouth	-11.6595
▁flags	-11.6596
par	-11.66
▁accessibility	-11.6602
▁attacked	-11.6613
▁Crespo	-11.6613
▁Ministry	-11.6613
▁comparative	-11.6613
▁honesty	-11.662
developed	-11.6621
▁clarifying	-11.6626
▁Muslims	-11.663
▁chocolate	-11.6633
▁taught	-11.6633
▁readiness	-11.6633
▁Consumers	-11.6639
▁ca	-11.6651
▁Rehn	-11.6652
▁phasing	-11.6652
▁appearance	-11.6655
ham	-11.6655
▁proceeding	-11.6655
▁bloc	-11.6671
▁Executive	-11.6672
▁analysing	-11.6672
▁secrecy	-11.6672
▁drain	-11.6672
▁geopolitical	-11.6672
▁river	-11.6673
▁committing	-11.6673
▁stressing	-11.6675
▁loan	-11.6678
▁Right	-11.6679
sighted	-11.6687
bit	-11.6689
▁rejects	-11.6692
▁Everything	-11.67
▁flu	-11.6701
rk	-11.6702
▁deepen	-11.6706
▁Swiss	-11.6712
▁slavery	-11.6712
big	-11.6712
ev	-11.6717
▁derived	-11.6719
▁Rwanda	-11.6732
▁distant	-11.6732
▁legality	-11.6732
▁estimate	-11.6734
▁Serbs	-11.6739
▁capita	-11.675
▁understands	-11.6751
▁Administration	-11.6752
▁convictions	-11.6761
lar	-11.6761
▁tourists	-11.6763
▁Venezuela	-11.6767
▁IND	-11.6772
▁CE	-11.6772
▁shareholders	-11.6774
▁gather	-11.6774
▁diet	-11.6776
▁coincide	-11.6779
▁unusual	-11.6787
▁delete	-11.6788
▁quoted	-11.6788
▁farmer	-11.6791
▁diagnosis	-11.6792
▁intolerance	-11.6792
▁offensive	-11.6792
▁architecture	-11.6792
▁herself	-11.6792
▁violate	-11.6794
▁illustrates	-11.6802
▁questionable	-11.6804
▁refunds	-11.6806
▁Which	-11.6812
▁equity	-11.6812
▁tunnel	-11.6819
terrorism	-11.6828
▁expulsion	-11.6832
▁tries	-11.6834
▁voiced	-11.684
law	-11.6843
▁fabric	-11.6852
▁executions	-11.6853
▁doctor	-11.6854
▁Independent	-11.6857
▁SME	-11.6859
▁exported	-11.686
ya	-11.6861
pre	-11.6863
▁ecosystems	-11.6866
▁stabilise	-11.6868
▁smoke	-11.6872
▁imminent	-11.6872
▁legislature	-11.6872
▁Sadly	-11.6872
▁readmission	-11.6872
▁blocks	-11.6873
▁countless	-11.6873
▁interaction	-11.6873
▁embark	-11.6875
▁denying	-11.6876
ina	-11.6879
▁council	-11.6879
▁fathers	-11.688
▁expects	-11.6884
▁viewpoint	-11.6887
minute	-11.6889
▁Catholic	-11.6892
▁Jacques	-11.6892
▁pretty	-11.6892
cent	-11.6896
▁supportive	-11.6899
▁insisting	-11.6904
▁Com	-11.6906
uff	-11.6908
▁watching	-11.6909
▁reviewing	-11.691
▁commodity	-11.6912
▁sceptical	-11.6913
▁Sharon	-11.6913
▁confidentiality	-11.6913
▁Po	-11.6917
▁coordinator	-11.692
▁don	-11.6922
▁mad	-11.6926
sk	-11.6927
▁artists	-11.6928
▁quarters	-11.6936
▁imply	-11.6939
▁sixth	-11.6945
▁honestly	-11.6948
intensive	-11.695
grade	-11.6952
▁reliability	-11.6953
▁perpetrated	-11.6954
▁standpoint	-11.6954
▁forecast	-11.6961
▁transaction	-11.6962
▁grasp	-11.6967
▁Mart	-11.697
proliferation	-11.6971
▁indicating	-11.6973
▁condolences	-11.6981
ene	-11.6986
▁corner	-11.6994
▁patience	-11.6994
regional	-11.6994
tomic	-11.6996
▁roles	-11.7003
▁heat	-11.7009
▁dreadful	-11.7014
▁eligibility	-11.7014
▁slogan	-11.7014
▁peacekeeping	-11.7016
SL	-11.7025
▁wines	-11.7031
▁extremism	-11.7035
▁milestone	-11.7035
▁Barrot	-11.7035
▁blackmail	-11.7035
▁restraint	-11.7046
We	-11.7048
▁elect	-11.7048
▁possess	-11.7051
win	-11.7052
▁Robert	-11.7055
▁antibiotics	-11.7056
▁trip	-11.7056
▁suit	-11.7057
cha	-11.7059
ration	-11.7059
oli	-11.706
▁parliamentarian	-11.7063
▁prohibit	-11.7064
▁intra	-11.7064
trade	-11.7071
▁lastly	-11.7073
▁slight	-11.7074
▁Delegation	-11.7076
▁earliest	-11.7076
▁secular	-11.7076
▁Kurds	-11.7076
▁persecuted	-11.7078
▁counterparts	-11.7089
▁desperate	-11.7092
▁appeals	-11.7094
▁worries	-11.7097
▁Air	-11.7098
▁passage	-11.7098
▁accord	-11.7109
▁cite	-11.7113
▁discretion	-11.7117
▁incorporation	-11.7117
▁failures	-11.7118
▁weakening	-11.7133
▁opted	-11.7138
▁reluctant	-11.7138
▁dissemination	-11.7138
▁responsibly	-11.7138
▁Moroccan	-11.7159
case	-11.7168
▁damages	-11.7173
uring	-11.7174
▁defenders	-11.7178
▁concentrating	-11.7179
▁excluding	-11.7179
▁Cross	-11.7179
▁biometric	-11.7179
▁ballot	-11.718
▁designated	-11.718
▁turns	-11.7184
▁occurrence	-11.72
▁duplication	-11.7201
▁hospitals	-11.7203
▁remembered	-11.7205
▁nowhere	-11.7206
▁shop	-11.7211
▁misuse	-11.7217
▁outlook	-11.7221
▁ceasefire	-11.7221
▁bitter	-11.7223
▁preferable	-11.7224
▁illustrate	-11.7227
▁Algerian	-11.7231
▁functional	-11.7232
▁Nepal	-11.7242
▁revising	-11.7242
▁David	-11.7242
▁leap	-11.7242
▁lagging	-11.7242
▁collectively	-11.7247
minded	-11.7251
▁relaunch	-11.7253
▁hamper	-11.7256
▁Ethiopia	-11.7259
▁Angola	-11.7259
sur	-11.7261
▁visiting	-11.7263
▁Competition	-11.7263
ju	-11.7263
▁reveals	-11.727
▁employee	-11.7274
▁IV	-11.7276
▁explore	-11.728
col	-11.7282
▁Fontaine	-11.7284
▁indicative	-11.7284
▁methodology	-11.7285
▁Wall	-11.7285
▁visitors	-11.7286
▁regulators	-11.7294
▁distinguished	-11.7295
▁forming	-11.7296
▁somehow	-11.7297
▁lobbying	-11.7298
▁donation	-11.7302
▁prudent	-11.7305
▁pages	-11.7306
▁onwards	-11.7307
▁possession	-11.7308
▁annually	-11.7309
▁Take	-11.731
▁shocked	-11.7311
▁embryos	-11.7318
▁honoured	-11.7319
▁transferr	-11.7319
▁trains	-11.7319
▁unequivocal	-11.7322
▁symbols	-11.7325
▁growers	-11.7325
▁extremists	-11.7325
▁regrettably	-11.7326
▁unreasonable	-11.7326
▁mortality	-11.7326
▁List	-11.7332
▁specialised	-11.7335
▁affirm	-11.7337
▁authorise	-11.7345
▁lending	-11.7346
▁se	-11.7346
▁harmony	-11.7347
▁Children	-11.7347
▁capability	-11.7347
▁fly	-11.7356
▁refuses	-11.7362
▁Technology	-11.7368
▁shaping	-11.7368
▁overseas	-11.7369
▁levy	-11.7369
▁councils	-11.7382
▁Lanka	-11.7386
▁Ta	-11.7387
▁connections	-11.739
▁engineering	-11.739
▁square	-11.739
▁tragedies	-11.739
mail	-11.7394
▁abused	-11.7394
▁authoritarian	-11.7403
ik	-11.7403
▁vigorous	-11.7407
);	-11.7407
▁paint	-11.7409
▁impartial	-11.741
▁Bangladesh	-11.7411
▁stepped	-11.7414
▁deleted	-11.7415
nic	-11.7416
▁consist	-11.7427
▁Business	-11.743
▁McCreevy	-11.7432
▁Seville	-11.7432
▁bought	-11.7432
▁chamber	-11.7432
▁equitable	-11.7432
▁stamp	-11.7432
▁Annan	-11.7433
▁factories	-11.7434
Community	-11.7435
ord	-11.7435
mar	-11.7445
▁frame	-11.7449
▁sudden	-11.7449
▁lesser	-11.7453
▁approached	-11.7453
▁sorts	-11.7453
sen	-11.7456
▁engines	-11.7458
▁arena	-11.7464
▁disgraceful	-11.7472
▁influenced	-11.7475
▁somebody	-11.7475
▁struggling	-11.7475
▁labels	-11.7482
▁shipyards	-11.7483
▁ICT	-11.7493
▁invasion	-11.7497
▁updating	-11.7497
▁forgive	-11.7498
▁resolutely	-11.75
aside	-11.7509
▁migrant	-11.7509
▁detect	-11.7511
▁plea	-11.7512
▁boosting	-11.7516
▁Alzheimer	-11.7518
▁Bonino	-11.7518
▁catastrophic	-11.7518
▁investigating	-11.7518
▁pieces	-11.7518
empt	-11.7521
democratic	-11.7521
▁dollars	-11.7524
▁favoured	-11.7526
ory	-11.7527
▁organisational	-11.753
▁Delors	-11.754
▁Florence	-11.754
▁verification	-11.754
▁reacted	-11.754
▁Malmst	-11.754
▁tied	-11.7543
▁bombs	-11.7546
▁sacrifice	-11.7549
▁Sir	-11.755
life	-11.7558
▁Dimension	-11.7561
▁congestion	-11.7561
▁nowadays	-11.7561
▁unlawful	-11.7561
▁feet	-11.7563
▁weakest	-11.7564
nder	-11.7574
▁penalise	-11.7579
▁craft	-11.758
▁Burundi	-11.7583
▁thematic	-11.7584
▁resident	-11.7589
▁father	-11.7597
▁performed	-11.7597
▁rush	-11.7598
▁shorter	-11.7603
▁hesitate	-11.7605
▁stimulus	-11.7605
▁limitation	-11.7605
▁groundwater	-11.7605
▁neglect	-11.7609
track	-11.7609
▁upper	-11.761
▁adds	-11.7612
▁flooding	-11.7619
▁facilitation	-11.7626
▁biomass	-11.7626
▁institute	-11.7636
▁crew	-11.764
▁hostage	-11.7641
▁supposedly	-11.7644
▁charging	-11.7648
▁nonsense	-11.7648
▁checking	-11.7654
▁tighten	-11.7656
▁contaminated	-11.7659
▁accede	-11.7666
▁devise	-11.7666
har	-11.7667
▁inconsistent	-11.767
▁inspiration	-11.767
▁Garc	-11.767
▁mediation	-11.7671
▁vaccines	-11.7671
ile	-11.7673
▁Egyptian	-11.7676
▁reflecting	-11.7676
RE	-11.7678
▁protective	-11.768
▁copy	-11.7681
▁collecting	-11.7684
▁predecessor	-11.7684
▁storm	-11.7684
▁box	-11.7684
▁credits	-11.7689
▁Category	-11.7692
▁Medina	-11.7692
▁choosing	-11.7692
▁engaging	-11.7692
▁interconnection	-11.7693
ult	-11.7693
▁Cox	-11.7693
▁commendable	-11.7694
▁tri	-11.7695
▁endanger	-11.7696
East	-11.7697
▁Bay	-11.7698
▁sanction	-11.7699
▁warnings	-11.7701
▁reveal	-11.7711
▁None	-11.7713
▁religions	-11.7714
▁WHO	-11.7714
▁attending	-11.7718
financing	-11.7718
decision	-11.7718
▁electrical	-11.7725
▁ring	-11.7725
▁Governments	-11.7726
▁Si	-11.773
▁Red	-11.773
▁Ri	-11.773
▁Ten	-11.7735
▁Arafat	-11.7736
▁controversy	-11.7736
▁divorce	-11.7736
▁realize	-11.7738
▁advised	-11.7739
▁breeding	-11.774
pen	-11.7743
▁Ja	-11.7753
▁headings	-11.7756
fu	-11.7756
▁Azores	-11.7758
van	-11.7758
▁neutrality	-11.7759
▁Cypriots	-11.7761
▁arrests	-11.7764
▁Wogau	-11.778
▁brand	-11.778
▁encounter	-11.7785
▁reciprocal	-11.7786
INI	-11.7788
▁ball	-11.779
▁ultra	-11.7802
▁enemy	-11.7802
▁harvest	-11.7802
ROM	-11.7805
fold	-11.7806
AIDS	-11.7808
▁offset	-11.7816
▁champion	-11.7817
▁Jordan	-11.7824
▁Kazakhstan	-11.7824
▁Velzen	-11.7824
▁cancellation	-11.7824
▁rarely	-11.7833
▁gear	-11.7841
▁packages	-11.7843
▁Saudi	-11.7846
▁childcare	-11.7847
▁legislator	-11.7849
▁disgrace	-11.785
▁traditionally	-11.7855
▁extends	-11.7855
▁personality	-11.7857
▁Lulling	-11.7869
▁drift	-11.7869
▁misery	-11.7869
▁Management	-11.7869
▁capture	-11.7869
▁instructions	-11.7869
▁resignation	-11.787
▁lifestyle	-11.787
table	-11.7877
▁birds	-11.7879
▁Ne	-11.7882
▁cell	-11.7885
▁preconditions	-11.7889
▁shock	-11.789
▁qualify	-11.7891
▁km	-11.7891
▁experiments	-11.7892
▁Rio	-11.7894
▁starts	-11.7908
▁counts	-11.791
▁al	-11.7912
▁auspices	-11.7913
▁licensing	-11.7913
▁stretch	-11.7913
▁Belgrade	-11.7913
▁classified	-11.7914
▁uncontrolled	-11.7914
▁breakdown	-11.7914
▁foreseen	-11.7915
▁illnesses	-11.7915
▁%.	-11.7917
ah	-11.7918
▁displayed	-11.7923
▁overlooked	-11.7923
▁rebuild	-11.7925
GA	-11.7927
▁refuge	-11.7931
▁Tribunal	-11.7936
▁feasibility	-11.7936
matic	-11.7939
▁sessions	-11.795
▁Certain	-11.7954
▁contracting	-11.7954
▁Lithuanian	-11.7955
▁Man	-11.7956
▁assigned	-11.7956
▁Byrne	-11.7958
▁decree	-11.7958
▁LIFE	-11.7958
▁ozone	-11.7958
tech	-11.7959
ung	-11.7965
BG	-11.7966
tain	-11.7967
▁eating	-11.7976
▁Mal	-11.7978
efficient	-11.798
▁Countries	-11.7981
▁GNP	-11.7981
▁Merkel	-11.7981
▁varied	-11.7981
▁student	-11.7998
▁clubs	-11.8001
▁polluter	-11.8003
▁Mandelson	-11.8003
▁verdict	-11.8003
▁deeds	-11.8004
▁conformity	-11.8004
▁generating	-11.8008
▁accorded	-11.8011
▁premium	-11.8021
▁realisation	-11.8024
▁Oostlander	-11.8026
▁arguing	-11.8026
▁atrocities	-11.8026
▁dynamism	-11.8026
▁allocating	-11.8026
▁tongue	-11.8026
▁certificates	-11.8028
▁Looking	-11.8032
▁suited	-11.8033
▁smoothly	-11.8034
▁successor	-11.8036
▁coin	-11.8038
take	-11.8041
▁calculation	-11.8043
▁prioritise	-11.8044
▁heed	-11.8046
▁tuberculosis	-11.8049
▁fragmentation	-11.8049
cing	-11.805
▁factory	-11.805
social	-11.8058
uit	-11.8061
▁Wa	-11.8071
▁Cologne	-11.8071
▁entrusted	-11.8075
▁adhered	-11.8079
▁privileges	-11.808
▁games	-11.8082
▁province	-11.8089
▁eleven	-11.8093
▁aforementioned	-11.8094
▁broadband	-11.8094
▁measuring	-11.8094
▁Chechen	-11.8094
▁generic	-11.8094
▁readily	-11.8095
▁interpreters	-11.8096
▁fostering	-11.8097
▁desperately	-11.8099
can	-11.8111
▁Mulder	-11.8117
▁convenience	-11.8117
▁cotton	-11.8117
▁rectify	-11.8117
▁congratulated	-11.8121
▁negotiators	-11.8123
▁spheres	-11.8127
▁villages	-11.8129
▁gathering	-11.8129
▁prop	-11.8137
▁Society	-11.814
▁petrol	-11.814
▁statutory	-11.814
▁unequivocally	-11.8145
▁manufactured	-11.8146
▁admittedly	-11.8146
▁pollutants	-11.8158
▁Uzbekistan	-11.8163
▁college	-11.8163
▁fifty	-11.8163
▁harmonious	-11.8163
▁headquarters	-11.8163
▁referenda	-11.8163
▁decisively	-11.8168
▁upset	-11.8171
keeping	-11.8171
▁alia	-11.8173
▁reminder	-11.8181
▁colour	-11.8181
gra	-11.8181
▁operator	-11.8181
▁Inquiry	-11.8186
▁Prestige	-11.8186
▁arriving	-11.8186
▁Rothley	-11.8186
▁besides	-11.8187
▁EPP	-11.8187
▁reinforcement	-11.819
▁premiums	-11.8191
▁Equally	-11.8193
ending	-11.8197
▁defines	-11.8199
▁trace	-11.8205
▁Poverty	-11.8209
▁temperature	-11.8209
▁Obama	-11.8209
▁maize	-11.8209
▁inhumane	-11.8211
▁Recently	-11.8213
▁Kar	-11.8219
In	-11.8225
▁Galicia	-11.8226
▁frameworks	-11.8229
▁Prosecutor	-11.8232
▁winter	-11.8234
▁exploiting	-11.824
ire	-11.8241
ology	-11.8245
wo	-11.825
kin	-11.8252
▁employer	-11.8254
▁temporarily	-11.8255
five	-11.8272
▁revenues	-11.8276
▁concur	-11.8277
▁diesel	-11.8278
▁legacy	-11.8278
wer	-11.828
▁disruption	-11.8281
lock	-11.8285
▁Post	-11.8288
▁prerogatives	-11.8289
market	-11.8291
▁Tunisian	-11.8294
▁Gra	-11.8296
▁unconditional	-11.8297
▁passports	-11.8299
▁Gross	-11.8301
▁pandemic	-11.8301
list	-11.8302
ying	-11.8303
▁civilised	-11.8311
▁rose	-11.8313
compliance	-11.8314
▁documentation	-11.8314
▁warned	-11.8316
IS	-11.8317
▁Voting	-11.8325
▁obsolete	-11.8325
▁unjust	-11.8325
EA	-11.8326
▁specifications	-11.8332
▁Former	-11.8332
let	-11.8335
▁finalised	-11.8337
▁seed	-11.834
▁traders	-11.8345
▁manufacturer	-11.8347
▁influx	-11.8348
▁speculative	-11.8348
▁reimbursement	-11.8348
▁flat	-11.8357
first	-11.8361
gar	-11.8362
new	-11.8363
▁bulk	-11.8372
▁Measures	-11.8372
▁acquisition	-11.8372
hood	-11.8373
▁fulfilment	-11.8375
▁Dell	-11.8375
▁deprive	-11.8376
▁thresholds	-11.8377
▁protects	-11.8381
ium	-11.8384
▁locally	-11.8387
▁combining	-11.8395
▁evasion	-11.8395
▁labelled	-11.8396
▁worsening	-11.8401
eu	-11.8403
yn	-11.8403
▁Lama	-11.8405
food	-11.8408
▁adopts	-11.8409
▁sheet	-11.8409
▁emotional	-11.8411
handed	-11.8417
▁Overall	-11.8419
▁speeding	-11.8424
cor	-11.8425
▁expectation	-11.8428
▁objectively	-11.843
▁file	-11.8436
▁backdrop	-11.8442
▁gift	-11.8442
▁Evans	-11.8442
▁Life	-11.8443
▁dwell	-11.8443
▁Applause	-11.8444
▁Currently	-11.8444
▁renew	-11.8447
▁loopholes	-11.8451
▁dictatorships	-11.8458
▁fat	-11.846
▁themes	-11.8461
▁Official	-11.8466
▁Something	-11.8466
▁blockade	-11.8466
▁fragmented	-11.8467
▁Canary	-11.8468
▁Georgian	-11.8473
▁socialists	-11.848
▁condemns	-11.8488
Behrendt	-11.8489
▁injuries	-11.8489
▁unchanged	-11.8489
▁interview	-11.849
▁younger	-11.849
▁executed	-11.8491
fo	-11.8495
▁reservation	-11.8496
▁cleaner	-11.8496
▁quiet	-11.8509
▁embrace	-11.8509
ple	-11.8512
▁Nielson	-11.8513
▁novel	-11.8513
▁renewables	-11.8516
▁Four	-11.8516
▁associate	-11.8518
▁assertion	-11.8523
▁nationalist	-11.8524
▁Cardiff	-11.8537
▁construct	-11.8542
gy	-11.8542
▁beneficiary	-11.8561
▁dioxin	-11.8561
▁synergies	-11.8561
ctor	-11.8561
▁slightest	-11.8562
▁foreseeable	-11.8562
▁profitability	-11.8562
▁Too	-11.8562
▁experiment	-11.8563
▁Langen	-11.8565
▁discriminated	-11.8565
▁improves	-11.8565
▁images	-11.8567
cut	-11.8573
No	-11.8575
evident	-11.8576
▁boat	-11.8584
Ivoire	-11.8585
▁Juncker	-11.8585
▁Kyi	-11.8585
▁Kenya	-11.8585
ini	-11.8587
▁evidently	-11.86
▁Fifth	-11.8604
▁ECR	-11.8605
▁massacre	-11.8608
▁Tomorrow	-11.8609
▁UCLAF	-11.8609
▁Nobel	-11.861
▁sand	-11.8612
▁studying	-11.8616
▁respectively	-11.8624
▁correction	-11.8626
▁Mauritania	-11.8629
▁machine	-11.8631
▁municipal	-11.8633
▁modulation	-11.8633
▁remuneration	-11.8633
▁landfill	-11.8633
▁dropped	-11.8633
▁edge	-11.8633
▁agri	-11.8639
▁aspire	-11.8645
▁modify	-11.8646
producing	-11.8649
▁Tr	-11.8651
▁practise	-11.8653
▁constructively	-11.8655
▁juncture	-11.8657
▁troika	-11.8657
▁nomination	-11.8657
▁Sudanese	-11.8657
▁amounting	-11.8662
▁urges	-11.8662
▁polluting	-11.8672
▁sittings	-11.8673
▁corresponds	-11.8674
▁Pri	-11.8679
▁explains	-11.8679
Plath	-11.8681
▁Coelho	-11.8681
▁superfluous	-11.8681
▁nets	-11.8682
▁Ab	-11.8687
iz	-11.8688
▁reaches	-11.8689
gue	-11.869
▁deposit	-11.8696
▁strain	-11.8696
▁endorses	-11.8699
▁modifications	-11.8701
▁shed	-11.8703
▁Randzio	-11.8705
▁demonstrators	-11.8705
risk	-11.8707
▁west	-11.871
▁conflicting	-11.871
▁forwarded	-11.8715
▁heating	-11.8717
▁safely	-11.8719
▁endless	-11.872
▁automotive	-11.873
▁ideals	-11.873
▁outrageous	-11.873
▁season	-11.8733
▁fed	-11.8742
▁Ni	-11.8747
▁chief	-11.8749
▁immigrant	-11.8754
▁Bourlanges	-11.8754
▁dilemma	-11.8754
▁shot	-11.8754
▁coincidence	-11.8754
▁continuously	-11.8763
▁chaired	-11.8769
▁pledge	-11.8774
itarian	-11.8775
▁marriage	-11.8778
▁precious	-11.8778
▁securities	-11.8778
▁CIA	-11.8778
COS	-11.8779
▁reads	-11.8779
▁sulphur	-11.8787
ered	-11.8789
▁principally	-11.879
ER	-11.8792
▁withdrawing	-11.8796
▁literally	-11.8803
▁Wales	-11.8803
▁exhaustive	-11.8803
▁fur	-11.8808
▁tolerated	-11.881
▁emphasized	-11.8814
TA	-11.882
▁escalation	-11.8827
▁giant	-11.8827
aving	-11.8847
▁wondering	-11.8849
▁unwilling	-11.8851
▁extraordinarily	-11.8852
▁glass	-11.8852
▁Suu	-11.8853
▁dealings	-11.8854
▁gathered	-11.886
▁steer	-11.8866
▁trigger	-11.887
▁addiction	-11.8876
▁intimidation	-11.8876
▁vacuum	-11.8876
▁skilled	-11.8877
▁characteristic	-11.8878
▁insistence	-11.8878
▁modernising	-11.8879
▁cap	-11.8879
pla	-11.888
▁penalised	-11.8882
▁relocations	-11.8884
▁accurately	-11.8888
▁Fourth	-11.8898
▁Dialogue	-11.8901
▁cohesive	-11.8901
▁incumbent	-11.8901
▁cited	-11.8906
▁hearts	-11.8906
▁infected	-11.891
▁reminding	-11.8912
▁balances	-11.8921
▁format	-11.8923
▁Supervisor	-11.8926
▁destructive	-11.8926
▁hesitation	-11.8926
▁motivation	-11.8926
▁hedge	-11.8926
▁exchanging	-11.8926
▁performing	-11.8926
▁rethink	-11.8927
▁extremist	-11.8927
▁beliefs	-11.893
▁feeding	-11.8934
lam	-11.8936
▁confuse	-11.8947
▁contravene	-11.8951
▁undesirable	-11.8951
▁Combat	-11.8951
▁afforded	-11.8954
▁gold	-11.8956
▁continents	-11.8956
▁rulings	-11.8959
ng	-11.8964
▁virtual	-11.8971
▁Schreyer	-11.8976
▁Castro	-11.8976
lessly	-11.8976
▁friendship	-11.8976
▁keeps	-11.8976
▁liquidity	-11.8976
▁odd	-11.8977
▁buses	-11.8979
balanced	-11.8984
▁wrongly	-11.8986
▁incineration	-11.8996
▁Ankara	-11.9001
▁Ortega	-11.9001
▁Technological	-11.9001
▁Temporary	-11.9001
▁redistribution	-11.9001
▁versions	-11.9005
▁Bear	-11.901
▁Armenian	-11.9011
▁murders	-11.9014
political	-11.9021
▁Recent	-11.9022
▁foresee	-11.9023
are	-11.9024
▁quest	-11.9025
▁ECOFIN	-11.9026
▁Secretariat	-11.9026
▁boycott	-11.9026
▁talent	-11.9026
▁cancelled	-11.9026
▁grand	-11.9026
▁moments	-11.9031
▁accelerated	-11.9031
▁peacefully	-11.9037
▁relatives	-11.9043
▁norms	-11.9044
Herzegovina	-11.9047
▁exacerbate	-11.9047
▁transpose	-11.9047
▁named	-11.905
▁cigarettes	-11.905
▁disrupt	-11.9051
▁Dalai	-11.9051
▁traffickers	-11.9051
round	-11.9055
▁calculations	-11.9056
▁freeze	-11.9057
▁reasoning	-11.9058
▁circles	-11.9058
▁enjoys	-11.9068
▁bonds	-11.9069
▁Aviation	-11.9076
▁Uganda	-11.9076
▁dividing	-11.9076
▁abandoning	-11.9078
▁club	-11.9078
▁Tri	-11.9078
▁Aung	-11.9081
▁grips	-11.9086
▁inventions	-11.9093
▁liquid	-11.91
taking	-11.9101
▁overdue	-11.9101
▁insight	-11.9103
▁corporations	-11.9106
▁beforehand	-11.9107
▁Indonesian	-11.9109
▁specialists	-11.9115
ix	-11.9121
▁inspire	-11.9124
▁Chapter	-11.9126
▁Valencia	-11.9126
▁famine	-11.9126
▁malaria	-11.9126
▁arose	-11.9126
▁populated	-11.9127
lessness	-11.9128
▁liberalised	-11.9132
▁habits	-11.9133
▁undergoing	-11.9141
▁solar	-11.9144
▁discriminate	-11.9147
▁Sierra	-11.9151
▁tsunami	-11.9151
▁Karas	-11.9152
▁landing	-11.9157
▁fan	-11.9159
▁regrets	-11.9161
financial	-11.9174
▁Incidentally	-11.9177
▁incomplete	-11.9177
▁satisfactorily	-11.9177
▁ancient	-11.9177
▁Athens	-11.9177
▁Data	-11.9177
ron	-11.9179
▁delegated	-11.918
▁parental	-11.9183
▁frozen	-11.9186
▁questioned	-11.9196
▁responds	-11.9199
▁equip	-11.9202
▁Canadian	-11.9202
▁asbestos	-11.9202
▁commodities	-11.9202
▁observance	-11.9202
▁unexpected	-11.9202
▁stopping	-11.9204
like	-11.9211
ude	-11.9212
▁describes	-11.9222
▁sun	-11.9224
elected	-11.9225
water	-11.9226
▁odds	-11.9226
▁ambiguous	-11.9228
▁circumvent	-11.9228
▁incidence	-11.9228
▁yourselves	-11.9228
▁observing	-11.9228
atory	-11.923
▁lowering	-11.9241
▁reduces	-11.9244
▁varying	-11.9245
▁salmon	-11.9253
▁Faced	-11.9253
▁Nabucco	-11.9253
▁cluster	-11.9253
▁Chirac	-11.9253
bar	-11.9254
▁liberalising	-11.9255
▁Ru	-11.9257
▁justifies	-11.9257
▁convert	-11.9262
annual	-11.9263
▁Albanians	-11.9268
▁department	-11.9268
vert	-11.9269
▁ceilings	-11.9272
▁iron	-11.9276
▁Sustainable	-11.9279
▁beg	-11.9283
▁accomplished	-11.9284
ren	-11.9288
▁Ford	-11.9293
▁reaffirmed	-11.9294
▁gene	-11.9299
val	-11.9302
▁holdings	-11.9305
▁curious	-11.9305
▁synergy	-11.9305
▁Dis	-11.9305
▁prosecutor	-11.9309
▁Lo	-11.9321
▁termed	-11.9322
▁theoretical	-11.9326
▁Ultimately	-11.9331
▁routine	-11.9331
ibility	-11.9331
▁insists	-11.9333
▁assisted	-11.9341
▁walk	-11.9346
▁drink	-11.935
action	-11.9354
▁Unlike	-11.9356
▁trap	-11.9363
rd	-11.9365
▁fix	-11.9365
▁Adam	-11.937
▁IT	-11.937
ller	-11.9372
▁proportions	-11.9376
▁Daphne	-11.9382
▁calendar	-11.9382
▁conferred	-11.9382
af	-11.9397
▁comprehensible	-11.9399
▁Prevention	-11.9408
▁acknowledging	-11.9408
▁enforcing	-11.9408
▁envoy	-11.9408
▁manipulation	-11.9408
ivity	-11.9409
▁imposes	-11.9416
▁frequency	-11.9418
▁pupils	-11.9419
▁supplemented	-11.942
▁shops	-11.9422
▁retaining	-11.9434
commerce	-11.9434
▁memorandum	-11.9434
▁tribunal	-11.9434
▁Basel	-11.9434
▁unstable	-11.9434
▁varies	-11.9435
▁summarise	-11.9435
▁GMO	-11.944
▁impacts	-11.944
ez	-11.9442
▁profoundly	-11.9445
▁electric	-11.9446
▁altered	-11.9448
▁recommending	-11.9452
▁Radical	-11.946
▁knock	-11.946
▁mitigate	-11.946
▁surrender	-11.946
▁Croatian	-11.9462
hen	-11.9466
▁wheel	-11.9469
▁Arabia	-11.948
▁fortunate	-11.9482
▁racial	-11.9487
▁chairmen	-11.9487
▁bone	-11.9489
step	-11.9499
ED	-11.9501
▁director	-11.9513
▁explosive	-11.9513
carbon	-11.9514
▁foreigners	-11.9515
▁devised	-11.9518
mat	-11.9523
▁importing	-11.9534
car	-11.9535
▁Amnesty	-11.9539
▁Presidencies	-11.9539
▁anxiety	-11.9539
▁barbaric	-11.9539
▁mutilation	-11.9539
▁shortages	-11.9541
▁recipient	-11.9545
▁pertain	-11.9558
▁discourage	-11.9561
▁br	-11.9562
▁liberalise	-11.9563
shore	-11.9563
▁unaware	-11.9566
ethnic	-11.9567
▁churches	-11.9567
▁metres	-11.9568
house	-11.957
bro	-11.9571
fire	-11.9574
▁Ch	-11.9575
▁persuaded	-11.9576
▁City	-11.9585
▁Bali	-11.9585
▁publicity	-11.959
▁bombing	-11.9591
▁slave	-11.9592
▁Likewise	-11.9592
▁Universal	-11.9592
▁diversify	-11.9592
thirds	-11.9595
▁Force	-11.9596
▁practised	-11.9596
▁basin	-11.9604
▁hectares	-11.9606
umb	-11.9607
▁household	-11.9607
ong	-11.9607
iev	-11.9614
▁bull	-11.9618
ransatlantic	-11.9618
▁referral	-11.962
▁Herman	-11.9621
▁downward	-11.9627
▁adjusted	-11.963
▁band	-11.963
▁recipients	-11.9639
▁explosion	-11.9645
▁unavoidable	-11.9645
▁tendencies	-11.9645
specific	-11.9647
▁premises	-11.9655
▁Ti	-11.9666
lk	-11.9667
▁blatant	-11.9667
▁broaden	-11.9669
▁Lebanese	-11.9672
▁SWIFT	-11.9672
▁assassination	-11.9672
▁unnecessarily	-11.9672
▁strand	-11.9672
▁upholding	-11.9673
▁Maybe	-11.9675
▁films	-11.9675
▁inhuman	-11.9676
▁operated	-11.9677
▁illusion	-11.9679
▁sky	-11.9679
▁mar	-11.9682
▁qua	-11.9685
▁dozens	-11.9693
nen	-11.9693
▁broadcast	-11.9694
▁mini	-11.9695
▁confidential	-11.9698
going	-11.9701
▁exacerbated	-11.9703
press	-11.9703
▁illustrated	-11.9704
▁relying	-11.9708
▁Gu	-11.971
▁directors	-11.971
establish	-11.971
style	-11.9714
upreme	-11.9721
▁exciting	-11.9725
▁signatories	-11.9725
▁Ben	-11.9734
pu	-11.9737
tes	-11.9747
▁resolute	-11.9748
▁ECSC	-11.9752
▁Fifteen	-11.9752
▁Staff	-11.9752
▁intensified	-11.9752
▁pregnant	-11.9752
parliamentary	-11.9756
growing	-11.9756
▁endeavouring	-11.9759
▁distorted	-11.9763
▁Fe	-11.977
▁Florenz	-11.9779
▁Wynn	-11.9779
▁advisable	-11.9779
▁illicit	-11.9779
▁norm	-11.9784
▁usefulness	-11.9788
▁reap	-11.9804
▁celebration	-11.9806
▁discrepancies	-11.9806
▁fraudulent	-11.9806
▁Dimas	-11.9806
▁Seattle	-11.9806
▁Rocard	-11.9806
▁Lord	-11.9807
▁recitals	-11.9808
▁timeframe	-11.9809
▁portfolio	-11.9814
▁ecosystem	-11.9814
established	-11.9817
▁ally	-11.9821
ash	-11.9828
▁celebrating	-11.9833
▁justifiable	-11.9833
▁undertook	-11.9833
▁Vigo	-11.9834
▁taste	-11.9834
▁drastically	-11.9834
▁notified	-11.9835
▁turnover	-11.9837
▁tends	-11.984
nationalisation	-11.9843
mes	-11.9843
▁toll	-11.9854
▁Eritrea	-11.986
▁confusing	-11.986
▁Bu	-11.9862
▁unreservedly	-11.9862
▁combated	-11.9863
▁consume	-11.9882
nez	-11.9883
▁patterns	-11.9885
▁hierarchy	-11.9888
hr	-11.9894
lle	-11.9905
▁Others	-11.9906
▁closest	-11.9908
▁appealing	-11.9912
▁Kashmir	-11.9915
▁University	-11.9915
▁Verhofstadt	-11.9915
▁deplorable	-11.9915
▁feedingstuffs	-11.9915
▁approximation	-11.9915
▁grey	-11.9915
▁unsustainable	-11.9915
▁factual	-11.9916
▁homeland	-11.9918
▁En	-11.9921
▁underestimated	-11.9921
rum	-11.9922
▁corridors	-11.9924
Saharan	-11.9924
▁tightening	-11.9928
ians	-11.9932
▁useless	-11.9936
▁emerges	-11.9937
▁distress	-11.9939
▁depleted	-11.9943
▁Titley	-11.9944
Nordic	-11.9948
▁realism	-11.9948
▁mobilised	-11.9951
▁da	-11.9952
▁absorb	-11.9956
▁Admittedly	-11.997
▁stabilising	-11.997
▁Patent	-11.997
▁soul	-11.9973
▁originating	-11.9974
▁oblige	-11.9975
▁seventh	-11.9977
▁angle	-11.9977
▁hunting	-11.9979
▁output	-11.9979
bed	-11.9986
▁phone	-11.9988
▁rooted	-11.9996
▁honey	-11.9998
▁plight	-11.9998
▁waterways	-12.0002
▁separated	-12.0004
▁recalled	-12.0005
▁expressions	-12.0013
▁pretend	-12.0014
tabilisation	-12.0021
some	-12.0022
▁Leonardo	-12.0025
▁policing	-12.0025
▁shelter	-12.0025
▁bankruptcy	-12.0025
▁reintegration	-12.0025
▁bargaining	-12.0029
▁tougher	-12.0032
▁indicator	-12.0035
▁prompted	-12.0041
▁protocols	-12.0043
SE	-12.0045
▁households	-12.0046
▁enthusiastic	-12.0049
▁Hu	-12.0052
▁Child	-12.0053
▁Ossetia	-12.0053
▁rice	-12.0053
hull	-12.0053
▁differentiated	-12.0057
til	-12.006
▁inefficient	-12.0064
ath	-12.0068
▁rebuilding	-12.0069
▁questioning	-12.008
▁Argentina	-12.0081
▁balancing	-12.0081
▁imagination	-12.0081
▁optimum	-12.0081
▁mature	-12.0081
▁resumption	-12.0081
▁flagrant	-12.0081
▁skill	-12.0086
cho	-12.0087
▁similarly	-12.009
▁recast	-12.0092
▁exceeding	-12.0101
▁publishing	-12.0106
▁Kaliningrad	-12.0108
▁Singapore	-12.0108
▁esteem	-12.0108
▁repatriation	-12.0108
▁shipowners	-12.0108
▁outdated	-12.0108
▁Pe	-12.0114
▁seized	-12.0115
▁touches	-12.0115
▁Region	-12.0115
increasing	-12.0116
▁targeting	-12.0127
▁dossiers	-12.0128
▁exporters	-12.0134
▁Church	-12.0136
▁Abkhazia	-12.0136
▁Blokland	-12.0136
▁Lamfalussy	-12.0136
▁automobile	-12.0136
▁native	-12.0136
▁multilingualism	-12.0137
▁denial	-12.0137
▁supplying	-12.0138
▁takeover	-12.014
▁surpluses	-12.0141
▁Sal	-12.0143
▁hole	-12.0151
gram	-12.0153
▁Mon	-12.0154
▁delaying	-12.0155
ane	-12.016
▁optional	-12.0161
▁Hautala	-12.0164
▁Transparency	-12.0164
owned	-12.0169
▁supporter	-12.0173
▁widening	-12.0173
▁designation	-12.0178
▁rests	-12.0183
▁Du	-12.0187
▁Broek	-12.0192
▁federation	-12.0192
▁kick	-12.0192
▁measurement	-12.0198
rr	-12.0198
▁winner	-12.0204
▁teach	-12.0206
▁journeys	-12.0213
existent	-12.0217
For	-12.0219
▁Guatemala	-12.0221
▁Saturday	-12.0221
▁detainees	-12.0221
▁expectancy	-12.0221
▁overhaul	-12.0221
▁Movement	-12.0221
▁convicted	-12.0221
▁tactics	-12.0222
post	-12.0223
dict	-12.0225
needed	-12.0229
▁interpretations	-12.0237
▁winners	-12.0238
▁degrees	-12.0238
▁pig	-12.024
▁comfort	-12.0248
▁decoupling	-12.0249
▁travellers	-12.0249
▁Mitchell	-12.0249
▁uncertainties	-12.0249
▁resettlement	-12.0249
▁transmitted	-12.0249
▁Paul	-12.025
▁cargo	-12.025
tern	-12.0258
ulation	-12.0259
▁outcomes	-12.0261
zy	-12.0261
▁nutrition	-12.0264
▁horizon	-12.0277
▁Malaysia	-12.0277
▁Sky	-12.0277
▁destiny	-12.0277
▁steady	-12.0277
▁voluntarily	-12.0277
▁brother	-12.0277
▁rigorously	-12.0291
▁oversee	-12.03
▁indifferent	-12.0304
▁Almunia	-12.0306
▁Cashman	-12.0306
▁doctrine	-12.0306
▁criticising	-12.0306
▁Wallis	-12.0306
▁preceded	-12.0306
▁attendance	-12.0307
▁Out	-12.0307
▁ETA	-12.0307
lay	-12.031
▁Hans	-12.0313
▁importers	-12.0316
▁wealthy	-12.0318
▁select	-12.0318
▁distribute	-12.033
ters	-12.033
▁complies	-12.0334
▁unfounded	-12.0335
election	-12.034
▁Val	-12.0341
DP	-12.0341
▁transformed	-12.0347
▁filled	-12.0348
▁Nazi	-12.0353
▁soya	-12.0354
compensatory	-12.0363
▁Regrettably	-12.0363
▁irreversible	-12.0363
▁leg	-12.0366
▁pockets	-12.0367
▁bathing	-12.0368
▁progressing	-12.0383
▁suppose	-12.0387
load	-12.039
▁Capital	-12.0391
▁Sterckx	-12.0391
▁sacrificed	-12.0397
vil	-12.04
▁ratifying	-12.0402
part	-12.0404
▁Institutions	-12.0408
▁dam	-12.0412
▁pertinent	-12.042
▁freezing	-12.042
▁vain	-12.042
eat	-12.0422
zo	-12.0444
▁Lannoye	-12.0449
▁deteriorating	-12.0449
▁harbour	-12.0449
▁pleasant	-12.0449
▁stories	-12.0449
▁chronic	-12.0449
▁multilateralism	-12.0454
▁broker	-12.046
hour	-12.0462
▁consisting	-12.0463
▁forever	-12.0464
▁representations	-12.0466
▁infringe	-12.0472
▁wh	-12.0472
effective	-12.0473
▁historically	-12.0475
lean	-12.0478
▁Oslo	-12.0478
▁mode	-12.0479
▁attacking	-12.0481
▁pledged	-12.0483
interest	-12.0489
▁enrich	-12.05
▁confess	-12.0505
▁Leinen	-12.0507
▁ambiguity	-12.0507
▁despair	-12.0507
▁likelihood	-12.0507
▁vicious	-12.0507
▁rain	-12.0507
▁exile	-12.0508
▁phased	-12.0509
avier	-12.0509
▁scientifically	-12.0512
my	-12.0513
ast	-12.0516
▁embarked	-12.0516
▁benchmarks	-12.0517
people	-12.0519
▁constituent	-12.0521
▁exerted	-12.0525
air	-12.0529
▁hopeful	-12.053
▁del	-12.0533
▁avail	-12.0535
▁paradox	-12.0536
▁Aznar	-12.0536
▁Feira	-12.0536
▁baby	-12.0536
▁Fr	-12.0538
▁bloody	-12.0544
discriminatory	-12.0548
which	-12.0548
favoured	-12.0548
▁originate	-12.0549
run	-12.055
outs	-12.0556
▁confirming	-12.0561
▁Jewish	-12.0565
▁catalogue	-12.0565
▁influenza	-12.0565
▁violating	-12.0565
▁intercultural	-12.0565
▁enact	-12.0568
▁prescribed	-12.0568
▁Guarantee	-12.0573
▁Germans	-12.0575
sharing	-12.0578
▁village	-12.0579
▁Min	-12.0584
▁suffers	-12.0587
▁holders	-12.059
▁Assistance	-12.0594
▁entrepreneurial	-12.0594
▁unrest	-12.0594
▁zu	-12.0596
▁provider	-12.0601
▁endorsement	-12.0603
bra	-12.0614
▁headed	-12.0618
decentralisation	-12.0624
▁Cairo	-12.0624
▁destined	-12.0624
▁impasse	-12.0624
▁desertification	-12.0624
▁jail	-12.0624
▁Based	-12.0624
▁provocation	-12.0624
▁unused	-12.0624
▁educated	-12.0625
▁undergo	-12.0625
▁impressed	-12.0626
▁lively	-12.0626
turn	-12.0631
▁contributors	-12.0636
▁ticket	-12.0638
▁qualification	-12.0638
▁pool	-12.0643
▁differs	-12.0644
gate	-12.0647
▁Asylum	-12.0653
▁Doyle	-12.0653
▁mortgage	-12.0653
▁vigilance	-12.0653
script	-12.0653
▁Elles	-12.0653
ON	-12.0663
▁sacrifices	-12.0665
▁Ju	-12.0666
▁continental	-12.0675
▁equilibrium	-12.0682
▁mafia	-12.0682
CI	-12.0686
generation	-12.0692
▁spiral	-12.0698
▁occupy	-12.0701
▁reside	-12.071
▁Front	-12.0712
▁Bowis	-12.0712
▁denominator	-12.0712
▁illustration	-12.0712
▁miracle	-12.0712
▁Ver	-12.0714
▁rein	-12.0714
▁Due	-12.0716
▁scandals	-12.0723
▁progressively	-12.0727
▁tenth	-12.0728
oung	-12.0732
▁prolong	-12.0736
onourable	-12.0742
▁Hopefully	-12.0742
▁catalyst	-12.0742
▁reluctance	-12.0742
▁Almost	-12.0742
▁counteract	-12.0743
▁Progressive	-12.0743
▁pet	-12.075
▁web	-12.0753
▁subsidised	-12.0753
▁myth	-12.0756
▁timescale	-12.0757
but	-12.0765
▁Baringdorf	-12.0771
▁interfering	-12.0771
▁mobilising	-12.0771
▁qualities	-12.0771
▁spill	-12.0771
▁Bonn	-12.0772
jo	-12.0775
▁chiefly	-12.0777
private	-12.0786
▁disregarded	-12.0788
▁poison	-12.0791
▁crucially	-12.0796
▁Violence	-12.0801
▁climatic	-12.0801
▁inadmissible	-12.0801
▁divergence	-12.0801
▁Senate	-12.0801
vez	-12.0804
▁ranging	-12.0811
benefit	-12.0817
▁customer	-12.0819
▁gun	-12.0824
▁enlarge	-12.0826
▁McKenna	-12.0831
▁comprising	-12.0831
▁generosity	-12.0831
▁notwithstanding	-12.0831
▁joy	-12.0831
▁dedication	-12.0831
▁breaks	-12.0833
▁outlines	-12.0833
flex	-12.0836
CO	-12.0837
human	-12.0843
▁changeover	-12.0843
lat	-12.0852
▁resign	-12.0853
▁outright	-12.0855
▁Lampedusa	-12.0861
▁Prague	-12.0861
▁accommodation	-12.0861
▁heartfelt	-12.0861
▁jeopardising	-12.0861
▁overnight	-12.0861
▁seafarers	-12.0861
▁watered	-12.0863
▁Poles	-12.0863
▁quicker	-12.0868
▁sounds	-12.0868
▁Ki	-12.0871
▁allegedly	-12.0871
dumping	-12.0877
▁Statement	-12.0881
▁fierce	-12.0891
▁Graefe	-12.0891
▁intermediate	-12.0891
▁obesity	-12.0891
▁busy	-12.0897
▁facilitated	-12.09
rid	-12.0901
▁returns	-12.0902
▁Leone	-12.0909
catch	-12.0909
▁coordinators	-12.091
▁awarding	-12.0912
▁makers	-12.0917
zi	-12.0917
▁Brittan	-12.0922
pidla	-12.0922
▁GATT	-12.0922
▁GBP	-12.0922
▁Speaking	-12.0922
▁acceding	-12.0922
▁Police	-12.0922
nchez	-12.0922
▁inviting	-12.0922
▁hostile	-12.0922
▁occasionally	-12.0926
▁standardised	-12.0928
▁Est	-12.0929
▁killings	-12.093
▁alien	-12.0931
cer	-12.0932
▁envisages	-12.0933
▁Gas	-12.0934
with	-12.0941
▁tele	-12.0941
▁evaluations	-12.0943
▁noble	-12.0944
▁spouses	-12.0945
▁Animal	-12.0952
▁obscure	-12.0952
▁oversight	-12.0952
stra	-12.0953
ily	-12.0956
▁cosmetics	-12.0957
ency	-12.0965
▁trees	-12.0968
▁Syrian	-12.0969
▁merger	-12.0971
▁clash	-12.0981
▁assault	-12.0982
▁ignorance	-12.0982
▁inclined	-12.0982
▁intensity	-12.0982
▁intervening	-12.0982
▁synthetic	-12.0982
▁volatility	-12.0982
▁Needles	-12.0982
mber	-12.0984
▁dry	-12.0986
▁fluctuations	-12.0994
▁star	-12.0998
PS	-12.1
▁staying	-12.1008
▁expose	-12.1009
▁church	-12.1011
▁leak	-12.1013
▁Alexander	-12.1013
▁grid	-12.1014
▁marginalised	-12.1014
▁naive	-12.1014
ime	-12.1014
▁awful	-12.1014
▁Greenland	-12.1016
▁richest	-12.1016
▁impede	-12.1019
▁predicted	-12.1025
uch	-12.103
▁infection	-12.1031
▁grip	-12.1034
lli	-12.1038
▁arrange	-12.1039
▁Fischer	-12.1043
▁reconciling	-12.1043
▁unhappy	-12.1043
▁depart	-12.1044
▁stream	-12.1044
▁grassroots	-12.1054
▁donations	-12.1058
▁auction	-12.1063
▁violates	-12.1064
▁Har	-12.1072
Various	-12.1074
▁Thailand	-12.1074
▁allotted	-12.1074
▁deforestation	-12.1074
▁inquiries	-12.1074
▁Daul	-12.1075
▁token	-12.1075
▁universally	-12.1076
▁exit	-12.1077
▁plane	-12.1083
▁tickets	-12.1089
▁motives	-12.109
▁avert	-12.1101
development	-12.1103
▁rivers	-12.1103
▁Eurodac	-12.1105
▁collaborate	-12.1105
▁magnificent	-12.1105
▁annum	-12.1105
▁coasts	-12.1105
▁ashamed	-12.1105
▁batteries	-12.1105
▁percent	-12.1106
▁abandonment	-12.1107
▁capitals	-12.1107
▁communicated	-12.1115
▁letting	-12.1116
▁overly	-12.1117
▁meaningless	-12.1117
fall	-12.1117
rew	-12.1122
general	-12.1124
used	-12.1124
▁eventual	-12.113
ai	-12.1131
▁accessing	-12.1132
aging	-12.1136
▁Collins	-12.1136
▁repetition	-12.1136
Burton	-12.1136
▁ENP	-12.1136
▁Specifically	-12.1136
RC	-12.114
▁Fifthly	-12.1141
▁Jan	-12.1146
▁Bel	-12.1148
▁richer	-12.1149
▁Berg	-12.1151
▁ignores	-12.1155
▁premise	-12.1155
▁accompany	-12.1156
put	-12.1163
▁consign	-12.1165
▁derivatives	-12.1167
▁indignation	-12.1167
▁composed	-12.1167
▁rocket	-12.1168
▁fulfils	-12.1181
▁ratings	-12.1182
EP	-12.1183
▁NGO	-12.1187
▁guideline	-12.1187
▁cat	-12.1188
iest	-12.1192
▁forums	-12.1193
▁anger	-12.1194
▁summ	-12.1194
▁prevails	-12.1195
▁midst	-12.1196
▁Experience	-12.1198
▁suffice	-12.1198
▁taboo	-12.1198
▁shopping	-12.1199
▁sexes	-12.1204
ches	-12.121
nov	-12.1215
assi	-12.1216
▁hunt	-12.1221
▁cancel	-12.1228
▁erosion	-12.1229
▁identifies	-12.1229
▁postponing	-12.1229
▁tropical	-12.1229
▁scoreboard	-12.1229
▁Parties	-12.1229
▁predictable	-12.123
▁reward	-12.1238
▁benchmark	-12.1239
▁challenged	-12.1241
▁trick	-12.1243
▁conduc	-12.125
ani	-12.1256
▁Recommendation	-12.126
▁Things	-12.126
▁dignified	-12.126
▁laudable	-12.126
▁undeclared	-12.126
▁Theato	-12.126
▁allocations	-12.1261
▁distances	-12.1264
▁faithful	-12.1273
▁doubled	-12.1274
▁panic	-12.1276
▁origins	-12.1285
▁Lange	-12.1287
je	-12.129
▁Gebhardt	-12.1291
▁Pirker	-12.1291
▁Racism	-12.1291
▁scepticism	-12.1291
▁Tax	-12.1292
▁conditionality	-12.1293
▁align	-12.1299
▁detected	-12.1301
▁tankers	-12.1304
▁horror	-12.1312
South	-12.1316
▁fool	-12.1323
introductory	-12.1323
▁filter	-12.1323
▁identities	-12.1323
▁improper	-12.1323
▁tantamount	-12.1323
▁undeniable	-12.1323
▁injury	-12.1323
▁stuck	-12.1323
▁Haug	-12.1323
▁remedies	-12.1323
▁Access	-12.1324
▁doping	-12.1328
▁preventative	-12.1328
▁Cold	-12.1329
▁burning	-12.133
Alba	-12.1337
▁dictators	-12.1348
▁passion	-12.1349
▁King	-12.1354
▁dogma	-12.1354
▁Duisenberg	-12.1354
▁emergencies	-12.1354
▁militarisation	-12.1354
▁admire	-12.1355
▁Warrant	-12.1355
▁massacres	-12.1356
▁mediator	-12.1356
▁artistic	-12.1356
▁starch	-12.1358
▁Ga	-12.1358
rry	-12.1359
▁disciplinary	-12.136
▁forcefully	-12.1362
▁wisely	-12.1368
▁conception	-12.1368
light	-12.1378
▁proportional	-12.1378
mad	-12.1379
AT	-12.138
▁transplant	-12.1385
▁Jackson	-12.1386
▁steadily	-12.1386
▁contemporary	-12.1386
▁upcoming	-12.1386
▁Throughout	-12.1387
▁attributed	-12.1389
▁Opening	-12.1393
▁seeds	-12.1394
▁computers	-12.1395
▁dictate	-12.1404
ened	-12.1407
▁appearing	-12.1413
▁dominate	-12.1414
▁Arrest	-12.1418
▁Between	-12.1418
▁Training	-12.1418
▁Transnistria	-12.1418
▁degradation	-12.1418
▁devastated	-12.1418
▁variable	-12.1418
▁Conduct	-12.1418
▁channelled	-12.1418
▁authorising	-12.142
▁tear	-12.1422
▁doubtful	-12.1425
▁parent	-12.1435
▁mainstream	-12.144
▁forge	-12.1445
▁stupid	-12.1449
▁populist	-12.145
▁unlimited	-12.145
▁differentiation	-12.145
▁hydrogen	-12.145
▁Road	-12.1451
▁headway	-12.1451
▁Along	-12.1454
rap	-12.1456
▁stored	-12.1457
▁load	-12.1459
▁prevailed	-12.1467
▁presently	-12.1468
▁intensively	-12.1469
▁hugely	-12.1471
▁investor	-12.148
▁Ludford	-12.1482
▁Recital	-12.1482
▁Technical	-12.1482
▁describing	-12.1482
▁misgivings	-12.1482
▁tempted	-12.1482
▁triumph	-12.1482
▁cleansing	-12.1482
▁hotel	-12.1483
▁consumed	-12.1486
▁directions	-12.1495
▁deter	-12.1496
▁passes	-12.1497
even	-12.1499
▁Abu	-12.1501
open	-12.1501
▁staffing	-12.1504
▁supplier	-12.1505
ew	-12.1505
roots	-12.1505
book	-12.1506
▁Directives	-12.1508
speaking	-12.1509
▁Rompuy	-12.1514
▁aftermath	-12.1514
▁declining	-12.1514
▁therapeutic	-12.1514
▁defer	-12.1516
▁Institutional	-12.1518
▁Ministerial	-12.152
▁Tu	-12.1522
▁scenarios	-12.1531
app	-12.1535
range	-12.1541
▁cynical	-12.1541
gal	-12.1542
▁Title	-12.1544
▁ASEM	-12.1546
▁School	-12.1546
▁fantastic	-12.1546
▁irrelevant	-12.1546
▁tiny	-12.1547
ica	-12.1547
▁deaf	-12.1548
▁Read	-12.1548
▁arranged	-12.155
▁pigs	-12.1565
mper	-12.1568
▁Level	-12.157
fr	-12.1571
▁utter	-12.1574
▁aged	-12.1578
▁Ferber	-12.1578
▁Nassauer	-12.1578
▁brilliant	-12.1578
▁gulf	-12.1578
▁hiding	-12.1578
▁platforms	-12.1578
▁contend	-12.1578
▁grain	-12.1578
▁detection	-12.1579
▁timetables	-12.1579
▁corrections	-12.1581
▁reinforces	-12.1585
▁Philippines	-12.1586
▁acknowledgement	-12.1586
uri	-12.1593
▁indulge	-12.1596
▁enjoying	-12.1596
pho	-12.16
ifying	-12.16
▁fitting	-12.1601
▁doubtless	-12.1607
▁Haarder	-12.161
▁logistics	-12.161
▁sleep	-12.161
▁backward	-12.161
▁layer	-12.162
▁globalization	-12.162
▁polls	-12.163
▁habit	-12.1631
west	-12.1633
not	-12.1638
▁advancing	-12.1643
▁prescription	-12.1643
▁proximity	-12.1643
▁upgrading	-12.1643
▁moderation	-12.1643
▁coach	-12.1644
▁lip	-12.1644
▁objects	-12.1645
▁rises	-12.1645
▁minimis	-12.1646
▁confer	-12.1653
▁reopen	-12.166
lent	-12.1663
▁fundamentalist	-12.1667
▁dismantle	-12.1671
▁surveys	-12.1672
▁loyal	-12.1675
consuming	-12.1676
▁Salafranca	-12.1676
▁globe	-12.1676
▁horrific	-12.1676
▁rebate	-12.1676
▁orphan	-12.1676
▁couples	-12.1683
▁triggered	-12.1684
▁Cor	-12.169
▁databases	-12.1692
rant	-12.1693
funded	-12.1697
power	-12.1702
▁feared	-12.1702
etting	-12.1703
▁Hungarians	-12.1706
▁Cup	-12.1706
▁betray	-12.1708
▁lawmaking	-12.171
▁travelled	-12.1711
▁Particularly	-12.1711
▁advantageous	-12.1712
▁fits	-12.1714
▁Card	-12.1721
▁deploy	-12.1723
ically	-12.1724
▁suppress	-12.1734
personnel	-12.1735
raising	-12.1736
▁perceive	-12.1737
well	-12.1737
working	-12.1738
▁Did	-12.1739
▁bypass	-12.1739
▁Terrorism	-12.1741
▁Twenty	-12.1741
▁complementarity	-12.1741
▁motto	-12.1741
▁categorically	-12.1742
▁poll	-12.1745
▁ordered	-12.1748
▁butter	-12.1753
▁fronts	-12.1755
▁tortured	-12.1761
▁bridges	-12.1762
ssel	-12.1767
▁transparently	-12.177
▁slip	-12.1774
▁clinical	-12.1774
▁twin	-12.1774
▁suppression	-12.1774
▁march	-12.1777
▁walls	-12.1785
▁exhaust	-12.1799
▁contest	-12.18
▁Fo	-12.1801
▁forty	-12.1802
▁holidays	-12.1804
▁Savary	-12.1807
▁Tajani	-12.1807
▁civic	-12.1807
▁pregnancy	-12.1807
▁adherence	-12.1807
▁Mission	-12.1808
▁extraction	-12.1808
▁machines	-12.1808
▁shores	-12.1809
▁plead	-12.1813
▁Forest	-12.1814
▁registers	-12.1818
▁Refugees	-12.182
▁mess	-12.1822
▁generates	-12.1824
▁seminar	-12.1833
AD	-12.184
sufficiency	-12.184
▁Functioning	-12.184
▁Pakistani	-12.1849
▁utilisation	-12.1856
▁homosexuals	-12.1866
rapporteur	-12.1869
▁SOLVIT	-12.1873
▁absorption	-12.1873
▁indifference	-12.1873
▁segment	-12.1873
▁lorry	-12.1873
▁unsafe	-12.1874
▁volumes	-12.1877
non	-12.188
▁classic	-12.1884
ami	-12.1885
▁wellbeing	-12.189
▁comprises	-12.1899
▁recording	-12.1899
▁Gibraltar	-12.1907
▁Helms	-12.1907
▁believing	-12.1907
▁deterrent	-12.1907
▁miles	-12.1907
▁compensated	-12.1917
▁favourably	-12.1919
ili	-12.192
▁branch	-12.1921
▁answering	-12.1927
mentioned	-12.1936
just	-12.1938
▁subsidiary	-12.194
▁unduly	-12.194
▁supplements	-12.194
▁customary	-12.194
▁Gradin	-12.194
▁Six	-12.1941
▁clashes	-12.1942
▁manifest	-12.1947
▁Am	-12.1948
defined	-12.196
▁rationale	-12.1964
SO	-12.1969
stay	-12.1972
▁deem	-12.1973
▁backbone	-12.1974
▁crude	-12.1974
▁livelihoods	-12.1978
▁preach	-12.1982
▁obstruct	-12.1986
▁broke	-12.1992
▁Better	-12.1996
hal	-12.2001
▁connect	-12.2003
▁incur	-12.2004
American	-12.2004
▁lever	-12.2004
▁suspects	-12.2005
▁ice	-12.2005
▁Hughes	-12.2007
▁Izquierdo	-12.2007
▁loose	-12.2007
▁mistrust	-12.2007
▁evade	-12.2007
▁endangered	-12.2018
▁establishments	-12.2018
▁audits	-12.2019
▁gangs	-12.2033
business	-12.2038
▁Ban	-12.2039
▁waterway	-12.204
▁bankrupt	-12.2041
▁Revolution	-12.2041
▁Turkmenistan	-12.2041
▁achievable	-12.2041
▁contemplate	-12.2041
▁video	-12.2041
▁mismanagement	-12.2041
▁Basically	-12.2041
▁abundantly	-12.2043
▁Competitiveness	-12.2047
▁gladly	-12.2052
cra	-12.2053
▁diminish	-12.2057
▁levelled	-12.2066
head	-12.2067
▁cosmetic	-12.2069
ego	-12.207
▁Ambassador	-12.2075
▁Jews	-12.2075
▁spectacular	-12.2075
▁ESDP	-12.2075
▁situated	-12.2075
▁consultative	-12.2075
▁deportation	-12.2078
▁lag	-12.2078
q	-12.2084
▁constructed	-12.2085
▁bordering	-12.2089
shop	-12.2093
▁eminent	-12.2094
▁coupled	-12.2097
▁whoever	-12.2103
▁evolve	-12.2105
▁style	-12.2105
▁scrap	-12.2108
▁Clinton	-12.2109
▁fingerprints	-12.2109
▁concede	-12.2109
▁lax	-12.211
▁authorisations	-12.2116
▁exhausted	-12.2116
▁plainly	-12.2119
tive	-12.2119
▁instrumental	-12.2125
▁employing	-12.2132
▁breathe	-12.2133
▁defects	-12.2143
▁Howitt	-12.2143
▁enemies	-12.2143
▁junta	-12.2143
▁trivial	-12.2143
▁vulnerability	-12.2143
▁scrapping	-12.2143
▁Review	-12.2143
▁Dayton	-12.2144
▁preferably	-12.2144
visual	-12.2145
▁clients	-12.2146
▁commissioned	-12.2157
▁purchases	-12.2165
▁livelihood	-12.2173
▁revive	-12.2173
▁Pan	-12.2173
▁extensively	-12.2174
▁Buitenweg	-12.2177
▁Crowley	-12.2177
▁Either	-12.2177
▁unregulated	-12.2177
▁crystal	-12.2177
▁trail	-12.2177
▁encompass	-12.2178
▁coastline	-12.2178
phe	-12.218
▁flawed	-12.218
▁administered	-12.2183
▁incorporates	-12.2187
▁EPAs	-12.2189
▁locations	-12.2192
▁concession	-12.2207
▁subordinate	-12.2208
▁Leon	-12.2211
▁maximise	-12.2212
▁Order	-12.2213
▁para	-12.2213
▁files	-12.2215
EF	-12.2216
▁offend	-12.2221
mark	-12.2222
▁develops	-12.2223
▁shifting	-12.2223
▁institutes	-12.2224
ched	-12.2225
▁earned	-12.2226
▁ranks	-12.2226
nia	-12.2229
▁clearing	-12.2233
▁critics	-12.2237
▁Experts	-12.2246
▁Morillon	-12.2246
▁overriding	-12.2246
▁Reconstruction	-12.2246
▁speedily	-12.2247
▁contentious	-12.225
▁sham	-12.2251
▁hardest	-12.2258
▁Mont	-12.226
▁homework	-12.2265
▁risky	-12.2268
using	-12.2268
▁websites	-12.2268
▁dismiss	-12.2271
PE	-12.2275
▁cereal	-12.2277
▁Being	-12.228
▁Communism	-12.2281
▁PVC	-12.2281
▁genital	-12.2281
▁bail	-12.2282
▁leverage	-12.2284
▁constitutions	-12.2289
ero	-12.2293
▁wipe	-12.2302
▁Shi	-12.2303
▁traps	-12.231
▁Strip	-12.2315
▁cocoa	-12.2315
▁negligence	-12.2315
awaited	-12.2316
▁overlap	-12.2316
▁pledges	-12.2316
▁branches	-12.2317
cla	-12.2318
▁denounced	-12.2323
▁legitimately	-12.2325
▁decreased	-12.2326
▁heated	-12.2329
▁adversely	-12.2331
▁hate	-12.2336
ret	-12.2338
RT	-12.2344
lon	-12.2345
▁Drugs	-12.2346
AR	-12.2347
▁certificate	-12.2347
vin	-12.2347
▁systemic	-12.2348
▁Draft	-12.235
▁Andersson	-12.235
▁Position	-12.235
▁luxury	-12.235
▁disarm	-12.2351
▁Farmers	-12.2351
▁rolling	-12.2352
gent	-12.2354
▁benchmarking	-12.2362
rop	-12.2367
▁motorways	-12.2368
hrkop	-12.2385
▁Colleagues	-12.2385
China	-12.2386
Loud	-12.2387
▁auditing	-12.2388
▁cows	-12.2391
▁Colombian	-12.2395
ost	-12.2402
▁attracted	-12.2403
gged	-12.2409
pel	-12.2413
▁installation	-12.2418
▁Flynn	-12.242
▁Trichet	-12.242
▁disclosure	-12.242
▁gravity	-12.242
▁intrinsic	-12.242
▁tripartite	-12.242
▁Monnet	-12.242
▁Klaus	-12.2421
▁mentality	-12.2423
▁lament	-12.2425
▁reign	-12.2426
▁concentrations	-12.2431
▁realising	-12.244
▁flourish	-12.2445
▁sentiments	-12.2445
▁generalised	-12.2446
▁insignificant	-12.2454
▁cleared	-12.2454
▁Frassoni	-12.2456
▁compelled	-12.2456
▁Martens	-12.2456
▁exaggerated	-12.2457
▁Franco	-12.2462
▁celebrated	-12.2463
▁catching	-12.2466
cum	-12.2469
▁vaccine	-12.2488
▁characterise	-12.2489
uaestors	-12.2489
▁Edinburgh	-12.2491
▁George	-12.2491
▁calculating	-12.2491
▁detract	-12.2491
▁receipt	-12.2491
▁vested	-12.2491
▁Whitehead	-12.2491
▁winning	-12.2492
informed	-12.2493
▁waves	-12.2495
▁Roman	-12.2498
more	-12.2499
▁weigh	-12.2503
▁appointments	-12.2507
▁Libyan	-12.2511
▁sat	-12.2522
▁breath	-12.2526
▁Maghreb	-12.2526
▁Veterinar	-12.2526
▁abduction	-12.2526
▁arrogance	-12.2526
▁astonishing	-12.2526
▁libraries	-12.2526
▁magnitude	-12.2526
▁unpleasant	-12.2526
▁distributing	-12.2526
▁Minsk	-12.2526
▁crash	-12.2527
▁infant	-12.2527
founded	-12.253
▁valued	-12.2536
ley	-12.2538
▁Bos	-12.2539
▁wing	-12.2552
▁interpreting	-12.2556
▁habitats	-12.2558
read	-12.256
▁accuse	-12.256
▁exerting	-12.2562
▁Contrary	-12.2562
▁History	-12.2562
member	-12.2563
▁lawful	-12.2564
▁supreme	-12.2568
▁Peter	-12.2576
▁democrat	-12.2579
▁shorten	-12.2579
▁prohibiting	-12.258
blo	-12.2581
▁relax	-12.2589
▁stipulate	-12.2593
▁elaborate	-12.2594
▁Country	-12.2598
▁Department	-12.2598
▁Fatuzzo	-12.2598
▁Ocean	-12.2598
▁decreasing	-12.2598
▁unthinkable	-12.2598
▁cinema	-12.2598
▁dissatisfaction	-12.2598
▁superpower	-12.2598
▁codification	-12.2598
▁undergone	-12.2598
▁formulating	-12.26
Member	-12.2601
▁Five	-12.2605
▁indiscriminate	-12.2607
▁setback	-12.2608
ney	-12.2613
ax	-12.2614
▁prescribe	-12.2629
▁isolate	-12.263
▁row	-12.2632
hip	-12.2633
▁Welcome	-12.2634
▁expiry	-12.2634
▁gratifying	-12.2634
▁carcinogenic	-12.2634
▁ages	-12.2634
▁seasonal	-12.2637
field	-12.2637
▁roughly	-12.2638
▁tighter	-12.2638
▁witnesses	-12.2639
▁exceeds	-12.2639
▁sticking	-12.2641
▁Cap	-12.2645
▁tightened	-12.2645
card	-12.2648
ement	-12.2654
▁proceeds	-12.2662
▁commence	-12.2665
ada	-12.2665
▁timid	-12.2669
▁Alpine	-12.2669
▁domination	-12.2669
▁maturity	-12.2669
▁preamble	-12.2669
▁shield	-12.2669
service	-12.2673
▁Vall	-12.2684
▁fee	-12.269
cide	-12.2692
late	-12.27
▁volunteers	-12.2701
▁stems	-12.2705
▁Company	-12.2706
▁Napolitano	-12.2706
▁Stream	-12.2706
▁UNHCR	-12.2706
▁monies	-12.2706
▁expelled	-12.2706
Re	-12.2706
▁ESF	-12.2706
▁Tel	-12.2718
▁Real	-12.2718
▁scarce	-12.2718
▁diplomats	-12.2722
▁Latvian	-12.2725
▁patenting	-12.2737
▁Airbus	-12.2742
▁FAO	-12.2742
▁Thyssen	-12.2742
▁cumbersome	-12.2742
▁defensive	-12.2742
▁deletion	-12.2742
▁liaison	-12.2742
▁tonne	-12.2742
stedt	-12.2742
▁litre	-12.2742
▁precautions	-12.2743
▁incoming	-12.2743
Africa	-12.2744
mission	-12.2744
room	-12.2748
▁fleeing	-12.2752
cyclical	-12.2752
▁obliges	-12.2766
▁rough	-12.2774
▁thin	-12.2778
▁Kallas	-12.2778
▁bolster	-12.2778
▁declaring	-12.2778
▁lecture	-12.2778
▁Lamassoure	-12.2778
▁embryonic	-12.2778
▁peer	-12.278
▁losers	-12.2782
▁reactor	-12.2783
▁VI	-12.2783
▁finishing	-12.2788
▁fixing	-12.2793
▁dissidents	-12.2799
▁accomplish	-12.2804
▁outrage	-12.281
▁mail	-12.2813
yard	-12.2814
▁omission	-12.2814
▁CITES	-12.2815
▁abilities	-12.2815
▁happily	-12.2815
▁wreck	-12.2815
▁wife	-12.2815
▁indefinitely	-12.2816
▁sorted	-12.2817
row	-12.282
▁auditors	-12.2824
LE	-12.2829
ara	-12.2834
Euro	-12.285
▁Cultural	-12.2851
▁abstract	-12.2851
▁offenders	-12.2853
▁comprehensively	-12.2854
▁Sj	-12.2855
▁pot	-12.2865
▁Nigerian	-12.2866
▁disposed	-12.2871
▁failings	-12.2872
▁prerequisites	-12.2883
▁continual	-12.2884
▁Pr	-12.2884
▁smallest	-12.2888
▁advertise	-12.2888
▁Schroedter	-12.2888
▁Situation	-12.2888
▁coffee	-12.2888
▁fusion	-12.2888
▁initiating	-12.2888
Myanmar	-12.2888
▁flame	-12.2888
▁cigarette	-12.2888
▁reproduction	-12.2889
holders	-12.289
stitut	-12.2891
▁prosecuted	-12.2891
dvisory	-12.2892
▁dictated	-12.2895
▁dreams	-12.2896
▁careers	-12.2898
▁exercises	-12.2902
iness	-12.2908
▁consequent	-12.2909
▁proclaimed	-12.2909
▁drinks	-12.2919
▁listing	-12.2923
▁Deputy	-12.2925
▁Habsburg	-12.2925
▁Recovery	-12.2925
▁anticipation	-12.2925
▁renounce	-12.2925
▁unfavourable	-12.2925
▁Eurogroup	-12.2925
▁Tony	-12.293
▁worded	-12.2931
▁corrective	-12.2934
cong	-12.2934
▁skin	-12.2936
▁manifestation	-12.2936
▁crews	-12.2938
▁reversed	-12.2939
low	-12.2939
posing	-12.2941
evi	-12.2943
▁pour	-12.2954
▁geographic	-12.2959
▁Dupuis	-12.2962
▁Mozambique	-12.2962
▁admiration	-12.2962
▁cheque	-12.2962
▁recipe	-12.2962
▁Liese	-12.2962
▁nominal	-12.2962
▁ironic	-12.2964
vocation	-12.2969
▁Don	-12.2974
▁tie	-12.2975
BC	-12.2976
▁Schr	-12.2988
▁hang	-12.2989
rating	-12.2996
▁Baghdad	-12.2999
▁leisure	-12.2999
▁sophisticated	-12.2999
▁dispel	-12.3
▁permissible	-12.3
spot	-12.3001
▁tailored	-12.3004
▁converted	-12.3009
▁artificially	-12.301
▁Generally	-12.3014
▁Sub	-12.3017
▁Cu	-12.302
▁waged	-12.3022
▁throwing	-12.3026
▁favouring	-12.3027
cost	-12.3029
▁sail	-12.303
▁officer	-12.3031
▁drama	-12.3031
▁Future	-12.3036
▁rapprochement	-12.3036
▁reproach	-12.3036
▁notorious	-12.3036
▁magic	-12.3037
modal	-12.3037
▁Burg	-12.3037
▁rear	-12.3043
▁commented	-12.3044
IP	-12.3051
▁dealers	-12.3052
▁owner	-12.3055
saving	-12.3061
▁civilisations	-12.3064
▁curtail	-12.3067
▁semi	-12.3068
▁Kyrgyzstan	-12.3074
▁destabilise	-12.3074
▁roaming	-12.3074
▁standstill	-12.3074
▁sympathetic	-12.3074
▁mercy	-12.3074
▁eastward	-12.3075
▁fats	-12.3078
ese	-12.308
public	-12.308
cycle	-12.308
▁censorship	-12.3089
▁compromised	-12.3091
type	-12.3092
▁Gil	-12.3095
gh	-12.31
▁tables	-12.3101
▁cleaning	-12.3107
▁Cunha	-12.3112
▁Implementation	-12.3112
▁Trakatellis	-12.3112
▁discrepancy	-12.3112
▁IMO	-12.3112
▁jump	-12.3112
▁meanwhile	-12.3112
▁communism	-12.3112
▁transmit	-12.3112
▁emit	-12.3113
▁pronounced	-12.3114
▁rebel	-12.3115
tter	-12.3123
▁monthly	-12.3127
rous	-12.3127
▁recovered	-12.313
▁Comp	-12.3141
▁abstaining	-12.3144
▁Kosovar	-12.3149
▁Proposal	-12.3149
▁corps	-12.3149
▁prestige	-12.3149
fledged	-12.3149
▁tired	-12.3149
▁Alps	-12.3149
▁veal	-12.315
▁shortfall	-12.3151
sessions	-12.3152
–	-12.3155
▁pictures	-12.3155
▁shocks	-12.316
▁Us	-12.3161
▁powerless	-12.3168
▁bills	-12.3168
▁hormones	-12.3176
▁borrow	-12.3176
▁Arms	-12.318
▁restructure	-12.3184
▁Journal	-12.3187
▁specifies	-12.3187
▁settling	-12.3187
▁inspect	-12.3188
▁revolutionary	-12.3189
▁accusation	-12.319
▁downturn	-12.3191
▁misused	-12.3195
▁Weber	-12.3195
green	-12.3197
▁repeal	-12.3208
ux	-12.3209
under	-12.321
▁commissioners	-12.3211
▁Govern	-12.3211
▁wasting	-12.3213
care	-12.3214
ima	-12.3218
▁proclaim	-12.3218
▁paradoxical	-12.3221
▁critically	-12.3221
pped	-12.3222
▁cabotage	-12.3225
▁mixture	-12.3225
▁revisit	-12.3225
▁superficial	-12.3225
▁unwanted	-12.3225
▁bluefin	-12.3225
▁discards	-12.3231
▁strategically	-12.3232
ify	-12.3234
▁forceful	-12.3235
tit	-12.3239
limit	-12.3239
ich	-12.3246
military	-12.3247
▁Works	-12.3258
ough	-12.3259
▁attentive	-12.3259
▁eager	-12.3259
▁irregular	-12.3262
▁Mechanism	-12.3263
▁apologies	-12.3263
▁ceremony	-12.3263
▁xenophobic	-12.3263
▁totalitarianism	-12.3265
sector	-12.3268
ique	-12.3277
mir	-12.3279
▁emotion	-12.3279
▁nutritional	-12.3281
▁Ali	-12.3282
▁Bi	-12.3285
▁appointing	-12.3287
▁Decisions	-12.3297
▁provoke	-12.3298
▁Breyer	-12.3302
▁Hatzidakis	-12.3302
▁correlation	-12.3302
▁laboratories	-12.3302
▁landmines	-12.3302
▁thereof	-12.3307
▁conceived	-12.3307
RI	-12.3309
▁directorate	-12.3315
gon	-12.3317
▁lasted	-12.3319
▁assumes	-12.332
nar	-12.3325
▁supervise	-12.3336
▁insert	-12.3336
ail	-12.3338
▁Goebbels	-12.334
▁empire	-12.334
▁presumably	-12.334
▁yardstick	-12.334
▁flagship	-12.3341
▁Laos	-12.3341
▁remembering	-12.3344
▁groupings	-12.3346
▁dismissed	-12.3348
▁mountains	-12.3348
▁lying	-12.3351
EGF	-12.3351
▁annexed	-12.3356
▁budgeting	-12.3357
rez	-12.3357
▁Documents	-12.3359
▁Mor	-12.3367
▁cloud	-12.3379
▁uprising	-12.3379
▁signatory	-12.338
▁pattern	-12.3383
▁provoked	-12.3383
▁matches	-12.3385
▁photograph	-12.3391
▁hostages	-12.3393
▁exempted	-12.3397
▁Sp	-12.34
▁der	-12.3404
bag	-12.3406
▁ob	-12.3412
ttering	-12.3416
▁Lancker	-12.3417
▁Piebalgs	-12.3417
▁Sellafield	-12.3417
▁Turks	-12.3417
▁relies	-12.3417
▁vertical	-12.3418
▁terminal	-12.3418
▁acid	-12.3418
▁fled	-12.3419
▁Vol	-12.3423
▁extract	-12.3425
▁ears	-12.3425
▁sharply	-12.3427
▁constructing	-12.3435
▁collapsed	-12.3437
▁slaughtered	-12.3439
▁approves	-12.3449
▁desert	-12.3456
▁Lucas	-12.3456
▁bottle	-12.3456
▁stagnation	-12.3456
▁substitution	-12.3456
▁umbrella	-12.3456
▁obey	-12.3456
▁Eurosceptic	-12.3457
▁tanks	-12.3457
▁golden	-12.3457
▁transporting	-12.346
▁abstention	-12.3461
▁alcoholic	-12.3461
▁definitively	-12.3472
▁inflicted	-12.3472
▁eggs	-12.3475
▁turnout	-12.3478
Oil	-12.3483
▁Tomlinson	-12.3495
▁custody	-12.3495
▁eradicating	-12.3495
▁invalid	-12.3495
▁evolving	-12.3496
▁mood	-12.3496
▁counted	-12.3499
▁Drug	-12.3501
polluter	-12.3509
▁reacting	-12.3518
▁Nord	-12.3519
▁administer	-12.3522
▁bread	-12.3534
▁envelope	-12.3535
▁invaluable	-12.3535
▁residing	-12.3535
▁revival	-12.3535
▁Fraga	-12.3535
▁divergent	-12.3535
▁portray	-12.3535
▁transposing	-12.3535
▁predominantly	-12.3537
▁hardship	-12.3538
▁deteriorated	-12.3538
▁Eco	-12.3538
▁aspiration	-12.354
▁TEN	-12.3541
products	-12.3541
▁teacher	-12.3543
▁fruits	-12.3549
▁outgoing	-12.355
▁Had	-12.3554
▁rumours	-12.3561
▁illusions	-12.3564
▁Eurobarometer	-12.3574
▁Lambert	-12.3574
▁Platform	-12.3574
▁Tannock	-12.3574
▁appraisal	-12.3574
▁daughter	-12.3574
▁influential	-12.3574
ita	-12.3575
▁broadcasters	-12.3576
▁permitting	-12.3576
link	-12.3581
nsurance	-12.3592
▁criminality	-12.3593
idi	-12.3594
▁waited	-12.3598
▁spiritual	-12.3613
▁Giscard	-12.3614
▁restaurant	-12.3614
▁unsuccessful	-12.3614
▁Fava	-12.3614
▁municipalities	-12.3614
▁pray	-12.3614
▁son	-12.3616
▁reactionary	-12.3616
▁realm	-12.3619
▁formerly	-12.362
▁dock	-12.3622
competitive	-12.3627
fraud	-12.3628
▁flee	-12.3635
▁specifying	-12.3637
▁tip	-12.3642
sea	-12.3644
▁campaigning	-12.3648
▁rebels	-12.3651
▁Cappato	-12.3653
▁Nicaragua	-12.3653
▁acquiring	-12.3653
▁embarrassing	-12.3653
▁inconceivable	-12.3653
▁logistical	-12.3653
▁transcend	-12.3653
▁multifunctional	-12.3653
▁index	-12.3654
▁freed	-12.3656
▁closures	-12.3668
▁presupposes	-12.3673
▁commissioner	-12.3676
▁Africans	-12.3677
EE	-12.3683
▁suspending	-12.3684
hm	-12.3689
▁organize	-12.369
PR	-12.3691
▁forbidden	-12.3693
▁lobbies	-12.3693
▁unscrupulous	-12.3693
aladministration	-12.3693
▁hake	-12.3694
▁WEU	-12.3696
▁residues	-12.3697
▁pen	-12.3697
▁Marco	-12.3697
▁interrupted	-12.37
lop	-12.3714
▁opting	-12.3715
▁interrupt	-12.3722
▁attribute	-12.3729
Weggen	-12.3733
▁Increasing	-12.3733
▁Sacconi	-12.3733
▁horrendous	-12.3733
▁inalienable	-12.3733
▁unrestricted	-12.3733
▁spur	-12.3736
▁posted	-12.3739
▁appropriation	-12.374
▁Rapporteur	-12.3748
dra	-12.375
▁differential	-12.3751
▁documented	-12.3755
▁prohibits	-12.3756
▁earthquakes	-12.3757
▁relieve	-12.3767
net	-12.3768
▁constituted	-12.377
▁Colom	-12.3773
▁disparity	-12.3773
▁Munich	-12.3773
▁infectious	-12.3773
▁interdependence	-12.3773
▁Maij	-12.3773
▁surrounded	-12.3777
▁rightful	-12.3791
flow	-12.3795
▁outbreaks	-12.3796
▁widen	-12.3808
rev	-12.3809
▁Buzek	-12.3814
▁Guidelines	-12.3814
▁McCarthy	-12.3814
▁hurt	-12.3814
▁Making	-12.3814
▁Duff	-12.3815
▁expired	-12.3817
euro	-12.3825
terrorist	-12.3831
▁Times	-12.3834
dding	-12.3838
▁progressed	-12.3847
▁deduct	-12.3849
▁Gill	-12.385
▁solemn	-12.385
▁rival	-12.3854
▁Genoa	-12.3854
▁Kauppi	-12.3854
▁Wurtz	-12.3854
▁liberation	-12.3854
▁endorsing	-12.3854
▁reassuring	-12.3855
▁Independence	-12.3857
gan	-12.3864
▁portion	-12.3868
hearted	-12.3872
▁conveyed	-12.3882
▁Turmes	-12.3895
▁concise	-12.3895
▁dirty	-12.3895
▁plastic	-12.3895
▁random	-12.3895
▁fortune	-12.3895
▁equate	-12.3895
▁Belder	-12.3895
nsch	-12.3897
▁Whereas	-12.3899
▁annexes	-12.3899
▁Wise	-12.3902
▁carrier	-12.3903
handling	-12.3914
ox	-12.3916
position	-12.3921
▁Istanbul	-12.3936
▁Maltese	-12.3936
▁Mexican	-12.3936
▁Staes	-12.3936
▁Warsaw	-12.3936
Estaing	-12.3936
medi	-12.3936
▁River	-12.3936
start	-12.3937
▁formalities	-12.3938
▁polluted	-12.3939
▁underground	-12.394
fish	-12.3941
trans	-12.3943
▁broadest	-12.3947
TS	-12.395
continuation	-12.3954
▁ecologically	-12.3964
▁physically	-12.3965
aligned	-12.3967
▁handing	-12.3976
▁Holland	-12.3977
▁Katiforis	-12.3977
▁Nicholson	-12.3977
▁salute	-12.3977
▁Negotiations	-12.3977
▁undue	-12.3977
Fraud	-12.3977
▁Essen	-12.3977
▁Unemployment	-12.3977
▁childhood	-12.3978
▁nominated	-12.3978
▁bow	-12.398
▁excesses	-12.3981
▁facilitates	-12.3983
▁dozen	-12.3985
treated	-12.3986
▁jeopardised	-12.3989
▁reassured	-12.399
▁chains	-12.3992
▁clock	-12.3994
seekers	-12.3996
▁ample	-12.3996
longside	-12.4002
del	-12.4007
▁variations	-12.4007
▁Tibetans	-12.4015
Proliferation	-12.4018
▁Correction	-12.4018
▁apparatus	-12.4018
▁diplomas	-12.4018
▁episode	-12.4018
▁observatory	-12.4018
▁teeth	-12.4018
▁amazed	-12.4018
▁sterling	-12.4018
▁fun	-12.4018
▁Visa	-12.4019
▁unbalanced	-12.4019
▁Scandinavian	-12.4019
▁revert	-12.4021
▁invoked	-12.4022
▁cornerstones	-12.4023
▁homosexual	-12.4026
▁comprise	-12.4027
▁Pope	-12.4031
weight	-12.4032
▁governmental	-12.4036
employment	-12.4036
nterim	-12.4039
spir	-12.4041
▁ERDF	-12.4044
bal	-12.4047
▁Look	-12.4049
▁Kr	-12.4049
▁clarifications	-12.4051
▁Sam	-12.4055
▁rock	-12.4058
▁superior	-12.4058
▁MEDIA	-12.4059
▁Diamantopoulou	-12.4059
▁Observatory	-12.4059
▁Strategic	-12.4059
▁announcing	-12.4059
▁reorganisation	-12.4059
▁speculators	-12.4059
▁Sepp	-12.4059
▁enrichment	-12.406
▁offshore	-12.4061
mile	-12.4062
▁pit	-12.4063
▁bind	-12.4063
▁lapse	-12.4068
▁mineral	-12.4069
▁rendered	-12.4075
▁unify	-12.4078
credit	-12.4078
▁Sh	-12.4081
▁Mat	-12.4082
▁invoke	-12.4096
▁refine	-12.4097
▁Stalin	-12.4097
▁potato	-12.4099
▁perverse	-12.41
▁henceforth	-12.41
▁stereotypes	-12.4101
▁Eurocontrol	-12.4101
Mr	-12.4106
▁enacted	-12.411
▁finalise	-12.4114
CA	-12.4124
▁complaining	-12.4126
▁paths	-12.4135
▁Heading	-12.4136
▁writer	-12.4139
road	-12.4141
▁thirteen	-12.4142
▁astonished	-12.4142
▁clarifies	-12.4142
▁flesh	-12.4142
▁harness	-12.4142
▁Disease	-12.4142
▁truck	-12.4142
▁Representatives	-12.4142
▁clever	-12.4143
▁quoting	-12.4143
▁overturn	-12.4144
▁transplantation	-12.4144
▁Stand	-12.4144
▁dire	-12.415
▁exchanged	-12.4151
ean	-12.4161
▁mayor	-12.4162
ute	-12.4163
value	-12.4163
▁argues	-12.4165
▁logically	-12.4169
▁ran	-12.417
▁nationally	-12.4174
▁commonly	-12.4176
▁compel	-12.4183
Claude	-12.4184
▁legitimise	-12.4184
▁Election	-12.4184
▁verified	-12.4184
▁MPs	-12.4184
▁joke	-12.4184
▁wholesale	-12.4186
▁notify	-12.4188
arm	-12.4189
▁distributors	-12.4194
▁Bill	-12.4198
▁delegates	-12.4203
Atlantic	-12.4206
▁intervened	-12.4216
▁refund	-12.4219
▁subsidise	-12.4222
ealand	-12.4226
▁Congratulations	-12.4226
▁accuracy	-12.4226
▁vigour	-12.4226
▁Lakes	-12.4226
▁employability	-12.4227
tax	-12.4227
▁underpinning	-12.4228
▁presidents	-12.4229
▁pesticide	-12.4237
▁bond	-12.4237
aci	-12.4237
tel	-12.4238
▁haste	-12.4239
▁Interior	-12.424
▁flexicurity	-12.4247
▁cry	-12.4256
▁accounted	-12.4259
▁discredit	-12.4262
▁geographically	-12.4263
▁Solbes	-12.4268
▁Uruguay	-12.4268
▁doubling	-12.4268
▁falsified	-12.4268
▁guarantor	-12.4268
▁rejoice	-12.4268
▁upheaval	-12.4268
▁biogas	-12.4268
▁cutbacks	-12.4268
▁avian	-12.4268
▁distrust	-12.4268
▁lodged	-12.427
▁actor	-12.4275
▁infringed	-12.4279
▁hanging	-12.428
▁headlines	-12.4284
keeper	-12.4289
ala	-12.4291
▁matched	-12.4294
▁adjusting	-12.4297
▁FTA	-12.4297
▁EEAS	-12.4299
▁Iron	-12.4303
▁enshrine	-12.4306
taining	-12.4307
▁Earth	-12.4311
▁Rasmussen	-12.4311
▁Renault	-12.4311
▁Respect	-12.4311
▁intermediaries	-12.4311
▁misguided	-12.4311
▁opportune	-12.4311
▁Maaten	-12.4311
▁devot	-12.4312
LV	-12.4318
region	-12.4329
▁depriv	-12.433
▁revealing	-12.4331
bound	-12.4335
▁endeavoured	-12.4345
▁disagreements	-12.4345
▁advisers	-12.4347
▁excludes	-12.4349
▁Port	-12.4352
▁Catalan	-12.4353
▁Chichester	-12.4353
▁Especially	-12.4353
▁Gollnisch	-12.4353
▁Jensen	-12.4353
▁Madagascar	-12.4353
▁inflexible	-12.4353
▁verbal	-12.4353
▁devising	-12.4353
▁Bavaria	-12.4353
▁intact	-12.4353
▁dust	-12.4353
▁pound	-12.4354
▁alignment	-12.4354
sufficient	-12.4358
▁enhancement	-12.4363
uk	-12.4368
▁phases	-12.4369
▁Cast	-12.4374
Article	-12.4377
▁utilised	-12.4378
▁wear	-12.438
▁prisoner	-12.438
▁filling	-12.4387
▁disputed	-12.439
activate	-12.4393
▁Senegal	-12.4396
place	-12.4396
▁Guantanamo	-12.4396
▁aegis	-12.4396
▁fourteen	-12.4396
▁insecure	-12.4396
▁dictatorial	-12.4396
▁comfortable	-12.4397
▁oppressed	-12.4401
▁flower	-12.4402
▁cooperated	-12.4403
uck	-12.4405
nik	-12.4408
▁hormone	-12.4408
▁sentiment	-12.4408
▁lifetime	-12.441
▁attained	-12.4413
ore	-12.4427
sir	-12.443
▁utilise	-12.4435
▁shipments	-12.4435
▁Auto	-12.4438
▁Administrative	-12.4439
▁Gaddafi	-12.4439
▁boom	-12.4439
▁conceivable	-12.4439
▁justifiably	-12.4439
▁provocative	-12.4439
▁disclose	-12.4439
▁marriages	-12.4439
▁persistence	-12.4439
▁clearance	-12.4443
▁liberalism	-12.4444
▁pipelines	-12.4445
djournment	-12.4446
top	-12.4446
ino	-12.4449
where	-12.4472
▁harmonize	-12.4478
▁Was	-12.4482
▁Bertens	-12.4482
▁Eurobonds	-12.4482
▁Space	-12.4482
▁haulage	-12.4482
▁hurdle	-12.4482
▁asymmetric	-12.4482
▁morally	-12.4482
▁peak	-12.4482
treatment	-12.4483
▁mu	-12.4492
▁widest	-12.4493
FOR	-12.4497
legislator	-12.4506
▁confronting	-12.4512
rich	-12.4521
▁calculate	-12.4521
)(	-12.4523
▁Simpson	-12.4525
▁bizarre	-12.4525
▁nightmare	-12.4525
▁rectified	-12.4525
▁spokesman	-12.4525
▁induce	-12.4525
▁superstate	-12.4526
▁differentiate	-12.4529
▁Brazilian	-12.4529
▁printed	-12.4531
▁deriv	-12.4531
▁oldest	-12.4541
ranking	-12.4548
▁FP	-12.4551
▁caring	-12.4556
▁prejudices	-12.4557
eva	-12.4557
▁experimental	-12.4561
stop	-12.4563
▁husband	-12.4568
▁Alavanos	-12.4569
▁Channel	-12.4569
▁Galeote	-12.4569
▁mirror	-12.4569
▁nurses	-12.4569
▁sensibly	-12.4569
▁sympathise	-12.4569
▁unquestionably	-12.4569
Robles	-12.4569
▁unpaid	-12.457
▁strengths	-12.4571
▁properties	-12.4571
▁Bio	-12.4579
▁expires	-12.4582
lot	-12.4584
▁predecessors	-12.4584
▁handful	-12.4588
▁Ku	-12.4591
binding	-12.4595
worth	-12.4595
▁disappearing	-12.4607
▁Flanders	-12.4612
▁Kroes	-12.4612
▁Reference	-12.4612
▁Ribeiro	-12.4612
▁courtesy	-12.4612
▁efficacy	-12.4612
▁laboratory	-12.4612
▁necessitat	-12.4612
▁unpunished	-12.4612
▁varieties	-12.4612
▁Immigration	-12.4612
▁greed	-12.4612
▁Schuman	-12.4612
rian	-12.4614
▁sweeping	-12.4619
▁rewarded	-12.4622
▁wearing	-12.4624
▁alliances	-12.4624
▁Maes	-12.4624
▁ceased	-12.4632
▁protesting	-12.4636
Rapporteur	-12.4639
▁entrust	-12.465
▁simultaneous	-12.4652
▁reinstate	-12.4652
bon	-12.4654
▁UNESCO	-12.4656
▁jungle	-12.4656
▁reassurance	-12.4656
▁requisite	-12.4656
▁simplistic	-12.4656
▁raft	-12.4656
▁opposes	-12.4657
▁tenders	-12.4659
ole	-12.4663
▁invention	-12.4671
▁costing	-12.4673
▁Maria	-12.4675
ura	-12.4678
▁Point	-12.4681
▁fourthly	-12.4684
▁TENs	-12.4694
dia	-12.4695
▁EBRD	-12.47
▁Gallagher	-12.47
▁Thors	-12.47
▁boast	-12.47
▁carpet	-12.47
▁commensurate	-12.47
▁convenient	-12.47
▁credentials	-12.47
▁inconsistencies	-12.47
▁Railway	-12.47
▁Rossa	-12.47
▁ski	-12.4701
third	-12.4701
▁Markov	-12.4702
▁accumulated	-12.4702
▁nationalities	-12.4703
▁retailers	-12.4703
enthusiastically	-12.4707
▁metals	-12.4711
▁restricts	-12.4714
▁reconciled	-12.4715
▁Islamist	-12.4719
▁oceans	-12.4725
sponsor	-12.4738
▁passionate	-12.4741
▁bounds	-12.4743
esumption	-12.4744
▁Caudron	-12.4744
▁ICAO	-12.4744
▁Mundus	-12.4744
▁TRIPS	-12.4744
▁dishonest	-12.4744
▁enlarging	-12.4744
▁unforeseen	-12.4744
▁Morgan	-12.4745
▁Schmidt	-12.4747
▁boys	-12.4747
▁biased	-12.4749
▁See	-12.4762
government	-12.4771
commercial	-12.4773
▁prosecute	-12.4785
▁blank	-12.4788
Semitism	-12.4789
Television	-12.4789
▁Busquin	-12.4789
▁LEADER	-12.4789
▁constituencies	-12.4789
▁embassies	-12.4789
▁perpetuate	-12.4789
▁veritable	-12.4789
▁distract	-12.4789
▁versa	-12.4789
▁advent	-12.4789
▁gay	-12.4789
▁Undertaking	-12.479
▁correspondence	-12.479
▁tolls	-12.4792
opt	-12.4792
▁Camp	-12.4793
▁Peru	-12.4799
▁defeated	-12.4806
ock	-12.4808
▁pack	-12.4817
driven	-12.4818
hle	-12.4822
ama	-12.4823
fired	-12.4827
▁stall	-12.4828
▁educate	-12.4829
ease	-12.4833
administrat	-12.4833
▁Linkohr	-12.4834
▁Precisely	-12.4834
▁Varela	-12.4834
▁Voluntary	-12.4834
▁contravention	-12.4834
▁default	-12.4834
▁ferry	-12.4834
▁optimal	-12.4834
▁stoning	-12.4834
▁amazing	-12.4834
▁admissible	-12.4834
▁Louis	-12.4835
▁compiled	-12.4836
rv	-12.4836
berg	-12.4837
▁Anna	-12.4837
pan	-12.484
▁Reduc	-12.4841
▁recalling	-12.4845
iller	-12.4845
▁majorities	-12.4854
▁endure	-12.4856
examine	-12.486
▁waive	-12.4862
▁attracting	-12.4868
ison	-12.4873
▁counterpart	-12.4873
▁Abbas	-12.4878
▁Closure	-12.4878
▁INTERREG	-12.4878
▁Rhine	-12.4878
▁audience	-12.4878
▁brink	-12.4878
▁kidnapping	-12.4878
▁munitions	-12.4878
▁guise	-12.4878
▁crack	-12.4879
▁vein	-12.4879
▁park	-12.4879
▁Perry	-12.4879
▁Christianity	-12.4885
▁Mov	-12.4886
vit	-12.4887
▁mindful	-12.489
▁Governor	-12.4894
▁lur	-12.4894
▁ambassador	-12.4895
atch	-12.4904
▁founder	-12.4912
egislative	-12.4912
▁kindly	-12.4916
ifies	-12.4917
▁Budapest	-12.4923
▁arrogant	-12.4923
▁stolen	-12.4923
▁stubborn	-12.4923
▁arable	-12.4924
▁earnings	-12.4926
meat	-12.4929
▁rotation	-12.4929
▁screen	-12.493
▁healthier	-12.4935
▁rent	-12.4939
▁Dan	-12.494
▁applauded	-12.4949
▁Iraqis	-12.4952
▁respectful	-12.4953
SMEs	-12.4955
▁hell	-12.4961
▁streamline	-12.4965
▁Schmid	-12.4967
▁greet	-12.4969
▁Equator	-12.4969
▁Ahern	-12.4969
▁Already	-12.4969
▁Deprez	-12.4969
▁Lagendijk	-12.4969
▁Manuel	-12.4969
▁squeez	-12.4969
▁boil	-12.4969
▁Opel	-12.4969
▁Fair	-12.497
▁tyres	-12.4971
▁bat	-12.4972
▁enforceable	-12.4973
▁catering	-12.4976
▁warrants	-12.499
▁delight	-12.5009
▁scrutinise	-12.501
▁elephant	-12.5014
▁hesitant	-12.5014
▁ACTA	-12.5014
▁Davies	-12.5014
▁Naples	-12.5014
▁Peijs	-12.5014
▁babies	-12.5014
▁monument	-12.5014
▁practicable	-12.5014
▁savage	-12.5014
▁severity	-12.5014
▁trample	-12.5014
▁Tobin	-12.5014
▁Congolese	-12.5014
▁outlining	-12.5014
▁communicating	-12.5014
▁tolerant	-12.5014
▁Promot	-12.5014
▁Verification	-12.5014
▁proposition	-12.5015
▁prolonged	-12.5025
▁cadmium	-12.5027
▁custom	-12.5029
▁embryo	-12.5032
▁district	-12.5032
▁compliments	-12.5032
▁weekly	-12.5038
▁designations	-12.5043
distance	-12.5047
▁Gy	-12.5057
▁interlocutor	-12.506
▁Regulator	-12.506
▁combustion	-12.506
▁commemorate	-12.506
▁degrading	-12.506
▁meagre	-12.506
▁reversal	-12.506
▁redouble	-12.506
▁ICC	-12.506
▁crux	-12.506
▁Long	-12.5061
▁Compar	-12.5061
▁dating	-12.5065
▁Andr	-12.5065
▁pressed	-12.507
▁remainder	-12.507
▁ride	-12.507
▁deserved	-12.5071
print	-12.5072
▁su	-12.5073
▁blamed	-12.5089
profit	-12.509
cultural	-12.5092
technological	-12.5093
see	-12.5096
aged	-12.5098
▁Tajikistan	-12.5106
▁Ramos	-12.5106
▁SAVE	-12.5106
▁holistic	-12.5106
▁levies	-12.5106
▁recreational	-12.5106
▁underpinned	-12.5106
▁cement	-12.5106
▁marginalisation	-12.5107
▁importation	-12.5112
▁Romano	-12.512
▁armaments	-12.5122
▁technique	-12.5124
graphic	-12.5126
ught	-12.5134
don	-12.5136
rooted	-12.514
▁quant	-12.514
▁Pat	-12.514
▁sink	-12.5141
rio	-12.5142
▁proceeded	-12.5144
▁empower	-12.5144
fighting	-12.5147
▁Wijsenbeek	-12.5152
▁irrational	-12.5152
▁streamlining	-12.5152
▁dissent	-12.5152
▁Kohl	-12.5152
▁Coordination	-12.5152
▁Roure	-12.5153
▁parity	-12.5154
▁distorting	-12.5161
▁Borders	-12.5166
▁praised	-12.5171
▁factions	-12.5176
ultiannual	-12.5176
pez	-12.5177
oil	-12.5179
▁camera	-12.5182
sky	-12.5182
▁shaped	-12.5184
▁drag	-12.5184
existence	-12.5186
▁Sc	-12.5186
AP	-12.5197
▁authentic	-12.5197
▁Bolivia	-12.5198
▁Frankly	-12.5198
▁consular	-12.5198
▁dementia	-12.5198
▁deputy	-12.5198
▁juvenile	-12.5198
▁persuasion	-12.5198
▁stifle	-12.5198
▁primacy	-12.5198
▁Grand	-12.52
▁Land	-12.5204
▁invade	-12.5205
miss	-12.521
▁calmly	-12.5213
▁additionality	-12.5223
▁ambassadors	-12.5227
paid	-12.5233
▁homeless	-12.5234
pass	-12.5235
▁alas	-12.5236
▁persists	-12.5237
▁guilt	-12.5242
▁peculiar	-12.5244
▁accumulation	-12.5245
▁revitalise	-12.5245
▁shrink	-12.5245
▁untenable	-12.5245
▁cruelty	-12.5245
▁tide	-12.5245
▁UKIP	-12.5246
lie	-12.5246
▁authorization	-12.5246
▁mal	-12.5252
▁height	-12.5252
▁marketplace	-12.5253
▁modu	-12.5257
▁bottlenecks	-12.5262
var	-12.5266
▁republic	-12.5267
▁Wi	-12.5269
aga	-12.5271
Marie	-12.5272
CP	-12.5277
▁comparisons	-12.5281
adi	-12.5284
▁breached	-12.5286
▁Effective	-12.5291
▁Kabul	-12.5291
▁paedophile	-12.5291
▁ECJ	-12.5292
▁uneven	-12.5293
▁encompasses	-12.5294
▁Often	-12.5298
▁uniformity	-12.5299
▁Dam	-12.5299
▁hampered	-12.5306
▁brutally	-12.5309
▁hazards	-12.5309
▁ocean	-12.5312
▁optimis	-12.5314
▁recruit	-12.532
vig	-12.5323
stone	-12.5324
tariff	-12.5328
▁rotat	-12.5337
▁Facility	-12.5338
▁Nowadays	-12.5338
▁Paasilinna	-12.5338
▁accelerating	-12.5338
▁attributable	-12.5338
▁diamond	-12.5338
▁hauliers	-12.5338
▁opium	-12.5338
▁Provid	-12.5338
▁Liberia	-12.5338
▁wheat	-12.5338
▁Project	-12.5339
▁complicity	-12.5339
▁restart	-12.5342
elle	-12.5345
▁pioneering	-12.5349
▁cheat	-12.5349
▁chicken	-12.5359
▁tar	-12.5365
▁burn	-12.5366
logical	-12.5374
▁complicate	-12.5381
▁strip	-12.5385
Bissau	-12.5385
▁Pensioners	-12.5385
▁Tindemans	-12.5385
▁adequacy	-12.5385
▁authoritative	-12.5385
▁conclusive	-12.5385
▁enquiry	-12.5385
▁scratch	-12.5385
▁unbundling	-12.5385
▁undeniably	-12.5385
▁Fiji	-12.5385
▁deferred	-12.5386
▁objectivity	-12.5386
▁Orden	-12.5386
▁dividend	-12.5386
▁impartiality	-12.5387
▁realistically	-12.5389
▁restate	-12.539
PP	-12.5394
▁Cha	-12.5394
▁merge	-12.5395
▁EIT	-12.5397
▁externally	-12.5406
▁Patr	-12.5414
▁translations	-12.5417
dragging	-12.5419
▁Particular	-12.5428
▁flaws	-12.543
▁satisfying	-12.5431
▁wholehearted	-12.5432
▁Andalusia	-12.5433
▁Blue	-12.5433
▁Brenner	-12.5433
▁Gargani	-12.5433
▁Lynne	-12.5433
▁Montreal	-12.5433
▁Norwegian	-12.5433
▁Spencer	-12.5433
▁starvation	-12.5433
▁terminology	-12.5433
ional	-12.5434
▁frustrated	-12.5434
door	-12.5435
▁Macedonian	-12.5436
▁unfairly	-12.5437
▁pill	-12.5438
▁halfway	-12.5438
word	-12.5438
▁unambiguously	-12.5444
circ	-12.5446
▁troubled	-12.5452
▁entitlement	-12.5455
▁symptoms	-12.5459
▁presume	-12.5476
ermanent	-12.548
▁Hezbollah	-12.548
▁Major	-12.548
▁bovine	-12.548
▁homophobia	-12.548
▁Meeting	-12.548
▁pause	-12.548
▁bury	-12.548
▁Army	-12.5481
▁beaten	-12.5481
▁exhibition	-12.5482
▁franc	-12.5483
▁speeded	-12.5484
▁Waste	-12.5485
▁inserted	-12.5489
ij	-12.5495
▁conversations	-12.5497
▁redefine	-12.5498
▁accords	-12.5507
▁tendering	-12.5508
harm	-12.5519
disciplinary	-12.552
▁relocate	-12.5524
▁shoes	-12.5526
▁Papayannakis	-12.5528
▁cyanide	-12.5528
▁geography	-12.5528
▁pivotal	-12.5528
▁ruthless	-12.5528
▁suffrage	-12.5528
▁triangle	-12.5528
▁vicinity	-12.5528
▁foolish	-12.5529
▁polar	-12.5529
▁democratization	-12.5529
aid	-12.5533
▁centred	-12.5534
▁dismantled	-12.5534
▁colours	-12.5537
▁provinces	-12.5539
▁spared	-12.554
▁twofold	-12.5543
▁broadening	-12.5547
▁Fran	-12.5548
rel	-12.555
▁tree	-12.5552
ray	-12.5552
▁declined	-12.5553
bla	-12.5556
▁Mari	-12.5557
▁Estonian	-12.5561
▁phones	-12.5561
▁goat	-12.5564
▁imagined	-12.5565
▁militari	-12.5572
▁Monterrey	-12.5576
▁admirable	-12.5576
▁analytical	-12.5576
▁influencing	-12.5576
▁measurable	-12.5576
▁Hitler	-12.5576
▁MAI	-12.5576
▁behaving	-12.5576
▁relentless	-12.5576
▁preceding	-12.5577
▁blacklist	-12.5577
uality	-12.5577
▁federalism	-12.558
▁convened	-12.558
▁recognizes	-12.5584
▁complained	-12.5595
▁treats	-12.5596
▁hectare	-12.56
▁percentages	-12.5608
German	-12.5617
institutional	-12.562
▁Sarajevo	-12.5625
▁Thomas	-12.5625
▁VOTE	-12.5625
▁counsel	-12.5625
▁diabetes	-12.5625
▁immoral	-12.5625
▁inconvenience	-12.5625
▁questionnaire	-12.5625
▁resounding	-12.5625
▁scapegoat	-12.5625
▁ITER	-12.5625
▁incitement	-12.5626
▁Less	-12.563
▁professionalism	-12.5637
reading	-12.5638
▁liberals	-12.5639
udi	-12.564
industrial	-12.5655
▁weighting	-12.5664
ologist	-12.5665
energy	-12.5666
▁resorting	-12.5672
▁lunch	-12.5673
▁Diamandouros	-12.5673
▁Ottawa	-12.5673
▁eighteen	-12.5673
▁gauge	-12.5673
▁inconsistency	-12.5673
MDG	-12.5673
▁axis	-12.5673
▁pirate	-12.5673
▁Fabre	-12.5673
▁residential	-12.5674
▁cabinet	-12.5674
▁inherited	-12.5675
▁retraining	-12.5677
▁poet	-12.5678
union	-12.5678
kov	-12.5679
▁sine	-12.568
▁exporter	-12.5684
city	-12.5693
▁upgrade	-12.5695
▁motive	-12.5698
▁motorway	-12.5699
▁agent	-12.5704
▁Kh	-12.5707
▁pioneer	-12.5711
▁motivate	-12.5718
Aubrespy	-12.5722
▁appliances	-12.5722
▁equation	-12.5722
▁footwear	-12.5722
▁intensification	-12.5722
▁reiterating	-12.5722
▁renovation	-12.5722
▁Subcommittee	-12.5722
▁emigration	-12.5722
▁genes	-12.5722
▁omitted	-12.5722
▁sister	-12.5723
▁erect	-12.5723
▁Seven	-12.5724
▁Duma	-12.5725
▁harmonized	-12.5727
tier	-12.5727
▁compounds	-12.573
CAP	-12.5736
▁purchased	-12.5737
mut	-12.5746
▁stark	-12.5746
▁steering	-12.5747
▁embarking	-12.5748
▁succession	-12.5751
kar	-12.5756
▁assign	-12.576
▁divert	-12.5765
▁disseminate	-12.5767
▁Campania	-12.5771
▁depressing	-12.5771
▁legislating	-12.5771
▁precision	-12.5771
▁prudence	-12.5771
▁spoil	-12.5771
▁terribly	-12.5771
▁EFD	-12.5771
▁atypical	-12.5771
▁Though	-12.5771
▁Weiler	-12.5771
▁casualties	-12.5771
▁doomed	-12.5771
▁pump	-12.5772
▁obsession	-12.5772
▁Still	-12.5772
▁dismissal	-12.5774
ific	-12.5779
▁disorders	-12.5781
▁resigned	-12.5783
▁supermarkets	-12.5783
fact	-12.5786
▁bureaucrats	-12.5792
▁Kof	-12.5793
▁tense	-12.5794
▁Membership	-12.5795
▁outlaw	-12.5798
▁fortress	-12.5801
▁multicultural	-12.5801
▁Open	-12.5811
▁Account	-12.582
▁Cresson	-12.582
▁Crime	-12.582
▁Garriga	-12.582
▁Macao	-12.582
▁Purvis	-12.582
▁URBAN	-12.582
▁humiliation	-12.582
▁literature	-12.582
▁paralysis	-12.582
▁populism	-12.582
▁reprehensible	-12.582
▁IAEA	-12.582
▁Large	-12.582
▁polite	-12.582
▁elapsed	-12.5821
▁slowdown	-12.5821
▁bright	-12.5821
▁unitary	-12.5822
▁Terr	-12.5823
▁punishable	-12.5823
FP	-12.5831
▁sufferers	-12.5834
▁posting	-12.5838
▁regulator	-12.5844
▁holder	-12.5845
▁prerogative	-12.5846
▁watched	-12.5846
▁entitlements	-12.5847
▁recovering	-12.5858
▁fascist	-12.5859
▁shifted	-12.5863
derman	-12.5863
▁enlighten	-12.5863
▁Current	-12.5865
▁Bru	-12.5868
▁cyber	-12.587
▁Bonde	-12.587
▁Fukushima	-12.587
▁accustomed	-12.587
▁apportion	-12.587
▁compatriot	-12.587
▁fertiliser	-12.587
▁vodka	-12.587
▁drown	-12.587
▁Moura	-12.587
▁program	-12.587
you	-12.5873
wash	-12.5874
▁regretted	-12.5877
▁avoidance	-12.588
▁defender	-12.5886
▁unites	-12.5896
▁bird	-12.5896
▁punishing	-12.5898
ended	-12.5899
terior	-12.5903
▁insufficiently	-12.5906
nuclear	-12.5915
culture	-12.5915
▁deteriorate	-12.5915
▁compromising	-12.592
▁glaring	-12.592
▁illiteracy	-12.592
▁magazine	-12.592
▁tractors	-12.592
▁scant	-12.592
Scott	-12.592
▁Steel	-12.592
▁denies	-12.5921
▁cultivated	-12.5922
▁Togo	-12.5927
▁scenes	-12.5927
▁hat	-12.5933
▁complications	-12.5933
▁storms	-12.5937
eng	-12.5946
▁governor	-12.5946
▁retreat	-12.5961
▁testify	-12.5962
Palestinian	-12.5965
eastern	-12.5965
citizens	-12.5965
▁emotions	-12.5966
▁Borrell	-12.597
▁devastation	-12.597
▁shark	-12.597
▁unanswered	-12.597
▁Casaca	-12.597
▁Confederation	-12.597
▁interception	-12.5971
▁repayment	-12.5974
▁bogg	-12.5974
▁discusses	-12.598
usz	-12.5984
cle	-12.5993
uous	-12.5993
▁withstand	-12.5996
▁suits	-12.5998
▁Moldovan	-12.6
▁employs	-12.6
▁suspicions	-12.6007
condition	-12.6016
▁convene	-12.6016
sensitive	-12.6016
fresh	-12.6016
▁Honduras	-12.602
▁arsenal	-12.602
▁relinquish	-12.602
▁fauna	-12.602
▁herald	-12.602
▁paternity	-12.602
▁invented	-12.602
▁distinctive	-12.6021
▁Developing	-12.6022
▁boxes	-12.6024
▁diminished	-12.603
▁borrowing	-12.6034
▁hindered	-12.6041
▁complainant	-12.6041
▁culturally	-12.6056
▁inject	-12.6057
ground	-12.6064
▁Discussion	-12.607
▁Eurovignette	-12.607
▁destabilising	-12.607
▁guerrilla	-12.607
▁hostilities	-12.607
▁midnight	-12.607
▁underlining	-12.607
▁Local	-12.6071
▁wit	-12.6071
▁Explanations	-12.6071
▁tissues	-12.6072
▁fastest	-12.6075
▁elementary	-12.6077
SEC	-12.6083
page	-12.6085
It	-12.609
ida	-12.6095
▁delegate	-12.6095
▁intensifying	-12.61
▁chairing	-12.6118
health	-12.6118
▁Beyond	-12.6121
▁lucrative	-12.6121
▁ministries	-12.6121
▁outweigh	-12.6121
▁prevalent	-12.6121
▁Emissions	-12.6121
▁Brown	-12.6121
▁loyalty	-12.6122
▁nut	-12.6122
▁feedback	-12.6122
▁madness	-12.6123
▁Pol	-12.6128
▁discovery	-12.6128
▁Mark	-12.6129
▁Mayor	-12.6134
legal	-12.6135
▁Tha	-12.6142
ete	-12.6144
▁deadly	-12.615
▁amounted	-12.6151
▁carers	-12.6155
lex	-12.6156
eye	-12.6158
▁maps	-12.6161
▁inefficiency	-12.6161
▁anchor	-12.6166
▁yields	-12.6169
▁pin	-12.6169
escu	-12.6171
▁Echelon	-12.6172
▁Liechtenstein	-12.6172
▁NUTS	-12.6172
▁inadequacy	-12.6172
▁jeopardy	-12.6172
▁swept	-12.6172
▁tandem	-12.6172
▁Ceders	-12.6172
▁hint	-12.6172
▁unwillingness	-12.6173
▁Andean	-12.6175
▁theatre	-12.6176
▁obstruction	-12.6178
▁Euromed	-12.6181
▁businessmen	-12.6181
ette	-12.6181
legislative	-12.6183
bel	-12.6183
▁rank	-12.6183
eur	-12.6186
▁foc	-12.6186
▁underdeveloped	-12.6187
▁mainland	-12.6188
cap	-12.6196
▁Bosnian	-12.6197
ois	-12.6197
▁ideally	-12.6205
▁tunnels	-12.6206
mus	-12.6209
▁Accord	-12.6213
▁slots	-12.6214
Explanation	-12.6223
▁pluralist	-12.6223
▁abducted	-12.6223
▁anticipating	-12.6223
▁conserve	-12.6223
▁hungry	-12.6223
▁judging	-12.6223
▁nitrogen	-12.6223
▁sacred	-12.6223
▁segregation	-12.6223
▁unbridled	-12.6223
▁unhealthy	-12.6223
▁knee	-12.6223
▁roof	-12.6223
▁smokers	-12.6224
▁remedied	-12.6227
▁frightening	-12.6227
cop	-12.6244
▁Han	-12.6249
▁Product	-12.6252
▁Hor	-12.6257
▁contributor	-12.6259
▁lessen	-12.6261
▁distinguishing	-12.6264
▁plug	-12.6264
▁instruct	-12.6266
▁Karl	-12.6273
constitution	-12.6275
▁Bjerregaard	-12.6275
▁Bologna	-12.6275
▁Figueiredo	-12.6275
▁Schmitt	-12.6275
▁Troika	-12.6275
▁buried	-12.6275
▁crazy	-12.6275
▁pragmatism	-12.6275
▁crossroads	-12.6275
▁inventory	-12.6275
▁exponential	-12.6275
▁extinction	-12.6275
▁Miert	-12.6275
▁periodic	-12.6276
▁fence	-12.6277
Co	-12.6286
eviating	-12.6291
▁portal	-12.6298
path	-12.6298
elect	-12.6313
▁lapses	-12.6315
pur	-12.6323
ncreased	-12.6326
State	-12.6326
▁spontaneous	-12.6327
▁NAFO	-12.6327
▁Pursu	-12.6327
▁encroach	-12.6327
▁thwart	-12.6327
▁uncover	-12.6327
▁Instance	-12.6327
▁density	-12.6327
▁verge	-12.6327
version	-12.6327
fits	-12.6327
▁Export	-12.6327
▁mountainous	-12.6328
▁summon	-12.6331
▁reimbursed	-12.6331
▁streamlined	-12.6331
▁telecoms	-12.6335
▁Kov	-12.634
▁selecting	-12.6346
▁dragg	-12.6359
▁hindering	-12.6361
lvarez	-12.6379
▁Curtain	-12.6379
▁EAGGF	-12.6379
▁GNI	-12.6379
▁Pinochet	-12.6379
▁cessation	-12.6379
▁fodder	-12.6379
▁insolvency	-12.6379
▁misunderstood	-12.6379
▁sanitation	-12.6379
▁unjustifiable	-12.6379
origin	-12.6379
▁Kiev	-12.638
▁pessimistic	-12.6382
African	-12.6382
▁criticized	-12.6382
▁trademark	-12.6385
▁advancement	-12.6394
▁loved	-12.6395
▁diminishing	-12.6395
▁Coal	-12.6396
▁feat	-12.6398
▁planes	-12.6398
▁modernised	-12.6399
▁proteins	-12.6402
CE	-12.6403
▁appealed	-12.6404
▁preparedness	-12.6406
▁biofuel	-12.641
▁Ros	-12.6413
▁prosper	-12.643
▁Frankfurt	-12.6431
▁Srebrenica	-12.6431
▁separatist	-12.6431
▁starving	-12.6431
▁testimony	-12.6431
▁turmoil	-12.6431
▁utiliz	-12.6431
▁void	-12.6431
▁Important	-12.6431
▁Eight	-12.6433
rei	-12.6436
▁cooling	-12.6441
▁crossed	-12.6449
▁egg	-12.6452
▁republics	-12.6461
mplementing	-12.6462
▁oppress	-12.6476
▁abstentions	-12.6478
▁tailor	-12.6478
▁print	-12.648
▁indebted	-12.6483
▁Enterprise	-12.6484
▁Pronk	-12.6484
▁Think	-12.6484
▁conscientious	-12.6484
▁scanners	-12.6484
system	-12.6485
compulsory	-12.6485
▁aeroplanes	-12.6485
▁Broad	-12.6486
▁potatoes	-12.6486
rri	-12.6486
▁Galician	-12.6497
fly	-12.6502
▁agro	-12.6506
▁fundamentalists	-12.6514
▁picked	-12.6516
▁Serb	-12.6516
▁Refugee	-12.6516
▁tanker	-12.6516
▁loophole	-12.6516
▁planting	-12.6518
▁Statements	-12.6519
▁Mc	-12.6522
▁hasty	-12.6531
▁Immunities	-12.6537
▁Passenger	-12.6537
▁Science	-12.6537
▁hindrance	-12.6537
▁satisfies	-12.6537
▁sensitivities	-12.6537
▁beauty	-12.6537
▁partisan	-12.6537
▁purse	-12.6537
▁omissions	-12.6537
▁fever	-12.6538
▁recycled	-12.6539
▁volunteering	-12.6543
▁lucky	-12.6544
gin	-12.6544
▁explored	-12.6547
▁kid	-12.6552
▁reopening	-12.6554
▁escaped	-12.6554
▁distressing	-12.6557
▁endangering	-12.6562
▁Panel	-12.6569
▁hazard	-12.6569
▁maxim	-12.6571
imbabwean	-12.6574
▁cartels	-12.6586
▁Specific	-12.659
▁Ferreira	-12.659
▁Schwaiger	-12.659
▁arbitration	-12.659
▁despicable	-12.659
▁inferior	-12.659
▁multiply	-12.659
▁oxide	-12.659
▁parcel	-12.659
▁preclude	-12.659
▁suspicious	-12.659
▁guess	-12.659
versus	-12.659
▁Blak	-12.659
▁shout	-12.659
▁dogmatic	-12.659
▁interregional	-12.6591
creation	-12.6592
critical	-12.6592
▁possesses	-12.6595
▁announcements	-12.6595
▁catastrophes	-12.6595
come	-12.662
▁placement	-12.6622
▁pollute	-12.6623
▁viewpoints	-12.6624
▁headline	-12.6626
▁minerals	-12.6631
▁epidemics	-12.6634
▁Migu	-12.6643
▁intermodal	-12.6643
embracing	-12.6643
▁Catania	-12.6643
▁Companies	-12.6643
▁EPLP	-12.6643
▁Eurlings	-12.6643
▁accru	-12.6643
▁comparing	-12.6643
▁hostility	-12.6643
▁indisputable	-12.6643
▁philosophical	-12.6643
▁swallow	-12.6643
▁Keyser	-12.6643
▁heaven	-12.6643
▁sample	-12.6643
▁Chief	-12.6643
▁gentleman	-12.6643
▁practitioners	-12.6643
▁deposits	-12.6645
▁justifying	-12.6645
▁repress	-12.6646
attached	-12.6646
▁theft	-12.6647
▁terminate	-12.665
▁handicaps	-12.6651
rling	-12.6651
▁worsen	-12.6653
▁lightly	-12.6654
▁overload	-12.6654
▁Cambodian	-12.6658
ella	-12.6658
▁correctness	-12.666
▁dictates	-12.6661
▁resisted	-12.6664
▁overwhelmingly	-12.6664
▁assumptions	-12.6664
▁infections	-12.6665
▁COP	-12.6665
▁concealed	-12.6669
represented	-12.668
liba	-12.6687
▁commended	-12.6692
▁shake	-12.6695
financed	-12.6697
▁accompli	-12.6697
▁Schnellhardt	-12.6697
▁Thousands	-12.6697
▁circulating	-12.6697
▁flexibly	-12.6697
▁phthalates	-12.6697
▁probability	-12.6697
▁misinterpret	-12.6697
▁Coast	-12.6698
▁Parish	-12.67
▁interconnected	-12.67
▁eagerly	-12.6703
▁Ste	-12.6704
▁banner	-12.6705
▁weakens	-12.6705
Toward	-12.6715
codified	-12.6721
▁Par	-12.6721
▁networking	-12.6728
Con	-12.6737
▁succeeding	-12.6742
talling	-12.6746
▁Somali	-12.6747
MA	-12.675
▁crowd	-12.6751
▁Cabrol	-12.6751
▁Muscardini	-12.6751
▁Scheme	-12.6751
▁Spaniard	-12.6751
▁Tehran	-12.6751
▁arbitrarily	-12.6751
▁colonies	-12.6751
▁cynicism	-12.6751
▁thrive	-12.6751
▁Illegal	-12.6751
▁IRA	-12.6751
▁James	-12.6751
▁spotlight	-12.6751
▁therapy	-12.6751
▁imperialism	-12.6752
other	-12.6752
▁lady	-12.6752
▁penalising	-12.6752
▁Rack	-12.6754
paragraph	-12.6755
enterprises	-12.6755
▁creditors	-12.6757
▁classify	-12.6766
▁weighing	-12.6768
labelling	-12.6768
▁loading	-12.677
aj	-12.677
▁Chi	-12.6771
▁dated	-12.6778
▁conversation	-12.6786
▁shipyard	-12.6787
▁harmless	-12.6792
▁accus	-12.6794
▁ensu	-12.6797
functioning	-12.6798
▁cooperatives	-12.6805
▁Cameroon	-12.6806
▁Oreja	-12.6806
▁PKK	-12.6806
▁Stevenson	-12.6806
▁Taoiseach	-12.6806
▁apartheid	-12.6806
▁atmospheric	-12.6806
▁humiliating	-12.6806
▁memories	-12.6806
▁subsidising	-12.6806
▁volatile	-12.6806
▁pseudo	-12.6806
▁Plus	-12.6806
▁demon	-12.6806
▁quorum	-12.6806
▁Campos	-12.6806
▁manipulated	-12.6808
▁sadness	-12.6811
▁negat	-12.6813
▁arts	-12.6813
▁blatantly	-12.6815
▁forged	-12.6815
▁rationalise	-12.6817
▁eighth	-12.6824
▁scar	-12.6838
▁reconstruct	-12.6839
IN	-12.684
▁device	-12.6842
De	-12.6842
▁economists	-12.6845
▁cool	-12.6859
▁Building	-12.686
▁Catalonia	-12.686
▁Michael	-12.686
▁helicopter	-12.686
▁receptive	-12.686
▁tachograph	-12.686
▁twentieth	-12.686
▁converge	-12.686
▁scarcity	-12.686
▁expel	-12.686
▁prudential	-12.6861
colonial	-12.6865
▁pipe	-12.6866
ception	-12.6868
▁containers	-12.687
▁Tra	-12.6873
▁scare	-12.6874
jer	-12.6875
▁needless	-12.6876
DR	-12.688
▁EPA	-12.6889
plan	-12.6891
Le	-12.6891
avi	-12.6892
▁missile	-12.6894
mann	-12.6895
▁casual	-12.6915
▁Establish	-12.6915
Laughter	-12.6915
▁Holocaust	-12.6915
▁Securities	-12.6915
▁Tamil	-12.6915
▁Vojvodina	-12.6915
▁addicts	-12.6915
▁leeway	-12.6915
▁supervising	-12.6915
▁Papua	-12.6915
▁paramilitary	-12.6915
▁refute	-12.6915
▁locked	-12.6915
▁barrel	-12.6915
▁Vietnamese	-12.6915
▁Leyla	-12.6916
▁petty	-12.6916
▁unqualified	-12.6916
▁immune	-12.6916
▁monk	-12.6916
▁plate	-12.6917
▁Kla	-12.6918
Lisbon	-12.6921
▁interruption	-12.6921
peace	-12.6921
▁affirmation	-12.6925
▁bankers	-12.6927
▁enriched	-12.6928
SF	-12.6928
force	-12.693
▁centralisation	-12.6933
that	-12.6934
▁spin	-12.6953
▁portfolios	-12.6954
person	-12.696
play	-12.6963
▁flout	-12.6964
▁dispense	-12.697
egardless	-12.697
▁Considering	-12.697
▁Improving	-12.697
▁Migration	-12.697
▁Nicola	-12.697
▁Souchet	-12.697
▁anonymous	-12.697
▁erroneous	-12.697
▁reckon	-12.697
▁tyranny	-12.697
▁collateral	-12.697
▁carrot	-12.6971
▁redirect	-12.6972
AN	-12.6972
▁commenting	-12.6973
▁chip	-12.6975
group	-12.6977
▁attentively	-12.6977
piece	-12.6977
sponsored	-12.6979
▁Finn	-12.6981
design	-12.6986
▁horrors	-12.6989
roll	-12.7005
▁complemented	-12.7012
▁nitrates	-12.7012
site	-12.7013
▁uniformly	-12.7022
▁install	-12.7024
▁reassess	-12.7025
▁Improvement	-12.7026
▁bloodshed	-12.7026
▁medication	-12.7026
▁panacea	-12.7026
▁particulate	-12.7026
▁probable	-12.7026
▁stalemate	-12.7026
▁synonymous	-12.7026
▁compassion	-12.7026
▁infinite	-12.7026
▁stemming	-12.7026
▁pleasing	-12.7026
▁cogeneration	-12.7028
▁Polo	-12.7029
▁debtor	-12.7029
▁noticeable	-12.7033
▁materialise	-12.7035
▁optimise	-12.7052
▁usage	-12.7053
▁cheaply	-12.7054
▁supervisors	-12.7056
▁expire	-12.706
▁disappoint	-12.7063
▁brake	-12.7064
▁corridor	-12.7064
▁disregarding	-12.7075
structuring	-12.708
▁Earlier	-12.7082
▁Everybody	-12.7082
▁Morgantini	-12.7082
▁engender	-12.7082
▁fascism	-12.7082
▁frequencies	-12.7082
▁implied	-12.7082
▁mitigation	-12.7082
▁unbelievable	-12.7082
▁Veld	-12.7082
▁paradigm	-12.7082
▁proverb	-12.7082
▁predictability	-12.7082
▁patentability	-12.7084
▁Horn	-12.7085
▁engineers	-12.7085
▁Near	-12.7086
management	-12.7089
▁Reformist	-12.7093
▁defenceless	-12.7093
▁respectable	-12.7101
▁resemble	-12.7102
▁guards	-12.7104
▁alarmed	-12.7104
▁fighters	-12.7105
ACP	-12.7113
ilitary	-12.7121
▁girl	-12.7121
▁bombings	-12.7125
▁farce	-12.7129
▁Effort	-12.7138
▁Miranda	-12.7138
▁Seychelles	-12.7138
▁acceleration	-12.7138
▁disseminating	-12.7138
▁museum	-12.7138
▁prioritising	-12.7138
▁prominence	-12.7138
▁Plooij	-12.7138
▁easing	-12.7138
▁exacerbating	-12.7138
▁Wolf	-12.7138
▁angry	-12.7138
▁Arias	-12.7138
▁Sharia	-12.7138
▁DNA	-12.7138
▁Saint	-12.7139
▁eroded	-12.7141
▁cook	-12.7141
▁brutality	-12.7142
neath	-12.7144
good	-12.7148
▁combatting	-12.7149
▁reuse	-12.7151
contract	-12.7152
▁champions	-12.7155
lateral	-12.7157
▁rewards	-12.7158
gui	-12.7164
▁avenues	-12.7172
▁Languages	-12.7174
SS	-12.7174
▁Border	-12.7178
▁Kok	-12.718
▁Mass	-12.718
half	-12.7184
▁Ob	-12.7189
▁Banotti	-12.7194
▁SLIM	-12.7194
▁Vinci	-12.7194
▁comparability	-12.7194
▁equivalence	-12.7194
▁inaccurate	-12.7194
▁marvellous	-12.7194
▁ombudsman	-12.7194
▁perseverance	-12.7194
▁punitive	-12.7194
▁tenacity	-12.7194
▁flora	-12.7194
▁sparsely	-12.7194
orientated	-12.7195
▁advertisements	-12.7195
▁Christ	-12.7195
▁Return	-12.7195
▁restrain	-12.7195
▁Farage	-12.7196
▁blanket	-12.7196
▁ETS	-12.7196
▁fitted	-12.7197
▁dogs	-12.7198
▁Jim	-12.72
▁Che	-12.7203
standard	-12.7203
▁paved	-12.7207
▁sinking	-12.7208
NTE	-12.7209
▁workload	-12.7214
▁renewing	-12.722
▁districts	-12.7229
▁bath	-12.7236
▁resistant	-12.7237
▁multilingual	-12.7251
▁MAGP	-12.7251
▁consensual	-12.7251
▁depopulation	-12.7251
Ancona	-12.7251
▁Anything	-12.7251
aeda	-12.7251
▁deviate	-12.7251
▁aroused	-12.7255
▁rationalisation	-12.7255
▁unionists	-12.7257
▁.–	-12.7257
▁installed	-12.7258
nation	-12.7258
president	-12.7261
▁loudly	-12.7265
ovi	-12.7268
▁hydro	-12.7273
));	-12.7294
▁tin	-12.7294
▁CMO	-12.7308
▁Kremlin	-12.7308
▁Modern	-12.7308
▁Studies	-12.7308
▁discern	-12.7308
▁intimate	-12.7308
▁manpower	-12.7309
▁Fern	-12.7309
▁morality	-12.7319
label	-12.7319
What	-12.7319
▁summarised	-12.7319
▁absorbed	-12.7323
▁immensely	-12.7327
▁Products	-12.7333
▁allay	-12.7338
▁Coming	-12.7339
▁sustaining	-12.7342
▁Orb	-12.7354
▁coexist	-12.7358
▁Additional	-12.7361
▁interact	-12.7365
▁Angelilli	-12.7366
▁Tobacco	-12.7366
▁ambiguities	-12.7366
▁carriage	-12.7366
▁exodus	-12.7366
▁hurricane	-12.7366
▁literacy	-12.7366
▁practising	-12.7366
▁recurring	-12.7366
▁reminiscent	-12.7366
▁steal	-12.7366
▁Radio	-12.7366
▁remarkably	-12.7367
▁kilometre	-12.7368
▁shaken	-12.7368
▁uniting	-12.7369
▁evolved	-12.7373
▁universality	-12.7377
including	-12.7377
cutting	-12.7378
▁lump	-12.7384
omposition	-12.7388
organised	-12.739
sexual	-12.7392
▁operative	-12.7396
▁geo	-12.7397
▁insulting	-12.7399
▁tap	-12.7401
▁negotiator	-12.7408
dro	-12.7412
▁Learning	-12.7419
▁Clear	-12.7419
▁overthrow	-12.7424
▁Essentially	-12.7424
▁Legislation	-12.7424
▁Rapid	-12.7424
▁Tillich	-12.7424
▁Torres	-12.7424
▁cloned	-12.7424
▁fascinating	-12.7424
▁intermediary	-12.7424
▁spade	-12.7424
▁tiger	-12.7424
▁Naval	-12.7424
▁Never	-12.7425
shod	-12.7426
▁relaxed	-12.7435
▁bush	-12.7435
▁safest	-12.7442
▁halted	-12.7456
▁afflict	-12.7476
▁EMAS	-12.7482
▁Renewable	-12.7482
▁archive	-12.7482
▁certified	-12.7482
▁mockery	-12.7482
▁monster	-12.7482
▁responsive	-12.7482
▁dawn	-12.7482
▁destabilisation	-12.7482
▁handicapped	-12.7482
▁Smet	-12.7482
▁upwards	-12.7482
▁electors	-12.7483
▁relaxation	-12.7485
▁wounded	-12.7487
▁span	-12.7489
fra	-12.7492
▁Unit	-12.7498
▁rearing	-12.7498
face	-12.7503
▁converting	-12.7506
invest	-12.7514
▁remarked	-12.7521
▁supermarket	-12.7526
ST	-12.7529
▁spark	-12.7534
▁duplicate	-12.7534
teering	-12.7538
aki	-12.754
▁Aelvoet	-12.754
▁MacCormick	-12.754
▁Spinelli	-12.754
▁appalled	-12.754
▁culprit	-12.754
▁durable	-12.754
▁kidnapped	-12.754
▁nurture	-12.754
▁proclamation	-12.754
▁separating	-12.754
▁fervent	-12.754
▁withholding	-12.7541
▁Neves	-12.7541
▁chairmanship	-12.7542
▁devalue	-12.7542
▁overarching	-12.7542
▁skies	-12.7543
▁supervised	-12.7547
▁cable	-12.7548
▁unconditionally	-12.7552
▁till	-12.7563
▁Sz	-12.7564
▁entailed	-12.7572
▁broadcasts	-12.7584
▁accidental	-12.759
emptive	-12.7594
▁bureau	-12.7599
▁Kirkhope	-12.7599
▁Medicines	-12.7599
▁Radwan	-12.7599
▁exaggeration	-12.7599
▁hurry	-12.7599
▁unwise	-12.7599
▁warfare	-12.7599
▁glance	-12.7599
▁psycho	-12.7599
▁Richard	-12.7599
▁depict	-12.7599
▁nerve	-12.7599
▁abusive	-12.76
▁Proper	-12.76
lving	-12.7616
▁metal	-12.7618
much	-12.762
▁neglecting	-12.7628
▁infring	-12.7655
▁Guard	-12.7656
ordinate	-12.7657
stricken	-12.7658
▁McNally	-12.7658
▁Polledo	-12.7658
▁adhering	-12.7658
▁allergies	-12.7658
▁denouncing	-12.7658
▁educating	-12.7658
▁electromagneti	-12.7658
▁frustrating	-12.7658
▁gloss	-12.7658
▁innocence	-12.7658
▁mechanical	-12.7658
▁susceptible	-12.7658
▁Trading	-12.7658
▁apology	-12.7658
▁omit	-12.7659
▁interdependent	-12.7659
ampton	-12.7659
▁Package	-12.7659
▁breadth	-12.766
▁Boel	-12.766
▁cheapest	-12.7662
[...]
