<pad>	0
<s>	0
</s>	0
<unk>	0
▁t	-0
▁i	-1
ou	-2
he	-3
▁w	-4
▁a	-5
▁y	-6
▁you	-7
re	-8
▁s	-9
▁to	-10
▁d	-11
ha	-12
in	-13
▁m	-14
on	-15
ve	-16
▁the	-17
▁c	-18
▁b	-19
▁l	-20
▁f	-21
an	-22
ed	-23
ing	-24
ll	-25
▁n	-26
hat	-27
▁he	-28
is	-29
▁g	-30
or	-31
▁ha	-32
▁p	-33
▁h	-34
▁is	-35
en	-36
▁do	-37
er	-38
▁th	-39
ow	-40
as	-41
▁tom	-42
▁we	-43
ot	-44
▁it	-45
ar	-46
▁that	-47
▁o	-48
▁be	-49
me	-50
ke	-51
id	-52
at	-53
▁me	-54
it	-55
st	-56
ay	-57
le	-58
▁e	-59
▁don	-60
ver	-61
▁in	-62
▁this	-63
oo	-64
ld	-65
▁of	-66
et	-67
▁have	-68
▁li	-69
▁was	-70
▁an	-71
▁k	-72
▁are	-73
▁st	-74
▁re	-75
gh	-76
▁what	-77
▁my	-78
▁can	-79
▁u	-80
▁your	-81
▁on	-82
ant	-83
▁did	-84
ome	-85
ri	-86
es	-87
▁for	-88
▁want	-89
▁not	-90
▁ne	-91
ght	-92
▁kn	-93
se	-94
▁go	-95
ic	-96
ad	-97
very	-98
▁wh	-99
ch	-100
▁she	-101
▁know	-102
ould	-103
al	-104
▁like	-105
out	-106
ro	-107
ee	-108
ly	-109
▁they	-110
one	-111
all	-112
▁j	-113
▁all	-114
pp	-115
ust	-116
ink	-117
▁sh	-118
th	-119
ac	-120
im	-121
ill	-122
ook	-123
ake	-124
ent	-125
her	-126
▁at	-127
▁how	-128
ith	-129
▁su	-130
▁r	-131
▁with	-132
▁any	-133
▁no	-134
▁te	-135
▁think	-136
ry	-137
▁as	-138
ain	-139
ir	-140
nd	-141
▁here	-142
▁wor	-143
▁very	-144
ion	-145
▁ti	-146
ter	-147
▁whe	-148
▁his	-149
▁some	-150
▁co	-151
▁al	-152
▁get	-153
▁him	-154
ood	-155
ut	-156
thing	-157
▁so	-158
▁ab	-159
▁there	-160
▁need	-161
ea	-162
▁see	-163
ce	-164
un	-165
▁lo	-166
end	-167
▁were	-168
▁why	-169
▁didn	-170
red	-171
us	-172
▁sa	-173
ct	-174
ally	-175
▁let	-176
ur	-177
op	-178
▁up	-179
ind	-180
ore	-181
▁every	-182
ong	-183
ive	-184
▁us	-185
▁one	-186
▁out	-187
▁just	-188
▁look	-189
▁about	-190
ble	-191
▁has	-192
▁tr	-193
▁will	-194
han	-195
▁time	-196
▁happ	-197
▁good	-198
lp	-199
▁ca	-200
▁who	-201
▁ex	-202
▁pl	-203
▁help	-204
alk	-205
▁her	-206
ase	-207
ight	-208
ss	-209
▁mar	-210
mp	-211
▁going	-212
▁where	-213
ge	-214
▁had	-215
▁ple	-216
▁too	-217
day	-218
▁work	-219
▁should	-220
▁come	-221
▁sp	-222
ul	-223
▁really	-224
dy	-225
other	-226
ep	-227
▁please	-228
ast	-229
ist	-230
▁tell	-231
▁could	-232
il	-233
▁ri	-234
qu	-235
ate	-236
▁now	-237
ie	-238
ren	-239
▁does	-240
fe	-241
ought	-242
ack	-243
▁bo	-244
▁would	-245
▁ag	-246
▁got	-247
art	-248
ck	-249
▁pro	-250
▁am	-251
▁se	-252
▁de	-253
▁take	-254
ice	-255
▁en	-256
▁talk	-257
and	-258
ous	-259
riend	-260
▁ch	-261
am	-262
lf	-263
our	-264
▁and	-265
▁never	-266
▁mary	-267
▁le	-268
▁car	-269
▁qu	-270
▁love	-271
way	-272
▁read	-273
▁than	-274
▁make	-275
▁man	-276
▁home	-277
▁say	-278
bo	-279
▁right	-280
est	-281
▁wr	-282
▁con	-283
ish	-284
body	-285
▁by	-286
ra	-287
▁won	-288
lo	-289
eel	-290
ig	-291
▁friend	-292
▁feel	-293
▁mu	-294
▁jo	-295
▁ke	-296
ound	-297
▁if	-298
▁stu	-299
ree	-300
▁back	-301
▁bus	-302
▁mad	-303
▁ask	-304
ine	-305
row	-306
▁eat	-307
▁day	-308
▁ar	-309
▁been	-310
▁give	-311
ers	-312
▁book	-313
ite	-314
rom	-315
▁much	-316
▁something	-317
▁fe	-318
▁off	-319
▁mo	-320
▁lea	-321
if	-322
ame	-323
▁wat	-324
▁from	-325
▁must	-326
▁af	-327
▁thought	-328
mb	-329
▁int	-330
▁happen	-331
▁happy	-332
▁pre	-333
self	-334
ess	-335
▁dr	-336
▁more	-337
▁made	-338
▁may	-339
▁hear	-340
▁v	-341
▁sure	-342
ried	-343
ak	-344
▁again	-345
▁po	-346
▁long	-347
▁wa	-348
▁today	-349
▁when	-350
oney	-351
▁bel	-352
▁lot	-353
wn	-354
ather	-355
▁call	-356
▁stay	-357
▁bet	-358
▁money	-359
itt	-360
▁anything	-361
▁new	-362
▁isn	-363
ort	-364
▁un	-365
ation	-366
▁wait	-367
hed	-368
▁br	-369
▁exp	-370
ap	-371
▁try	-372
▁leave	-373
oom	-374
▁old	-375
uy	-376
▁still	-377
▁sm	-378
ool	-379
▁ad	-380
▁live	-381
▁play	-382
ieve	-383
ick	-384
ning	-385
▁care	-386
▁last	-387
ect	-388
ass	-389
▁told	-390
▁went	-391
▁und	-392
▁our	-393
iss	-394
ough	-395
▁them	-396
▁hand	-397
ide	-398
▁tru	-399
▁said	-400
▁doesn	-401
▁way	-402
▁doing	-403
▁believe	-404
eak	-405
ag	-406
▁dog	-407
pt	-408
▁stop	-409
▁har	-410
ft	-411
ouse	-412
▁better	-413
▁under	-414
ways	-415
▁room	-416
▁always	-417
▁speak	-418
▁well	-419
ress	-420
▁hur	-421
▁down	-422
▁job	-423
▁alone	-424
ure	-425
urn	-426
▁fa	-427
▁house	-428
ave	-429
able	-430
ts	-431
▁hop	-432
orrow	-433
▁night	-434
▁sw	-435
ty	-436
▁id	-437
▁thing	-438
ting	-439
▁bl	-440
rench	-441
ild	-442
▁drink	-443
▁french	-444
ving	-445
▁hard	-446
▁over	-447
▁gl	-448
▁la	-449
leep	-450
▁app	-451
▁hat	-452
▁chan	-453
▁keep	-454
▁op	-455
▁or	-456
▁busy	-457
hing	-458
▁pr	-459
mber	-460
▁ac	-461
▁everything	-462
ful	-463
▁comp	-464
▁seem	-465
▁left	-466
ise	-467
▁tw	-468
▁cl	-469
get	-470
▁hope	-471
ittle	-472
▁little	-473
▁sc	-474
iz	-475
▁fun	-476
ach	-477
ear	-478
ol	-479
ious	-480
▁find	-481
▁show	-482
reat	-483
▁sch	-484
▁these	-485
ved	-486
▁school	-487
blem	-488
▁saw	-489
▁problem	-490
▁dis	-491
▁tomorrow	-492
▁put	-493
ff	-494
▁door	-495
▁pe	-496
ted	-497
ied	-498
▁friends	-499
▁many	-500
▁sor	-501
▁only	-502
▁sorry	-503
▁wanted	-504
▁plan	-505
▁everyone	-506
▁done	-507
age	-508
▁cat	-509
▁start	-510
▁com	-511
ace	-512
▁buy	-513
▁name	-514
▁child	-515
▁ready	-516
▁nothing	-517
read	-518
▁wrong	-519
▁father	-520
▁ear	-521
▁underst	-522
sp	-523
▁enough	-524
▁fin	-525
ven	-526
▁tired	-527
▁che	-528
▁fi	-529
▁meet	-530
▁wasn	-531
ang	-532
ester	-533
▁gu	-534
▁anyone	-535
▁yester	-536
▁yesterday	-537
▁sleep	-538
▁turn	-539
▁pa	-540
om	-541
▁late	-542
▁understand	-543
ard	-544
ek	-545
ew	-546
▁clo	-547
▁open	-548
▁happened	-549
▁sur	-550
▁away	-551
▁idea	-552
ople	-553
▁people	-554
▁year	-555
▁bot	-556
▁gave	-557
▁gir	-558
▁yet	-559
ught	-560
▁dri	-561
▁imp	-562
act	-563
ated	-564
▁part	-565
▁asked	-566
rest	-567
▁aren	-568
der	-569
▁week	-570
▁watch	-571
▁bad	-572
▁big	-573
ten	-574
ised	-575
▁knew	-576
▁walk	-577
▁reme	-578
ies	-579
▁mind	-580
arn	-581
▁came	-582
ment	-583
▁two	-584
▁sho	-585
sw	-586
▁answ	-587
▁three	-588
▁lost	-589
ose	-590
fore	-591
▁before	-592
▁remember	-593
▁water	-594
xt	-595
▁kind	-596
ab	-597
raid	-598
▁afraid	-599
ready	-600
▁already	-601
ark	-602
estion	-603
▁question	-604
▁bed	-605
▁miss	-606
▁glad	-607
▁list	-608
▁other	-609
▁dec	-610
▁teac	-611
ston	-612
▁after	-613
▁fl	-614
▁fo	-615
▁ho	-616
▁ow	-617
▁ever	-618
▁mist	-619
▁cle	-620
▁mother	-621
▁boy	-622
gry	-623
ary	-624
oun	-625
ng	-626
▁but	-627
▁boston	-628
ict	-629
▁dif	-630
▁hurt	-631
▁str	-632
▁act	-633
▁use	-634
▁thank	-635
▁mean	-636
▁nice	-637
mo	-638
uck	-639
▁life	-640
oy	-641
ory	-642
▁being	-643
▁teacher	-644
ull	-645
▁run	-646
▁pain	-647
▁sing	-648
▁everybody	-649
▁both	-650
▁best	-651
▁next	-652
▁wish	-653
ile	-654
▁el	-655
▁seen	-656
te	-657
▁fam	-658
irst	-659
ence	-660
▁ru	-661
▁took	-662
▁heard	-663
▁inte	-664
ity	-665
▁sec	-666
ci	-667
ance	-668
▁des	-669
▁else	-670
▁acc	-671
▁found	-672
▁answer	-673
▁beg	-674
▁cold	-675
▁stud	-676
▁true	-677
be	-678
les	-679
▁rain	-680
os	-681
are	-682
▁into	-683
▁word	-684
▁often	-685
▁swim	-686
pr	-687
▁pay	-688
ily	-689
▁adv	-690
ue	-691
ner	-692
ream	-693
▁knows	-694
▁myself	-695
ult	-696
▁ph	-697
▁eas	-698
▁hate	-699
▁pret	-700
▁ro	-701
▁sha	-702
▁bought	-703
mer	-704
▁looking	-705
▁per	-706
ible	-707
reak	-708
▁wants	-709
▁interest	-710
▁yourself	-711
vor	-712
ared	-713
▁mistake	-714
▁brother	-715
▁same	-716
▁surpr	-717
▁someone	-718
▁eng	-719
▁min	-720
▁nobody	-721
▁gr	-722
more	-723
▁anymore	-724
med	-725
most	-726
▁ten	-727
▁study	-728
ister	-729
▁things	-730
ian	-731
ished	-732
▁used	-733
▁mat	-734
▁mon	-735
▁almost	-736
▁listen	-737
▁first	-738
▁trust	-739
joy	-740
▁mine	-741
▁supp	-742
▁looks	-743
▁girl	-744
▁likes	-745
night	-746
▁forg	-747
▁bro	-748
▁enjoy	-749
▁cont	-750
▁break	-751
▁haven	-752
▁kid	-753
▁even	-754
▁great	-755
lain	-756
▁learn	-757
▁drive	-758
cle	-759
oud	-760
▁win	-761
▁pers	-762
▁tried	-763
ute	-764
▁att	-765
▁sister	-766
lt	-767
ount	-768
▁inv	-769
▁train	-770
▁children	-771
hes	-772
side	-773
aut	-774
▁mor	-775
ret	-776
▁luck	-777
▁soon	-778
ced	-779
▁cha	-780
▁early	-781
▁ey	-782
▁cook	-783
▁felt	-784
▁beaut	-785
pped	-786
▁prom	-787
▁couldn	-788
▁getting	-789
▁married	-790
▁rec	-791
▁coming	-792
▁talking	-793
ote	-794
▁wind	-795
▁wonder	-796
▁sit	-797
▁rep	-798
▁those	-799
ize	-800
ond	-801
▁cho	-802
ich	-803
▁guy	-804
aking	-805
▁morning	-806
▁tonight	-807
ited	-808
zy	-809
ail	-810
ged	-811
igh	-812
▁sn	-813
iful	-814
▁lau	-815
ually	-816
▁bec	-817
▁expect	-818
oke	-819
▁young	-820
▁truth	-821
▁yours	-822
▁student	-823
ife	-824
▁bit	-825
▁person	-826
inner	-827
ctor	-828
▁aw	-829
▁ser	-830
▁sound	-831
▁anybody	-832
ffee	-833
llow	-834
▁war	-835
▁coffee	-836
▁sk	-837
▁key	-838
▁once	-839
▁fr	-840
▁books	-841
▁dress	-842
▁favor	-843
▁write	-844
▁beautiful	-845
▁met	-846
▁waiting	-847
used	-848
▁another	-849
▁forget	-850
▁without	-851
▁few	-852
▁place	-853
▁own	-854
▁doctor	-855
orm	-856
▁kill	-857
▁might	-858
▁dinner	-859
▁mov	-860
▁light	-861
▁pretty	-862
ket	-863
unch	-864
▁pol	-865
ured	-866
use	-867
▁around	-868
▁letter	-869
lish	-870
▁died	-871
▁easy	-872
▁party	-873
▁change	-874
um	-875
ons	-876
▁pri	-877
▁guess	-878
ip	-879
▁bor	-880
▁exc	-881
▁gone	-882
▁seems	-883
ny	-884
▁hun	-885
▁res	-886
anger	-887
de	-888
▁which	-889
ath	-890
ire	-891
▁safe	-892
gether	-893
▁close	-894
▁sl	-895
aught	-896
▁real	-897
▁working	-898
▁sat	-899
▁arri	-900
▁years	-901
fect	-902
gn	-903
ird	-904
▁wear	-905
▁together	-906
▁far	-907
▁sto	-908
▁pict	-909
▁picture	-910
▁exact	-911
▁stand	-912
▁food	-913
▁follow	-914
▁kiss	-915
ank	-916
▁pass	-917
cer	-918
▁ap	-919
▁their	-920
▁forgot	-921
ident	-922
▁fast	-923
▁family	-924
▁mus	-925
▁sick	-926
▁lunch	-927
▁paren	-928
▁phone	-929
▁bu	-930
▁dream	-931
▁looked	-932
here	-933
▁rel	-934
▁hour	-935
▁eyes	-936
▁parents	-937
▁story	-938
▁window	-939
▁started	-940
ater	-941
▁longer	-942
▁shouldn	-943
▁english	-944
▁surprised	-945
ign	-946
▁exactly	-947
ens	-948
ked	-949
▁worry	-950
cess	-951
▁fish	-952
▁careful	-953
▁hair	-954
▁quite	-955
▁finished	-956
▁tall	-957
ision	-958
pe	-959
▁cry	-960
feren	-961
▁rest	-962
▁music	-963
▁angry	-964
▁proud	-965
icy	-966
less	-967
▁days	-968
pid	-969
▁stupid	-970
int	-971
▁caught	-972
▁dead	-973
▁danger	-974
▁ok	-975
▁hurry	-976
cked	-977
king	-978
led	-979
▁cu	-980
▁box	-981
▁cra	-982
▁differen	-983
ense	-984
▁count	-985
▁agree	-986
▁while	-987
▁conf	-988
▁head	-989
▁wife	-990
cept	-991
ating	-992
▁game	-993
ssible	-994
▁free	-995
▁park	-996
log	-997
▁bicy	-998
▁fire	-999
▁such	-1000
▁hands	-1001
▁serious	-1002
wor	-1003
ouch	-1004
▁di	-1005
▁law	-1006
▁each	-1007
ax	-1008
ti	-1009
ors	-1010
ves	-1011
ient	-1012
▁suc	-1013
▁wouldn	-1014
▁meeting	-1015
▁reading	-1016
air	-1017
▁ob	-1018
fic	-1019
where	-1020
▁trying	-1021
▁playing	-1022
▁tri	-1023
▁lives	-1024
▁bring	-1025
▁wom	-1026
▁movie	-1027
▁bicycle	-1028
▁im	-1029
▁fig	-1030
olog	-1031
▁bab	-1032
▁appre	-1033
▁clean	-1034
▁funny	-1035
▁quick	-1036
▁perfect	-1037
▁tv	-1038
apan	-1039
▁son	-1040
▁broke	-1041
▁japan	-1042
▁appreci	-1043
▁clos	-1044
▁maybe	-1045
▁hungry	-1046
▁secret	-1047
▁cr	-1048
▁die	-1049
▁ref	-1050
▁quit	-1051
▁explain	-1052
▁end	-1053
▁allow	-1054
ken	-1055
▁ran	-1056
▁makes	-1057
▁advice	-1058
ided	-1059
▁add	-1060
▁rem	-1061
▁fell	-1062
▁called	-1063
▁lie	-1064
▁baby	-1065
▁resp	-1066
▁matter	-1067
▁tea	-1068
▁hold	-1069
▁crazy	-1070
▁small	-1071
▁choice	-1072
▁feeling	-1073
▁favorite	-1074
▁vis	-1075
▁full	-1076
ars	-1077
ese	-1078
▁song	-1079
▁table	-1080
▁weren	-1081
▁gre	-1082
▁daught	-1083
▁hot	-1084
▁sug	-1085
ouble	-1086
no	-1087
▁pen	-1088
ason	-1089
iness	-1090
▁himself	-1091
▁appreciate	-1092
ying	-1093
▁beer	-1094
▁cost	-1095
ized	-1096
▁laugh	-1097
▁diffic	-1098
▁turned	-1099
ph	-1100
unk	-1101
ia	-1102
ched	-1103
osed	-1104
▁born	-1105
▁near	-1106
▁arrived	-1107
gg	-1108
▁ago	-1109
▁rich	-1110
▁glass	-1111
▁lucky	-1112
▁import	-1113
▁hor	-1114
▁later	-1115
▁scared	-1116
▁strong	-1117
sc	-1118
▁ter	-1119
▁lose	-1120
▁needs	-1121
▁trave	-1122
▁promise	-1123
▁news	-1124
▁class	-1125
ert	-1126
erv	-1127
▁red	-1128
▁sol	-1129
▁kept	-1130
▁mess	-1131
▁snow	-1132
▁shoes	-1133
hind	-1134
▁check	-1135
▁behind	-1136
ud	-1137
als	-1138
iting	-1139
▁team	-1140
▁outside	-1141
▁difficult	-1142
▁interested	-1143
sent	-1144
▁wine	-1145
▁weather	-1146
bb	-1147
iet	-1148
▁nu	-1149
aper	-1150
▁clot	-1151
ressed	-1152
▁begin	-1153
▁office	-1154
app	-1155
lic	-1156
▁handle	-1157
▁important	-1158
set	-1159
▁disc	-1160
▁seat	-1161
▁older	-1162
▁works	-1163
▁chance	-1164
▁minute	-1165
ably	-1166
▁dep	-1167
▁kids	-1168
▁monday	-1169
▁trouble	-1170
man	-1171
▁fix	-1172
▁hit	-1173
▁quickly	-1174
▁decision	-1175
alth	-1176
▁liked	-1177
▁quiet	-1178
▁daughter	-1179
▁different	-1180
ions	-1181
▁swe	-1182
▁touch	-1183
▁apolog	-1184
▁disapp	-1185
▁cut	-1186
▁reg	-1187
▁town	-1188
▁supposed	-1189
▁bag	-1190
▁prep	-1191
▁girlf	-1192
▁girlfriend	-1193
eal	-1194
▁sent	-1195
▁suit	-1196
▁able	-1197
▁accept	-1198
▁police	-1199
▁decided	-1200
ps	-1201
▁air	-1202
▁ate	-1203
▁ris	-1204
ither	-1205
▁says	-1206
em	-1207
fer	-1208
ier	-1209
ilk	-1210
ange	-1211
▁cor	-1212
▁spe	-1213
▁paid	-1214
▁prob	-1215
▁reco	-1216
▁drunk	-1217
▁upset	-1218
▁thanks	-1219
▁interesting	-1220
ned	-1221
▁hu	-1222
▁age	-1223
▁smo	-1224
work	-1225
▁ins	-1226
▁high	-1227
▁joke	-1228
▁tree	-1229
▁comple	-1230
▁worried	-1231
ered	-1232
ject	-1233
ustr	-1234
▁missed	-1235
pping	-1236
▁dark	-1237
▁accident	-1238
▁business	-1239
▁probably	-1240
▁somebody	-1241
▁students	-1242
irty	-1243
▁inc	-1244
▁grow	-1245
ention	-1246
▁heart	-1247
▁invited	-1248
▁station	-1249
▁si	-1250
ming	-1251
▁dro	-1252
▁pat	-1253
▁shut	-1254
▁eating	-1255
▁needed	-1256
▁figured	-1257
ger	-1258
irt	-1259
ross	-1260
utes	-1261
▁deser	-1262
▁fight	-1263
▁number	-1264
▁questions	-1265
gest	-1266
time	-1267
▁clear	-1268
▁reason	-1269
▁clothes	-1270
ever	-1271
▁adm	-1272
▁cake	-1273
▁having	-1274
▁changed	-1275
▁possible	-1276
iled	-1277
ended	-1278
▁milk	-1279
▁sign	-1280
▁minutes	-1281
dd	-1282
ord	-1283
airs	-1284
fast	-1285
ison	-1286
▁point	-1287
▁taking	-1288
▁breakfast	-1289
ward	-1290
▁fas	-1291
▁flow	-1292
▁terri	-1293
▁travel	-1294
▁usually	-1295
ub	-1296
ired	-1297
mell	-1298
▁arm	-1299
▁month	-1300
▁smell	-1301
▁unt	-1302
▁loves	-1303
▁short	-1304
▁making	-1305
▁allowed	-1306
nis	-1307
▁tic	-1308
ience	-1309
▁move	-1310
▁pleas	-1311
▁health	-1312
▁moment	-1313
▁tennis	-1314
per	-1315
ump	-1316
aken	-1317
ital	-1318
▁coll	-1319
▁dogs	-1320
▁catch	-1321
▁smoke	-1322
▁concer	-1323
▁watching	-1324
ces	-1325
mmer	-1326
oose	-1327
▁ill	-1328
▁asleep	-1329
▁finish	-1330
▁helped	-1331
▁disappo	-1332
▁homework	-1333
az	-1334
not	-1335
▁ent	-1336
▁leg	-1337
▁coat	-1338
▁deal	-1339
▁hours	-1340
▁crying	-1341
▁stayed	-1342
ib	-1343
▁cup	-1344
▁sal	-1345
inted	-1346
▁warn	-1347
▁closed	-1348
▁against	-1349
▁stopped	-1350
▁emp	-1351
▁inf	-1352
▁rid	-1353
ition	-1354
▁then	-1355
▁worth	-1356
▁wearing	-1357
▁complete	-1358
oup	-1359
uter	-1360
▁gun	-1361
ately	-1362
▁five	-1363
▁become	-1364
▁computer	-1365
ual	-1366
uss	-1367
▁sad	-1368
▁sun	-1369
▁sense	-1370
▁complain	-1371
onest	-1372
▁boss	-1373
▁char	-1374
▁keys	-1375
▁lawy	-1376
▁most	-1377
▁slow	-1378
▁tast	-1379
vel	-1380
▁hid	-1381
▁black	-1382
▁rules	-1383
▁woman	-1384
ush	-1385
edic	-1386
▁thr	-1387
▁nerv	-1388
▁tele	-1389
▁wall	-1390
ustral	-1391
▁inter	-1392
▁smart	-1393
▁expens	-1394
▁killed	-1395
▁worked	-1396
▁austral	-1397
▁nervous	-1398
ike	-1399
▁six	-1400
▁comm	-1401
▁join	-1402
▁pick	-1403
▁trip	-1404
▁dance	-1405
▁country	-1406
▁smoking	-1407
▁ce	-1408
ince	-1409
rect	-1410
▁dra	-1411
▁world	-1412
▁prefer	-1413
▁second	-1414
we	-1415
▁art	-1416
▁ass	-1417
▁owe	-1418
▁through	-1419
▁thinking	-1420
▁flo	-1421
▁ret	-1422
▁set	-1423
▁bird	-1424
▁face	-1425
▁fine	-1426
▁broken	-1427
▁cannot	-1428
▁honest	-1429
▁living	-1430
▁recogn	-1431
▁talked	-1432
▁actually	-1433
▁australia	-1434
ru	-1435
sh	-1436
nday	-1437
ully	-1438
▁pie	-1439
▁fore	-1440
▁shot	-1441
▁began	-1442
▁until	-1443
▁words	-1444
▁sunday	-1445
▁running	-1446
fort	-1447
▁ign	-1448
▁men	-1449
▁guys	-1450
▁lying	-1451
▁teach	-1452
▁wrote	-1453
▁present	-1454
lock	-1455
▁dist	-1456
▁doll	-1457
▁fool	-1458
▁pian	-1459
▁risk	-1460
▁beach	-1461
▁saying	-1462
ans	-1463
▁hosp	-1464
▁comes	-1465
▁shirt	-1466
▁lawyer	-1467
▁brought	-1468
▁leaving	-1469
▁strange	-1470
fied	-1471
ighb	-1472
▁lar	-1473
iction	-1474
▁paper	-1475
▁neighb	-1476
▁rather	-1477
▁painting	-1478
▁sim	-1479
▁choose	-1480
▁correct	-1481
▁dressed	-1482
▁dangerous	-1483
noon	-1484
otel	-1485
reed	-1486
▁esc	-1487
▁ext	-1488
right	-1489
▁sell	-1490
▁warm	-1491
▁death	-1492
▁times	-1493
▁walked	-1494
▁suggest	-1495
▁afternoon	-1496
▁expensive	-1497
ceed	-1498
fully	-1499
▁blame	-1500
▁sounds	-1501
▁summer	-1502
br	-1503
sel	-1504
▁sle	-1505
▁tie	-1506
▁horse	-1507
▁hotel	-1508
▁belong	-1509
▁prison	-1510
▁finally	-1511
▁japanese	-1512
▁ra	-1513
▁bill	-1514
▁fair	-1515
▁alive	-1516
▁offer	-1517
▁hospital	-1518
▁swimming	-1519
reet	-1520
room	-1521
▁det	-1522
▁ele	-1523
▁fat	-1524
▁cour	-1525
▁opin	-1526
▁sold	-1527
▁wake	-1528
▁fault	-1529
▁success	-1530
▁drinking	-1531
▁sometime	-1532
eep	-1533
oub	-1534
ball	-1535
▁del	-1536
▁camer	-1537
▁chair	-1538
▁lived	-1539
ding	-1540
ical	-1541
▁star	-1542
uation	-1543
▁piano	-1544
▁river	-1545
▁visit	-1546
cessary	-1547
▁became	-1548
▁mistakes	-1549
▁prepared	-1550
du	-1551
ined	-1552
▁ren	-1553
▁conv	-1554
▁kissed	-1555
▁showed	-1556
▁sleeping	-1557
▁completely	-1558
bit	-1559
angu	-1560
▁dan	-1561
▁cons	-1562
▁liar	-1563
▁lock	-1564
▁prot	-1565
▁girls	-1566
▁langu	-1567
▁medic	-1568
▁since	-1569
▁weird	-1570
▁either	-1571
▁apologize	-1572
tle	-1573
ager	-1574
▁tax	-1575
itten	-1576
vious	-1577
ertain	-1578
selves	-1579
▁escap	-1580
▁seeing	-1581
▁speaks	-1582
gu	-1583
ghed	-1584
ower	-1585
▁col	-1586
▁pun	-1587
▁bath	-1588
▁cats	-1589
▁jeal	-1590
stairs	-1591
▁floor	-1592
▁waste	-1593
▁whose	-1594
▁camera	-1595
▁report	-1596
▁jealous	-1597
▁opinion	-1598
▁situation	-1599
aged	-1600
▁city	-1601
▁desk	-1602
▁test	-1603
itting	-1604
▁along	-1605
▁eaten	-1606
▁regret	-1607
▁succeed	-1608
▁speaking	-1609
▁disappointed	-1610
ative	-1611
▁card	-1612
▁telling	-1613
▁somewhere	-1614
io	-1615
▁vac	-1616
▁loved	-1617
▁relax	-1618
▁thirty	-1619
▁certain	-1620
▁shopping	-1621
▁necessary	-1622
eric	-1623
mbre	-1624
rist	-1625
▁cal	-1626
▁gif	-1627
▁half	-1628
▁lied	-1629
friend	-1630
mbrell	-1631
▁exper	-1632
▁fired	-1633
▁plane	-1634
▁store	-1635
▁street	-1636
▁diction	-1637
▁flowers	-1638
▁laughed	-1639
▁message	-1640
▁umbrell	-1641
▁wonderful	-1642
ont	-1643
▁eve	-1644
▁large	-1645
▁slept	-1646
▁white	-1647
▁americ	-1648
▁bother	-1649
▁christ	-1650
▁excuse	-1651
▁address	-1652
▁advised	-1653
▁evening	-1654
▁studying	-1655
▁dictionary	-1656
irth	-1657
▁save	-1658
▁breat	-1659
▁contro	-1660
▁others	-1661
▁enjoyed	-1662
▁learned	-1663
▁writing	-1664
▁sometimes	-1665
amp	-1666
ics	-1667
usb	-1668
road	-1669
▁dut	-1670
▁fall	-1671
▁gard	-1672
▁none	-1673
usband	-1674
▁birth	-1675
▁treat	-1676
▁ticket	-1677
▁problems	-1678
▁listening	-1679
eas	-1680
▁av	-1681
▁doub	-1682
▁road	-1683
▁canad	-1684
▁borrow	-1685
▁husband	-1686
▁happening	-1687
cy	-1688
ber	-1689
oto	-1690
ened	-1691
▁deep	-1692
▁draw	-1693
▁goes	-1694
▁hasn	-1695
▁surv	-1696
▁susp	-1697
▁cross	-1698
▁spoke	-1699
▁garden	-1700
▁remain	-1701
▁happens	-1702
▁patient	-1703
av	-1704
any	-1705
rew	-1706
▁ty	-1707
▁emb	-1708
▁mis	-1709
clock	-1710
▁apple	-1711
▁noise	-1712
▁stuff	-1713
▁return	-1714
▁protect	-1715
▁boyfriend	-1716
enty	-1717
head	-1718
▁vol	-1719
olved	-1720
phone	-1721
▁ride	-1722
▁temp	-1723
▁grand	-1724
▁agreed	-1725
▁shower	-1726
▁waited	-1727
▁umbrella	-1728
arr	-1729
ling	-1730
oned	-1731
▁sil	-1732
▁bank	-1733
▁date	-1734
▁duty	-1735
▁imag	-1736
▁send	-1737
▁empty	-1738
▁deserve	-1739
▁obvious	-1740
▁respect	-1741
▁weekend	-1742
port	-1743
▁abs	-1744
▁aff	-1745
▁hum	-1746
▁spo	-1747
dered	-1748
▁exam	-1749
▁foot	-1750
▁satis	-1751
▁control	-1752
▁followed	-1753
mas	-1754
cial	-1755
ract	-1756
▁den	-1757
▁egg	-1758
▁mom	-1759
▁rad	-1760
▁anim	-1761
▁boat	-1762
▁jump	-1763
▁whole	-1764
▁abroad	-1765
▁convin	-1766
▁glasses	-1767
▁terrible	-1768
▁christmas	-1769
ash	-1770
▁ir	-1771
▁vi	-1772
▁vo	-1773
cent	-1774
come	-1775
▁gra	-1776
▁clim	-1777
▁gets	-1778
▁order	-1779
▁plans	-1780
▁acting	-1781
▁inside	-1782
▁laughing	-1783
che	-1784
▁ann	-1785
▁drank	-1786
▁sweet	-1787
▁weight	-1788
▁discuss	-1789
▁surprise	-1790
▁impressed	-1791
dden	-1792
▁gen	-1793
ently	-1794
iling	-1795
▁meat	-1796
▁norm	-1797
▁color	-1798
▁sudden	-1799
▁cooking	-1800
▁convinced	-1801
so	-1802
ilt	-1803
iday	-1804
▁blue	-1805
▁line	-1806
▁lone	-1807
▁simp	-1808
▁wash	-1809
arrass	-1810
▁build	-1811
▁ideas	-1812
▁contin	-1813
▁opened	-1814
▁singing	-1815
▁canadian	-1816
▁embarrass	-1817
ins	-1818
rees	-1819
▁cri	-1820
▁ski	-1821
alent	-1822
▁chin	-1823
▁fill	-1824
▁hang	-1825
▁prop	-1826
▁ship	-1827
idence	-1828
▁twice	-1829
▁famous	-1830
▁lonely	-1831
▁whatever	-1832
bed	-1833
ived	-1834
kets	-1835
▁fit	-1836
▁fut	-1837
▁ice	-1838
▁inj	-1839
▁heav	-1840
▁less	-1841
▁rece	-1842
▁means	-1843
▁radio	-1844
▁taken	-1845
▁uncle	-1846
▁taller	-1847
▁warned	-1848
▁driving	-1849
urt	-1850
ular	-1851
▁opt	-1852
▁sub	-1853
▁tot	-1854
▁tra	-1855
▁boys	-1856
▁cute	-1857
▁ahead	-1858
▁blind	-1859
▁front	-1860
ination	-1861
▁involved	-1862
▁pictures	-1863
▁vacation	-1864
▁attention	-1865
oof	-1866
▁na	-1867
medi	-1868
▁los	-1869
▁opp	-1870
▁wel	-1871
▁awake	-1872
▁price	-1873
▁smile	-1874
▁women	-1875
▁immedi	-1876
▁company	-1877
▁painted	-1878
▁written	-1879
▁recognize	-1880
cil	-1881
ili	-1882
uts	-1883
ness	-1884
ring	-1885
▁calm	-1886
▁cool	-1887
▁piece	-1888
▁arrest	-1889
▁thinks	-1890
fortable	-1891
▁refused	-1892
aked	-1893
▁cop	-1894
istic	-1895
▁gift	-1896
▁priv	-1897
▁marry	-1898
▁afford	-1899
▁expected	-1900
ne	-1901
uit	-1902
▁cow	-1903
arter	-1904
▁curi	-1905
▁eggs	-1906
▁impo	-1907
▁pack	-1908
▁pull	-1909
▁wood	-1910
▁apart	-1911
▁carry	-1912
▁apples	-1913
▁future	-1914
▁harder	-1915
▁pencil	-1916
▁suppose	-1917
▁birthday	-1918
eth	-1919
gan	-1920
ief	-1921
cing	-1922
▁bra	-1923
ushed	-1924
▁ball	-1925
▁ring	-1926
▁power	-1927
▁sugar	-1928
▁asking	-1929
▁faster	-1930
▁sleepy	-1931
▁language	-1932
ze	-1933
ege	-1934
outh	-1935
▁hey	-1936
ution	-1937
▁rent	-1938
▁movies	-1939
▁played	-1940
▁college	-1941
▁pleased	-1942
▁staying	-1943
▁welcome	-1944
▁medicine	-1945
▁carefully	-1946
▁satisfied	-1947
bey	-1948
erc	-1949
▁eye	-1950
▁god	-1951
iving	-1952
▁also	-1953
▁beha	-1954
▁hide	-1955
▁libr	-1956
▁poor	-1957
▁requ	-1958
▁sand	-1959
▁novel	-1960
▁solve	-1961
▁stole	-1962
▁hardly	-1963
▁inform	-1964
▁normal	-1965
▁plenty	-1966
▁accused	-1967
▁forgive	-1968
▁raining	-1969
▁impossible	-1970
▁bar	-1971
▁yes	-1972
▁loud	-1973
▁knife	-1974
▁known	-1975
▁moved	-1976
▁forced	-1977
▁scream	-1978
▁sitting	-1979
▁special	-1980
▁anywhere	-1981
▁suddenly	-1982
erg	-1983
ges	-1984
▁ye	-1985
ants	-1986
ayed	-1987
ider	-1988
reme	-1989
▁mem	-1990
▁par	-1991
▁pur	-1992
arely	-1993
hamed	-1994
vered	-1995
▁burn	-1996
▁enem	-1997
▁fear	-1998
▁lend	-1999
▁viol	-2000
▁annoy	-2001
▁meant	-2002
▁animals	-2003
▁ashamed	-2004
▁extreme	-2005
▁injured	-2006
▁feelings	-2007
▁promised	-2008
▁immediately	-2009
▁z	-2010
oid	-2011
omp	-2012
und	-2013
▁ev	-2014
▁sy	-2015
ises	-2016
▁drop	-2017
▁guit	-2018
▁spee	-2019
ounded	-2020
▁blood	-2021
▁bread	-2022
▁saved	-2023
▁boring	-2024
▁easily	-2025
▁failed	-2026
▁taught	-2027
▁dollars	-2028
▁fishing	-2029
▁library	-2030
ume	-2031
ilty	-2032
iter	-2033
land	-2034
vers	-2035
▁cap	-2036
▁map	-2037
usted	-2038
▁case	-2039
▁fail	-2040
▁feed	-2041
▁lake	-2042
▁lazy	-2043
▁obey	-2044
▁taxi	-2045
▁appro	-2046
▁aware	-2047
▁feels	-2048
▁fruit	-2049
▁hates	-2050
▁intro	-2051
▁newsp	-2052
▁organ	-2053
▁stood	-2054
▁guilty	-2055
▁guitar	-2056
▁polite	-2057
▁talent	-2058
▁manager	-2059
▁ordered	-2060
▁totally	-2061
▁building	-2062
ky	-2063
bby	-2064
iot	-2065
lan	-2066
ton	-2067
▁ve	-2068
ache	-2069
ased	-2070
ates	-2071
lier	-2072
▁fly	-2073
▁inst	-2074
▁side	-2075
▁stra	-2076
▁naive	-2077
▁plays	-2078
▁spend	-2079
▁sport	-2080
▁worse	-2081
▁charge	-2082
▁speech	-2083
▁winter	-2084
▁information	-2085
cks	-2086
▁ma	-2087
aded	-2088
ages	-2089
ails	-2090
lled	-2091
olen	-2092
▁fac	-2093
▁hug	-2094
▁step	-2095
▁built	-2096
▁cried	-2097
▁idiot	-2098
▁seven	-2099
▁spent	-2100
▁storm	-2101
▁teeth	-2102
▁passed	-2103
▁seemed	-2104
▁calling	-2105
▁earlier	-2106
▁excited	-2107
▁confused	-2108
▁expecting	-2109
by	-2110
ug	-2111
col	-2112
ster	-2113
ustom	-2114
▁inno	-2115
▁past	-2116
▁photo	-2117
▁volun	-2118
▁breath	-2119
▁clever	-2120
▁remind	-2121
▁stolen	-2122
▁missing	-2123
▁respons	-2124
▁smarter	-2125
▁walking	-2126
sy	-2127
▁its	-2128
▁shy	-2129
acket	-2130
ature	-2131
ected	-2132
esome	-2133
▁land	-2134
▁mood	-2135
▁salt	-2136
▁arrive	-2137
▁decide	-2138
▁giving	-2139
▁simple	-2140
▁tastes	-2141
▁kidding	-2142
▁experience	-2143
kyo	-2144
uel	-2145
ffic	-2146
▁deb	-2147
▁hol	-2148
▁mur	-2149
▁beat	-2150
▁bike	-2151
▁exha	-2152
▁feet	-2153
vision	-2154
▁paint	-2155
▁press	-2156
▁shoot	-2157
▁tokyo	-2158
▁voice	-2159
▁likely	-2160
▁curious	-2161
▁holiday	-2162
▁introdu	-2163
▁brothers	-2164
▁extremely	-2165
▁television	-2166
gen	-2167
ots	-2168
▁dad	-2169
▁lad	-2170
▁sky	-2171
iliar	-2172
▁amaz	-2173
▁bark	-2174
▁grew	-2175
▁nose	-2176
▁bored	-2177
▁doubt	-2178
▁suitc	-2179
▁takes	-2180
▁tears	-2181
▁depend	-2182
▁fright	-2183
▁awesome	-2184
▁upstairs	-2185
▁neighbors	-2186
oth	-2187
ppy	-2188
▁ble	-2189
▁dem	-2190
▁pub	-2191
itted	-2192
olute	-2193
▁argu	-2194
▁base	-2195
▁fort	-2196
▁lear	-2197
▁shar	-2198
▁skin	-2199
▁admit	-2200
▁elect	-2201
▁keeps	-2202
▁share	-2203
▁attack	-2204
▁bottle	-2205
▁notice	-2206
▁shocked	-2207
▁studied	-2208
▁absolute	-2209
▁telephone	-2210
co	-2211
ror	-2212
ored	-2213
▁fre	-2214
▁nuts	-2215
▁shop	-2216
▁green	-2217
▁escape	-2218
▁locked	-2219
▁propos	-2220
▁attract	-2221
▁familiar	-2222
▁personal	-2223
ef	-2224
izz	-2225
ries	-2226
▁bri	-2227
▁flu	-2228
▁gas	-2229
▁ger	-2230
▁mag	-2231
▁unc	-2232
▁unl	-2233
▁club	-2234
▁held	-2235
▁mail	-2236
▁rude	-2237
▁heavy	-2238
▁least	-2239
▁trees	-2240
▁chocol	-2241
▁gotten	-2242
▁object	-2243
▁forward	-2244
▁learning	-2245
▁mistaken	-2246
▁beginning	-2247
▁confident	-2248
cu	-2249
el	-2250
iv	-2251
ial	-2252
own	-2253
book	-2254
idge	-2255
rupt	-2256
▁rum	-2257
▁crow	-2258
▁hero	-2259
▁lots	-2260
▁post	-2261
▁wise	-2262
▁chess	-2263
▁demand	-2264
▁spring	-2265
▁cookies	-2266
▁dancing	-2267
▁watched	-2268
▁neighbor	-2269
▁solution	-2270
▁comfortable	-2271
cto	-2272
▁em	-2273
irsty	-2274
▁golf	-2275
▁meal	-2276
▁octo	-2277
▁pizz	-2278
father	-2279
▁ought	-2280
▁stuck	-2281
▁talks	-2282
▁throw	-2283
▁truck	-2284
▁course	-2285
▁figure	-2286
▁german	-2287
▁singer	-2288
▁single	-2289
▁concert	-2290
umb	-2291
uro	-2292
▁abo	-2293
▁def	-2294
▁neg	-2295
▁pop	-2296
▁disg	-2297
▁euro	-2298
▁pair	-2299
▁woke	-2300
▁eight	-2301
▁mouth	-2302
▁taste	-2303
▁tight	-2304
▁driver	-2305
▁fortun	-2306
▁slowly	-2307
▁october	-2308
▁arrested	-2309
▁innocent	-2310
▁listened	-2311
▁depressed	-2312
▁obviously	-2313
▁attractive	-2314
▁difference	-2315
▁imagination	-2316
ule	-2317
▁er	-2318
ause	-2319
haps	-2320
iced	-2321
ults	-2322
ween	-2323
▁uni	-2324
apers	-2325
itive	-2326
▁cars	-2327
▁grad	-2328
▁huge	-2329
ations	-2330
▁delic	-2331
▁earth	-2332
▁exerc	-2333
▁horri	-2334
▁sandw	-2335
▁sharp	-2336
▁tough	-2337
▁dreams	-2338
▁flight	-2339
▁hiding	-2340
▁between	-2341
▁neither	-2342
▁perhaps	-2343
▁support	-2344
▁windows	-2345
▁exhausted	-2346
▁grandfather	-2347
ys	-2348
acks	-2349
amed	-2350
ccer	-2351
oted	-2352
▁bat	-2353
▁kit	-2354
ering	-2355
▁cond	-2356
▁eats	-2357
▁hist	-2358
▁poem	-2359
▁dirty	-2360
▁match	-2361
▁pizza	-2362
▁sched	-2363
▁across	-2364
▁button	-2365
▁common	-2366
▁drinks	-2367
▁incred	-2368
▁soccer	-2369
▁threat	-2370
▁because	-2371
▁healthy	-2372
▁herself	-2373
▁mention	-2374
▁trusted	-2375
▁proposal	-2376
▁chocolate	-2377
mit	-2378
▁pu	-2379
ldom	-2380
▁bas	-2381
▁top	-2382
veral	-2383
▁body	-2384
▁four	-2385
▁nine	-2386
▁note	-2387
▁vote	-2388
▁hobby	-2389
▁prove	-2390
▁bright	-2391
▁lights	-2392
▁nearly	-2393
▁player	-2394
▁seldom	-2395
▁dropped	-2396
▁realize	-2397
▁several	-2398
▁thirsty	-2399
▁schedule	-2400
aur	-2401
bbed	-2402
chen	-2403
lded	-2404
▁bur	-2405
▁gar	-2406
astic	-2407
▁cand	-2408
▁furt	-2409
▁mach	-2410
▁rope	-2411
▁self	-2412
▁soup	-2413
▁avoid	-2414
▁brave	-2415
▁cheap	-2416
▁crime	-2417
▁scare	-2418
▁shall	-2419
▁stone	-2420
▁veget	-2421
▁appear	-2422
▁explan	-2423
▁memory	-2424
▁amazing	-2425
▁further	-2426
▁kitchen	-2427
▁washing	-2428
▁baseball	-2429
▁believed	-2430
▁fighting	-2431
▁received	-2432
▁straight	-2433
▁embarrassed	-2434
aw	-2435
ho	-2436
hol	-2437
ilar	-2438
urse	-2439
▁ind	-2440
▁val	-2441
gress	-2442
ouple	-2443
▁coun	-2444
▁lead	-2445
▁stri	-2446
▁till	-2447
▁crowd	-2448
▁cruel	-2449
▁dying	-2450
▁enemy	-2451
▁fresh	-2452
▁hired	-2453
▁hurts	-2454
▁peace	-2455
ountain	-2456
▁absent	-2457
▁couple	-2458
▁distur	-2459
▁europe	-2460
▁prices	-2461
▁helping	-2462
▁history	-2463
▁younger	-2464
▁consider	-2465
▁explained	-2466
▁following	-2467
▁organized	-2468
▁perfectly	-2469
hn	-2470
ns	-2471
loy	-2472
▁hy	-2473
ches	-2474
seum	-2475
urch	-2476
▁amb	-2477
▁fed	-2478
▁mot	-2479
▁nap	-2480
▁sea	-2481
▁wed	-2482
ached	-2483
eared	-2484
ional	-2485
uring	-2486
▁bell	-2487
▁betr	-2488
▁fact	-2489
▁gold	-2490
▁harm	-2491
▁john	-2492
▁legs	-2493
▁lift	-2494
▁prof	-2495
▁stun	-2496
▁unha	-2497
▁weap	-2498
perate	-2499
▁raise	-2500
▁stick	-2501
▁trans	-2502
▁worst	-2503
bitious	-2504
▁accomp	-2505
▁artist	-2506
▁assist	-2507
▁church	-2508
▁jacket	-2509
▁museum	-2510
▁public	-2511
▁clearly	-2512
▁details	-2513
▁machine	-2514
▁willing	-2515
▁continue	-2516
▁friendly	-2517
▁headache	-2518
▁offended	-2519
▁passport	-2520
▁absolutely	-2521
ior	-2522
wel	-2523
ibil	-2524
imid	-2525
▁low	-2526
▁mid	-2527
▁pot	-2528
▁unf	-2529
▁wet	-2530
▁cell	-2531
▁cance	-2532
▁chick	-2533
▁clock	-2534
▁towel	-2535
▁attend	-2536
▁drives	-2537
▁ignore	-2538
▁america	-2539
▁restaur	-2540
▁punished	-2541
▁suitcase	-2542
▁explanation	-2543
ane	-2544
iew	-2545
ork	-2546
ging	-2547
▁ban	-2548
▁kno	-2549
▁mir	-2550
▁ord	-2551
▁pos	-2552
▁tou	-2553
acted	-2554
ulous	-2555
▁bear	-2556
▁cred	-2557
▁lady	-2558
▁weak	-2559
▁birds	-2560
▁cards	-2561
▁couch	-2562
▁examp	-2563
▁insur	-2564
▁songs	-2565
▁bridge	-2566
▁engine	-2567
▁manage	-2568
▁oldest	-2569
▁paying	-2570
▁smells	-2571
▁wallet	-2572
▁forever	-2573
▁impress	-2574
▁sisters	-2575
▁sweater	-2576
▁tickets	-2577
▁traffic	-2578
▁unhappy	-2579
▁starting	-2580
▁apartment	-2581
▁concerned	-2582
▁restaurant	-2583
ks	-2584
tic	-2585
▁ur	-2586
rets	-2587
lling	-2588
ondon	-2589
ortun	-2590
tired	-2591
▁appo	-2592
▁cash	-2593
▁coin	-2594
▁dire	-2595
▁fing	-2596
▁jour	-2597
▁moon	-2598
▁rice	-2599
▁spot	-2600
ighted	-2601
▁cheer	-2602
▁disag	-2603
▁divor	-2604
▁pract	-2605
▁leaves	-2606
▁london	-2607
▁lovely	-2608
▁refuse	-2609
▁skiing	-2610
▁spoken	-2611
▁retired	-2612
▁answered	-2613
▁opportun	-2614
▁sentence	-2615
▁insurance	-2616
▁pretended	-2617
▁traveling	-2618
▁downstairs	-2619
▁frightened	-2620
acy	-2621
cri	-2622
ney	-2623
▁ug	-2624
ator	-2625
cell	-2626
erve	-2627
host	-2628
▁coo	-2629
▁jud	-2630
using	-2631
▁band	-2632
▁cops	-2633
▁drow	-2634
▁flat	-2635
▁goal	-2636
▁grab	-2637
▁heat	-2638
▁king	-2639
▁sort	-2640
▁type	-2641
▁aband	-2642
▁brush	-2643
▁calls	-2644
▁climb	-2645
▁diary	-2646
▁ended	-2647
▁explo	-2648
▁gener	-2649
▁ghost	-2650
▁naked	-2651
▁rumor	-2652
▁usual	-2653
▁weeks	-2654
cellent	-2655
▁credit	-2656
▁denied	-2657
▁entire	-2658
▁filled	-2659
▁intend	-2660
▁joking	-2661
▁rained	-2662
▁silent	-2663
▁chinese	-2664
▁escaped	-2665
▁meaning	-2666
▁popular	-2667
▁relaxed	-2668
▁subject	-2669
▁wasting	-2670
▁accepted	-2671
▁exercise	-2672
▁recently	-2673
▁talented	-2674
▁excellent	-2675
▁interrupt	-2676
eg	-2677
ety	-2678
omm	-2679
ric	-2680
aint	-2681
ices	-2682
ines	-2683
▁dev	-2684
▁dry	-2685
▁odd	-2686
ained	-2687
gency	-2688
under	-2689
▁copy	-2690
▁cous	-2691
▁diet	-2692
▁purp	-2693
▁push	-2694
▁ugly	-2695
ission	-2696
▁acted	-2697
▁cream	-2698
▁facts	-2699
▁fever	-2700
▁given	-2701
▁shape	-2702
▁sight	-2703
▁stamp	-2704
intment	-2705
licated	-2706
▁allerg	-2707
▁custom	-2708
▁handed	-2709
▁losing	-2710
▁ruined	-2711
▁skinny	-2712
▁smiled	-2713
▁crossed	-2714
▁growing	-2715
▁touched	-2716
▁visited	-2717
▁volunte	-2718
▁wedding	-2719
▁mountain	-2720
▁stranger	-2721
▁delighted	-2722
▁ourselves	-2723
ta	-2724
ery	-2725
orn	-2726
ards	-2727
ibly	-2728
sion	-2729
teen	-2730
vest	-2731
▁eff	-2732
▁fle	-2733
▁nor	-2734
apped	-2735
meday	-2736
wards	-2737
▁dest	-2738
▁fash	-2739
▁hadn	-2740
▁rock	-2741
▁rule	-2742
▁tire	-2743
▁thief	-2744
▁burned	-2745
▁during	-2746
▁effort	-2747
▁sports	-2748
▁answers	-2749
▁noticed	-2750
▁pretend	-2751
▁private	-2752
▁purpose	-2753
▁someday	-2754
▁staring	-2755
▁sundays	-2756
▁survive	-2757
▁certainly	-2758
▁forgotten	-2759
▁yourselves	-2760
▁responsible	-2761
cl	-2762
ade	-2763
den	-2764
mat	-2765
▁ed	-2766
▁oc	-2767
arch	-2768
duct	-2769
uses	-2770
▁ach	-2771
▁lic	-2772
▁nat	-2773
▁squ	-2774
▁zoo	-2775
aster	-2776
icked	-2777
ified	-2778
▁bite	-2779
▁crit	-2780
▁ears	-2781
▁emer	-2782
▁form	-2783
▁hell	-2784
▁noon	-2785
▁ours	-2786
▁rely	-2787
▁remo	-2788
▁runs	-2789
▁banan	-2790
▁guest	-2791
▁magaz	-2792
▁paris	-2793
▁rains	-2794
▁steal	-2795
▁wears	-2796
▁anyway	-2797
▁closer	-2798
▁descri	-2799
▁dishes	-2800
▁fairly	-2801
▁transl	-2802
▁washed	-2803
▁carried	-2804
▁american	-2805
▁betrayed	-2806
▁horrible	-2807
▁recognized	-2808
▁complicated	-2809
zz	-2810
ato	-2811
ker	-2812
ugg	-2813
zen	-2814
iers	-2815
itch	-2816
llen	-2817
▁cre	-2818
▁dam	-2819
▁foc	-2820
▁fro	-2821
ities	-2822
ormed	-2823
xious	-2824
▁arms	-2825
▁conn	-2826
▁jail	-2827
▁pool	-2828
▁sang	-2829
▁above	-2830
▁doors	-2831
▁enter	-2832
▁fixed	-2833
▁hated	-2834
▁nurse	-2835
▁prize	-2836
▁proof	-2837
itation	-2838
underst	-2839
▁except	-2840
▁months	-2841
▁murder	-2842
▁resign	-2843
▁suspic	-2844
▁chicken	-2845
▁example	-2846
▁fashion	-2847
▁believes	-2848
▁dreaming	-2849
▁football	-2850
▁shoulder	-2851
▁teachers	-2852
▁ambitious	-2853
▁newspaper	-2854
▁misunderst	-2855
bel	-2856
ees	-2857
gra	-2858
nal	-2859
akes	-2860
cket	-2861
ists	-2862
▁fif	-2863
▁gam	-2864
▁maj	-2865
▁psy	-2866
▁typ	-2867
▁une	-2868
arian	-2869
eding	-2870
hered	-2871
ieved	-2872
ments	-2873
ndred	-2874
▁brow	-2875
▁lies	-2876
▁loss	-2877
▁vide	-2878
usting	-2879
▁greet	-2880
▁hello	-2881
▁impro	-2882
▁tooth	-2883
▁bigger	-2884
▁hoping	-2885
▁jumped	-2886
▁picked	-2887
▁raised	-2888
▁useful	-2889
▁airport	-2890
▁bedroom	-2891
▁covered	-2892
▁hundred	-2893
▁license	-2894
▁project	-2895
▁bathroom	-2896
▁exciting	-2897
▁promises	-2898
▁remained	-2899
▁returned	-2900
▁sandwich	-2901
▁delicious	-2902
▁emergency	-2903
▁seriously	-2904
▁everywhere	-2905
▁appointment	-2906
oc	-2907
rat	-2908
▁hi	-2909
ific	-2910
izzy	-2911
line	-2912
osen	-2913
ucky	-2914
ural	-2915
▁aim	-2916
▁cab	-2917
▁lay	-2918
▁pan	-2919
▁yen	-2920
▁capt	-2921
▁file	-2922
▁poss	-2923
▁pred	-2924
▁repe	-2925
▁shoe	-2926
▁size	-2927
racted	-2928
▁awful	-2929
▁dizzy	-2930
▁group	-2931
▁ignor	-2932
▁impat	-2933
▁names	-2934
▁polit	-2935
▁toile	-2936
▁video	-2937
▁woods	-2938
▁barely	-2939
▁invest	-2940
▁lesson	-2941
▁recomm	-2942
▁temper	-2943
▁theory	-2944
▁account	-2945
▁belongs	-2946
▁continu	-2947
▁ignored	-2948
▁reached	-2949
▁smiling	-2950
▁unlucky	-2951
▁invitation	-2952
uth	-2953
gged	-2954
lace	-2955
ruct	-2956
▁sco	-2957
▁wis	-2958
iable	-2959
▁deny	-2960
▁iron	-2961
▁math	-2962
▁pres	-2963
▁puzz	-2964
▁sens	-2965
▁suff	-2966
▁wore	-2967
▁china	-2968
▁costs	-2969
▁jacks	-2970
▁jokes	-2971
▁seats	-2972
▁super	-2973
▁admire	-2974
▁chosen	-2975
▁dating	-2976
▁direct	-2977
▁goodby	-2978
▁moving	-2979
▁rarely	-2980
▁solved	-2981
▁violin	-2982
▁changes	-2983
▁cheated	-2984
▁cleaned	-2985
▁stunned	-2986
▁suspect	-2987
▁winning	-2988
▁condition	-2989
▁impatient	-2990
cut	-2991
irm	-2992
mon	-2993
ses	-2994
ude	-2995
hood	-2996
ives	-2997
vent	-2998
▁ben	-2999
▁cir	-3000
▁equ	-3001
▁fil	-3002
▁glo	-3003
cohol	-3004
fered	-3005
iment	-3006
uthor	-3007
velop	-3008
▁acqu	-3009
▁adop	-3010
▁dare	-3011
▁fake	-3012
▁nons	-3013
▁perm	-3014
▁sale	-3015
▁scar	-3016
▁scen	-3017
▁text	-3018
▁vill	-3019
▁among	-3020
▁artic	-3021
▁coinc	-3022
▁games	-3023
▁gotta	-3024
▁illeg	-3025
▁persu	-3026
▁punct	-3027
▁cancer	-3028
▁compet	-3029
▁france	-3030
▁alcohol	-3031
▁collect	-3032
▁contact	-3033
▁respond	-3034
▁similar	-3035
▁trained	-3036
▁pleasant	-3037
▁realized	-3038
▁teaching	-3039
▁traveled	-3040
▁abandoned	-3041
▁prisoners	-3042
▁recommend	-3043
▁understood	-3044
▁opportunity	-3045
fa	-3046
aly	-3047
ify	-3048
ler	-3049
mar	-3050
min	-3051
fety	-3052
ites	-3053
lebr	-3054
tery	-3055
▁nar	-3056
▁occ	-3057
▁sty	-3058
ories	-3059
▁barg	-3060
▁irre	-3061
▁oper	-3062
▁pale	-3063
▁sofa	-3064
▁tour	-3065
▁avail	-3066
▁brief	-3067
▁cares	-3068
▁creat	-3069
▁event	-3070
▁grass	-3071
▁satur	-3072
ational	-3073
ibility	-3074
sidered	-3075
▁author	-3076
▁buying	-3077
▁celebr	-3078
▁flower	-3079
▁record	-3080
▁result	-3081
▁safety	-3082
▁stairs	-3083
▁toilet	-3084
▁anxious	-3085
▁barking	-3086
▁challen	-3087
▁concern	-3088
▁failure	-3089
▁foreign	-3090
▁nowhere	-3091
▁options	-3092
▁careless	-3093
▁evidence	-3094
▁pleasure	-3095
▁standing	-3096
▁wherever	-3097
▁available	-3098
▁continued	-3099
▁languages	-3100
▁coincidence	-3101
▁complaining	-3102
ms	-3103
cin	-3104
gue	-3105
key	-3106
ram	-3107
▁je	-3108
▁ky	-3109
▁oh	-3110
gers	-3111
illy	-3112
llig	-3113
rent	-3114
tern	-3115
▁aud	-3116
icted	-3117
ining	-3118
ising	-3119
▁alar	-3120
▁camp	-3121
▁desp	-3122
▁drug	-3123
▁fate	-3124
▁fond	-3125
▁hire	-3126
▁ment	-3127
▁roof	-3128
▁soph	-3129
▁york	-3130
fortun	-3131
▁cause	-3132
▁pants	-3133
▁reply	-3134
▁advise	-3135
▁bitter	-3136
▁cheese	-3137
▁orders	-3138
▁checked	-3139
▁courage	-3140
▁goodbye	-3141
▁hearing	-3142
▁results	-3143
▁wounded	-3144
▁annoying	-3145
▁disagree	-3146
▁enjoying	-3147
▁generous	-3148
▁intellig	-3149
▁midnight	-3150
▁nonsense	-3151
▁punctual	-3152
▁saturday	-3153
▁soldiers	-3154
▁whenever	-3155
▁introduce	-3156
▁screaming	-3157
▁introduced	-3158
bs	-3159
ls	-3160
een	-3161
gth	-3162
ius	-3163
sit	-3164
▁ju	-3165
ones	-3166
▁cur	-3167
▁tur	-3168
ashed	-3169
ening	-3170
iring	-3171
▁appl	-3172
▁blow	-3173
▁mill	-3174
▁page	-3175
▁thin	-3176
▁baked	-3177
▁fully	-3178
▁habit	-3179
▁kyoto	-3180
▁limit	-3181
▁negot	-3182
▁plant	-3183
▁psych	-3184
▁threw	-3185
▁timid	-3186
iculous	-3187
▁basket	-3188
▁cousin	-3189
▁fascin	-3190
▁narrow	-3191
▁repair	-3192
▁article	-3193
▁climbed	-3194
▁depends	-3195
▁illegal	-3196
▁jackson	-3197
▁secrets	-3198
▁teaches	-3199
▁village	-3200
▁bleeding	-3201
▁informed	-3202
▁unfortun	-3203
▁explosion	-3204
▁disgusting	-3205
▁incredible	-3206
▁newspapers	-3207
▁suspicious	-3208
con	-3209
eaf	-3210
▁da	-3211
ivor	-3212
▁aut	-3213
▁fal	-3214
▁rac	-3215
aired	-3216
anged	-3217
atoes	-3218
entle	-3219
hemat	-3220
▁deaf	-3221
▁dumb	-3222
▁dump	-3223
▁hung	-3224
▁sons	-3225
▁symp	-3226
▁unus	-3227
locked	-3228
▁badly	-3229
▁begun	-3230
▁brown	-3231
▁force	-3232
▁frank	-3233
▁helps	-3234
▁risks	-3235
▁rough	-3236
▁stren	-3237
▁butter	-3238
▁easier	-3239
▁genius	-3240
▁gentle	-3241
▁highly	-3242
▁insane	-3243
▁pulled	-3244
▁pushed	-3245
▁confess	-3246
▁entered	-3247
▁greeted	-3248
▁journal	-3249
▁mondays	-3250
▁natural	-3251
▁product	-3252
▁profess	-3253
▁request	-3254
▁scolded	-3255
▁silence	-3256
▁sincere	-3257
▁univers	-3258
▁divorced	-3259
▁entirely	-3260
▁mathemat	-3261
▁notebook	-3262
▁patience	-3263
▁survivor	-3264
▁desperate	-3265
na	-3266
od	-3267
hip	-3268
ung	-3269
unt	-3270
▁dy	-3271
icer	-3272
ires	-3273
ners	-3274
owed	-3275
uded	-3276
vior	-3277
word	-3278
▁fan	-3279
▁hyp	-3280
▁pet	-3281
▁urg	-3282
orses	-3283
▁cast	-3284
▁dish	-3285
▁emot	-3286
▁inse	-3287
▁pill	-3288
▁prin	-3289
▁rang	-3290
▁serv	-3291
▁stom	-3292
▁false	-3293
▁fence	-3294
▁gives	-3295
▁gunsh	-3296
▁mayor	-3297
▁reach	-3298
▁roses	-3299
▁salad	-3300
▁shake	-3301
▁shout	-3302
▁silly	-3303
▁socks	-3304
▁tense	-3305
▁third	-3306
▁walks	-3307
▁beauty	-3308
▁doubts	-3309
▁grandm	-3310
▁horses	-3311
▁insist	-3312
▁parked	-3313
▁partic	-3314
▁season	-3315
▁stared	-3316
▁supper	-3317
▁writer	-3318
▁adopted	-3319
▁advance	-3320
▁bargain	-3321
▁choices	-3322
▁drowned	-3323
▁engaged	-3324
▁falling	-3325
▁foolish	-3326
▁helpful	-3327
▁million	-3328
▁prepare	-3329
▁removed	-3330
▁studies	-3331
▁warning	-3332
▁yelling	-3333
isticated	-3334
▁allergic	-3335
▁behavior	-3336
▁investig	-3337
▁progress	-3338
▁repaired	-3339
▁worrying	-3340
▁paintings	-3341
▁considered	-3342
▁permission	-3343
▁ridiculous	-3344
▁mathematics	-3345
▁sophisticated	-3346
uc	-3347
lect	-3348
ngue	-3349
phan	-3350
▁ast	-3351
▁enc	-3352
▁pic	-3353
▁rab	-3354
▁spl	-3355
ables	-3356
gging	-3357
ipped	-3358
ounds	-3359
▁jobs	-3360
▁loan	-3361
▁neat	-3362
▁view	-3363
aching	-3364
ainted	-3365
▁actor	-3366
▁anger	-3367
▁armed	-3368
▁cloud	-3369
▁concl	-3370
▁const	-3371
▁faith	-3372
▁final	-3373
▁jeans	-3374
▁judge	-3375
▁named	-3376
▁relig	-3377
▁shock	-3378
▁speed	-3379
▁spell	-3380
▁truly	-3381
imistic	-3382
▁crimin	-3383
▁critic	-3384
▁employ	-3385
▁farmer	-3386
▁finger	-3387
▁frustr	-3388
▁ground	-3389
▁invite	-3390
▁slight	-3391
▁tongue	-3392
▁unable	-3393
▁apology	-3394
▁arguing	-3395
▁capital	-3396
▁captain	-3397
▁doctors	-3398
▁elected	-3399
▁holding	-3400
▁letters	-3401
▁matters	-3402
▁planned	-3403
▁selling	-3404
▁snowing	-3405
▁argument	-3406
▁describe	-3407
▁deserves	-3408
▁handsome	-3409
▁mentally	-3410
▁practice	-3411
▁pressure	-3412
do	-3413
apt	-3414
ead	-3415
iff	-3416
ism	-3417
uff	-3418
▁cd	-3419
ains	-3420
ergy	-3421
▁lit	-3422
▁log	-3423
▁nea	-3424
▁pra	-3425
▁spy	-3426
anced	-3427
bling	-3428
illed	-3429
orter	-3430
ource	-3431
▁bags	-3432
▁dece	-3433
▁dess	-3434
▁disl	-3435
▁fant	-3436
▁gate	-3437
▁hill	-3438
▁hole	-3439
▁incl	-3440
▁laid	-3441
▁ones	-3442
▁pray	-3443
▁race	-3444
▁rese	-3445
▁twin	-3446
▁unde	-3447
▁argue	-3448
▁boxes	-3449
▁deter	-3450
▁email	-3451
▁kinds	-3452
▁meals	-3453
▁mirac	-3454
▁outra	-3455
▁suits	-3456
▁tells	-3457
▁weigh	-3458
▁begins	-3459
▁cancel	-3460
▁caused	-3461
▁corner	-3462
▁danced	-3463
▁energy	-3464
▁garage	-3465
▁gloves	-3466
▁leader	-3467
▁myster	-3468
▁negoti	-3469
▁orange	-3470
▁rabbit	-3471
▁reserv	-3472
▁saving	-3473
▁weapon	-3474
▁comment	-3475
▁disturb	-3476
▁england	-3477
▁fortune	-3478
▁nearest	-3479
▁parties	-3480
▁password	-3481
▁reliable	-3482
▁daughters	-3483
▁happiness	-3484
▁succeeded	-3485
▁vegetarian	-3486
▁grandmother	-3487
▁intelligent	-3488
▁understands	-3489
xp	-3490
bum	-3491
erk	-3492
iny	-3493
rel	-3494
aces	-3495
scri	-3496
stem	-3497
temp	-3498
town	-3499
▁due	-3500
▁ham	-3501
▁oil	-3502
▁unb	-3503
antic	-3504
asons	-3505
cious	-3506
ences	-3507
▁aunt	-3508
▁caut	-3509
▁dent	-3510
▁pity	-3511
▁rele	-3512
▁roll	-3513
▁suic	-3514
▁tend	-3515
angers	-3516
ateful	-3517
ential	-3518
vented	-3519
▁album	-3520
▁apply	-3521
▁aside	-3522
▁beard	-3523
▁chose	-3524
▁drove	-3525
▁eager	-3526
▁gradu	-3527
▁loser	-3528
▁miser	-3529
▁nerve	-3530
▁screw	-3531
▁shelf	-3532
▁spare	-3533
▁cooper	-3534
▁depart	-3535
▁drawer	-3536
▁dumped	-3537
▁expert	-3538
▁guests	-3539
▁hammer	-3540
▁headed	-3541
▁plants	-3542
▁seated	-3543
▁sooner	-3544
▁spread	-3545
▁stamps	-3546
▁system	-3547
▁unfair	-3548
▁urgent	-3549
▁volume	-3550
▁warmer	-3551
▁writes	-3552
▁closely	-3553
▁dentist	-3554
▁dessert	-3555
▁managed	-3556
▁related	-3557
▁selfish	-3558
▁smaller	-3559
▁treated	-3560
▁useless	-3561
▁appeared	-3562
▁cautious	-3563
▁distance	-3564
▁grateful	-3565
▁magazine	-3566
▁photogra	-3567
▁planning	-3568
▁position	-3569
▁powerful	-3570
▁classroom	-3571
▁survivors	-3572
▁translate	-3573
▁assistance	-3574
▁discussion	-3575
▁themselves	-3576
wr	-3577
ats	-3578
del	-3579
iev	-3580
ipt	-3581
lac	-3582
une	-3583
ury	-3584
▁bi	-3585
ings	-3586
irts	-3587
itor	-3588
ores	-3589
▁arr	-3590
▁ess	-3591
▁mel	-3592
▁obs	-3593
▁sep	-3594
▁tar	-3595
▁unp	-3596
▁van	-3597
antly	-3598
aring	-3599
hetic	-3600
inite	-3601
oured	-3602
tered	-3603
▁army	-3604
▁bass	-3605
▁curt	-3606
▁debt	-3607
▁decl	-3608
▁neck	-3609
▁picn	-3610
▁pond	-3611
▁pron	-3612
▁russ	-3613
▁sore	-3614
▁sung	-3615
ically	-3616
inting	-3617
rently	-3618
restim	-3619
▁burst	-3620
▁cheek	-3621
▁crack	-3622
▁disco	-3623
▁earns	-3624
▁guard	-3625
▁hesit	-3626
▁marri	-3627
▁motiv	-3628
▁occur	-3629
▁rooms	-3630
▁round	-3631
▁sweat	-3632
▁thick	-3633
▁voted	-3634
▁bitten	-3635
▁candle	-3636
▁closet	-3637
▁fallen	-3638
▁height	-3639
▁lasted	-3640
▁papers	-3641
▁robbed	-3642
▁served	-3643
▁shaken	-3644
▁snakes	-3645
▁strict	-3646
▁struck	-3647
▁volunt	-3648
▁wealth	-3649
▁appears	-3650
▁candles	-3651
▁content	-3652
▁honesty	-3653
▁privacy	-3654
▁receipt	-3655
▁ringing	-3656
▁unusual	-3657
▁whoever	-3658
▁accustom	-3659
▁cleaning	-3660
▁deadline	-3661
▁required	-3662
▁stealing	-3663
▁challenge	-3664
▁disturbed	-3665
▁fantastic	-3666
▁policeman	-3667
▁president	-3668
▁apologized	-3669
▁friendship	-3670
▁reasonable	-3671
▁embarrassing	-3672
▁unfortunately	-3673
go	-3674
ym	-3675
aff	-3676
att	-3677
dle	-3678
jud	-3679
yst	-3680
mail	-3681
pper	-3682
▁cig	-3683
▁env	-3684
▁rom	-3685
▁toy	-3686
▁uns	-3687
centr	-3688
cient	-3689
geous	-3690
light	-3691
ouses	-3692
▁belt	-3693
▁blew	-3694
▁bott	-3695
▁carp	-3696
▁cong	-3697
▁cows	-3698
▁film	-3699
▁flew	-3700
▁fuss	-3701
▁gree	-3702
▁meas	-3703
▁okay	-3704
▁owns	-3705
▁poet	-3706
▁rose	-3707
▁teen	-3708
▁valu	-3709
▁vase	-3710
▁bench	-3711
▁coach	-3712
▁debts	-3713
▁dozen	-3714
▁error	-3715
▁freak	-3716
▁major	-3717
▁model	-3718
▁shook	-3719
▁stars	-3720
▁trick	-3721
▁turns	-3722
▁uncom	-3723
▁unexp	-3724
▁beside	-3725
▁damage	-3726
▁darker	-3727
▁destro	-3728
▁determ	-3729
▁double	-3730
▁friday	-3731
▁incomp	-3732
▁lately	-3733
▁market	-3734
▁master	-3735
▁poured	-3736
▁resist	-3737
▁target	-3738
▁awfully	-3739
▁enemies	-3740
▁germany	-3741
▁haircut	-3742
▁handled	-3743
▁knocked	-3744
▁package	-3745
▁reasons	-3746
▁science	-3747
▁shorter	-3748
▁suicide	-3749
▁turning	-3750
▁weapons	-3751
▁attacked	-3752
▁changing	-3753
▁concentr	-3754
▁demanded	-3755
▁politics	-3756
▁stopping	-3757
▁strength	-3758
▁stronger	-3759
▁visiting	-3760
▁bothering	-3761
▁committed	-3762
▁miserable	-3763
▁recovered	-3764
▁terrified	-3765
▁accustomed	-3766
▁incredibly	-3767
▁personally	-3768
▁suggestion	-3769
▁unexpected	-3770
▁vegetables	-3771
▁fascinating	-3772
▁reservation	-3773
▁uncomfortable	-3774
▁understanding	-3775
ask	-3776
har	-3777
isy	-3778
pho	-3779
rog	-3780
▁ef	-3781
fers	-3782
gram	-3783
iche	-3784
ters	-3785
umed	-3786
▁cla	-3787
▁err	-3788
▁ine	-3789
▁iss	-3790
▁kil	-3791
▁tow	-3792
▁wha	-3793
board	-3794
eered	-3795
hache	-3796
iture	-3797
mbers	-3798
▁ages	-3799
▁dise	-3800
▁docu	-3801
▁furn	-3802
▁hers	-3803
▁knee	-3804
▁sail	-3805
▁soft	-3806
▁trap	-3807
anding	-3808
weight	-3809
▁alarm	-3810
▁blond	-3811
▁board	-3812
▁cover	-3813
▁dedic	-3814
▁funer	-3815
▁human	-3816
▁knock	-3817
▁lower	-3818
▁nicer	-3819
▁space	-3820
▁state	-3821
▁taxes	-3822
ologist	-3823
ouraged	-3824
▁altern	-3825
▁attemp	-3826
▁banana	-3827
▁castle	-3828
▁cooked	-3829
▁cookie	-3830
▁dancer	-3831
▁effect	-3832
▁houses	-3833
▁island	-3834
▁member	-3835
▁nature	-3836
▁poison	-3837
▁search	-3838
▁yellow	-3839
gressive	-3840
▁assumed	-3841
▁conclus	-3842
▁connect	-3843
▁destroy	-3844
▁disease	-3845
▁dislike	-3846
▁frankly	-3847
▁hurried	-3848
▁kissing	-3849
▁pencils	-3850
▁psychic	-3851
▁spotted	-3852
▁streets	-3853
▁audience	-3854
▁borrowed	-3855
▁creative	-3856
▁helpless	-3857
▁kindness	-3858
▁marriage	-3859
▁musician	-3860
▁violence	-3861
▁blackmail	-3862
▁furniture	-3863
▁gentleman	-3864
▁intention	-3865
▁preparing	-3866
▁aggressive	-3867
▁distracted	-3868
▁journalist	-3869
▁underestim	-3870
▁university	-3871
▁neighborhood	-3872
azz	-3873
jam	-3874
que	-3875
tes	-3876
thy	-3877
aled	-3878
bile	-3879
ides	-3880
ield	-3881
iest	-3882
rain	-3883
▁bee	-3884
▁cot	-3885
▁ink	-3886
▁loc	-3887
▁mud	-3888
▁pig	-3889
▁ske	-3890
▁sou	-3891
▁tre	-3892
▁wip	-3893
▁wit	-3894
attoo	-3895
urate	-3896
▁area	-3897
▁beef	-3898
▁blan	-3899
▁bull	-3900
▁defe	-3901
▁jazz	-3902
▁maid	-3903
▁pard	-3904
▁perf	-3905
▁phys	-3906
▁qual	-3907
▁sett	-3908
▁thro	-3909
▁toes	-3910
▁whis	-3911
itable	-3912
ulance	-3913
▁alike	-3914
▁champ	-3915
▁focus	-3916
▁guide	-3917
▁italy	-3918
▁knees	-3919
▁loose	-3920
▁scary	-3921
▁separ	-3922
▁south	-3923
▁sword	-3924
▁tower	-3925
ichever	-3926
▁blamed	-3927
▁coward	-3928
▁kicked	-3929
▁lifted	-3930
▁loaded	-3931
▁mirror	-3932
▁remark	-3933
▁repeat	-3934
▁rested	-3935
▁tattoo	-3936
▁twenty	-3937
▁worker	-3938
ructions	-3939
▁admired	-3940
▁capable	-3941
▁envelop	-3942
▁excuses	-3943
▁funeral	-3944
▁guessed	-3945
▁imagine	-3946
▁instead	-3947
▁miracle	-3948
▁gambling	-3949
▁incompet	-3950
▁intended	-3951
▁positive	-3952
▁prisoner	-3953
▁relieved	-3954
▁accidents	-3955
▁ambulance	-3956
▁assistant	-3957
▁cellphone	-3958
▁confessed	-3959
▁fortunate	-3960
▁persuaded	-3961
▁sensitive	-3962
▁volunteer	-3963
▁whichever	-3964
▁eventually	-3965
▁optimistic	-3966
▁successful	-3967
▁threatened	-3968
▁alternative	-3969
▁temperature	-3970
▁instructions	-3971
ey	-3972
ata	-3973
bly	-3974
its	-3975
▁fu	-3976
ases	-3977
rigu	-3978
view	-3979
▁awk	-3980
▁bud	-3981
▁est	-3982
▁fox	-3983
▁med	-3984
▁ste	-3985
▁ver	-3986
asses	-3987
bborn	-3988
inary	-3989
jamas	-3990
ology	-3991
ounce	-3992
verse	-3993
▁bold	-3994
▁carr	-3995
▁dust	-3996
▁firm	-3997
▁insp	-3998
▁jerk	-3999
▁lugg	-4000
▁merc	-4001
▁mile	-4002
▁peel	-4003
lished	-4004
ousand	-4005
verted	-4006
▁bluff	-4007
▁boots	-4008
▁creep	-4009
▁exist	-4010
▁fifty	-4011
▁grown	-4012
▁issue	-4013
▁legal	-4014
▁mouse	-4015
▁postp	-4016
▁purse	-4017
▁risky	-4018
▁sells	-4019
▁shame	-4020
▁shave	-4021
▁skept	-4022
▁skirt	-4023
▁split	-4024
▁spoon	-4025
▁swear	-4026
▁using	-4027
initely	-4028
▁animal	-4029
▁bucket	-4030
▁circle	-4031
▁deeply	-4032
▁detail	-4033
▁exchan	-4034
▁forest	-4035
▁fought	-4036
▁hugged	-4037
▁interp	-4038
▁nearby	-4039
▁option	-4040
▁picnic	-4041
▁proper	-4042
▁puzzle	-4043
▁replac	-4044
▁signed	-4045
▁unlike	-4046
ourceful	-4047
▁awkward	-4048
▁bananas	-4049
▁glanced	-4050
▁hanging	-4051
▁intrigu	-4052
▁keeping	-4053
▁luggage	-4054
▁mission	-4055
▁pajamas	-4056
▁pointed	-4057
▁remains	-4058
▁reminds	-4059
▁starved	-4060
▁stomach	-4061
▁stories	-4062
▁accompan	-4063
▁admitted	-4064
▁canceled	-4065
▁cheating	-4066
▁counting	-4067
▁criminal	-4068
▁electric	-4069
▁hopeless	-4070
▁national	-4071
▁negative	-4072
▁potatoes	-4073
▁stubborn	-4074
▁thousand	-4075
▁complaint	-4076
▁cooperate	-4077
▁discussed	-4078
▁lightning	-4079
▁motivated	-4080
▁strangers	-4081
▁impressive	-4082
▁overweight	-4083
▁incompetent	-4084
▁possibility	-4085
▁resourceful	-4086
▁volunteered	-4087
▁investigation	-4088
▁misunderstood	-4089
ji	-4090
ma	-4091
cul	-4092
eds	-4093
hib	-4094
ium	-4095
rib	-4096
rit	-4097
vid	-4098
▁cy	-4099
▁mi	-4100
▁ta	-4101
aire	-4102
bage	-4103
cued	-4104
gage	-4105
ians	-4106
igin	-4107
plan	-4108
ware	-4109
▁div	-4110
▁eld	-4111
▁gor	-4112
▁jam	-4113
▁mer	-4114
▁oce	-4115
▁raw	-4116
ckets	-4117
itude	-4118
mates	-4119
ratul	-4120
▁cent	-4121
▁chop	-4122
▁disp	-4123
▁elev	-4124
▁ends	-4125
▁envy	-4126
▁gear	-4127
▁hook	-4128
▁leak	-4129
▁lean	-4130
▁menu	-4131
▁meth	-4132
▁oven	-4133
▁oyst	-4134
▁pens	-4135
▁rome	-4136
▁ruin	-4137
▁rush	-4138
▁surr	-4139
▁thir	-4140
▁vict	-4141
▁visa	-4142
▁ways	-4143
▁wild	-4144
lasses	-4145
▁bless	-4146
▁extra	-4147
▁fined	-4148
▁forty	-4149
▁handy	-4150
▁homes	-4151
▁honey	-4152
▁insul	-4153
▁laund	-4154
▁liter	-4155
▁motor	-4156
▁noisy	-4157
▁north	-4158
▁skill	-4159
▁sneak	-4160
▁staff	-4161
▁straw	-4162
▁twins	-4163
▁value	-4164
▁whale	-4165
▁clouds	-4166
▁fluent	-4167
▁flying	-4168
▁humili	-4169
▁infect	-4170
▁joined	-4171
▁larger	-4172
▁loudly	-4173
▁novels	-4174
▁origin	-4175
▁packed	-4176
▁passen	-4177
▁reject	-4178
▁ridden	-4179
▁safely	-4180
▁shared	-4181
▁shirts	-4182
▁silver	-4183
▁stress	-4184
▁throat	-4185
▁trusts	-4186
▁uncons	-4187
▁warmth	-4188
▁wishes	-4189
▁within	-4190
fficient	-4191
▁airplan	-4192
▁baggage	-4193
▁breathe	-4194
▁burning	-4195
▁carrots	-4196
▁ceiling	-4197
▁charges	-4198
▁cleared	-4199
▁complex	-4200
▁convers	-4201
▁crowded	-4202
▁despise	-4203
▁efforts	-4204
▁elephan	-4205
▁express	-4206
▁garbage	-4207
▁hurting	-4208
▁mistook	-4209
▁oysters	-4210
▁rescued	-4211
▁russian	-4212
▁service	-4213
▁soldier	-4214
▁sounded	-4215
▁stylish	-4216
▁subscri	-4217
▁achieved	-4218
▁addicted	-4219
▁attitude	-4220
▁bluffing	-4221
▁contract	-4222
▁deserved	-4223
▁envelope	-4224
▁eyesight	-4225
▁fluently	-4226
▁ignorant	-4227
▁invented	-4228
▁outraged	-4229
▁research	-4230
▁survived	-4231
▁textbook	-4232
▁thirteen	-4233
▁unlikely	-4234
▁congratul	-4235
▁connected	-4236
▁emotional	-4237
▁suffering	-4238
▁collecting	-4239
▁complaints	-4240
▁confidence	-4241
▁connection	-4242
▁definitely	-4243
▁particular	-4244
▁sunglasses	-4245
▁accompanied	-4246
▁unconscious	-4247
▁disappointing	-4248
ux	-4249
bic	-4250
edy	-4251
idy	-4252
ped	-4253
phy	-4254
sed	-4255
uct	-4256
zed	-4257
▁wo	-4258
aret	-4259
cure	-4260
mate	-4261
oudy	-4262
rend	-4263
vard	-4264
▁bal	-4265
▁bow	-4266
▁bug	-4267
▁gat	-4268
▁gym	-4269
▁hon	-4270
▁imm	-4271
▁kar	-4272
▁loo	-4273
▁lou	-4274
▁mic	-4275
▁pil	-4276
▁suf	-4277
▁tap	-4278
▁wre	-4279
enced	-4280
gnant	-4281
iches	-4282
umber	-4283
xible	-4284
▁appa	-4285
▁bomb	-4286
▁bone	-4287
▁craw	-4288
▁cure	-4289
▁deli	-4290
▁dorm	-4291
▁dyed	-4292
▁evil	-4293
▁farm	-4294
▁fits	-4295
▁flin	-4296
▁gain	-4297
▁gray	-4298
▁host	-4299
▁robb	-4300
▁sees	-4301
▁soul	-4302
▁swam	-4303
▁thor	-4304
▁thri	-4305
▁tiny	-4306
▁toys	-4307
ilient	-4308
orable	-4309
ousers	-4310
▁appet	-4311
▁arrog	-4312
▁aston	-4313
▁block	-4314
▁candy	-4315
▁clung	-4316
▁decor	-4317
▁fries	-4318
▁grave	-4319
▁humor	-4320
▁memor	-4321
▁ocean	-4322
▁opera	-4323
▁sheet	-4324
▁tempt	-4325
▁tires	-4326
▁toler	-4327
▁vivid	-4328
ievable	-4329
ressing	-4330
▁aboard	-4331
▁affect	-4332
▁assume	-4333
▁backed	-4334
▁battle	-4335
▁bullet	-4336
▁cloudy	-4337
▁folded	-4338
▁fooled	-4339
▁louder	-4340
▁messed	-4341
▁mobile	-4342
▁overre	-4343
▁pardon	-4344
▁pieces	-4345
▁racket	-4346
▁regist	-4347
▁salary	-4348
▁satisf	-4349
▁scient	-4350
▁smooth	-4351
▁strugg	-4352
▁wasted	-4353
▁annoyed	-4354
▁cheaper	-4355
▁cigaret	-4356
▁comprom	-4357
▁demands	-4358
▁fingers	-4359
▁happier	-4360
▁harvard	-4361
▁illness	-4362
▁intimid	-4363
▁laundry	-4364
▁mystery	-4365
▁offered	-4366
▁partner	-4367
▁planted	-4368
▁putting	-4369
▁sympath	-4370
▁witness	-4371
▁accurate	-4372
▁attended	-4373
▁bothered	-4374
▁charming	-4375
▁crossing	-4376
▁deserted	-4377
▁discount	-4378
▁downtown	-4379
▁elevator	-4380
▁flexible	-4381
▁forgiven	-4382
▁gathered	-4383
▁gorgeous	-4384
▁insecure	-4385
▁occurred	-4386
▁rejected	-4387
▁screamed	-4388
▁suffered	-4389
▁terribly	-4390
▁trousers	-4391
▁agreement	-4392
▁computers	-4393
▁employees	-4394
▁mentioned	-4395
▁religious	-4396
▁resilient	-4397
▁skeptical	-4398
▁apparently	-4399
▁complained	-4400
▁experiment	-4401
▁sandwiches	-4402
▁celebrating	-4403
▁disappeared	-4404
▁personality	-4405
to	-4406
ald	-4407
ays	-4408
ids	-4409
imp	-4410
let	-4411
ows	-4412
rer	-4413
was	-4414
yal	-4415
atin	-4416
cles	-4417
dded	-4418
harm	-4419
lies	-4420
mare	-4421
reen	-4422
ship	-4423
▁asp	-4424
▁dig	-4425
▁fab	-4426
▁mut	-4427
▁pin	-4428
▁rob	-4429
agger	-4430
amond	-4431
anges	-4432
bsite	-4433
conom	-4434
eable	-4435
going	-4436
guard	-4437
iders	-4438
orary	-4439
osity	-4440
rance	-4441
uding	-4442
urity	-4443
▁abil	-4444
▁bare	-4445
▁cult	-4446
▁data	-4447
▁ease	-4448
▁flir	-4449
▁hall	-4450
▁lect	-4451
▁load	-4452
▁mass	-4453
▁ruth	-4454
▁slee	-4455
▁sour	-4456
▁spec	-4457
▁task	-4458
▁tech	-4459
▁toot	-4460
antage	-4461
washer	-4462
worked	-4463
▁aimed	-4464
▁arrow	-4465
▁bills	-4466
▁coins	-4467
▁conce	-4468
▁conse	-4469
▁cough	-4470
▁hilar	-4471
▁ident	-4472
▁incre	-4473
▁juice	-4474
▁latin	-4475
▁loyal	-4476
▁micro	-4477
▁moder	-4478
▁oppos	-4479
▁outdo	-4480
▁pharm	-4481
▁poker	-4482
▁postc	-4483
▁pride	-4484
▁rainy	-4485
▁reads	-4486
▁sales	-4487
▁scene	-4488
▁sheep	-4489
▁sings	-4490
▁skate	-4491
▁sting	-4492
▁stock	-4493
▁style	-4494
▁swall	-4495
▁tests	-4496
▁walls	-4497
▁active	-4498
▁debate	-4499
▁devast	-4500
▁eleven	-4501
▁experi	-4502
▁frozen	-4503
▁gather	-4504
▁ghosts	-4505
▁insult	-4506
▁method	-4507
▁native	-4508
▁rented	-4509
▁risked	-4510
▁simply	-4511
▁toward	-4512
▁treats	-4513
▁briefly	-4514
▁chances	-4515
▁contest	-4516
▁contrib	-4517
▁devoted	-4518
▁diamond	-4519
▁divorce	-4520
▁dragged	-4521
▁drawing	-4522
▁earring	-4523
▁fastest	-4524
▁focused	-4525
▁grabbed	-4526
▁journey	-4527
▁logical	-4528
▁oranges	-4529
▁painful	-4530
▁predict	-4531
▁speaker	-4532
▁spiders	-4533
▁swimmer	-4534
▁tempted	-4535
▁thanked	-4536
▁towards	-4537
▁trapped	-4538
▁wealthy	-4539
▁website	-4540
▁appetite	-4541
▁behaving	-4542
▁customer	-4543
▁fabulous	-4544
▁grounded	-4545
▁pregnant	-4546
▁released	-4547
▁romantic	-4548
▁ruthless	-4549
▁security	-4550
▁training	-4551
▁unlocked	-4552
▁valuable	-4553
▁advantage	-4554
▁answering	-4555
▁backwards	-4556
▁dedicated	-4557
▁hilarious	-4558
▁magazines	-4559
▁nightmare	-4560
▁objective	-4561
▁powerless	-4562
▁subscribe	-4563
▁suitcases	-4564
▁acceptable	-4565
▁dishwasher	-4566
▁overworked	-4567
▁surprising	-4568
▁surrounded	-4569
▁appreciated	-4570
▁millionaire	-4571
▁conversation	-4572
▁underestimate	-4573
up	-4574
cha	-4575
ron	-4576
val	-4577
▁ox	-4578
ague	-4579
chan	-4580
cise	-4581
otos	-4582
ulse	-4583
vant	-4584
▁bul	-4585
▁cro	-4586
▁nin	-4587
▁rif	-4588
▁rot	-4589
▁sew	-4590
▁sue	-4591
▁vot	-4592
aging	-4593
ament	-4594
aptop	-4595
arily	-4596
chief	-4597
ching	-4598
cycle	-4599
igned	-4600
igner	-4601
ledge	-4602
mploy	-4603
ngest	-4604
otion	-4605
spect	-4606
table	-4607
ticip	-4608
▁ants	-4609
▁cere	-4610
▁clue	-4611
▁drew	-4612
▁hint	-4613
▁inev	-4614
▁lawn	-4615
▁main	-4616
▁mall	-4617
▁mars	-4618
▁nail	-4619
▁owes	-4620
▁prov	-4621
▁sink	-4622
▁slam	-4623
▁span	-4624
▁tidy	-4625
▁vain	-4626
▁wide	-4627
▁wire	-4628
▁yard	-4629
acting	-4630
itions	-4631
judged	-4632
liment	-4633
market	-4634
ushing	-4635
verage	-4636
▁absor	-4637
▁attic	-4638
▁below	-4639
▁blown	-4640
▁brand	-4641
▁cared	-4642
▁chest	-4643
▁contr	-4644
▁crash	-4645
▁disor	-4646
▁disre	-4647
▁drill	-4648
▁drugs	-4649
▁equal	-4650
▁faces	-4651
▁field	-4652
▁freed	-4653
▁hoped	-4654
▁incor	-4655
▁lines	-4656
▁mercy	-4657
▁owned	-4658
▁poems	-4659
▁scrat	-4660
▁stops	-4661
▁sunny	-4662
▁techn	-4663
▁terms	-4664
▁track	-4665
▁troub	-4666
▁unbel	-4667
▁vague	-4668
▁wheel	-4669
▁wreck	-4670
agement	-4671
▁action	-4672
▁agrees	-4673
▁begged	-4674
▁behave	-4675
▁border	-4676
▁breaks	-4677
▁buried	-4678
▁commit	-4679
▁defeat	-4680
▁earned	-4681
▁econom	-4682
▁grades	-4683
▁greedy	-4684
▁intern	-4685
▁laptop	-4686
▁mechan	-4687
▁minded	-4688
▁observ	-4689
▁offend	-4690
▁photos	-4691
▁planet	-4692
▁retire	-4693
▁rumors	-4694
▁settle	-4695
▁strike	-4696
▁switch	-4697
▁yelled	-4698
▁actress	-4699
▁anticip	-4700
▁applies	-4701
▁blanket	-4702
▁blocked	-4703
▁blowing	-4704
▁brushed	-4705
▁consequ	-4706
▁curtain	-4707
▁delayed	-4708
▁develop	-4709
▁dreamed	-4710
▁exagger	-4711
▁finding	-4712
▁forgave	-4713
▁gunshot	-4714
▁heading	-4715
▁heavily	-4716
▁hunting	-4717
▁jogging	-4718
▁letting	-4719
▁measure	-4720
▁prevent	-4721
▁protest	-4722
▁reflect	-4723
▁require	-4724
▁scenery	-4725
▁seconds	-4726
▁settled	-4727
▁spilled	-4728
▁surrend	-4729
▁tallest	-4730
▁tricked	-4731
▁typical	-4732
ibilities	-4733
▁arrogant	-4734
▁avoiding	-4735
▁checking	-4736
▁cheerful	-4737
▁childish	-4738
▁delicate	-4739
▁flirting	-4740
▁gunshots	-4741
▁insisted	-4742
▁interpre	-4743
▁outdoors	-4744
▁panicked	-4745
▁persuade	-4746
▁possibly	-4747
▁shouting	-4748
▁starving	-4749
▁terrific	-4750
▁unemploy	-4751
▁universe	-4752
▁youngest	-4753
▁accompany	-4754
▁americans	-4755
▁bodyguard	-4756
▁curiosity	-4757
▁disgusted	-4758
▁flattered	-4759
▁forgetful	-4760
▁misjudged	-4761
▁acquainted	-4762
▁compliment	-4763
▁compromise	-4764
▁devastated	-4765
▁disappoint	-4766
▁frustrated	-4767
▁humiliated	-4768
▁inevitable	-4769
▁passengers	-4770
▁productive	-4771
▁temptation	-4772
▁concentrate	-4773
▁discouraged	-4774
▁examination	-4775
▁supermarket	-4776
▁professional	-4777
▁responsibility	-4778
bi	-4779
fo	-4780
gy	-4781
cip	-4782
fty	-4783
ibi	-4784
iry	-4785
mun	-4786
ope	-4787
pes	-4788
res	-4789
ril	-4790
xic	-4791
zer	-4792
▁ge	-4793
bles	-4794
cher	-4795
elve	-4796
fted	-4797
gery	-4798
iber	-4799
ints	-4800
mbur	-4801
onna	-4802
pher	-4803
rica	-4804
rise	-4805
ssip	-4806
tage	-4807
ther	-4808
uine	-4809
vert	-4810
yond	-4811
zing	-4812
▁bru	-4813
▁cds	-4814
▁cit	-4815
▁deg	-4816
▁gro	-4817
▁led	-4818
▁mix	-4819
▁ner	-4820
▁wow	-4821
ances	-4822
epend	-4823
heart	-4824
holic	-4825
izing	-4826
▁bees	-4827
▁bran	-4828
▁chat	-4829
▁comb	-4830
▁crew	-4831
▁educ	-4832
▁infl	-4833
▁lent	-4834
▁lion	-4835
▁lips	-4836
▁rail	-4837
▁stat	-4838
▁stro	-4839
▁swit	-4840
▁tail	-4841
▁tied	-4842
▁tran	-4843
▁worn	-4844
alling	-4845
screen	-4846
▁alibi	-4847
▁ammun	-4848
▁april	-4849
▁beers	-4850
▁colds	-4851
▁cooks	-4852
▁faint	-4853
▁flash	-4854
▁goals	-4855
▁gonna	-4856
▁greek	-4857
▁humid	-4858
▁magic	-4859
▁mater	-4860
▁nause	-4861
▁overs	-4862
▁panic	-4863
▁pills	-4864
▁pilot	-4865
▁plain	-4866
▁prior	-4867
▁queen	-4868
▁rifle	-4869
▁steak	-4870
▁steps	-4871
▁stink	-4872
▁total	-4873
▁waved	-4874
▁whist	-4875
▁wound	-4876
▁africa	-4877
▁banged	-4878
▁beware	-4879
▁beyond	-4880
▁bottom	-4881
▁budget	-4882
▁crafty	-4883
▁formed	-4884
▁gossip	-4885
▁hambur	-4886
▁hiking	-4887
▁hypnot	-4888
▁laughs	-4889
▁loving	-4890
▁middle	-4891
▁modern	-4892
▁nodded	-4893
▁permit	-4894
▁places	-4895
▁pocket	-4896
▁pounds	-4897
▁praise	-4898
▁supply	-4899
▁tasted	-4900
▁twelve	-4901
kerchief	-4902
▁achieve	-4903
▁anytime	-4904
▁average	-4905
▁battery	-4906
▁callous	-4907
▁classes	-4908
▁comfort	-4909
▁confirm	-4910
▁cottage	-4911
▁crashed	-4912
▁earthqu	-4913
▁envious	-4914
▁freedom	-4915
▁genuine	-4916
▁lecture	-4917
▁listens	-4918
▁medical	-4919
▁perform	-4920
▁plastic	-4921
▁plumber	-4922
▁prefers	-4923
▁pressed	-4924
▁program	-4925
▁refrain	-4926
▁regrets	-4927
▁replace	-4928
▁shaking	-4929
▁sunrise	-4930
▁surgery	-4931
▁watches	-4932
cientious	-4933
▁accusing	-4934
▁adorable	-4935
▁ambition	-4936
▁bringing	-4937
▁climbing	-4938
▁convince	-4939
▁critical	-4940
▁document	-4941
▁drowning	-4942
▁engineer	-4943
▁entrance	-4944
▁expenses	-4945
▁merciful	-4946
▁ordinary	-4947
▁postcard	-4948
▁promoted	-4949
▁strongly	-4950
▁teenager	-4951
▁thorough	-4952
▁tolerate	-4953
▁tourists	-4954
▁treating	-4955
▁addressed	-4956
▁childhood	-4957
▁construct	-4958
▁countries	-4959
▁essential	-4960
▁exception	-4961
▁horrified	-4962
▁observant	-4963
▁scientist	-4964
▁suggested	-4965
▁sunscreen	-4966
▁talkative	-4967
▁temporary	-4968
▁toothache	-4969
▁ammunition	-4970
▁basketball	-4971
▁courageous	-4972
▁determined	-4973
▁disturbing	-4974
▁motorcycle	-4975
▁registered	-4976
▁volunteers	-4977
▁approaching	-4978
▁conclusions	-4979
▁interpreter	-4980
▁threatening	-4981
▁handkerchief	-4982
▁overreacting	-4983
▁conscientious	-4984
arc	-4985
com	-4986
cup	-4987
dge	-4988
gar	-4989
ift	-4990
ipp	-4991
lon	-4992
lph	-4993
oon	-4994
poc	-4995
pri	-4996
uce	-4997
umn	-4998
▁mr	-4999
▁mt	-5000
▁pi	-5001
cipe	-5002
fere	-5003
mist	-5004
ooze	-5005
rank	-5006
ulty	-5007
uous	-5008
vere	-5009
▁ain	-5010
▁ang	-5011
▁ara	-5012
▁avo	-5013
▁fbi	-5014
▁fog	-5015
▁fur	-5016
▁jew	-5017
▁pow	-5018
▁rat	-5019
▁slo	-5020
▁var	-5021
▁vul	-5022
adays	-5023
alian	-5024
ammar	-5025
asing	-5026
atest	-5027
olite	-5028
place	-5029
stick	-5030
storm	-5031
toned	-5032
uming	-5033
unted	-5034
venge	-5035
▁cave	-5036
▁coal	-5037
▁dawn	-5038
▁drum	-5039
▁fork	-5040
▁imit	-5041
▁kidn	-5042
▁obst	-5043
▁path	-5044
▁pour	-5045
▁sarc	-5046
▁sear	-5047
▁skip	-5048
▁soap	-5049
▁stir	-5050
▁tore	-5051
▁unre	-5052
aneous	-5053
cedure	-5054
mbered	-5055
ounced	-5056
scious	-5057
worthy	-5058
▁adult	-5059
▁blast	-5060
▁bound	-5061
▁brain	-5062
▁burnt	-5063
▁cheat	-5064
▁choir	-5065
▁citiz	-5066
▁cured	-5067
▁dolph	-5068
▁exams	-5069
▁files	-5070
▁finan	-5071
▁flies	-5072
▁flood	-5073
▁gifts	-5074
▁grows	-5075
▁hopes	-5076
▁loses	-5077
▁marks	-5078
▁miles	-5079
▁pitch	-5080
▁pulse	-5081
▁renew	-5082
▁rocks	-5083
▁saint	-5084
▁scarf	-5085
▁serve	-5086
▁slave	-5087
▁slipp	-5088
▁spain	-5089
▁spont	-5090
▁stays	-5091
▁stiff	-5092
▁stove	-5093
▁sweep	-5094
▁thumb	-5095
▁trump	-5096
▁wheat	-5097
▁windy	-5098
▁wiped	-5099
▁wiser	-5100
ificant	-5101
pockets	-5102
▁addict	-5103
▁amused	-5104
▁astute	-5105
▁barked	-5106
▁blonde	-5107
▁canada	-5108
▁causes	-5109
▁chairs	-5110
▁colors	-5111
▁defend	-5112
▁desire	-5113
▁errand	-5114
▁faults	-5115
▁fridge	-5116
▁gained	-5117
▁gamble	-5118
▁gladly	-5119
▁habits	-5120
▁heated	-5121
▁intent	-5122
▁landed	-5123
▁limits	-5124
▁monkey	-5125
▁pepper	-5126
▁prohib	-5127
▁prophe	-5128
▁punish	-5129
▁recipe	-5130
▁reluct	-5131
▁remote	-5132
▁rising	-5133
▁rolled	-5134
▁salmon	-5135
▁sleeps	-5136
▁sleeve	-5137
▁smokes	-5138
▁sneaky	-5139
▁social	-5140
▁square	-5141
▁starts	-5142
▁toothp	-5143
▁trains	-5144
▁vacant	-5145
ickering	-5146
▁amusing	-5147
▁avoided	-5148
▁bedtime	-5149
▁biggest	-5150
▁blinded	-5151
▁boiling	-5152
▁climate	-5153
▁cousins	-5154
▁fainted	-5155
▁haunted	-5156
▁hitting	-5157
▁italian	-5158
▁lawyers	-5159
▁leather	-5160
▁luckily	-5161
▁parking	-5162
▁percent	-5163
▁pianist	-5164
▁pockets	-5165
▁princip	-5166
▁punched	-5167
▁reality	-5168
▁regular	-5169
▁slapped	-5170
▁slipped	-5171
▁smelled	-5172
▁traitor	-5173
▁workers	-5174
▁airplane	-5175
▁approach	-5176
▁approved	-5177
▁arranged	-5178
▁clothing	-5179
▁compared	-5180
▁deceived	-5181
▁declined	-5182
▁discreet	-5183
▁examined	-5184
▁graduate	-5185
▁greatest	-5186
▁holidays	-5187
▁homesick	-5188
▁impolite	-5189
▁improved	-5190
▁included	-5191
▁independ	-5192
▁memorize	-5193
▁normally	-5194
▁nowadays	-5195
▁objected	-5196
▁pathetic	-5197
▁presents	-5198
▁searched	-5199
▁shooting	-5200
▁spending	-5201
▁thrilled	-5202
▁visitors	-5203
▁allergies	-5204
▁attracted	-5205
▁authority	-5206
▁breathing	-5207
▁buildings	-5208
▁celebrate	-5209
▁conscious	-5210
▁customers	-5211
▁hesitated	-5212
▁interfere	-5213
▁intrigued	-5214
▁kidnapped	-5215
▁operation	-5216
▁privately	-5217
▁procedure	-5218
▁seventeen	-5219
▁shoulders	-5220
▁standards	-5221
▁struggled	-5222
▁surprises	-5223
▁conditions	-5224
▁difficulty	-5225
▁discovered	-5226
▁engagement	-5227
▁unemployed	-5228
▁experienced	-5229
▁pickpockets	-5230
▁significant	-5231
▁spontaneous	-5232
▁interrupting	-5233
cr	-5234
box	-5235
cts	-5236
cue	-5237
lly	-5238
udd	-5239
ues	-5240
▁yo	-5241
atic	-5242
atis	-5243
fire	-5244
iant	-5245
inct	-5246
lept	-5247
▁ant	-5248
▁bre	-5249
▁lab	-5250
▁rug	-5251
▁sac	-5252
▁sip	-5253
▁sum	-5254
▁tim	-5255
▁tip	-5256
▁tor	-5257
▁tub	-5258
aches	-5259
anoid	-5260
arant	-5261
cence	-5262
cking	-5263
derer	-5264
ieves	-5265
irmed	-5266
ption	-5267
riger	-5268
rious	-5269
spons	-5270
tingu	-5271
unity	-5272
▁bald	-5273
▁bore	-5274
▁cher	-5275
▁dove	-5276
▁exit	-5277
▁fart	-5278
▁frog	-5279
▁fuel	-5280
▁fuji	-5281
▁fund	-5282
▁guts	-5283
▁inde	-5284
▁lack	-5285
▁lamp	-5286
▁napk	-5287
▁pant	-5288
▁pear	-5289
▁pink	-5290
▁pork	-5291
▁quar	-5292
▁rubb	-5293
▁scam	-5294
▁silk	-5295
▁sock	-5296
▁spin	-5297
▁stab	-5298
▁tape	-5299
▁tick	-5300
▁tune	-5301
▁uses	-5302
▁west	-5303
▁wolf	-5304
▁wrap	-5305
agious	-5306
issors	-5307
ivered	-5308
lected	-5309
levant	-5310
mistry	-5311
priate	-5312
ughter	-5313
▁aspir	-5314
▁barks	-5315
▁based	-5316
▁bowed	-5317
▁broom	-5318
▁cease	-5319
▁claim	-5320
▁curse	-5321
▁extro	-5322
▁grade	-5323
▁influ	-5324
▁kilos	-5325
▁lacks	-5326
▁lemon	-5327
▁liars	-5328
▁medal	-5329
▁notes	-5330
▁pairs	-5331
▁picky	-5332
▁puppy	-5333
▁reput	-5334
▁safer	-5335
▁shade	-5336
▁sides	-5337
▁slice	-5338
▁snack	-5339
▁spite	-5340
▁squir	-5341
▁stain	-5342
▁stret	-5343
▁topic	-5344
▁trout	-5345
▁trunk	-5346
▁typho	-5347
▁unfor	-5348
onsider	-5349
▁accent	-5350
▁advert	-5351
▁affair	-5352
▁appeal	-5353
▁autumn	-5354
▁batter	-5355
▁carpet	-5356
▁compos	-5357
▁conven	-5358
▁copies	-5359
▁define	-5360
▁differ	-5361
▁elders	-5362
▁ending	-5363
▁fasten	-5364
▁gently	-5365
▁gifted	-5366
▁heartb	-5367
▁instru	-5368
▁itself	-5369
▁ladder	-5370
▁manual	-5371
▁meters	-5372
▁pillow	-5373
▁racist	-5374
▁relief	-5375
▁remove	-5376
▁sailor	-5377
▁scarce	-5378
▁snowed	-5379
▁stones	-5380
▁suffer	-5381
▁teased	-5382
▁unique	-5383
▁voices	-5384
▁wooden	-5385
▁ability	-5386
▁absence	-5387
▁approve	-5388
▁arrange	-5389
▁beating	-5390
▁behaved	-5391
▁cheered	-5392
▁compare	-5393
▁contrad	-5394
▁costume	-5395
▁counted	-5396
▁culture	-5397
▁damaged	-5398
▁defense	-5399
▁dipping	-5400
▁extingu	-5401
▁farther	-5402
▁fooling	-5403
▁freaked	-5404
▁grammar	-5405
▁guarant	-5406
▁heavier	-5407
▁heights	-5408
▁insects	-5409
▁lessons	-5410
▁massage	-5411
▁opening	-5412
▁packing	-5413
▁painter	-5414
▁panting	-5415
▁precise	-5416
▁proceed	-5417
▁pulling	-5418
▁puzzled	-5419
▁quarter	-5420
▁rabbits	-5421
▁robbery	-5422
▁sinking	-5423
▁spanish	-5424
▁spoiled	-5425
▁stepped	-5426
▁talents	-5427
▁whether	-5428
ationship	-5429
rigerator	-5430
sponsible	-5431
▁chairman	-5432
▁contains	-5433
▁disaster	-5434
▁happiest	-5435
▁laughter	-5436
▁mechanic	-5437
▁murdered	-5438
▁murderer	-5439
▁mustache	-5440
▁nauseous	-5441
▁necklace	-5442
▁opposite	-5443
▁paranoid	-5444
▁particip	-5445
▁pharmacy	-5446
▁religion	-5447
▁reminded	-5448
▁replaced	-5449
▁scissors	-5450
▁specific	-5451
▁tomatoes	-5452
▁touching	-5453
▁wondered	-5454
▁canadians	-5455
▁chemistry	-5456
▁collected	-5457
▁contented	-5458
▁contribut	-5459
▁corrected	-5460
▁criticism	-5461
▁delivered	-5462
▁effective	-5463
▁exchanged	-5464
▁ignorance	-5465
▁innocence	-5466
▁interview	-5467
▁mountains	-5468
▁objection	-5469
▁overslept	-5470
▁promotion	-5471
▁pronounce	-5472
▁respected	-5473
▁secretary	-5474
▁afterwards	-5475
▁appearance	-5476
▁astonished	-5477
▁constantly	-5478
▁contagious	-5479
▁disrespect	-5480
▁irrelevant	-5481
▁photograph	-5482
▁profession	-5483
▁prohibited	-5484
▁reconsider	-5485
▁remembered	-5486
▁snickering	-5487
▁speechless	-5488
▁blackmailed	-5489
▁conditioner	-5490
▁cooperation	-5491
▁electricity	-5492
▁independent	-5493
▁refrigerator	-5494
▁relationship	-5495
▁irresponsible	-5496
ka	-5497
ama	-5498
amm	-5499
asy	-5500
bag	-5501
dom	-5502
ept	-5503
ggy	-5504
iar	-5505
ito	-5506
men	-5507
ony	-5508
ral	-5509
sen	-5510
shi	-5511
squ	-5512
ste	-5513
uri	-5514
vey	-5515
▁ko	-5516
▁ol	-5517
agne	-5518
aste	-5519
ders	-5520
easy	-5521
fish	-5522
icky	-5523
imum	-5524
inci	-5525
iplo	-5526
ipul	-5527
ival	-5528
keys	-5529
lley	-5530
name	-5531
ogra	-5532
onse	-5533
oors	-5534
qual	-5535
rase	-5536
rous	-5537
seas	-5538
tier	-5539
ubby	-5540
vern	-5541
wise	-5542
▁ank	-5543
▁civ	-5544
▁fol	-5545
▁gaz	-5546
▁joy	-5547
▁lip	-5548
▁mil	-5549
▁mod	-5550
▁nag	-5551
▁non	-5552
▁row	-5553
▁sex	-5554
▁shi	-5555
▁sin	-5556
▁sir	-5557
▁tab	-5558
▁tan	-5559
anted	-5560
arded	-5561
ategy	-5562
ators	-5563
cated	-5564
chest	-5565
ction	-5566
erved	-5567
gment	-5568
imney	-5569
irits	-5570
issue	-5571
onent	-5572
pered	-5573
quate	-5574
ulted	-5575
▁ange	-5576
▁boil	-5577
▁chew	-5578
▁circ	-5579
▁clum	-5580
▁code	-5581
▁diag	-5582
▁dism	-5583
▁diss	-5584
▁dope	-5585
▁earn	-5586
▁east	-5587
▁flag	-5588
▁flaw	-5589
▁fuse	-5590
▁guns	-5591
▁hudd	-5592
▁june	-5593
▁kilo	-5594
▁kore	-5595
▁numb	-5596
▁outl	-5597
▁pays	-5598
▁pets	-5599
▁plot	-5600
▁plug	-5601
▁pure	-5602
▁reve	-5603
▁slip	-5604
▁snap	-5605
▁toss	-5606
▁trad	-5607
▁unam	-5608
cience	-5609
ensive	-5610
igning	-5611
lliant	-5612
squito	-5613
vering	-5614
▁adapt	-5615
▁added	-5616
▁analy	-5617
▁balls	-5618
▁blush	-5619
▁click	-5620
▁consp	-5621
▁depos	-5622
▁diplo	-5623
▁fussy	-5624
▁goods	-5625
▁guilt	-5626
▁imply	-5627
▁jewel	-5628
▁local	-5629
▁metal	-5630
▁meter	-5631
▁mexic	-5632
▁occas	-5633
▁offic	-5634
▁react	-5635
▁rebel	-5636
▁robot	-5637
▁rugby	-5638
▁sacri	-5639
▁shift	-5640
▁snore	-5641
▁spoil	-5642
▁sushi	-5643
▁swept	-5644
▁swims	-5645
▁tends	-5646
▁unbut	-5647
▁wings	-5648
amental	-5649
athetic	-5650
incible	-5651
writing	-5652
▁advent	-5653
▁arabic	-5654
▁astron	-5655
▁biased	-5656
▁blinds	-5657
▁branch	-5658
▁chores	-5659
▁chubby	-5660
▁creepy	-5661
▁encour	-5662
▁fixing	-5663
▁govern	-5664
▁hidden	-5665
▁infuri	-5666
▁karate	-5667
▁leaned	-5668
▁mutual	-5669
▁obeyed	-5670
▁orphan	-5671
▁phoned	-5672
▁planes	-5673
▁plates	-5674
▁powers	-5675
▁recess	-5676
▁refund	-5677
▁rescue	-5678
▁resume	-5679
▁rushed	-5680
▁shovel	-5681
▁smoked	-5682
▁stinks	-5683
▁stomac	-5684
▁stroke	-5685
▁sunset	-5686
▁terror	-5687
▁tissue	-5688
▁typist	-5689
▁unless	-5690
▁unlock	-5691
▁volley	-5692
▁wished	-5693
asonable	-5694
atisfied	-5695
▁abandon	-5696
▁alarmed	-5697
▁ancient	-5698
▁blushed	-5699
▁caution	-5700
▁chimney	-5701
▁closest	-5702
▁command	-5703
▁compete	-5704
▁confuse	-5705
▁consult	-5706
▁contain	-5707
▁crushed	-5708
▁examine	-5709
▁excused	-5710
▁factory	-5711
▁fifteen	-5712
▁finicky	-5713
▁huddled	-5714
▁improve	-5715
▁indoors	-5716
▁killing	-5717
▁manipul	-5718
▁manners	-5719
▁needing	-5720
▁outrank	-5721
▁players	-5722
▁praised	-5723
▁quietly	-5724
▁reserve	-5725
▁revenge	-5726
▁sending	-5727
▁shining	-5728
▁shouted	-5729
▁slammed	-5730
▁smashed	-5731
▁spinach	-5732
▁spirits	-5733
▁theater	-5734
▁thieves	-5735
▁tourist	-5736
▁trumpet	-5737
▁violent	-5738
▁waterme	-5739
qualified	-5740
▁beginner	-5741
▁bicycles	-5742
▁crawling	-5743
▁director	-5744
▁elephant	-5745
▁faithful	-5746
▁identify	-5747
▁infected	-5748
▁internet	-5749
▁judgment	-5750
▁knitting	-5751
▁mosquito	-5752
▁opponent	-5753
▁overseas	-5754
▁overtime	-5755
▁partners	-5756
▁postpone	-5757
▁prettier	-5758
▁rational	-5759
▁repeated	-5760
▁reserved	-5761
▁response	-5762
▁roommate	-5763
▁sensible	-5764
▁slightly	-5765
▁startled	-5766
▁strategy	-5767
▁sympathy	-5768
▁thoughts	-5769
▁troubled	-5770
▁trusting	-5771
▁batteries	-5772
▁brilliant	-5773
▁champagne	-5774
▁community	-5775
▁confirmed	-5776
▁decisions	-5777
▁decorated	-5778
▁efficient	-5779
▁fashioned	-5780
▁flinching	-5781
▁graduated	-5782
▁immediate	-5783
▁incorrect	-5784
▁knowledge	-5785
▁postponed	-5786
▁preaching	-5787
▁qualified	-5788
▁sarcastic	-5789
▁scratched	-5790
▁snowstorm	-5791
▁swallowed	-5792
▁whispered	-5793
▁cigarettes	-5794
▁classmates	-5795
▁depressing	-5796
▁earthquake	-5797
▁flashlight	-5798
▁intentions	-5799
▁invincible	-5800
▁medication	-5801
▁microphone	-5802
▁pretending	-5803
▁protection	-5804
▁remarkable	-5805
▁reputation	-5806
▁supportive	-5807
▁toothpaste	-5808
▁unbuttoned	-5809
▁volleyball	-5810
▁businessman	-5811
▁considerate	-5812
▁extroverted	-5813
▁fortunately	-5814
▁frustrating	-5815
▁handwriting	-5816
▁unambitious	-5817
▁consequences	-5818
▁difficulties	-5819
▁particularly	-5820
▁photographer	-5821
▁unbelievable	-5822
▁unreasonable	-5823
▁volunteering	-5824
po	-5825
bet	-5826
bid	-5827
ckn	-5828
eah	-5829
few	-5830
hor	-5831
ime	-5832
lig	-5833
mbo	-5834
pha	-5835
tub	-5836
ulf	-5837
uls	-5838
usi	-5839
whe	-5840
aker	-5841
assy	-5842
bell	-5843
case	-5844
edly	-5845
ends	-5846
gger	-5847
iece	-5848
itam	-5849
oops	-5850
pack	-5851
rily	-5852
ties	-5853
ucks	-5854
umpy	-5855
ures	-5856
wood	-5857
▁bac	-5858
▁bum	-5859
▁dye	-5860
▁eth	-5861
▁fra	-5862
▁hay	-5863
▁laz	-5864
▁len	-5865
▁lux	-5866
▁mug	-5867
▁poo	-5868
▁sed	-5869
▁spr	-5870
▁tex	-5871
▁tha	-5872
▁unw	-5873
atory	-5874
cknow	-5875
ender	-5876
enter	-5877
icing	-5878
iform	-5879
ighed	-5880
isted	-5881
itors	-5882
mbles	-5883
oline	-5884
oming	-5885
orney	-5886
proof	-5887
ropho	-5888
teous	-5889
thusi	-5890
▁acts	-5891
▁bart	-5892
▁bowl	-5893
▁bulb	-5894
▁buys	-5895
▁cane	-5896
▁cock	-5897
▁deer	-5898
▁dele	-5899
▁dial	-5900
▁fold	-5901
▁hats	-5902
▁inch	-5903
▁intr	-5904
▁item	-5905
▁kick	-5906
▁knot	-5907
▁mere	-5908
▁mule	-5909
▁nick	-5910
▁onto	-5911
▁pace	-5912
▁pier	-5913
▁rage	-5914
▁rare	-5915
▁rate	-5916
▁rewr	-5917
▁root	-5918
▁soci	-5919
▁surf	-5920
▁unim	-5921
▁unne	-5922
▁wipe	-5923
▁yeah	-5924
cially	-5925
iented	-5926
loaded	-5927
phabet	-5928
soever	-5929
ulsive	-5930
▁asian	-5931
▁beans	-5932
▁bears	-5933
▁booze	-5934
▁bunch	-5935
▁coast	-5936
▁daily	-5937
▁delay	-5938
▁dozed	-5939
▁dread	-5940
▁essay	-5941
▁filed	-5942
▁flour	-5943
▁foods	-5944
▁frost	-5945
▁harsh	-5946
▁hives	-5947
▁holds	-5948
▁hypoc	-5949
▁inher	-5950
▁invol	-5951
▁irrit	-5952
▁leads	-5953
▁leaks	-5954
▁lover	-5955
▁minor	-5956
▁moves	-5957
▁refer	-5958
▁salty	-5959
▁sixty	-5960
▁sober	-5961
▁stare	-5962
▁teams	-5963
▁typew	-5964
▁valid	-5965
▁vitam	-5966
▁weeds	-5967
▁youth	-5968
berries	-5969
ference	-5970
zerland	-5971
▁acknow	-5972
▁adults	-5973
▁amends	-5974
▁applic	-5975
▁babies	-5976
▁beaten	-5977
▁betray	-5978
▁blocks	-5979
▁blouse	-5980
▁boiled	-5981
▁calmed	-5982
▁cherry	-5983
▁cities	-5984
▁claust	-5985
▁clumsy	-5986
▁creeps	-5987
▁curfew	-5988
▁dollar	-5989
▁enjoys	-5990
▁errors	-5991
▁estate	-5992
▁excess	-5993
▁fatter	-5994
▁filthy	-5995
▁forbid	-5996
▁formal	-5997
▁grapes	-5998
▁greece	-5999
▁grumpy	-6000
▁guards	-6001
▁heater	-6002
▁heroin	-6003
▁horror	-6004
▁humans	-6005
▁injury	-6006
▁ironed	-6007
▁knives	-6008
▁length	-6009
▁loosen	-6010
▁luxury	-6011
▁majors	-6012
▁melted	-6013
▁modest	-6014
▁napkin	-6015
▁nerves	-6016
▁points	-6017
▁refres	-6018
▁richer	-6019
▁riding	-6020
▁rights	-6021
▁rotten	-6022
▁sealed	-6023
▁severe	-6024
▁sheets	-6025
▁skills	-6026
▁spends	-6027
▁statue	-6028
▁sticky	-6029
▁stoned	-6030
▁strive	-6031
▁subway	-6032
▁theirs	-6033
▁timing	-6034
▁towels	-6035
▁transp	-6036
▁tricky	-6037
▁troops	-6038
▁turkey	-6039
▁unbear	-6040
▁underw	-6041
▁valent	-6042
▁verify	-6043
▁waiter	-6044
▁warmly	-6045
▁angrily	-6046
▁applied	-6047
▁aspirin	-6048
▁attempt	-6049
▁bathtub	-6050
▁bottles	-6051
▁brainer	-6052
▁butterf	-6053
▁ceremon	-6054
▁charged	-6055
▁charity	-6056
▁conduct	-6057
▁counter	-6058
▁cowards	-6059
▁degrees	-6060
▁deposit	-6061
▁destiny	-6062
▁differs	-6063
▁digging	-6064
▁dismiss	-6065
▁divided	-6066
▁dreamer	-6067
▁embassy	-6068
▁errands	-6069
▁forcing	-6070
▁furious	-6071
▁handbag	-6072
▁lightly	-6073
▁loyalty	-6074
▁mailbox	-6075
▁mansion	-6076
▁minimum	-6077
▁opposed	-6078
▁outcome	-6079
▁passion	-6080
▁pattern	-6081
▁picking	-6082
▁politic	-6083
▁propose	-6084
▁quarrel	-6085
▁records	-6086
▁repairs	-6087
▁shortly	-6088
▁showing	-6089
▁trigger	-6090
▁typhoon	-6091
▁uniform	-6092
▁worries	-6093
▁alphabet	-6094
▁approval	-6095
▁arriving	-6096
▁attained	-6097
▁attorney	-6098
▁bankrupt	-6099
▁becoming	-6100
▁bitterly	-6101
▁breaking	-6102
▁captured	-6103
▁catholic	-6104
▁comments	-6105
▁curtains	-6106
▁deluding	-6107
▁diplomat	-6108
▁distract	-6109
▁election	-6110
▁exchange	-6111
▁facebook	-6112
▁forehead	-6113
▁hesitate	-6114
▁hometown	-6115
▁ignoring	-6116
▁incident	-6117
▁instinct	-6118
▁knocking	-6119
▁messages	-6120
▁nickname	-6121
▁offering	-6122
▁original	-6123
▁princess	-6124
▁properly	-6125
▁prophecy	-6126
▁railroad	-6127
▁relative	-6128
▁relaxing	-6129
▁resigned	-6130
▁salesman	-6131
▁scarcely	-6132
▁selected	-6133
▁squirrel	-6134
▁stalling	-6135
▁tempting	-6136
▁thankful	-6137
▁watering	-6138
▁acquitted	-6139
▁alcoholic	-6140
▁bartender	-6141
▁briefcase	-6142
▁carpenter	-6143
▁conceited	-6144
▁courteous	-6145
▁criminals	-6146
▁demanding	-6147
▁destroyed	-6148
▁developed	-6149
▁disagreed	-6150
▁disappear	-6151
▁documents	-6152
▁elephants	-6153
▁foreigner	-6154
▁guarantee	-6155
▁improving	-6156
▁increased	-6157
▁inherited	-6158
▁insulting	-6159
▁literally	-6160
▁negotiate	-6161
▁otherwise	-6162
▁potential	-6163
▁published	-6164
▁resembles	-6165
▁responded	-6166
▁satisfact	-6167
▁saturdays	-6168
▁sentences	-6169
▁separated	-6170
▁sincerely	-6171
▁specialty	-6172
▁stressful	-6173
▁suspected	-6174
▁suspended	-6175
▁tradition	-6176
▁umbrellas	-6177
▁vacations	-6178
▁valentine	-6179
▁accomplish	-6180
▁conscience	-6181
▁department	-6182
▁fascinated	-6183
▁government	-6184
▁impression	-6185
▁pleasantly	-6186
▁separately	-6187
▁watermelon	-6188
▁whatsoever	-6189
▁appearances	-6190
▁appropriate	-6191
▁claustropho	-6192
▁cooperative	-6193
▁destination	-6194
▁disoriented	-6195
▁fashionable	-6196
▁intimidated	-6197
▁predictable	-6198
▁stomachache	-6199
▁surrendered	-6200
▁switzerland	-6201
▁unnecessary	-6202
▁blackmailing	-6203
▁construction	-6204
▁congratulations	-6205
ko	-6206
alo	-6207
anc	-6208
asm	-6209
avy	-6210
bes	-6211
bow	-6212
chy	-6213
ero	-6214
het	-6215
how	-6216
igr	-6217
ipe	-6218
ips	-6219
lin	-6220
nes	-6221
omy	-6222
oph	-6223
ser	-6224
urs	-6225
▁ya	-6226
acht	-6227
aine	-6228
anji	-6229
berg	-6230
cian	-6231
ckey	-6232
ency	-6233
erly	-6234
ffed	-6235
geon	-6236
ials	-6237
inse	-6238
isis	-6239
mbol	-6240
mers	-6241
mons	-6242
mosp	-6243
nate	-6244
rant	-6245
tesy	-6246
uled	-6247
umpt	-6248
whel	-6249
zard	-6250
zart	-6251
▁adj	-6252
▁aid	-6253
▁apt	-6254
▁atm	-6255
▁bol	-6256
▁coc	-6257
▁cyn	-6258
▁esp	-6259
▁exe	-6260
▁fry	-6261
▁gri	-6262
▁hig	-6263
▁lid	-6264
▁lin	-6265
▁net	-6266
▁pee	-6267
▁ram	-6268
▁rap	-6269
▁rev	-6270
▁ton	-6271
▁unk	-6272
▁vig	-6273
▁vir	-6274
▁wan	-6275
▁wid	-6276
▁wig	-6277
▁yog	-6278
▁zip	-6279
achel	-6280
agedy	-6281
andal	-6282
anuts	-6283
aries	-6284
asant	-6285
athon	-6286
auded	-6287
dated	-6288
dream	-6289
erant	-6290
erted	-6291
genic	-6292
grams	-6293
ially	-6294
idote	-6295
ilies	-6296
ilton	-6297
ittee	-6298
loyal	-6299
mered	-6300
olves	-6301
ooked	-6302
riter	-6303
urned	-6304
xteen	-6305
▁ache	-6306
▁asia	-6307
▁beds	-6308
▁bene	-6309
▁bent	-6310
▁cart	-6311
▁dign	-6312
▁diso	-6313
▁drag	-6314
▁edge	-6315
▁fulf	-6316
▁july	-6317
▁junk	-6318
▁kite	-6319
▁laws	-6320
▁lens	-6321
▁liqu	-6322
▁lung	-6323
▁mamm	-6324
▁navy	-6325
▁obed	-6326
▁owls	-6327
▁pamp	-6328
▁pess	-6329
▁pigs	-6330
▁plus	-6331
▁puts	-6332
▁rats	-6333
▁rein	-6334
▁sank	-6335
▁shad	-6336
▁soil	-6337
▁stew	-6338
▁sued	-6339
▁sunb	-6340
▁tale	-6341
▁tank	-6342
▁tent	-6343
▁ther	-6344
▁tide	-6345
▁wept	-6346
▁wins	-6347
▁yell	-6348
▁zero	-6349
entive	-6350
guised	-6351
manent	-6352
ormous	-6353
rician	-6354
undant	-6355
urally	-6356
▁alert	-6357
▁alley	-6358
▁angel	-6359
▁autom	-6360
▁bites	-6361
▁blank	-6362
▁bleed	-6363
▁blink	-6364
▁boats	-6365
▁broch	-6366
▁burns	-6367
▁civil	-6368
▁cloth	-6369
▁court	-6370
▁crank	-6371
▁crops	-6372
▁crush	-6373
▁deals	-6374
▁ditch	-6375
▁donut	-6376
▁eater	-6377
▁falls	-6378
▁fatal	-6379
▁fewer	-6380
▁flows	-6381
▁flute	-6382
▁frequ	-6383
▁holes	-6384
▁honor	-6385
▁image	-6386
▁kanji	-6387
▁label	-6388
▁loads	-6389
▁lobby	-6390
▁minds	-6391
▁moron	-6392
▁nails	-6393
▁oblig	-6394
▁occup	-6395
▁parks	-6396
▁prude	-6397
▁recon	-6398
▁repay	-6399
▁rinse	-6400
▁roads	-6401
▁score	-6402
▁shell	-6403
▁shots	-6404
▁shuff	-6405
▁spicy	-6406
▁squee	-6407
▁stage	-6408
▁stung	-6409
▁tales	-6410
▁theft	-6411
▁unimp	-6412
▁unmar	-6413
▁unpre	-6414
▁urged	-6415
▁wires	-6416
▁yacht	-6417
iterate	-6418
judiced	-6419
ography	-6420
working	-6421
▁access	-6422
▁amount	-6423
▁annoys	-6424
▁argued	-6425
▁atmosp	-6426
▁bachel	-6427
▁barber	-6428
▁cattle	-6429
▁cellar	-6430
▁chased	-6431
▁checks	-6432
▁cheeks	-6433
▁choked	-6434
▁chopin	-6435
▁claims	-6436
▁colder	-6437
▁cotton	-6438
▁counts	-6439
▁create	-6440
▁crisis	-6441
▁detect	-6442
▁dispos	-6443
▁dormit	-6444
▁editor	-6445
▁eighty	-6446
▁equals	-6447
▁escort	-6448
▁feared	-6449
▁feller	-6450
▁fields	-6451
▁garlic	-6452
▁greasy	-6453
▁hazard	-6454
▁hockey	-6455
▁humble	-6456
▁hypocr	-6457
▁income	-6458
▁indeed	-6459
▁insens	-6460
▁ironic	-6461
▁kindly	-6462
▁lemons	-6463
▁mozart	-6464
▁nation	-6465
▁online	-6466
▁overhe	-6467
▁owners	-6468
▁prayed	-6469
▁prince	-6470
▁recall	-6471
▁reward	-6472
▁riddle	-6473
▁rubbed	-6474
▁scares	-6475
▁slower	-6476
▁source	-6477
▁states	-6478
▁stores	-6479
▁string	-6480
▁symbol	-6481
▁tricks	-6482
▁uneasy	-6483
▁united	-6484
▁upside	-6485
▁victim	-6486
▁vision	-6487
▁voting	-6488
▁vulgar	-6489
▁weighs	-6490
▁winner	-6491
▁worthy	-6492
ervative	-6493
friendly	-6494
ilingual	-6495
▁affects	-6496
▁babysit	-6497
▁balance	-6498
▁bandage	-6499
▁biology	-6500
▁bothers	-6501
▁browser	-6502
▁bruised	-6503
▁camping	-6504
▁citizen	-6505
▁cocaine	-6506
▁cynical	-6507
▁deepest	-6508
▁deliber	-6509
▁deliver	-6510
▁dieting	-6511
▁dresses	-6512
▁drifted	-6513
▁elderly	-6514
▁enthusi	-6515
▁evident	-6516
▁falsely	-6517
▁flooded	-6518
▁founded	-6519
▁frantic	-6520
▁granted	-6521
▁handles	-6522
▁hardest	-6523
▁honored	-6524
▁invaded	-6525
▁involve	-6526
▁jewelry	-6527
▁justice	-6528
▁lighten	-6529
▁lighter	-6530
▁lottery	-6531
▁lowered	-6532
▁majored	-6533
▁melting	-6534
▁members	-6535
▁monkeys	-6536
▁monster	-6537
▁numbers	-6538
▁officer	-6539
▁organic	-6540
▁peanuts	-6541
▁pleaded	-6542
▁psyched	-6543
▁receive	-6544
▁satisfy	-6545
▁screwed	-6546
▁servant	-6547
▁showers	-6548
▁sixteen	-6549
▁skating	-6550
▁snowman	-6551
▁stabbed	-6552
▁stuffed	-6553
▁teasing	-6554
▁tighten	-6555
▁tragedy	-6556
▁travels	-6557
▁tripped	-6558
▁various	-6559
▁absorbed	-6560
▁acquired	-6561
▁antidote	-6562
▁assigned	-6563
▁assuming	-6564
▁backpack	-6565
▁basement	-6566
▁blushing	-6567
▁champion	-6568
▁concerns	-6569
▁courtesy	-6570
▁daydream	-6571
▁despises	-6572
▁disloyal	-6573
▁doorbell	-6574
▁earrings	-6575
▁enormous	-6576
▁examples	-6577
▁extended	-6578
▁families	-6579
▁fountain	-6580
▁freezing	-6581
▁frighten	-6582
▁guessing	-6583
▁hammered	-6584
▁homeless	-6585
▁imagined	-6586
▁implying	-6587
▁insulted	-6588
▁interven	-6589
▁marathon	-6590
▁minister	-6591
▁narrowly	-6592
▁obedient	-6593
▁occasion	-6594
▁opinions	-6595
▁outgoing	-6596
▁overwhel	-6597
▁precious	-6598
▁products	-6599
▁requires	-6600
▁respects	-6601
▁restroom	-6602
▁retiring	-6603
▁sacrific	-6604
▁slippers	-6605
▁speeding	-6606
▁spelling	-6607
▁throwing	-6608
▁waitress	-6609
▁admission	-6610
▁applauded	-6611
▁appointed	-6612
▁astronomy	-6613
▁attentive	-6614
▁cigarette	-6615
▁classical	-6616
▁committee	-6617
▁confusing	-6618
▁currently	-6619
▁departure	-6620
▁described	-6621
▁determine	-6622
▁direction	-6623
▁disguised	-6624
▁dishonest	-6625
▁education	-6626
▁geography	-6627
▁hamburger	-6628
▁kilograms	-6629
▁naturally	-6630
▁notebooks	-6631
▁permanent	-6632
▁presented	-6633
▁prevented	-6634
▁realistic	-6635
▁regretted	-6636
▁reluctant	-6637
▁remembers	-6638
▁secretive	-6639
▁someplace	-6640
▁statement	-6641
▁strenuous	-6642
▁suspicion	-6643
▁universal	-6644
▁unmarried	-6645
▁worthless	-6646
▁blackboard	-6647
▁brightened	-6648
▁convenient	-6649
▁encouraged	-6650
▁exaggerate	-6651
▁exhausting	-6652
▁foreigners	-6653
▁frequently	-6654
▁hypnotized	-6655
▁photogenic	-6656
▁physically	-6657
▁punishment	-6658
▁respectful	-6659
▁specialist	-6660
▁suggesting	-6661
▁thoughtful	-6662
▁typewriter	-6663
▁unbearable	-6664
▁undressing	-6665
▁unfriendly	-6666
▁financially	-6667
▁frightening	-6668
▁hardworking	-6669
▁insensitive	-6670
▁performance	-6671
▁pessimistic	-6672
▁practically	-6673
▁questioning	-6674
▁sympathetic	-6675
▁translation	-6676
▁trustworthy	-6677
▁unfortunate	-6678
▁unimpressed	-6679
▁accomplished	-6680
▁conservative	-6681
▁dissatisfied	-6682
▁extinguished	-6683
▁negotiations	-6684
▁congratulated	-6685
▁disrespectful	-6686
▁temperamental	-6687
ai	-6688
bu	-6689
cd	-6690
da	-6691
hj	-6692
wh	-6693
▁x	-6694
aka	-6695
aki	-6696
amb	-6697
bur	-6698
ego	-6699
fit	-6700
for	-6701
jas	-6702
lex	-6703
met	-6704
nel	-6705
ody	-6706
oms	-6707
str	-6708
urd	-6709
zil	-6710
▁ah	-6711
▁ep	-6712
▁gi	-6713
▁ly	-6714
▁os	-6715
abet	-6716
asty	-6717
atch	-6718
aven	-6719
bler	-6720
coat	-6721
cony	-6722
dles	-6723
down	-6724
erce	-6725
food	-6726
ford	-6727
gled	-6728
hill	-6729
idly	-6730
ique	-6731
lter	-6732
nown	-6733
numb	-6734
onym	-6735
opia	-6736
opsy	-6737
over	-6738
race	-6739
rens	-6740
shed	-6741
sist	-6742
tain	-6743
thle	-6744
tied	-6745
well	-6746
ycle	-6747
ygen	-6748
▁amp	-6749
▁ash	-6750
▁cyc	-6751
▁dug	-6752
▁elb	-6753
▁fad	-6754
▁fer	-6755
▁haw	-6756
▁hel	-6757
▁hic	-6758
▁jes	-6759
▁jit	-6760
▁lim	-6761
▁mal	-6762
▁max	-6763
▁pal	-6764
▁pry	-6765
▁rip	-6766
▁sen	-6767
▁sla	-6768
▁sow	-6769
▁swo	-6770
▁syn	-6771
▁toe	-6772
▁tux	-6773
▁ufo	-6774
▁ups	-6775
▁wax	-6776
about	-6777
agers	-6778
aghet	-6779
apego	-6780
armed	-6781
arrot	-6782
build	-6783
comed	-6784
elled	-6785
erson	-6786
geons	-6787
hesis	-6788
hjong	-6789
iforn	-6790
iland	-6791
iracy	-6792
itary	-6793
itled	-6794
lance	-6795
layed	-6796
lined	-6797
mated	-6798
ortal	-6799
orted	-6800
owing	-6801
point	-6802
stage	-6803
stand	-6804
store	-6805
usely	-6806
while	-6807
▁alto	-6808
▁anti	-6809
▁aven	-6810
▁blog	-6811
▁buff	-6812
▁bury	-6813
▁caps	-6814
▁chef	-6815
▁choo	-6816
▁coma	-6817
▁dies	-6818
▁dime	-6819
▁dogh	-6820
▁duck	-6821
▁frag	-6822
▁grud	-6823
▁gull	-6824
▁heel	-6825
▁hunt	-6826
▁inha	-6827
▁isol	-6828
▁knit	-6829
▁lets	-6830
▁mild	-6831
▁obno	-6832
▁odds	-6833
▁oral	-6834
▁pipe	-6835
▁port	-6836
▁pump	-6837
▁rack	-6838
▁rash	-6839
▁reck	-6840
▁rode	-6841
▁role	-6842
▁rout	-6843
▁sack	-6844
▁scal	-6845
▁seek	-6846
▁sexy	-6847
▁shru	-6848
▁stit	-6849
▁tips	-6850
▁tons	-6851
▁tool	-6852
▁tort	-6853
▁turt	-6854
▁unac	-6855
▁unin	-6856
▁waff	-6857
▁wage	-6858
▁wand	-6859
▁wink	-6860
▁yawn	-6861
acious	-6862
amaged	-6863
arried	-6864
assing	-6865
culiar	-6866
elaces	-6867
enders	-6868
ertive	-6869
ieving	-6870
ishing	-6871
ivable	-6872
mented	-6873
nesday	-6874
orious	-6875
pelled	-6876
pering	-6877
sticks	-6878
tering	-6879
ternal	-6880
uckled	-6881
writer	-6882
▁adopt	-6883
▁amate	-6884
▁amoun	-6885
▁ankle	-6886
▁athle	-6887
▁awoke	-6888
▁bacon	-6889
▁bores	-6890
▁bossy	-6891
▁brace	-6892
▁bride	-6893
▁buses	-6894
▁cabin	-6895
▁chain	-6896
▁cliff	-6897
▁comic	-6898
▁crook	-6899
▁dated	-6900
▁downs	-6901
▁drama	-6902
▁dried	-6903
▁dryer	-6904
▁estab	-6905
▁euros	-6906
▁fairy	-6907
▁feeds	-6908
▁fifth	-6909
▁finds	-6910
▁fishy	-6911
▁flame	-6912
▁float	-6913
▁fluke	-6914
▁forks	-6915
▁forms	-6916
▁futon	-6917
▁hiber	-6918
▁hunch	-6919
▁hypot	-6920
▁ideal	-6921
▁inade	-6922
▁incon	-6923
▁indic	-6924
▁level	-6925
▁lions	-6926
▁maint	-6927
▁medit	-6928
▁mixed	-6929
▁nasty	-6930
▁optim	-6931
▁osaka	-6932
▁overc	-6933
▁pages	-6934
▁penny	-6935
▁plate	-6936
▁prime	-6937
▁print	-6938
▁produ	-6939
▁risen	-6940
▁roast	-6941
▁sauce	-6942
▁shine	-6943
▁shows	-6944
▁signs	-6945
▁spect	-6946
▁stead	-6947
▁tools	-6948
▁trips	-6949
▁unple	-6950
▁verge	-6951
▁veter	-6952
▁wanna	-6953
▁wives	-6954
aghetti	-6955
alented	-6956
apegoat	-6957
ception	-6958
ifornia	-6959
iration	-6960
itement	-6961
nerable	-6962
neyland	-6963
portant	-6964
ulation	-6965
▁absurd	-6966
▁abused	-6967
▁adjust	-6968
▁adores	-6969
▁assure	-6970
▁basked	-6971
▁blames	-6972
▁bolted	-6973
▁booked	-6974
▁bounds	-6975
▁braces	-6976
▁brazil	-6977
▁brings	-6978
▁calcul	-6979
▁calmly	-6980
▁career	-6981
▁collap	-6982
▁comics	-6983
▁confis	-6984
▁crimes	-6985
▁decent	-6986
▁detest	-6987
▁diabet	-6988
▁digest	-6989
▁discon	-6990
▁divine	-6991
▁driven	-6992
▁encoun	-6993
▁execut	-6994
▁facing	-6995
▁fierce	-6996
▁freeze	-6997
▁golden	-6998
▁groggy	-6999
▁grouch	-7000
▁heaven	-7001
▁higher	-7002
▁hilton	-7003
▁hiring	-7004
▁hunger	-7005
▁idiots	-7006
▁korean	-7007
▁lenses	-7008
▁makeup	-7009
▁mammal	-7010
▁misses	-7011
▁motion	-7012
▁neatly	-7013
▁ninety	-7014
▁ninjas	-7015
▁obstac	-7016
▁olives	-7017
▁outfit	-7018
▁overdo	-7019
▁oxford	-7020
▁oxygen	-7021
▁parrot	-7022
▁phrase	-7023
▁pliers	-7024
▁potato	-7025
▁priest	-7026
▁purcha	-7027
▁raking	-7028
▁rebels	-7029
▁relied	-7030
▁review	-7031
▁robots	-7032
▁roller	-7033
▁russia	-7034
▁senior	-7035
▁shadow	-7036
▁shaved	-7037
▁sighed	-7038
▁sipped	-7039
▁sirens	-7040
▁smiles	-7041
▁snacks	-7042
▁snails	-7043
▁stands	-7044
▁stream	-7045
▁sweets	-7046
▁thrown	-7047
▁tigers	-7048
▁tossed	-7049
▁visits	-7050
▁washes	-7051
▁wisdom	-7052
▁wisely	-7053
gettable	-7054
numbered	-7055
sistible	-7056
▁absorbs	-7057
▁arrival	-7058
▁autopsy	-7059
▁balcony	-7060
▁blessed	-7061
▁blister	-7062
▁borders	-7063
▁bullets	-7064
▁catches	-7065
▁closing	-7066
▁coaster	-7067
▁concept	-7068
▁cracked	-7069
▁created	-7070
▁customs	-7071
▁cycling	-7072
▁dangers	-7073
▁deceive	-7074
▁distant	-7075
▁dolphin	-7076
▁emptied	-7077
▁experts	-7078
▁expired	-7079
▁fiction	-7080
▁gaining	-7081
▁gambler	-7082
▁greatly	-7083
▁halfway	-7084
▁jittery	-7085
▁landing	-7086
▁legwork	-7087
▁limited	-7088
▁mahjong	-7089
▁offense	-7090
▁physics	-7091
▁pigeons	-7092
▁praying	-7093
▁printer	-7094
▁process	-7095
▁provide	-7096
▁quality	-7097
▁rapidly	-7098
▁recover	-7099
▁recycle	-7100
▁regards	-7101
▁riddles	-7102
▁rubbish	-7103
▁scandal	-7104
▁schools	-7105
▁seafood	-7106
▁shelter	-7107
▁shuffle	-7108
▁skipped	-7109
▁slavery	-7110
▁sloshed	-7111
▁snapped	-7112
▁spelled	-7113
▁surgeon	-7114
▁swollen	-7115
▁testing	-7116
▁turtles	-7117
▁unknown	-7118
▁victory	-7119
▁warrant	-7120
▁whistle	-7121
▁wrapped	-7122
heartedly	-7123
▁admiring	-7124
▁appealed	-7125
▁asserted	-7126
▁blocking	-7127
▁bragging	-7128
▁breather	-7129
▁carrying	-7130
▁ceremony	-7131
▁collided	-7132
▁cremated	-7133
▁defeated	-7134
▁demented	-7135
▁designed	-7136
▁designer	-7137
▁discover	-7138
▁disgrace	-7139
▁doghouse	-7140
▁dolphins	-7141
▁educated	-7142
▁eighteen	-7143
▁emotions	-7144
▁expelled	-7145
▁external	-7146
▁extraord	-7147
▁flinched	-7148
▁freshman	-7149
▁gasoline	-7150
▁gullible	-7151
▁handling	-7152
▁honestly	-7153
▁hostages	-7154
▁inclined	-7155
▁inspired	-7156
▁inviting	-7157
▁isolated	-7158
▁lipstick	-7159
▁marrying	-7160
▁material	-7161
▁meanings	-7162
▁measured	-7163
▁miracles	-7164
▁novelist	-7165
▁outdated	-7166
▁overcome	-7167
▁patients	-7168
▁peculiar	-7169
▁politely	-7170
▁presence	-7171
▁pressing	-7172
▁property	-7173
▁provided	-7174
▁restless	-7175
▁revealed	-7176
▁shrugged	-7177
▁smoothly	-7178
▁stitches	-7179
▁stressed	-7180
▁strictly	-7181
▁supplies	-7182
▁survival	-7183
▁suspects	-7184
▁sweating	-7185
▁thailand	-7186
▁unturned	-7187
▁vanished	-7188
▁vitamins	-7189
▁weekends	-7190
▁welcomed	-7191
▁adventure	-7192
▁airplanes	-7193
▁apologies	-7194
▁assertive	-7195
▁attempted	-7196
▁backstage	-7197
▁beginners	-7198
▁bilingual	-7199
▁brightest	-7200
▁concluded	-7201
▁consulted	-7202
▁contacted	-7203
▁contradic	-7204
▁correctly	-7205
▁countless	-7206
▁dismissed	-7207
▁displayed	-7208
▁freelance	-7209
▁hibernate	-7210
▁housework	-7211
▁imagining	-7212
▁imitating	-7213
▁instantly	-7214
▁intruding	-7215
▁materials	-7216
▁mysteries	-7217
▁obnoxious	-7218
▁offensive	-7219
▁painfully	-7220
▁pointless	-7221
▁predators	-7222
▁predicted	-7223
▁profusely	-7224
▁protected	-7225
▁reception	-7226
▁relatives	-7227
▁remarried	-7228
▁repeating	-7229
▁resigning	-7230
▁scapegoat	-7231
▁searching	-7232
▁shoelaces	-7233
▁signature	-7234
▁spaghetti	-7235
▁strangely	-7236
▁stretched	-7237
▁surrender	-7238
▁technique	-7239
▁teenagers	-7240
▁timetable	-7241
▁travelers	-7242
▁treatment	-7243
▁undamaged	-7244
▁unusually	-7245
▁wednesday	-7246
▁witnesses	-7247
▁wondering	-7248
▁accountant	-7249
▁altogether	-7250
▁anticipate	-7251
▁atmosphere	-7252
▁california	-7253
▁chocolates	-7254
▁chopsticks	-7255
▁christians	-7256
▁conspiracy	-7257
▁directions	-7258
▁discussing	-7259
▁disneyland	-7260
▁downloaded	-7261
▁exceptions	-7262
▁excitement	-7263
▁exercising	-7264
▁hamburgers	-7265
▁hypothesis	-7266
▁inadequate	-7267
▁intimidate	-7268
▁intriguing	-7269
▁literature	-7270
▁misspelled	-7271
▁outrageous	-7272
▁prediction	-7273
▁questioned	-7274
▁refreshing	-7275
▁sharpening	-7276
▁sufficient	-7277
▁suspenders	-7278
▁terrorists	-7279
▁unpleasant	-7280
▁untalented	-7281
▁achievement	-7282
▁anticipated	-7283
▁application	-7284
▁butterflies	-7285
▁competition	-7286
▁considering	-7287
▁contributed	-7288
▁cooperating	-7289
▁countryside	-7290
▁differences	-7291
▁electrician	-7292
▁infuriating	-7293
▁inspiration	-7294
▁outnumbered	-7295
▁participate	-7296
▁remembering	-7297
▁replaceable	-7298
▁suggestions	-7299
▁unimportant	-7300
▁vegetarians	-7301
▁intelligence	-7302
▁irresistible	-7303
▁measurements	-7304
▁psychologist	-7305
▁satisfactory	-7306
▁opportunistic	-7307
▁unforgettable	-7308
▁claustrophobic	-7309
▁understandable	-7310
fl	-7311
gr	-7312
hy	-7313
jo	-7314
pa	-7315
tr	-7316
acu	-7317
aii	-7318
ait	-7319
anu	-7320
bia	-7321
bon	-7322
cel	-7323
ded	-7324
eam	-7325
ene	-7326
fos	-7327
gon	-7328
hen	-7329
hew	-7330
iac	-7331
ibr	-7332
ido	-7333
ila	-7334
kka	-7335
ldy	-7336
lim	-7337
nam	-7338
rap	-7339
rig	-7340
see	-7341
sty	-7342
tie	-7343
top	-7344
uge	-7345
war	-7346
▁zi	-7347
acts	-7348
adow	-7349
arse	-7350
aser	-7351
asts	-7352
bone	-7353
boot	-7354
brid	-7355
brow	-7356
cast	-7357
cdon	-7358
chae	-7359
coln	-7360
coon	-7361
corn	-7362
days	-7363
fles	-7364
foot	-7365
hand	-7366
hens	-7367
horn	-7368
iddy	-7369
iety	-7370
iked	-7371
illa	-7372
inos	-7373
itis	-7374
loys	-7375
lymp	-7376
mark	-7377
mary	-7378
mble	-7379
oomy	-7380
otes	-7381
plac	-7382
ques	-7383
rail	-7384
resh	-7385
ruci	-7386
sing	-7387
tray	-7388
ucet	-7389
udic	-7390
ugal	-7391
unci	-7392
wife	-7393
▁ace	-7394
▁atl	-7395
▁bak	-7396
▁byg	-7397
▁cas	-7398
▁der	-7399
▁dna	-7400
▁gay	-7401
▁gig	-7402
▁gum	-7403
▁jar	-7404
▁jet	-7405
▁kim	-7406
▁lun	-7407
▁nur	-7408
▁nut	-7409
▁shr	-7410
▁tit	-7411
▁tro	-7412
▁web	-7413
acist	-7414
acter	-7415
ading	-7416
adium	-7417
aming	-7418
angle	-7419
apted	-7420
arium	-7421
asted	-7422
astin	-7423
asure	-7424
avoid	-7425
aware	-7426
brows	-7427
brush	-7428
chite	-7429
cksaw	-7430
essed	-7431
fight	-7432
ggles	-7433
iopia	-7434
itals	-7435
izoph	-7436
kings	-7437
lexes	-7438
licop	-7439
loids	-7440
oneer	-7441
orate	-7442
ously	-7443
quila	-7444
raine	-7445
raint	-7446
roken	-7447
screw	-7448
shine	-7449
think	-7450
unked	-7451
ustry	-7452
verty	-7453
▁acid	-7454
▁ammo	-7455
▁asks	-7456
▁bars	-7457
▁brew	-7458
▁brit	-7459
▁bush	-7460
▁cano	-7461
▁coke	-7462
▁cups	-7463
▁cust	-7464
▁cuts	-7465
▁damp	-7466
▁demo	-7467
▁fans	-7468
▁fert	-7469
▁flab	-7470
▁folk	-7471
▁ford	-7472
▁fret	-7473
▁gall	-7474
▁gang	-7475
▁janu	-7476
▁jury	-7477
▁koal	-7478
▁kobe	-7479
▁lamb	-7480
▁lame	-7481
▁link	-7482
▁loop	-7483
▁mand	-7484
▁mask	-7485
▁mitt	-7486
▁mult	-7487
▁myth	-7488
▁nerd	-7489
▁nosy	-7490
▁outs	-7491
▁pand	-7492
▁plum	-7493
▁pony	-7494
▁prem	-7495
▁radi	-7496
▁raft	-7497
▁rank	-7498
▁reap	-7499
▁ripe	-7500
▁rise	-7501
▁rung	-7502
▁rust	-7503
▁sake	-7504
▁samp	-7505
▁sche	-7506
▁seal	-7507
▁sets	-7508
▁shri	-7509
▁snee	-7510
▁spit	-7511
▁tear	-7512
▁tues	-7513
▁ufos	-7514
▁unsa	-7515
▁vibr	-7516
▁worm	-7517
▁yoga	-7518
acular	-7519
aholic	-7520
angled	-7521
arting	-7522
athing	-7523
aughty	-7524
cuffed	-7525
deness	-7526
eranto	-7527
fering	-7528
icious	-7529
ifully	-7530
ilance	-7531
inkled	-7532
kkaido	-7533
lights	-7534
liness	-7535
mbling	-7536
oughed	-7537
owered	-7538
person	-7539
prints	-7540
rapped	-7541
rested	-7542
script	-7543
ursday	-7544
ystick	-7545
▁abhor	-7546
▁abuse	-7547
▁alice	-7548
▁ambig	-7549
▁badge	-7550
▁banks	-7551
▁bathe	-7552
▁beats	-7553
▁benef	-7554
▁bigot	-7555
▁bloom	-7556
▁bones	-7557
▁bribe	-7558
▁brick	-7559
▁broad	-7560
▁bucks	-7561
▁cello	-7562
▁chief	-7563
▁chill	-7564
▁clerk	-7565
▁comed	-7566
▁curly	-7567
▁dealt	-7568
▁delus	-7569
▁devil	-7570
▁dislo	-7571
▁dodge	-7572
▁drawn	-7573
▁drops	-7574
▁dumbf	-7575
▁dwell	-7576
▁erase	-7577
▁evacu	-7578
▁exhib	-7579
▁faced	-7580
▁flaws	-7581
▁flirt	-7582
▁flunk	-7583
▁folks	-7584
▁froze	-7585
▁funds	-7586
▁gains	-7587
▁gazed	-7588
▁giddy	-7589
▁grumb	-7590
▁haste	-7591
▁heads	-7592
▁heels	-7593
▁hitch	-7594
▁india	-7595
▁ingen	-7596
▁itchy	-7597
▁jesus	-7598
▁jolly	-7599
▁locks	-7600
▁ludic	-7601
▁lyric	-7602
▁maxed	-7603
▁mcdon	-7604
▁mince	-7605
▁moldy	-7606
▁newly	-7607
▁niece	-7608
▁olymp	-7609
▁owner	-7610
▁parag	-7611
▁perse	-7612
▁pluck	-7613
▁procr	-7614
▁punch	-7615
▁quote	-7616
▁raged	-7617
▁revel	-7618
▁revol	-7619
▁rings	-7620
▁ruins	-7621
▁sadly	-7622
▁serum	-7623
▁shark	-7624
▁slope	-7625
▁smith	-7626
▁snows	-7627
▁solid	-7628
▁stake	-7629
▁steam	-7630
▁steel	-7631
▁steep	-7632
▁swore	-7633
▁sympt	-7634
▁tiger	-7635
▁tipsy	-7636
▁trace	-7637
▁trade	-7638
▁trash	-7639
▁uneth	-7640
▁unins	-7641
▁unrel	-7642
▁virus	-7643
▁voter	-7644
▁wages	-7645
▁wider	-7646
▁widow	-7647
▁winds	-7648
▁wrist	-7649
ceptive	-7650
chestra	-7651
chitect	-7652
ganized	-7653
givable	-7654
icapped	-7655
ievably	-7656
inative	-7657
irstyle	-7658
lloween	-7659
onymous	-7660
rigible	-7661
unching	-7662
vention	-7663
▁aching	-7664
▁aiming	-7665
▁amazed	-7666
▁amazes	-7667
▁archae	-7668
▁backup	-7669
▁baking	-7670
▁breast	-7671
▁busier	-7672
▁camped	-7673
▁campus	-7674
▁ceased	-7675
▁center	-7676
▁cereal	-7677
▁cheers	-7678
▁chewed	-7679
▁circul	-7680
▁circus	-7681
▁collar	-7682
▁collea	-7683
▁convey	-7684
▁degree	-7685
▁delete	-7686
▁denies	-7687
▁desper	-7688
▁dining	-7689
▁duties	-7690
▁elbows	-7691
▁exists	-7692
▁explos	-7693
▁faucet	-7694
▁fellow	-7695
▁floats	-7696
▁fourth	-7697
▁frying	-7698
▁glance	-7699
▁gloomy	-7700
▁golfer	-7701
▁grudge	-7702
▁hawaii	-7703
▁helmet	-7704
▁heroes	-7705
▁hourly	-7706
▁hunter	-7707
▁hybrid	-7708
▁improv	-7709
▁kisser	-7710
▁ladies	-7711
▁latest	-7712
▁licked	-7713
▁locker	-7714
▁maniac	-7715
▁mature	-7716
▁meadow	-7717
▁merely	-7718
▁mexico	-7719
▁milked	-7720
▁muslim	-7721
▁onions	-7722
▁orient	-7723
▁outlaw	-7724
▁parcel	-7725
▁partly	-7726
▁pearls	-7727
▁peeked	-7728
▁physic	-7729
▁policy	-7730
▁proved	-7731
▁prover	-7732
▁proves	-7733
▁racing	-7734
▁reboot	-7735
▁reckon	-7736
▁region	-7737
▁rental	-7738
▁ripped	-7739
▁runner	-7740
▁selfie	-7741
▁server	-7742
▁serves	-7743
▁sewing	-7744
▁shares	-7745
▁slaves	-7746
▁sliced	-7747
▁sorrow	-7748
▁spoons	-7749
▁steady	-7750
▁stocks	-7751
▁superb	-7752
▁surely	-7753
▁survey	-7754
▁teleph	-7755
▁tenure	-7756
▁terrif	-7757
▁therap	-7758
▁thread	-7759
▁topics	-7760
▁trophy	-7761
▁uninte	-7762
▁unison	-7763
▁wester	-7764
▁wolves	-7765
▁wounds	-7766
▁zipper	-7767
ceptable	-7768
izophren	-7769
licopter	-7770
▁actions	-7771
▁adapted	-7772
▁admirer	-7773
▁analyze	-7774
▁ashtray	-7775
▁bassoon	-7776
▁beneath	-7777
▁blaming	-7778
▁blondes	-7779
▁bowling	-7780
▁buckets	-7781
▁bugging	-7782
▁bygones	-7783
▁cameras	-7784
▁causing	-7785
▁channel	-7786
▁clothed	-7787
▁custody	-7788
▁desires	-7789
▁disconn	-7790
▁disgust	-7791
▁disobey	-7792
▁donated	-7793
▁drawers	-7794
▁drummer	-7795
▁economy	-7796
▁emotion	-7797
▁employs	-7798
▁equally	-7799
▁excruci	-7800
▁expects	-7801
▁expense	-7802
▁feeding	-7803
▁flights	-7804
▁flunked	-7805
▁follows	-7806
▁freezer	-7807
▁general	-7808
▁giggled	-7809
▁goggles	-7810
▁hacksaw	-7811
▁happily	-7812
▁harmful	-7813
▁harshly	-7814
▁harvest	-7815
▁include	-7816
▁january	-7817
▁justify	-7818
▁knowing	-7819
▁laziest	-7820
▁learner	-7821
▁lincoln	-7822
▁messing	-7823
▁mexican	-7824
▁museums	-7825
▁naughty	-7826
▁observe	-7827
▁ongoing	-7828
▁outlive	-7829
▁passing	-7830
▁pastime	-7831
▁payment	-7832
▁picnics	-7833
▁pierced	-7834
▁pinched	-7835
▁pioneer	-7836
▁popcorn	-7837
▁poverty	-7838
▁primary	-7839
▁profile	-7840
▁pushing	-7841
▁puzzles	-7842
▁rainbow	-7843
▁refresh	-7844
▁release	-7845
▁remarks	-7846
▁resched	-7847
▁rewrite	-7848
▁richest	-7849
▁sailing	-7850
▁savings	-7851
▁scratch	-7852
▁shaving	-7853
▁simpler	-7854
▁sleeper	-7855
▁solving	-7856
▁somehow	-7857
▁squeeze	-7858
▁stadium	-7859
▁stained	-7860
▁sucking	-7861
▁swallow	-7862
▁tequila	-7863
▁testify	-7864
▁thinner	-7865
▁threats	-7866
▁tightly	-7867
▁trainer	-7868
▁trifles	-7869
▁tuesday	-7870
▁unarmed	-7871
▁unavoid	-7872
▁unaware	-7873
▁undress	-7874
▁urgency	-7875
▁vanilla	-7876
▁waffles	-7877
▁warming	-7878
▁whining	-7879
▁whipped	-7880
ification	-7881
ouncement	-7882
unciation	-7883
▁affected	-7884
▁antiques	-7885
▁attached	-7886
▁attempts	-7887
▁bachelor	-7888
▁barefoot	-7889
▁belonged	-7890
▁blankets	-7891
▁bracelet	-7892
▁breathed	-7893
▁brochure	-7894
▁capsized	-7895
▁cheering	-7896
▁citizens	-7897
▁collects	-7898
▁congress	-7899
▁conserve	-7900
▁cracking	-7901
▁december	-7902
▁declared	-7903
▁delivery	-7904
▁detailed	-7905
▁diabetic	-7906
▁diamonds	-7907
▁disliked	-7908
▁disposal	-7909
▁doubtful	-7910
▁drunkard	-7911
▁entitled	-7912
▁ethiopia	-7913
▁european	-7914
▁executed	-7915
▁eyebrows	-7916
▁fearless	-7917
▁freaking	-7918
▁gardener	-7919
▁hokkaido	-7920
▁humanity	-7921
▁hundreds	-7922
▁ignition	-7923
▁immature	-7924
▁imported	-7925
▁inconven	-7926
▁industry	-7927
▁insanely	-7928
▁interrog	-7929
▁jacksons	-7930
▁joystick	-7931
▁maintain	-7932
▁managing	-7933
▁markings	-7934
▁mcdonald	-7935
▁memories	-7936
▁obsessed	-7937
▁occupied	-7938
▁official	-7939
▁olympics	-7940
▁organize	-7941
▁poisoned	-7942
▁polished	-7943
▁probable	-7944
▁proposed	-7945
▁purchase	-7946
▁quitting	-7947
▁reflexes	-7948
▁resolved	-7949
▁rudeness	-7950
▁secretly	-7951
▁settling	-7952
▁severely	-7953
▁shocking	-7954
▁shoehorn	-7955
▁shortcut	-7956
▁showered	-7957
▁slippery	-7958
▁suitable	-7959
▁sunshine	-7960
▁switched	-7961
▁tabloids	-7962
▁threaten	-7963
▁thursday	-7964
▁traitors	-7965
▁treasure	-7966
▁triangle	-7967
▁troubles	-7968
▁unsolved	-7969
▁watchful	-7970
▁weekdays	-7971
astinating	-7972
▁abilities	-7973
▁anonymous	-7974
▁architect	-7975
▁bargained	-7976
▁believing	-7977
▁breakdown	-7978
▁character	-7979
▁chickened	-7980
▁christian	-7981
▁competent	-7982
▁complains	-7983
▁consuming	-7984
▁criticize	-7985
▁crunching	-7986
▁discovery	-7987
▁dormitory	-7988
▁drinkable	-7989
▁economics	-7990
▁empowered	-7991
▁encounter	-7992
▁entertain	-7993
▁esperanto	-7994
▁excessive	-7995
▁favorites	-7996
▁financial	-7997
▁forbidden	-7998
▁gradually	-7999
▁greetings	-8000
▁grumbling	-8001
▁hairstyle	-8002
▁halloween	-8003
▁hopefully	-8004
▁housewife	-8005
▁hypnotize	-8006
▁indicates	-8007
▁infection	-8008
▁influence	-8009
▁interpret	-8010
▁intervene	-8011
▁justified	-8012
▁ludicrous	-8013
▁mandatory	-8014
▁memorized	-8015
▁orchestra	-8016
▁overheard	-8017
▁premature	-8018
▁principal	-8019
▁protested	-8020
▁recording	-8021
▁redundant	-8022
▁requested	-8023
▁restraint	-8024
▁sentenced	-8025
▁shivering	-8026
▁slightest	-8027
▁strangled	-8028
▁teammates	-8029
▁textbooks	-8030
▁thousands	-8031
▁troubling	-8032
▁underwear	-8033
▁unethical	-8034
▁uninsured	-8035
▁unwrapped	-8036
▁upsetting	-8037
▁vigilance	-8038
▁violinist	-8039
▁whistling	-8040
▁approached	-8041
▁australian	-8042
▁babysitter	-8043
▁challenges	-8044
▁collection	-8045
▁compulsive	-8046
▁conclusive	-8047
▁conference	-8048
▁decorating	-8049
▁delusional	-8050
▁dependable	-8051
▁dislocated	-8052
▁exhibition	-8053
▁forgetting	-8054
▁handcuffed	-8055
▁helicopter	-8056
▁illiterate	-8057
▁importance	-8058
▁instrument	-8059
▁irritating	-8060
▁meaningful	-8061
▁mosquitoes	-8062
▁motivation	-8063
▁negotiable	-8064
▁obligation	-8065
▁pharmacist	-8066
▁politician	-8067
▁prejudiced	-8068
▁principles	-8069
▁pronounced	-8070
▁protecting	-8071
▁restarting	-8072
▁revelation	-8073
▁roundabout	-8074
▁situations	-8075
▁sunbathing	-8076
▁supporting	-8077
▁sweetheart	-8078
▁toothbrush	-8079
▁transcript	-8080
▁underlined	-8081
▁victorious	-8082
▁vulnerable	-8083
▁whispering	-8084
▁workaholic	-8085
▁acknowledge	-8086
▁advertising	-8087
▁astonishing	-8088
▁beautifully	-8089
▁candlelight	-8090
▁chairperson	-8091
▁composition	-8092
▁confiscated	-8093
▁consequence	-8094
▁dangerously	-8095
▁defenseless	-8096
▁description	-8097
▁dumbfounded	-8098
▁forgiveness	-8099
▁handicapped	-8100
▁heartbroken	-8101
▁hospitality	-8102
▁improvement	-8103
▁instruments	-8104
▁interfering	-8105
▁introverted	-8106
▁medications	-8107
▁negotiation	-8108
▁overwhelmed	-8109
▁proposition	-8110
▁recognition	-8111
▁reluctantly	-8112
▁schizophren	-8113
▁spectacular	-8114
▁unavoidable	-8115
▁voluntarily	-8116
▁announcement	-8117
▁disorganized	-8118
▁excruciating	-8119
▁hospitalized	-8120
▁incorrigible	-8121
▁participated	-8122
▁reconsidered	-8123
▁strawberries	-8124
▁unacceptable	-8125
▁unbelievably	-8126
▁unforgivable	-8127
▁uninterested	-8128
▁concentrating	-8129
▁contradicting	-8130
▁extraordinary	-8131
▁intentionally	-8132
▁opportunities	-8133
▁overqualified	-8134
▁pronunciation	-8135
▁underestimated	-8136
▁wholeheartedly	-8137
▁procrastinating	-8138
ah	-8139
bl	-8140
dr	-8141
ev	-8142
gl	-8143
ix	-8144
my	-8145
vd	-8146
acc	-8147
ago	-8148
ano	-8149
ara	-8150
arw	-8151
asp	-8152
awa	-8153
boe	-8154
bot	-8155
boy	-8156
bru	-8157
cop	-8158
dec	-8159
dka	-8160
dri	-8161
edo	-8162
eps	-8163
etr	-8164
ffe	-8165
ffs	-8166
ils	-8167
irs	-8168
lpt	-8169
mma	-8170
mot	-8171
mps	-8172
nip	-8173
ode	-8174
ono	-8175
ops	-8176
ott	-8177
paw	-8178
pot	-8179
rid	-8180
rim	-8181
sha	-8182
shm	-8183
son	-8184
sts	-8185
tan	-8186
ube	-8187
vet	-8188
zes	-8189
▁dj	-8190
▁ga	-8191
▁ii	-8192
▁ip	-8193
▁ll	-8194
▁tb	-8195
aced	-8196
adle	-8197
agle	-8198
aned	-8199
cra	-8200
ley	-8201
abul	-8202
anim	-8203
aoke	-8204
aria	-8205
ario	-8206
asco	-8207
asso	-8208
aurs	-8209
back	-8210
bble	-8211
beat	-8212
bled	-8213
born	-8214
cano	-8215
cine	-8216
conf	-8217
ctic	-8218
eare	-8219
enex	-8220
eria	-8221
etho	-8222
hase	-8223
heat	-8224
icke	-8225
ipes	-8226
iron	-8227
isms	-8228
isor	-8229
keep	-8230
koha	-8231
lied	-8232
ller	-8233
made	-8234
maid	-8235
mock	-8236
mome	-8237
mped	-8238
mpoo	-8239
odor	-8240
oice	-8241
olks	-8242
omed	-8243
omic	-8244
orus	-8245
perv	-8246
phew	-8247
prot	-8248
raph	-8249
rels	-8250
ript	-8251
roll	-8252
rude	-8253
scap	-8254
sels	-8255
stal	-8256
stop	-8257
tale	-8258
test	-8259
tted	-8260
tuce	-8261
ucid	-8262
udes	-8263
ulpt	-8264
unic	-8265
urbs	-8266
uten	-8267
weds	-8268
zens	-8269
▁aqu	-8270
▁aug	-8271
▁ber	-8272
▁bew	-8273
▁bid	-8274
▁bin	-8275
▁bon	-8276
▁cav	-8277
▁cpr	-8278
▁dvd	-8279
▁faq	-8280
▁fax	-8281
▁fet	-8282
▁gal	-8283
▁hom	-8284
▁jaw	-8285
▁jun	-8286
▁ket	-8287
▁kle	-8288
▁lag	-8289
▁lob	-8290
▁lon	-8291
▁ove	-8292
▁owl	-8293
▁pit	-8294
▁pon	-8295
▁por	-8296
▁pud	-8297
▁rib	-8298
▁rub	-8299
lk	-8300
cus	-8301
inu	-8302
▁ut	-8303
ango	-8304
iles	-8305
ilos	-8306
osis	-8307
otic	-8308
uity	-8309
▁ade	-8310
▁san	-8311
▁tag	-8312
▁tin	-8313
▁ult	-8314
▁usb	-8315
▁vel	-8316
▁wiz	-8317
▁woo	-8318
acked	-8319
allas	-8320
ander	-8321
andom	-8322
aphor	-8323
apore	-8324
arent	-8325
arwin	-8326
asaki	-8327
bbing	-8328
berry	-8329
berty	-8330
blind	-8331
cakes	-8332
chool	-8333
clist	-8334
cloth	-8335
cript	-8336
endid	-8337
enger	-8338
eroom	-8339
erous	-8340
force	-8341
iased	-8342
icago	-8343
idext	-8344
iless	-8345
imate	-8346
inate	-8347
inged	-8348
irtue	-8349
ithme	-8350
ivity	-8351
joyed	-8352
liner	-8353
lines	-8354
mbled	-8355
minal	-8356
neath	-8357
olded	-8358
ommon	-8359
omore	-8360
onstr	-8361
ookie	-8362
orous	-8363
oster	-8364
pared	-8365
piece	-8366
print	-8367
rived	-8368
rolog	-8369
scope	-8370
sened	-8371
tress	-8372
uggle	-8373
usion	-8374
usive	-8375
veled	-8376
watch	-8377
xture	-8378
▁agon	-8379
▁anni	-8380
▁bang	-8381
▁barb	-8382
▁barn	-8383
▁beck	-8384
▁buck	-8385
▁budd	-8386
▁butt	-8387
▁cage	-8388
▁chit	-8389
▁clap	-8390
▁clar	-8391
▁cope	-8392
▁cord	-8393
▁cork	-8394
▁cozy	-8395
▁crop	-8396
▁crou	-8397
▁dear	-8398
▁depl	-8399
▁dile	-8400
▁dirt	-8401
▁dram	-8402
▁dull	-8403
▁excl	-8404
▁fled	-8405
▁gaze	-8406
▁geor	-8407
▁gest	-8408
▁glob	-8409
▁glue	-8410
▁goat	-8411
▁grin	-8412
▁gums	-8413
▁gymn	-8414
▁hass	-8415
▁heal	-8416
▁heed	-8417
▁hike	-8418
▁iced	-8419
▁info	-8420
▁jiff	-8421
▁laun	-8422
▁leaf	-8423
▁leap	-8424
▁magn	-8425
▁male	-8426
▁mice	-8427
▁nuis	-8428
▁oboe	-8429
▁pies	-8430
▁prev	-8431
▁pros	-8432
▁rept	-8433
▁sadd	-8434
▁seed	-8435
▁shin	-8436
▁sigh	-8437
▁sket	-8438
▁skis	-8439
▁snag	-8440
▁soda	-8441
▁ster	-8442
▁swar	-8443
▁term	-8444
▁ties	-8445
▁toen	-8446
▁tone	-8447
▁trim	-8448
▁trom	-8449
▁tuck	-8450
▁upon	-8451
▁vers	-8452
▁wars	-8453
allows	-8454
alyzed	-8455
apping	-8456
atible	-8457
blings	-8458
bruary	-8459
driver	-8460
ergent	-8461
garded	-8462
haches	-8463
harged	-8464
ionist	-8465
iously	-8466
ipment	-8467
istent	-8468
kohama	-8469
ledged	-8470
lester	-8471
mitted	-8472
mostat	-8473
nesses	-8474
ocated	-8475
onally	-8476
orkers	-8477
ources	-8478
ration	-8479
redict	-8480
ritory	-8481
speare	-8482
tember	-8483
uccess	-8484
uities	-8485
ulated	-8486
▁accus	-8487
▁aches	-8488
▁agent	-8489
▁aloud	-8490
▁amput	-8491
▁amuse	-8492
▁angle	-8493
▁baker	-8494
▁banjo	-8495
▁basic	-8496
▁belly	-8497
▁bible	-8498
▁brake	-8499
▁brass	-8500
▁bully	-8501
▁cages	-8502
▁cakes	-8503
▁canoe	-8504
▁cents	-8505
▁chalk	-8506
▁chips	-8507
▁comma	-8508
▁crawl	-8509
▁cries	-8510
▁crown	-8511
▁curry	-8512
▁cuter	-8513
▁dairy	-8514
▁dinos	-8515
▁dynam	-8516
▁eagle	-8517
▁edges	-8518
▁enhan	-8519
▁escal	-8520
▁faded	-8521
▁fancy	-8522
▁fianc	-8523
▁fists	-8524
▁flown	-8525
▁flush	-8526
▁fools	-8527
▁foxes	-8528
▁fried	-8529
▁frogs	-8530
▁gases	-8531
▁gauge	-8532
▁gloat	-8533
▁goats	-8534
▁gross	-8535
▁haird	-8536
▁hairy	-8537
▁heals	-8538
▁hedge	-8539
▁horiz	-8540
▁inacc	-8541
▁intol	-8542
▁items	-8543
▁jelly	-8544
▁koala	-8545
▁korea	-8546
▁lodge	-8547
▁lucid	-8548
▁madly	-8549
▁manus	-8550
▁melts	-8551
▁miner	-8552
▁moist	-8553
▁monop	-8554
▁mumps	-8555
▁musty	-8556
▁needn	-8557
▁nests	-8558
▁notic	-8559
▁obese	-8560
▁oddly	-8561
▁oiled	-8562
▁olive	-8563
▁overd	-8564
▁overe	-8565
▁overl	-8566
▁pasta	-8567
▁patio	-8568
▁pears	-8569
▁phase	-8570
▁pinch	-8571
▁plast	-8572
▁plead	-8573
▁pound	-8574
▁puffs	-8575
▁pumpk	-8576
▁rated	-8577
▁reass	-8578
▁redec	-8579
▁riser	-8580
▁ropes	-8581
▁rusty	-8582
▁sabot	-8583
▁saves	-8584
▁scram	-8585
▁scree	-8586
▁seeds	-8587
▁seeks	-8588
▁shops	-8589
▁shore	-8590
▁snake	-8591
▁spong	-8592
▁tango	-8593
▁teens	-8594
▁tents	-8595
▁traum	-8596
▁tresp	-8597
▁tries	-8598
▁uncon	-8599
▁upper	-8600
▁vodka	-8601
▁wagon	-8602
▁waits	-8603
▁withd	-8604
▁woken	-8605
▁yield	-8606
▁yolks	-8607
▁zones	-8608
angered	-8609
burgers	-8610
chooled	-8611
crafted	-8612
ethoven	-8613
ficient	-8614
icament	-8615
ickered	-8616
ificial	-8617
igrants	-8618
inarian	-8619
ization	-8620
mission	-8621
ocating	-8622
odorant	-8623
ontroll	-8624
ounding	-8625
rentice	-8626
ritious	-8627
section	-8628
ualties	-8629
umption	-8630
versial	-8631
▁accord	-8632
▁actors	-8633
▁actual	-8634
▁adding	-8635
▁agency	-8636
▁allies	-8637
▁ankara	-8638
▁append	-8639
▁arched	-8640
▁asians	-8641
▁atomic	-8642
▁august	-8643
▁bakery	-8644
▁beasts	-8645
▁beggar	-8646
▁beings	-8647
▁belief	-8648
▁biting	-8649
▁blanks	-8650
▁bombed	-8651
▁bounce	-8652
▁boyish	-8653
▁bricks	-8654
▁brides	-8655
▁bubble	-8656
▁burden	-8657
▁bushes	-8658
▁camels	-8659
▁canned	-8660
▁carbon	-8661
▁catnip	-8662
▁chilly	-8663
▁choosy	-8664
▁chorus	-8665
▁cigars	-8666
▁client	-8667
▁cockro	-8668
▁compan	-8669
▁costly	-8670
▁cradle	-8671
▁cranky	-8672
▁creams	-8673
▁dallas	-8674
▁dances	-8675
▁darwin	-8676
▁desert	-8677
▁disbel	-8678
▁divide	-8679
▁diving	-8680
▁doable	-8681
▁doomed	-8682
▁dotted	-8683
▁dozens	-8684
▁dreads	-8685
▁easter	-8686
▁edison	-8687
▁eighth	-8688
▁expose	-8689
▁extent	-8690
▁fiasco	-8691
▁firmly	-8692
▁former	-8693
▁fruits	-8694
▁giants	-8695
▁gluten	-8696
▁hamlet	-8697
▁hanged	-8698
▁hearts	-8699
▁histor	-8700
▁hoarse	-8701
▁hunted	-8702
▁indian	-8703
▁insinu	-8704
▁jammed	-8705
▁judged	-8706
▁juggle	-8707
▁junior	-8708
▁kidney	-8709
▁kimono	-8710
▁kitten	-8711
▁leaped	-8712
▁liking	-8713
▁lilies	-8714
▁lining	-8715
▁liquor	-8716
▁losses	-8717
▁lyrics	-8718
▁madrid	-8719
▁marshm	-8720
▁melons	-8721
▁mental	-8722
▁mighty	-8723
▁minors	-8724
▁misery	-8725
▁mopped	-8726
▁morons	-8727
▁mostly	-8728
▁mugged	-8729
▁muscle	-8730
▁nailed	-8731
▁nephew	-8732
▁newcom	-8733
▁nights	-8734
▁noises	-8735
▁obtain	-8736
▁opener	-8737
▁outage	-8738
▁palace	-8739
▁pandas	-8740
▁parent	-8741
▁parted	-8742
▁passes	-8743
▁paused	-8744
▁peeled	-8745
▁philos	-8746
▁phones	-8747
▁pitied	-8748
▁poetry	-8749
▁poland	-8750
▁pooped	-8751
▁poorer	-8752
▁quotes	-8753
▁random	-8754
▁reborn	-8755
▁resent	-8756
▁reveal	-8757
▁robber	-8758
▁rocker	-8759
▁romans	-8760
▁rookie	-8761
▁rowing	-8762
▁salted	-8763
▁scored	-8764
▁screws	-8765
▁script	-8766
▁sculpt	-8767
▁secure	-8768
▁shells	-8769
▁skirts	-8770
▁sloppy	-8771
▁smoker	-8772
▁snooze	-8773
▁soaked	-8774
▁sonata	-8775
▁sorted	-8776
▁spared	-8777
▁spider	-8778
▁sprang	-8779
▁stated	-8780
▁steals	-8781
▁summit	-8782
▁suntan	-8783
▁superv	-8784
▁tables	-8785
▁tailor	-8786
▁tender	-8787
▁thorns	-8788
▁tuxedo	-8789
▁unanim	-8790
▁unbeat	-8791
▁undone	-8792
▁unsafe	-8793
▁usable	-8794
▁values	-8795
▁velvet	-8796
▁virtue	-8797
▁warmed	-8798
▁weirdo	-8799
▁whales	-8800
▁willed	-8801
▁wizard	-8802
iologist	-8803
ironment	-8804
ithmetic	-8805
lesterol	-8806
motional	-8807
osterous	-8808
ouraging	-8809
umptuous	-8810
▁alright	-8811
▁amateur	-8812
▁amounts	-8813
▁arrives	-8814
▁avenged	-8815
▁averted	-8816
▁balloon	-8817
▁becomes	-8818
▁begging	-8819
▁behaves	-8820
▁benefit	-8821
▁billion	-8822
▁bounced	-8823
▁bravery	-8824
▁bruises	-8825
▁buffalo	-8826
▁cabinet	-8827
▁carries	-8828
▁century	-8829
▁chaotic	-8830
▁chatted	-8831
▁chicago	-8832
▁cleaner	-8833
▁conceal	-8834
▁condone	-8835
▁conform	-8836
▁contemp	-8837
▁corrupt	-8838
▁coughed	-8839
▁crawled	-8840
▁cricket	-8841
▁cringed	-8842
▁cyclist	-8843
▁denmark	-8844
▁denying	-8845
▁diagram	-8846
▁dignity	-8847
▁dilemma	-8848
▁doorman	-8849
▁effects	-8850
▁endings	-8851
▁endless	-8852
▁explode	-8853
▁exposed	-8854
▁fasting	-8855
▁fertile	-8856
▁fifties	-8857
▁figures	-8858
▁foresee	-8859
▁fragile	-8860
▁fulfill	-8861
▁gesture	-8862
▁growled	-8863
▁hammock	-8864
▁hearted	-8865
▁heating	-8866
▁hostage	-8867
▁however	-8868
▁howling	-8869
▁humming	-8870
▁iceberg	-8871
▁iceland	-8872
▁intends	-8873
▁intrude	-8874
▁invoice	-8875
▁ironing	-8876
▁jumping	-8877
▁karaoke	-8878
▁killers	-8879
▁kingdom	-8880
▁kleenex	-8881
▁lending	-8882
▁lettuce	-8883
▁liberty	-8884
▁licking	-8885
▁lobster	-8886
▁located	-8887
▁locking	-8888
▁mailman	-8889
▁malaria	-8890
▁matches	-8891
▁mixture	-8892
▁morally	-8893
▁muscles	-8894
▁nagging	-8895
▁nonstop	-8896
▁partied	-8897
▁passive	-8898
▁peaches	-8899
▁peeling	-8900
▁perfume	-8901
▁picasso	-8902
▁plainly	-8903
▁plugged	-8904
▁preheat	-8905
▁pronoun	-8906
▁quitter	-8907
▁raccoon	-8908
▁rackets	-8909
▁railway	-8910
▁refuses	-8911
▁repaint	-8912
▁replied	-8913
▁resting	-8914
▁retreat	-8915
▁reverse	-8916
▁rewrote	-8917
▁routine	-8918
▁ruining	-8919
▁scaring	-8920
▁seeking	-8921
▁seventy	-8922
▁shallow	-8923
▁shampoo	-8924
▁sharpen	-8925
▁skilled	-8926
▁sleeves	-8927
▁soaking	-8928
▁society	-8929
▁species	-8930
▁stamped	-8931
▁stashed	-8932
▁strings	-8933
▁suburbs	-8934
▁surface	-8935
▁surfing	-8936
▁sweated	-8937
▁sweeter	-8938
▁texting	-8939
▁thicker	-8940
▁thunder	-8941
▁toilets	-8942
▁twisted	-8943
▁unthink	-8944
▁vaccine	-8945
▁variety	-8946
▁version	-8947
▁vicious	-8948
▁volcano	-8949
▁western	-8950
▁whiskey	-8951
▁workout	-8952
▁worship	-8953
▁wrongly	-8954
bergasted	-8955
confident	-8956
idextrous	-8957
placeable	-8958
uccessful	-8959
▁acquaint	-8960
▁addition	-8961
▁adequate	-8962
▁advanced	-8963
▁ambushed	-8964
▁aquarium	-8965
▁astrolog	-8966
▁athletic	-8967
▁audition	-8968
▁backward	-8969
▁beckoned	-8970
▁blisters	-8971
▁bookkeep	-8972
▁brighter	-8973
▁brightly	-8974
▁campfire	-8975
▁catching	-8976
▁chickens	-8977
▁chopping	-8978
▁chuckled	-8979
▁coasters	-8980
▁collapse	-8981
▁composer	-8982
▁constant	-8983
▁coughing	-8984
▁crouched	-8985
▁demonstr	-8986
▁departed	-8987
▁deprived	-8988
▁despised	-8989
▁detained	-8990
▁deterior	-8991
▁directly	-8992
▁disappro	-8993
▁dislikes	-8994
▁dreading	-8995
▁dressing	-8996
▁dripping	-8997
▁dropping	-8998
▁employed	-8999
▁employee	-9000
▁eyeliner	-9001
▁failures	-9002
▁february	-9003
▁feverish	-9004
▁firewood	-9005
▁focusing	-9006
▁forecast	-9007
▁function	-9008
▁goodbyes	-9009
▁handmade	-9010
▁handrail	-9011
▁hangover	-9012
▁hardware	-9013
▁homeroom	-9014
▁identity	-9015
▁imitated	-9016
▁immortal	-9017
▁increase	-9018
▁infinite	-9019
▁invested	-9020
▁jealousy	-9021
▁landline	-9022
▁landscap	-9023
▁launched	-9024
▁laziness	-9025
▁location	-9026
▁majoring	-9027
▁mattress	-9028
▁meetings	-9029
▁metaphor	-9030
▁military	-9031
▁misprint	-9032
▁nagasaki	-9033
▁notified	-9034
▁nuisance	-9035
▁obstacle	-9036
▁optimism	-9037
▁overcoat	-9038
▁pampered	-9039
▁pardoned	-9040
▁partying	-9041
▁perished	-9042
▁pointing	-9043
▁priority	-9044
▁prospect	-9045
▁reaction	-9046
▁recovery	-9047
▁reflects	-9048
▁register	-9049
▁relevant	-9050
▁reported	-9051
▁reptiles	-9052
▁scenario	-9053
▁sedative	-9054
▁separate	-9055
▁servants	-9056
▁shutting	-9057
▁siblings	-9058
▁skipping	-9059
▁southpaw	-9060
▁splendid	-9061
▁spoiling	-9062
▁standard	-9063
▁struggle	-9064
▁stunning	-9065
▁superior	-9066
▁suppress	-9067
▁swimmers	-9068
▁symptoms	-9069
▁terminal	-9070
▁theories	-9071
▁thermome	-9072
▁toenails	-9073
▁trombone	-9074
▁truthful	-9075
▁unbiased	-9076
▁uncommon	-9077
▁unfolded	-9078
▁urgently	-9079
▁wandered	-9080
▁warnings	-9081
▁weddings	-9082
▁wrinkled	-9083
▁yokohama	-9084
redictable	-9085
▁affection	-9086
▁agonizing	-9087
▁announced	-9088
▁appalling	-9089
▁avoidable	-9090
▁beethoven	-9091
▁biologist	-9092
▁bodybuild	-9093
▁bookstore	-9094
▁cardboard	-9095
▁celebrity	-9096
▁champions	-9097
▁classmate	-9098
▁colleague	-9099
▁comforted	-9100
▁commotion	-9101
▁convicted	-9102
▁corkscrew	-9103
▁coworkers	-9104
▁deceiving	-9105
▁deodorant	-9106
▁dependent	-9107
▁detective	-9108
▁detergent	-9109
▁dignified	-9110
▁dinosaurs	-9111
▁disagrees	-9112
▁easygoing	-9113
▁enjoyable	-9114
▁equipment	-9115
▁extracted	-9116
▁finishing	-9117
▁fulfilled	-9118
▁gardening	-9119
▁gathering	-9120
▁gentlemen	-9121
▁graduates	-9122
▁hairdress	-9123
▁heartburn	-9124
▁hospitals	-9125
▁hypocrite	-9126
▁improvise	-9127
▁impulsive	-9128
▁ingenious	-9129
▁judgement	-9130
▁messenger	-9131
▁nervously	-9132
▁newlyweds	-9133
▁obstinate	-9134
▁opponents	-9135
▁overjoyed	-9136
▁paperwork	-9137
▁paragraph	-9138
▁paralyzed	-9139
▁passenger	-9140
▁patiently	-9141
▁performed	-9142
▁permitted	-9143
▁physicist	-9144
▁plastered	-9145
▁poisoning	-9146
▁poisonous	-9147
▁political	-9148
▁precisely	-9149
▁pressured	-9150
▁professor	-9151
▁promising	-9152
▁referring	-9153
▁reinforce	-9154
▁resources	-9155
▁scrambled	-9156
▁sentiment	-9157
▁september	-9158
▁singapore	-9159
▁snickered	-9160
▁sophomore	-9161
▁territory	-9162
▁testified	-9163
▁tightened	-9164
▁undressed	-9165
▁valuables	-9166
▁witnessed	-9167
▁accusation	-9168
▁achievable	-9169
▁advertised	-9170
▁apprentice	-9171
▁arithmetic	-9172
▁artificial	-9173
▁attendance	-9174
▁believable	-9175
▁bridesmaid	-9176
▁casualties	-9177
▁cheerfully	-9178
▁classified	-9179
▁colorblind	-9180
▁comforting	-9181
▁commission	-9182
▁compatible	-9183
▁conclusion	-9184
▁consultant	-9185
▁controlled	-9186
▁convincing	-9187
▁correcting	-9188
▁criticisms	-9189
▁criticized	-9190
▁dedication	-9191
▁deplorable	-9192
▁diagonally	-9193
▁endangered	-9194
▁enthusiasm	-9195
▁expression	-9196
▁extinguish	-9197
▁flattering	-9198
▁footprints	-9199
▁guidelines	-9200
▁headlights	-9201
▁hospitable	-9202
▁immigrants	-9203
▁inaccurate	-9204
▁infuriated	-9205
▁manuscript	-9206
▁meditating	-9207
▁microscope	-9208
▁nightmares	-9209
▁nutritious	-9210
▁objections	-9211
▁officially	-9212
▁perceptive	-9213
▁population	-9214
▁practicing	-9215
▁proficient	-9216
▁programmer	-9217
▁psychology	-9218
▁reassuring	-9219
▁sacrificed	-9220
▁sacrifices	-9221
▁songwriter	-9222
▁strawberry	-9223
▁successive	-9224
▁supervisor	-9225
▁sympathies	-9226
▁sympathize	-9227
▁tablecloth	-9228
▁technology	-9229
▁telephoned	-9230
▁terrifying	-9231
▁thermostat	-9232
▁translated	-9233
▁uncontroll	-9234
▁underneath	-9235
▁unprepared	-9236
▁waterproof	-9237
▁worthwhile	-9238
▁apologizing	-9239
▁cholesterol	-9240
▁competitive	-9241
▁competitors	-9242
▁desperately	-9243
▁differently	-9244
▁disregarded	-9245
▁documentary	-9246
▁earthquakes	-9247
▁encouraging	-9248
▁environment	-9249
▁established	-9250
▁frustration	-9251
▁handcrafted	-9252
▁imaginative	-9253
▁impressions	-9254
▁influential	-9255
▁insinuating	-9256
▁masterpiece	-9257
▁meaningless	-9258
▁momentarily	-9259
▁nationality	-9260
▁opinionated	-9261
▁politicians	-9262
▁predicament	-9263
▁presentable	-9264
▁preventable	-9265
▁screwdriver	-9266
▁shakespeare	-9267
▁transparent	-9268
▁trespassing	-9269
▁unthinkable	-9270
▁acknowledged	-9271
▁alternatives	-9272
▁ambidextrous	-9273
▁appointments	-9274
▁concentrated	-9275
▁conditioning	-9276
▁confidential	-9277
▁contributing	-9278
▁contribution	-9279
▁deliberately	-9280
▁discouraging	-9281
▁disqualified	-9282
▁entertaining	-9283
▁enthusiastic	-9284
▁homeschooled	-9285
▁interrogated	-9286
▁interruption	-9287
▁intersection	-9288
▁investigator	-9289
▁manipulative	-9290
▁marshmallows	-9291
▁mysteriously	-9292
▁preposterous	-9293
▁presumptuous	-9294
▁registration	-9295
▁reservations	-9296
▁suspiciously	-9297
▁unsuccessful	-9298
▁veterinarian	-9299
▁cheeseburgers	-9300
▁consideration	-9301
▁controversial	-9302
▁exceptionally	-9303
▁flabbergasted	-9304
▁inconvenience	-9305
▁investigating	-9306
▁irreplaceable	-9307
▁materialistic	-9308
▁overconfident	-9309
▁overemotional	-9310
▁perfectionist	-9311
▁possibilities	-9312
▁professionals	-9313
▁schizophrenic	-9314
▁unpredictable	-9315
▁disappointment	-9316
aws	-9317
hog	-9318
hum	-9319
kok	-9320
pel	-9321
ups	-9322
ancy	-9323
azed	-9324
azor	-9325
bank	-9326
clip	-9327
cups	-9328
erks	-9329
gium	-9330
gypt	-9331
hlet	-9332
hydr	-9333
iens	-9334
imsy	-9335
isco	-9336
lids	-9337
nail	-9338
neum	-9339
ocul	-9340
oded	-9341
oids	-9342
onia	-9343
poke	-9344
seud	-9345
shen	-9346
shot	-9347
tank	-9348
tube	-9349
umst	-9350
xcus	-9351
ysle	-9352
▁awa	-9353
▁bio	-9354
▁cru	-9355
▁dub	-9356
▁ego	-9357
▁fug	-9358
▁gps	-9359
▁hyg	-9360
▁icy	-9361
▁irs	-9362
▁jup	-9363
▁sno	-9364
▁voc	-9365
abbed	-9366
amped	-9367
appro	-9368
atics	-9369
attle	-9370
beria	-9371
books	-9372
cided	-9373
cracy	-9374
ettes	-9375
gedly	-9376
ggled	-9377
hrase	-9378
hroom	-9379
iffed	-9380
iking	-9381
imbur	-9382
insaw	-9383
kirts	-9384
lects	-9385
llows	-9386
maker	-9387
moker	-9388
mower	-9389
naire	-9390
nosis	-9391
ocrat	-9392
oresc	-9393
orked	-9394
pipes	-9395
selor	-9396
shave	-9397
steps	-9398
teria	-9399
dog	-9400
gic	-9401
ina	-9402
usk	-9403
▁uk	-9404
bbub	-9405
cake	-9406
each	-9407
enda	-9408
gred	-9409
helf	-9410
kind	-9411
onsh	-9412
orer	-9413
▁fav	-9414
▁hyd	-9415
▁ray	-9416
ciate	-9417
oning	-9418
onshu	-9419
orers	-9420
sides	-9421
terms	-9422
udent	-9423
umbus	-9424
utral	-9425
▁aids	-9426
▁asse	-9427
▁asso	-9428
▁auto	-9429
▁baff	-9430
▁bait	-9431
▁bats	-9432
▁bode	-9433
▁bugs	-9434
▁bulg	-9435
▁colo	-9436
▁corp	-9437
▁crut	-9438
▁daug	-9439
▁dusk	-9440
▁epis	-9441
▁fars	-9442
▁fema	-9443
▁frug	-9444
▁fume	-9445
▁hipp	-9446
▁hoax	-9447
▁hunk	-9448
▁hygi	-9449
▁icon	-9450
▁ipad	-9451
▁jung	-9452
▁logs	-9453
▁luna	-9454
▁noah	-9455
▁nood	-9456
▁oath	-9457
▁obes	-9458
▁outw	-9459
▁prai	-9460
▁raff	-9461
▁rasp	-9462
▁redu	-9463
▁sals	-9464
▁scru	-9465
▁sits	-9466
▁skim	-9467
▁slim	-9468
▁slob	-9469
▁snob	-9470
▁subt	-9471
▁sulf	-9472
▁sync	-9473
▁tipt	-9474
▁trem	-9475
▁trou	-9476
▁tubs	-9477
▁untr	-9478
▁urge	-9479
▁vegg	-9480
▁vent	-9481
▁vert	-9482
▁wimp	-9483
▁zeal	-9484
allops	-9485
ammers	-9486
amuses	-9487
arable	-9488
artial	-9489
atural	-9490
beying	-9491
cerity	-9492
clipse	-9493
ctored	-9494
cupine	-9495
easily	-9496
eeming	-9497
egedly	-9498
ensate	-9499
ale	-9500
bac	-9501
mal	-9502
oya	-9503
raw	-9504
rof	-9505
rop	-9506
anic	-9507
bted	-9508
hake	-9509
idal	-9510
meal	-9511
rict	-9512
stly	-9513
vial	-9514
▁cia	-9515
▁pad	-9516
▁voy	-9517
bacco	-9518
power	-9519
tlety	-9520
▁abst	-9521
▁anch	-9522
▁brus	-9523
▁caes	-9524
▁itch	-9525
▁pupp	-9526
▁rays	-9527
▁spat	-9528
atmeal	-9529
ffeine	-9530
ficial	-9531
flower	-9532
giving	-9533
gories	-9534
ground	-9535
hastly	-9536
health	-9537
hecked	-9538
hiking	-9539
icycle	-9540
ifying	-9541
igator	-9542
isoned	-9543
izzard	-9544
listed	-9545
malade	-9546
mester	-9547
pholes	-9548
resent	-9549
ribble	-9550
rofess	-9551
rolled	-9552
ronize	-9553
rowded	-9554
uction	-9555
▁accum	-9556
▁agony	-9557
▁amaze	-9558
▁ancho	-9559
▁arche	-9560
▁audio	-9561
▁await	-9562
▁blues	-9563
▁blunt	-9564
▁boils	-9565
▁bonus	-9566
▁breed	-9567
▁burgl	-9568
▁campa	-9569
▁cases	-9570
▁choke	-9571
▁chops	-9572
▁claus	-9573
▁claws	-9574
▁clich	-9575
▁clown	-9576
▁clubs	-9577
▁coats	-9578
▁cockt	-9579
▁cubes	-9580
▁curve	-9581
▁dazed	-9582
▁debit	-9583
▁deeds	-9584
▁democ	-9585
▁dolls	-9586
▁draft	-9587
▁draws	-9588
▁drums	-9589
▁dusty	-9590
▁dysle	-9591
▁emigr	-9592
▁evade	-9593
▁felon	-9594
▁fixes	-9595
▁flock	-9596
▁floss	-9597
▁forew	-9598
▁franc	-9599
imm	-9600
oed	-9601
sey	-9602
uke	-9603
anta	-9604
gher	-9605
jack	-9606
orse	-9607
rose	-9608
vies	-9609
▁bog	-9610
▁hut	-9611
▁mow	-9612
▁pox	-9613
▁rer	-9614
▁rul	-9615
iding	-9616
▁adam	-9617
▁bake	-9618
▁cann	-9619
▁clut	-9620
▁core	-9621
▁jimm	-9622
▁lane	-9623
▁soot	-9624
▁weld	-9625
ackpot	-9626
▁arose	-9627
▁bogus	-9628
▁comet	-9629
▁crept	-9630
▁fumes	-9631
▁goose	-9632
▁grape	-9633
▁hairs	-9634
▁harms	-9635
▁hasty	-9636
▁holly	-9637
▁hyper	-9638
▁incur	-9639
▁indif	-9640
▁inexp	-9641
▁irreg	-9642
▁jiffy	-9643
▁ketch	-9644
▁landl	-9645
▁latex	-9646
▁legit	-9647
▁linux	-9648
▁lobes	-9649
▁logic	-9650
▁lungs	-9651
▁mango	-9652
▁meets	-9653
▁messy	-9654
▁misle	-9655
▁moody	-9656
▁moons	-9657
▁moroc	-9658
▁motel	-9659
▁mower	-9660
▁multi	-9661
▁myths	-9662
▁newer	-9663
▁ninet	-9664
▁obeys	-9665
▁peach	-9666
▁penal	-9667
▁perio	-9668
▁phony	-9669
▁plums	-9670
▁pneum	-9671
▁poets	-9672
▁pours	-9673
▁pseud	-9674
▁pushy	-9675
▁ranch	-9676
▁razor	-9677
▁regul	-9678
▁reinc	-9679
▁rents	-9680
▁rerun	-9681
▁rides	-9682
▁rises	-9683
▁route	-9684
▁ruled	-9685
▁ruler	-9686
▁sails	-9687
▁salsa	-9688
▁santa	-9689
▁scalp	-9690
▁schol	-9691
▁scold	-9692
▁scott	-9693
▁ships	-9694
▁sinks	-9695
▁skier	-9696
▁skunk	-9697
▁slack	-9698
▁slang	-9699
fu	-9700
vy	-9701
bra	-9702
gun	-9703
mes	-9704
ota	-9705
riz	-9706
rob	-9707
tin	-9708
vin	-9709
▁cm	-9710
feit	-9711
imat	-9712
izar	-9713
jing	-9714
yard	-9715
▁ken	-9716
▁lif	-9717
▁oar	-9718
▁sav	-9719
▁tad	-9720
▁tut	-9721
▁ven	-9722
▁wri	-9723
ijing	-9724
iller	-9725
ralia	-9726
tight	-9727
▁cate	-9728
▁impr	-9729
▁nara	-9730
▁scan	-9731
▁stim	-9732
▁sunk	-9733
▁swed	-9734
▁tofu	-9735
issant	-9736
izarre	-9737
vinced	-9738
▁acrob	-9739
▁blimp	-9740
▁civic	-9741
▁cocky	-9742
▁crate	-9743
▁epide	-9744
▁fract	-9745
▁snuck	-9746
▁solar	-9747
▁somew	-9748
▁sorts	-9749
▁spade	-9750
▁spilt	-9751
▁spray	-9752
▁stunt	-9753
▁swans	-9754
▁swift	-9755
▁sworn	-9756
▁taill	-9757
▁taxis	-9758
▁tease	-9759
▁tines	-9760
▁title	-9761
▁tours	-9762
▁tramp	-9763
▁tutor	-9764
▁unatt	-9765
▁uncer	-9766
▁unfit	-9767
▁unhar	-9768
▁unsha	-9769
▁utter	-9770
▁venge	-9771
▁viral	-9772
▁vowed	-9773
▁waist	-9774
▁waves	-9775
▁waxed	-9776
▁wines	-9777
▁woozy	-9778
aborate	-9779
abulary	-9780
alistic	-9781
amiliar	-9782
autions	-9783
eniable	-9784
fective	-9785
fighter	-9786
forward	-9787
healthy	-9788
hensive	-9789
ificent	-9790
igraine	-9791
ildered	-9792
itorium	-9793
natural	-9794
oculars	-9795
onesian	-9796
ractive	-9797
redited	-9798
reeable	-9799
gb	-9800
ki	-9801
ku	-9802
▁'	-9803
ban	-9804
iti	-9805
kno	-9806
mic	-9807
oog	-9808
ris	-9809
sto	-9810
cies	-9811
gant	-9812
knob	-9813
mith	-9814
mond	-9815
opot	-9816
▁kgb	-9817
▁tum	-9818
oogle	-9819
▁flip	-9820
▁hast	-9821
▁jest	-9822
▁stil	-9823
▁torn	-9824
gering	-9825
itched	-9826
ructed	-9827
▁cigar	-9828
▁exten	-9829
▁fling	-9830
▁foggy	-9831
▁hoard	-9832
▁homey	-9833
▁infat	-9834
▁parts	-9835
▁rural	-9836
▁shown	-9837
▁shyly	-9838
▁squab	-9839
▁texan	-9840
▁whine	-9841
▁wraps	-9842
reaking	-9843
renched	-9844
rowning	-9845
stalgic	-9846
stepped	-9847
unettes	-9848
verance	-9849
warming	-9850
▁abated	-9851
▁abduct	-9852
▁abrupt	-9853
▁accuse	-9854
▁agenda	-9855
▁aliens	-9856
▁almond	-9857
▁ambush	-9858
▁angels	-9859
▁announ	-9860
▁anyhow	-9861
▁archer	-9862
▁armcha	-9863
▁assign	-9864
▁automo	-9865
▁avenue	-9866
▁avoids	-9867
▁barley	-9868
▁bashed	-9869
▁basics	-9870
▁behalf	-9871
▁biking	-9872
▁boxing	-9873
▁brakes	-9874
▁braved	-9875
▁brewed	-9876
▁bribed	-9877
▁bruise	-9878
▁bumped	-9879
▁butler	-9880
▁cables	-9881
▁caesar	-9882
▁cardig	-9883
▁caviar	-9884
▁cleare	-9885
▁comedy	-9886
▁cooled	-9887
▁cooler	-9888
▁copper	-9889
▁corpor	-9890
▁courts	-9891
▁deaths	-9892
▁declaw	-9893
▁dehydr	-9894
▁design	-9895
▁device	-9896
▁dipped	-9897
▁disclo	-9898
▁dishon	-9899
bay	-9900
eem	-9901
ria	-9902
▁ax	-9903
▁ba	-9904
▁pg	-9905
ames	-9906
ands	-9907
ault	-9908
isly	-9909
otar	-9910
▁nod	-9911
▁ted	-9912
bleed	-9913
chids	-9914
erget	-9915
games	-9916
lland	-9917
mites	-9918
pherd	-9919
▁ebay	-9920
▁pend	-9921
▁rear	-9922
▁sill	-9923
▁weed	-9924
▁welf	-9925
atered	-9926
enties	-9927
▁alleg	-9928
▁encry	-9929
▁films	-9930
▁labor	-9931
▁quant	-9932
▁roman	-9933
▁splat	-9934
▁traps	-9935
ergetic	-9936
estival	-9937
▁basque	-9938
▁candor	-9939
▁catalo	-9940
▁clocks	-9941
▁cooker	-9942
▁docked	-9943
▁donate	-9944
▁endure	-9945
▁erased	-9946
▁eraser	-9947
▁esteem	-9948
▁excomm	-9949
▁exiled	-9950
▁expire	-9951
▁extend	-9952
▁favour	-9953
▁female	-9954
▁firing	-9955
▁flames	-9956
▁flatly	-9957
▁flimsy	-9958
▁folder	-9959
▁	-9960
e	-9961
t	-9962
o	-9963
i	-9964
a	-9965
n	-9966
s	-9967
h	-9968
r	-9969
d	-9970
l	-9971
y	-9972
u	-9973
m	-9974
w	-9975
g	-9976
c	-9977
'	-9978
p	-9979
f	-9980
k	-9981
b	-9982
v	-9983
j	-9984
x	-9985
q	-9986
z	-9987
0	-9988
1	-9989
3	-9990
2	-9991
5	-9992
9	-9993
8	-9994
