<pad>	0
<s>	0
</s>	0
<unk>	0
▁t	-0
▁th	-1
▁a	-2
in	-3
▁the	-4
on	-5
re	-6
at	-7
en	-8
is	-9
▁o	-10
er	-11
▁w	-12
▁s	-13
it	-14
▁c	-15
ion	-16
▁p	-17
or	-18
an	-19
▁of	-20
▁to	-21
es	-22
▁b	-23
▁in	-24
▁an	-25
▁f	-26
al	-27
ro	-28
ed	-29
▁and	-30
ou	-31
▁m	-32
ar	-33
ent	-34
ing	-35
ic	-36
▁h	-37
▁d	-38
▁re	-39
le	-40
om	-41
▁n	-42
ve	-43
▁be	-44
st	-45
▁is	-46
▁I	-47
▁that	-48
ct	-49
il	-50
▁e	-51
ly	-52
as	-53
ation	-54
ment	-55
pe	-56
▁on	-57
▁wh	-58
ot	-59
▁for	-60
▁T	-61
▁C	-62
ut	-63
▁E	-64
id	-65
▁we	-66
im	-67
▁l	-68
▁pro	-69
se	-70
ur	-71
▁M	-72
▁g	-73
▁Th	-74
ort	-75
ce	-76
▁con	-77
ol	-78
▁it	-79
un	-80
▁al	-81
et	-82
res	-83
ra	-84
▁this	-85
ld	-86
omm	-87
▁ha	-88
ver	-89
▁P	-90
▁as	-91
▁are	-92
uro	-93
ul	-94
▁de	-95
ith	-96
port	-97
▁Euro	-98
ig	-99
▁Europe	-100
ow	-101
▁with	-102
ould	-103
ch	-104
▁not	-105
ill	-106
▁have	-107
ies	-108
▁st	-109
ate	-110
sion	-111
ir	-112
▁S	-113
▁su	-114
▁The	-115
oun	-116
ay	-117
ich	-118
em	-119
ity	-120
▁Comm	-121
▁which	-122
▁A	-123
▁ne	-124
th	-125
op	-126
ble	-127
▁European	-128
ive	-129
ad	-130
os	-131
ke	-132
us	-133
ter	-134
▁ex	-135
if	-136
ust	-137
ore	-138
▁will	-139
▁sh	-140
▁y	-141
▁by	-142
ers	-143
▁W	-144
ission	-145
ant	-146
ain	-147
ia	-148
ess	-149
ect	-150
▁v	-151
▁im	-152
ial	-153
qu	-154
igh	-155
▁Mr	-156
▁has	-157
▁Commission	-158
▁en	-159
ere	-160
▁r	-161
est	-162
oc	-163
▁at	-164
▁ag	-165
iv	-166
am	-167
ge	-168
▁com	-169
art	-170
ber	-171
our	-172
ure	-173
▁res	-174
▁U	-175
tr	-176
um	-177
▁or	-178
▁all	-179
▁un	-180
▁le	-181
ions	-182
resid	-183
ight	-184
end	-185
pp	-186
▁se	-187
ie	-188
so	-189
▁Presid	-190
rom	-191
ff	-192
▁would	-193
▁wor	-194
▁can	-195
▁also	-196
el	-197
▁pol	-198
▁Un	-199
▁me	-200
▁int	-201
▁there	-202
od	-203
ard	-204
up	-205
▁should	-206
▁do	-207
and	-208
ist	-209
▁ta	-210
▁our	-211
▁President	-212
ud	-213
▁-	-214
▁part	-215
ates	-216
▁from	-217
▁reg	-218
▁We	-219
arl	-220
▁F	-221
▁must	-222
▁B	-223
very	-224
▁ad	-225
ations	-226
▁am	-227
pport	-228
▁fa	-229
▁St	-230
arlia	-231
arliament	-232
▁but	-233
ical	-234
der	-235
▁coun	-236
▁In	-237
▁Mem	-238
ree	-239
▁been	-240
use	-241
ult	-242
ish	-243
ments	-244
▁ab	-245
▁It	-246
con	-247
vel	-248
▁H	-249
▁ac	-250
▁Union	-251
▁go	-252
ans	-253
▁ma	-254
▁countr	-255
ue	-256
pl	-257
▁Parliament	-258
out	-259
ome	-260
ous	-261
▁ch	-262
all	-263
reat	-264
▁G	-265
▁report	-266
ire	-267
ther	-268
▁you	-269
▁li	-270
cil	-271
du	-272
ary	-273
pos	-274
▁j	-275
king	-276
ple	-277
bl	-278
▁dis	-279
▁more	-280
ac	-281
▁was	-282
ast	-283
▁comm	-284
▁qu	-285
▁Member	-286
▁need	-287
gh	-288
▁us	-289
cess	-290
▁cont	-291
ose	-292
ance	-293
▁co	-294
si	-295
▁R	-296
▁tr	-297
▁inc	-298
▁its	-299
▁States	-300
ren	-301
able	-302
▁app	-303
▁like	-304
▁EU	-305
▁Coun	-306
▁their	-307
▁Council	-308
▁so	-309
▁import	-310
pt	-311
ime	-312
▁right	-313
itt	-314
ally	-315
ction	-316
▁very	-317
ear	-318
ition	-319
▁cons	-320
▁pos	-321
▁who	-322
und	-323
▁pe	-324
▁pl	-325
ong	-326
▁bec	-327
her	-328
▁conc	-329
▁polic	-330
▁propos	-331
▁This	-332
oin	-333
▁pr	-334
fore	-335
▁N	-336
▁these	-337
ational	-338
▁fin	-339
▁L	-340
ution	-341
▁they	-342
ens	-343
ress	-344
▁pre	-345
cy	-346
▁D	-347
▁one	-348
▁(	-349
orm	-350
ause	-351
▁O	-352
▁out	-353
▁countries	-354
ces	-355
ject	-356
▁he	-357
tern	-358
ence	-359
oint	-360
ru	-361
cial	-362
▁other	-363
ated	-364
▁than	-365
▁man	-366
bil	-367
ise	-368
▁work	-369
pect	-370
velop	-371
per	-372
▁what	-373
▁about	-374
▁bet	-375
▁my	-376
ople	-377
conom	-378
▁ind	-379
▁support	-380
ities	-381
ced	-382
▁up	-383
ll	-384
get	-385
ide	-386
ice	-387
▁eff	-388
iti	-389
▁spe	-390
▁new	-391
ark	-392
▁important	-393
one	-394
are	-395
og	-396
▁ra	-397
▁sa	-398
▁dec	-399
ign	-400
ag	-401
▁year	-402
▁people	-403
ern	-404
ost	-405
▁only	-406
▁develop	-407
ms	-408
▁time	-409
▁no	-410
▁partic	-411
age	-412
form	-413
ee	-414
▁under	-415
▁agree	-416
▁policy	-417
ram	-418
ious	-419
▁econom	-420
▁iss	-421
▁ev	-422
▁again	-423
ase	-424
ever	-425
▁because	-426
▁k	-427
▁if	-428
▁proposal	-429
ular	-430
▁act	-431
▁leg	-432
▁cl	-433
▁rec	-434
ieve	-435
ri	-436
▁vot	-437
▁tra	-438
ach	-439
▁cr	-440
bility	-441
lear	-442
▁em	-443
ention	-444
▁soc	-445
tain	-446
▁them	-447
▁dem	-448
eren	-449
pon	-450
▁ser	-451
ures	-452
▁any	-453
we	-454
▁now	-455
▁gro	-456
ip	-457
▁prov	-458
resent	-459
irst	-460
ific	-461
ine	-462
▁inst	-463
ame	-464
▁point	-465
▁such	-466
▁how	-467
▁polit	-468
▁rel	-469
iff	-470
ep	-471
▁trans	-472
irect	-473
ative	-474
ace	-475
unity	-476
▁prog	-477
▁comp	-478
▁say	-479
▁take	-480
sible	-481
▁bel	-482
▁some	-483
▁la	-484
▁particular	-485
▁ob	-486
▁inv	-487
▁make	-488
▁mark	-489
ew	-490
▁sub	-491
▁into	-492
ween	-493
▁concern	-494
▁between	-495
ade	-496
▁those	-497
ks	-498
▁diff	-499
gy	-500
▁ter	-501
ap	-502
▁deb	-503
▁proble	-504
sel	-505
▁fact	-506
▁imp	-507
ittee	-508
▁just	-509
ric	-510
ubl	-511
now	-512
xt	-513
▁per	-514
▁produ	-515
▁being	-516
ugh	-517
▁market	-518
▁when	-519
▁way	-520
▁rights	-521
uman	-522
vern	-523
ives	-524
ues	-525
▁therefore	-526
ord	-527
▁political	-528
lud	-529
ating	-530
▁quest	-531
ink	-532
▁appro	-533
▁clear	-534
▁acc	-535
ved	-536
▁sy	-537
▁over	-538
▁respon	-539
▁made	-540
ural	-541
day	-542
▁te	-543
ob	-544
▁were	-545
ards	-546
▁ro	-547
cept	-548
act	-549
ublic	-550
▁bas	-551
ci	-552
ency	-553
▁prot	-554
▁first	-555
iew	-556
▁economic	-557
▁want	-558
ough	-559
oy	-560
▁fund	-561
▁Commissioner	-562
▁know	-563
▁intern	-564
rat	-565
▁great	-566
▁believe	-567
▁ref	-568
eration	-569
ack	-570
▁rem	-571
▁human	-572
ind	-573
▁As	-574
▁str	-575
ving	-576
▁disc	-577
stem	-578
ian	-579
ision	-580
itu	-581
ite	-582
▁direct	-583
▁see	-584
eg	-585
▁social	-586
▁ass	-587
ors	-588
▁many	-589
▁against	-590
itiz	-591
▁op	-592
▁Wh	-593
rough	-594
▁meas	-595
▁system	-596
ib	-597
▁mat	-598
▁add	-599
ful	-600
mental	-601
▁att	-602
ang	-603
▁requ	-604
ak	-605
▁finan	-606
▁debate	-607
me	-608
▁situ	-609
▁citiz	-610
▁tw	-611
▁protect	-612
▁amend	-613
▁ext	-614
udget	-615
ual	-616
wn	-617
▁That	-618
uch	-619
not	-620
▁There	-621
ised	-622
de	-623
▁think	-624
ied	-625
▁incre	-626
olution	-627
▁good	-628
ertain	-629
low	-630
bers	-631
read	-632
▁effect	-633
rent	-634
▁well	-635
▁ar	-636
▁too	-637
▁Committee	-638
▁ens	-639
ry	-640
opt	-641
▁development	-642
▁even	-643
▁issue	-644
oth	-645
ism	-646
lect	-647
▁adopt	-648
▁years	-649
ope	-650
▁Con	-651
▁question	-652
▁where	-653
ices	-654
ploy	-655
▁citizens	-656
pet	-657
▁consid	-658
▁gen	-659
iven	-660
▁conf	-661
▁J	-662
iron	-663
▁fut	-664
▁country	-665
▁order	-666
▁situation	-667
▁far	-668
ited	-669
▁future	-670
▁two	-671
cur	-672
▁public	-673
▁includ	-674
▁contin	-675
viron	-676
▁view	-677
▁national	-678
▁cannot	-679
ings	-680
▁exp	-681
▁'	-682
▁use	-683
▁level	-684
▁How	-685
▁here	-686
▁ent	-687
ict	-688
▁off	-689
▁same	-690
▁exam	-691
▁inform	-692
▁does	-693
▁regard	-694
plement	-695
▁had	-696
ulation	-697
▁possible	-698
▁rep	-699
▁tak	-700
▁measures	-701
▁high	-702
▁cur	-703
▁every	-704
▁program	-705
ove	-706
ory	-707
▁certain	-708
▁cour	-709
▁could	-710
▁coop	-711
▁most	-712
erest	-713
▁budget	-714
▁long	-715
ange	-716
▁said	-717
▁def	-718
ph	-719
▁today	-720
ety	-721
arge	-722
red	-723
eur	-724
▁end	-725
▁compet	-726
ount	-727
utions	-728
▁aut	-729
▁matter	-730
▁much	-731
ves	-732
▁agreement	-733
ready	-734
▁through	-735
▁interest	-736
▁already	-737
▁financial	-738
isl	-739
▁democ	-740
isation	-741
▁implement	-742
eral	-743
▁result	-744
▁K	-745
▁mon	-746
▁set	-747
▁Ch	-748
men	-749
▁put	-750
▁–	-751
▁ach	-752
ass	-753
▁within	-754
▁Mrs	-755
ality	-756
pporteur	-757
▁call	-758
▁process	-759
▁sect	-760
▁vote	-761
ority	-762
▁sp	-763
uc	-764
abl	-765
ild	-766
▁present	-767
▁legisl	-768
▁num	-769
▁still	-770
▁world	-771
▁respect	-772
▁environ	-773
cond	-774
▁your	-775
eth	-776
ergy	-777
▁rapporteur	-778
▁common	-779
▁discus	-780
▁beh	-781
ail	-782
▁own	-783
▁govern	-784
▁However	-785
▁hope	-786
▁both	-787
alth	-788
▁neg	-789
▁dra	-790
ute	-791
▁prev	-792
ince	-793
▁ful	-794
ason	-795
▁group	-796
ract	-797
▁cooperation	-798
gan	-799
▁gu	-800
ork	-801
ruct	-802
ouse	-803
▁ensure	-804
▁On	-805
▁Community	-806
inis	-807
▁course	-808
urther	-809
ays	-810
▁prin	-811
▁serv	-812
reed	-813
ood	-814
▁instit	-815
▁law	-816
▁taken	-817
ile	-818
curity	-819
▁sign	-820
▁impro	-821
▁des	-822
▁international	-823
air	-824
▁reason	-825
ov	-826
uring	-827
ici	-828
▁differen	-829
▁last	-830
▁state	-831
▁Am	-832
▁case	-833
▁able	-834
omen	-835
▁prom	-836
rit	-837
▁area	-838
▁his	-839
▁current	-840
trib	-841
itions	-842
▁necess	-843
▁place	-844
▁sim	-845
▁auth	-846
ential	-847
▁spec	-848
alf	-849
▁object	-850
▁hel	-851
▁princi	-852
ab	-853
▁why	-854
▁main	-855
orities	-856
▁energy	-857
▁may	-858
▁problem	-859
▁then	-860
ft	-861
▁inter	-862
▁br	-863
hip	-864
reaty	-865
▁maj	-866
▁cond	-867
▁help	-868
oo	-869
▁Se	-870
cing	-871
▁means	-872
▁number	-873
▁col	-874
▁est	-875
entle	-876
▁ask	-877
▁gentle	-878
▁information	-879
▁action	-880
lu	-881
▁example	-882
chn	-883
▁gentlemen	-884
adies	-885
▁pers	-886
ployment	-887
▁deal	-888
▁without	-889
▁invol	-890
▁Mad	-891
ether	-892
▁stand	-893
▁const	-894
ollow	-895
▁protection	-896
▁however	-897
▁Gro	-898
come	-899
▁House	-900
ules	-901
▁saf	-902
▁problems	-903
itive	-904
▁wel	-905
▁If	-906
▁directive	-907
man	-908
▁appl	-909
te	-910
oti	-911
▁car	-912
▁allow	-913
ning	-914
oura	-915
ene	-916
own	-917
▁form	-918
ty	-919
▁aw	-920
▁redu	-921
▁negoti	-922
▁Madam	-923
▁necessary	-924
▁particularly	-925
ately	-926
▁accept	-927
▁before	-928
▁opport	-929
▁fav	-930
▁consider	-931
olog	-932
ines	-933
ablish	-934
self	-935
▁region	-936
▁issues	-937
▁indust	-938
▁ke	-939
▁V	-940
▁health	-941
▁give	-942
fter	-943
▁sol	-944
▁since	-945
▁represent	-946
arch	-947
▁wish	-948
▁follow	-949
▁organ	-950
▁resolution	-951
▁security	-952
ently	-953
▁given	-954
ination	-955
▁det	-956
▁areas	-957
▁legal	-958
iz	-959
▁An	-960
illion	-961
▁position	-962
▁strate	-963
▁real	-964
▁Treaty	-965
ration	-966
▁establish	-967
ents	-968
▁consum	-969
bour	-970
▁av	-971
▁Group	-972
icult	-973
ically	-974
ramew	-975
ound	-976
▁further	-977
▁sector	-978
▁meet	-979
▁proced	-980
▁women	-981
▁lead	-982
ell	-983
▁difficult	-984
land	-985
sibility	-986
▁product	-987
ability	-988
▁require	-989
ird	-990
▁whether	-991
ramework	-992
▁thank	-993
▁amendments	-994
▁som	-995
▁ladies	-996
▁decision	-997
▁Members	-998
ricult	-999
▁cris	-1000
▁different	-1001
▁equ	-1002
▁cre	-1003
▁favour	-1004
ased	-1005
▁opin	-1006
vers	-1007
▁United	-1008
▁gl	-1009
▁techn	-1010
arm	-1011
▁invest	-1012
ered	-1013
▁rat	-1014
▁pow	-1015
isions	-1016
▁contrib	-1017
▁account	-1018
▁role	-1019
▁suc	-1020
▁behalf	-1021
▁provid	-1022
▁sm	-1023
▁proposals	-1024
ting	-1025
ources	-1026
pr	-1027
▁serious	-1028
▁terms	-1029
ward	-1030
▁basis	-1031
▁programme	-1032
▁fish	-1033
▁aff	-1034
▁next	-1035
rodu	-1036
▁effort	-1037
▁initi	-1038
▁promot	-1039
▁services	-1040
▁aid	-1041
▁elect	-1042
▁progress	-1043
▁fe	-1044
▁pract	-1045
▁done	-1046
▁rules	-1047
▁crit	-1048
▁reform	-1049
▁aim	-1050
▁val	-1051
wards	-1052
▁trade	-1053
▁min	-1054
▁hand	-1055
erence	-1056
sions	-1057
▁come	-1058
▁sc	-1059
▁rest	-1060
▁effective	-1061
▁adopted	-1062
pa	-1063
rol	-1064
▁crisis	-1065
▁De	-1066
▁loo	-1067
▁better	-1068
ank	-1069
▁legislation	-1070
stand	-1071
▁happ	-1072
▁word	-1073
▁approach	-1074
fit	-1075
▁comple	-1076
▁needs	-1077
▁imm	-1078
▁find	-1079
▁second	-1080
ication	-1081
▁subject	-1082
ising	-1083
▁For	-1084
▁framework	-1085
▁pri	-1086
▁mem	-1087
▁mod	-1088
▁open	-1089
old	-1090
▁Pro	-1091
▁after	-1092
tic	-1093
▁inf	-1094
led	-1095
▁few	-1096
▁change	-1097
overn	-1098
▁What	-1099
▁exist	-1100
▁But	-1101
▁med	-1102
▁continue	-1103
▁whole	-1104
▁opinion	-1105
reedom	-1106
▁institutions	-1107
▁mention	-1108
selves	-1109
▁rev	-1110
▁grow	-1111
ital	-1112
▁project	-1113
▁fore	-1114
▁tal	-1115
ared	-1116
over	-1117
▁ur	-1118
▁concerned	-1119
▁State	-1120
racy	-1121
ten	-1122
▁job	-1123
▁agricult	-1124
▁oper	-1125
ret	-1126
ified	-1127
▁es	-1128
▁forward	-1129
eng	-1130
▁get	-1131
arant	-1132
▁going	-1133
ratic	-1134
ething	-1135
▁working	-1136
obal	-1137
amental	-1138
▁improve	-1139
▁cap	-1140
iving	-1141
▁adv	-1142
leg	-1143
▁tax	-1144
▁three	-1145
▁Ag	-1146
▁Fin	-1147
▁cost	-1148
▁welcome	-1149
▁back	-1150
▁towards	-1151
▁express	-1152
mit	-1153
▁start	-1154
▁bene	-1155
ually	-1156
▁soci	-1157
▁.	-1158
ese	-1159
▁guarant	-1160
gether	-1161
▁something	-1162
▁voted	-1163
▁ins	-1164
▁remain	-1165
▁ess	-1166
ases	-1167
▁step	-1168
pecial	-1169
ts	-1170
inister	-1171
▁pur	-1172
▁person	-1173
als	-1174
▁freedom	-1175
▁child	-1176
pri	-1177
▁Tur	-1178
▁achieve	-1179
imes	-1180
▁expl	-1181
atives	-1182
▁ide	-1183
▁principle	-1184
other	-1185
ily	-1186
▁transport	-1187
▁resources	-1188
ways	-1189
ss	-1190
▁conditions	-1191
▁del	-1192
▁ris	-1193
▁small	-1194
arity	-1195
iness	-1196
▁specific	-1197
▁exper	-1198
▁cor	-1199
▁rese	-1200
▁relations	-1201
vention	-1202
airs	-1203
▁pay	-1204
▁var	-1205
ify	-1206
▁including	-1207
▁introdu	-1208
▁down	-1209
▁integ	-1210
av	-1211
▁discuss	-1212
urn	-1213
▁access	-1214
▁importance	-1215
▁Presidency	-1216
▁compan	-1217
▁proposed	-1218
▁opportunity	-1219
entr	-1220
he	-1221
▁commun	-1222
▁prep	-1223
▁really	-1224
▁shall	-1225
▁success	-1226
itution	-1227
▁plan	-1228
▁did	-1229
▁million	-1230
imate	-1231
iol	-1232
▁essential	-1233
▁employment	-1234
▁nat	-1235
▁third	-1236
ident	-1237
▁move	-1238
▁authorities	-1239
ror	-1240
▁policies	-1241
pecially	-1242
▁global	-1243
▁provide	-1244
▁together	-1245
▁used	-1246
▁increase	-1247
ath	-1248
▁strong	-1249
ec	-1250
▁ap	-1251
▁commit	-1252
▁bus	-1253
▁research	-1254
▁general	-1255
▁peace	-1256
▁less	-1257
▁especially	-1258
ogn	-1259
▁At	-1260
▁play	-1261
▁during	-1262
▁control	-1263
ners	-1264
▁read	-1265
▁large	-1266
▁industry	-1267
▁regulation	-1268
▁understand	-1269
ined	-1270
▁recogn	-1271
▁clearly	-1272
▁negotiations	-1273
rant	-1274
▁Ar	-1275
▁strategy	-1276
sequ	-1277
▁free	-1278
▁activ	-1279
▁become	-1280
▁fundamental	-1281
▁itself	-1282
imin	-1283
▁another	-1284
▁environmental	-1285
▁greater	-1286
gth	-1287
rength	-1288
ivid	-1289
▁environment	-1290
▁cult	-1291
▁responsibility	-1292
▁Is	-1293
aking	-1294
▁quite	-1295
▁least	-1296
▁suff	-1297
▁text	-1298
bon	-1299
▁products	-1300
▁safety	-1301
▁bring	-1302
▁strength	-1303
▁regul	-1304
ises	-1305
▁viol	-1306
stain	-1307
▁reach	-1308
ening	-1309
▁Rus	-1310
▁rather	-1311
▁her	-1312
▁Al	-1313
▁They	-1314
les	-1315
▁show	-1316
▁colle	-1317
ness	-1318
ists	-1319
▁extre	-1320
iod	-1321
▁though	-1322
▁supp	-1323
asing	-1324
ield	-1325
▁addition	-1326
ater	-1327
▁speak	-1328
▁lif	-1329
▁business	-1330
▁achie	-1331
▁democracy	-1332
eed	-1333
▁always	-1334
ances	-1335
▁instru	-1336
▁demand	-1337
▁appropri	-1338
▁attention	-1339
▁bu	-1340
▁enc	-1341
▁making	-1342
▁These	-1343
▁positive	-1344
ences	-1345
▁once	-1346
▁opp	-1347
▁power	-1348
oney	-1349
▁regions	-1350
▁prevent	-1351
▁comb	-1352
ining	-1353
▁No	-1354
ner	-1355
gin	-1356
▁interests	-1357
▁look	-1358
ingle	-1359
▁things	-1360
ross	-1361
ug	-1362
ivil	-1363
▁benefit	-1364
▁society	-1365
▁lim	-1366
▁major	-1367
ible	-1368
though	-1369
▁based	-1370
▁taking	-1371
▁implementation	-1372
▁economy	-1373
▁clos	-1374
▁internal	-1375
▁food	-1376
gest	-1377
▁democratic	-1378
ification	-1379
ium	-1380
▁fight	-1381
▁efforts	-1382
▁let	-1383
▁various	-1384
▁struct	-1385
▁money	-1386
▁ed	-1387
▁Govern	-1388
▁members	-1389
▁signific	-1390
▁draft	-1391
▁abs	-1392
▁government	-1393
▁rece	-1394
▁points	-1395
▁aspect	-1396
▁bl	-1397
▁enl	-1398
▁terror	-1399
ples	-1400
rency	-1401
▁programm	-1402
▁each	-1403
▁short	-1404
ick	-1405
▁extreme	-1406
▁chang	-1407
▁ple	-1408
▁adm	-1409
▁address	-1410
▁words	-1411
▁fail	-1412
▁month	-1413
aps	-1414
ted	-1415
▁oc	-1416
▁colleag	-1417
▁yet	-1418
ivers	-1419
erv	-1420
▁Af	-1421
▁while	-1422
ran	-1423
ogue	-1424
ier	-1425
▁procedure	-1426
▁proper	-1427
▁period	-1428
irm	-1429
▁expect	-1430
▁accord	-1431
▁partners	-1432
▁committee	-1433
▁creat	-1434
▁full	-1435
▁funds	-1436
▁individ	-1437
▁EUR	-1438
thing	-1439
▁involved	-1440
ged	-1441
▁field	-1442
▁emph	-1443
▁press	-1444
ics	-1445
▁manage	-1446
itted	-1447
ages	-1448
▁single	-1449
▁competition	-1450
▁non	-1451
▁cong	-1452
▁air	-1453
▁concerns	-1454
▁chall	-1455
▁educ	-1456
▁growth	-1457
com	-1458
▁Amend	-1459
▁Pol	-1460
▁seem	-1461
▁Aff	-1462
▁transpa	-1463
▁sustain	-1464
▁ban	-1465
▁having	-1466
▁Affairs	-1467
▁ca	-1468
▁feel	-1469
▁wee	-1470
aly	-1471
▁workers	-1472
▁el	-1473
▁children	-1474
▁parliament	-1475
ened	-1476
row	-1477
ratul	-1478
ticle	-1479
▁bal	-1480
▁war	-1481
▁Government	-1482
▁Fund	-1483
ialogue	-1484
entral	-1485
iation	-1486
isbon	-1487
▁among	-1488
▁civil	-1489
ext	-1490
cise	-1491
▁request	-1492
▁close	-1493
▁companies	-1494
▁objectives	-1495
ply	-1496
▁individual	-1497
▁congratul	-1498
▁So	-1499
▁care	-1500
icial	-1501
▁ph	-1502
▁affect	-1503
utes	-1504
▁Lisbon	-1505
ably	-1506
fort	-1507
ule	-1508
▁programmes	-1509
▁best	-1510
▁encoura	-1511
▁agreements	-1512
▁loc	-1513
▁treat	-1514
ended	-1515
▁subst	-1516
▁dep	-1517
raph	-1518
▁He	-1519
lusion	-1520
▁quality	-1521
▁fully	-1522
▁Minister	-1523
▁sur	-1524
▁solution	-1525
▁emphas	-1526
▁pop	-1527
ension	-1528
▁fl	-1529
▁try	-1530
▁force	-1531
▁majority	-1532
▁avail	-1533
▁appe	-1534
▁increasing	-1535
ron	-1536
▁refer	-1537
▁pass	-1538
▁resol	-1539
▁amendment	-1540
sw	-1541
▁With	-1542
icient	-1543
key	-1544
▁standards	-1545
▁often	-1546
▁decisions	-1547
▁mean	-1548
▁following	-1549
ither	-1550
▁simply	-1551
▁certainly	-1552
▁ann	-1553
▁experi	-1554
▁recent	-1555
ights	-1556
▁name	-1557
▁coh	-1558
▁euro	-1559
empt	-1560
▁ele	-1561
▁And	-1562
uge	-1563
ceed	-1564
▁Intern	-1565
oub	-1566
▁fam	-1567
▁agricultural	-1568
▁answ	-1569
▁begin	-1570
idence	-1571
inistr	-1572
▁extremely	-1573
▁Turkey	-1574
itor	-1575
▁aware	-1576
▁dialogue	-1577
▁bro	-1578
▁context	-1579
▁groups	-1580
▁farm	-1581
▁significant	-1582
▁mil	-1583
▁First	-1584
▁mot	-1585
ending	-1586
▁production	-1587
argement	-1588
haps	-1589
thers	-1590
▁harm	-1591
▁technolog	-1592
▁En	-1593
▁kind	-1594
▁objective	-1595
▁coord	-1596
▁list	-1597
▁comprom	-1598
▁create	-1599
ck	-1600
▁sum	-1601
enda	-1602
round	-1603
fortun	-1604
ocu	-1605
sia	-1606
▁particip	-1607
▁ago	-1608
▁risk	-1609
hing	-1610
▁initiative	-1611
▁vis	-1612
▁might	-1613
sid	-1614
▁complete	-1615
ourt	-1616
▁life	-1617
▁compl	-1618
▁states	-1619
ech	-1620
▁actually	-1621
▁To	-1622
▁developing	-1623
▁assess	-1624
▁recomm	-1625
▁questions	-1626
most	-1627
▁assist	-1628
▁impact	-1629
lict	-1630
▁sug	-1631
ina	-1632
▁dat	-1633
▁sure	-1634
ees	-1635
kes	-1636
▁joint	-1637
▁mentioned	-1638
▁par	-1639
▁others	-1640
▁available	-1641
▁All	-1642
▁ret	-1643
ensive	-1644
▁sen	-1645
▁regional	-1646
pose	-1647
▁enlargement	-1648
ock	-1649
▁Reg	-1650
▁Court	-1651
erman	-1652
▁docu	-1653
▁jobs	-1654
▁Let	-1655
▁Soc	-1656
▁stat	-1657
▁special	-1658
▁indeed	-1659
▁mo	-1660
▁conv	-1661
cell	-1662
▁found	-1663
▁apply	-1664
▁Str	-1665
ering	-1666
▁climate	-1667
▁guarantee	-1668
▁oppos	-1669
▁consequ	-1670
▁results	-1671
▁Article	-1672
▁meeting	-1673
▁Finally	-1674
ix	-1675
used	-1676
▁currently	-1677
epend	-1678
▁Russia	-1679
▁concerning	-1680
less	-1681
arian	-1682
stitution	-1683
▁Direct	-1684
▁tar	-1685
▁appropriate	-1686
▁priv	-1687
▁writ	-1688
▁pa	-1689
▁hon	-1690
▁education	-1691
▁foc	-1692
▁urg	-1693
▁draw	-1694
orth	-1695
▁sch	-1696
▁responsible	-1697
wh	-1698
beral	-1699
▁consumers	-1700
cession	-1701
eric	-1702
▁fle	-1703
▁Part	-1704
▁key	-1705
▁themselves	-1706
ived	-1707
ffice	-1708
▁months	-1709
▁cases	-1710
ession	-1711
▁doing	-1712
its	-1713
▁never	-1714
mber	-1715
▁solid	-1716
▁data	-1717
eria	-1718
▁writing	-1719
rict	-1720
▁systems	-1721
▁needed	-1722
▁conflict	-1723
▁matters	-1724
▁management	-1725
▁obl	-1726
▁him	-1727
lev	-1728
eless	-1729
▁thing	-1730
▁principles	-1731
▁German	-1732
ibility	-1733
ave	-1734
for	-1735
▁oblig	-1736
cies	-1737
▁reasons	-1738
igration	-1739
▁administr	-1740
iter	-1741
▁mom	-1742
▁Social	-1743
▁enough	-1744
igin	-1745
▁tot	-1746
▁final	-1747
iveness	-1748
▁compromise	-1749
▁day	-1750
DE	-1751
▁contain	-1752
ling	-1753
str	-1754
▁keep	-1755
▁exc	-1756
▁excell	-1757
▁demon	-1758
▁build	-1759
▁monitor	-1760
▁decl	-1761
ators	-1762
ne	-1763
▁recommend	-1764
▁projects	-1765
▁regards	-1766
▁net	-1767
fortunately	-1768
▁costs	-1769
▁parties	-1770
▁longer	-1771
▁fisher	-1772
uclear	-1773
emoc	-1774
order	-1775
▁presid	-1776
▁reports	-1777
▁Americ	-1778
▁achieved	-1779
oung	-1780
▁US	-1781
atory	-1782
▁origin	-1783
co	-1784
▁entire	-1785
▁stud	-1786
▁threat	-1787
▁Afric	-1788
ub	-1789
▁broad	-1790
▁tas	-1791
▁Second	-1792
▁maintain	-1793
▁activities	-1794
▁moment	-1795
vious	-1796
▁inn	-1797
▁hist	-1798
▁reject	-1799
▁funding	-1800
▁lack	-1801
▁dist	-1802
▁local	-1803
▁commitment	-1804
▁po	-1805
▁deter	-1806
▁priority	-1807
▁independ	-1808
ittle	-1809
▁My	-1810
▁idea	-1811
▁Convention	-1812
orrow	-1813
▁sta	-1814
por	-1815
▁past	-1816
▁jud	-1817
ody	-1818
▁young	-1819
▁promote	-1820
ried	-1821
▁Sp	-1822
▁trad	-1823
▁although	-1824
▁governments	-1825
urd	-1826
▁institution	-1827
ection	-1828
▁little	-1829
▁suggest	-1830
▁true	-1831
ided	-1832
til	-1833
ember	-1834
▁continu	-1835
▁amount	-1836
▁legislative	-1837
▁enter	-1838
▁congratulate	-1839
esion	-1840
▁stress	-1841
▁labour	-1842
▁nothing	-1843
▁provided	-1844
▁due	-1845
▁conclud	-1846
ternal	-1847
▁cru	-1848
▁Rom	-1849
▁line	-1850
▁occ	-1851
▁opt	-1852
▁mind	-1853
▁excellent	-1854
▁sustainable	-1855
▁low	-1856
▁doub	-1857
▁anim	-1858
▁foreign	-1859
▁perhaps	-1860
ims	-1861
side	-1862
▁markets	-1863
▁ren	-1864
ead	-1865
▁East	-1866
▁Amendment	-1867
▁target	-1868
▁nuclear	-1869
▁Sw	-1870
▁include	-1871
▁ident	-1872
▁cred	-1873
▁solidarity	-1874
ends	-1875
▁cent	-1876
▁above	-1877
▁regarding	-1878
Office	-1879
ief	-1880
io	-1881
mb	-1882
▁amb	-1883
▁sever	-1884
▁vict	-1885
▁previous	-1886
▁mult	-1887
▁pres	-1888
▁makes	-1889
▁Rights	-1890
▁fel	-1891
▁aspects	-1892
▁share	-1893
▁agreed	-1894
▁wr	-1895
equ	-1896
atic	-1897
▁item	-1898
▁organis	-1899
aged	-1900
▁road	-1901
unities	-1902
fully	-1903
olute	-1904
▁dang	-1905
imum	-1906
ression	-1907
▁transparency	-1908
itary	-1909
edi	-1910
▁meth	-1911
▁impos	-1912
▁fair	-1913
▁seen	-1914
▁obs	-1915
▁integration	-1916
▁subsid	-1917
▁Directive	-1918
irc	-1919
▁term	-1920
▁tabl	-1921
▁detail	-1922
▁focus	-1923
▁consumer	-1924
▁tom	-1925
light	-1926
▁several	-1927
▁absolute	-1928
▁agenda	-1929
▁comes	-1930
ond	-1931
▁soon	-1932
atis	-1933
outh	-1934
▁eas	-1935
▁Democ	-1936
ale	-1937
▁Our	-1938
▁actions	-1939
▁Bar	-1940
▁circ	-1941
erous	-1942
▁relation	-1943
▁Fr	-1944
▁method	-1945
▁ty	-1946
▁response	-1947
▁Sch	-1948
▁contribution	-1949
▁tomorrow	-1950
▁upon	-1951
ides	-1952
▁four	-1953
▁Rep	-1954
▁UN	-1955
▁pot	-1956
TO	-1957
▁population	-1958
▁turn	-1959
rug	-1960
ference	-1961
▁Bel	-1962
▁EC	-1963
ledge	-1964
▁Mon	-1965
ants	-1966
atisf	-1967
▁technical	-1968
▁pat	-1969
ring	-1970
reen	-1971
▁mar	-1972
▁discussion	-1973
ned	-1974
▁values	-1975
ean	-1976
▁demonstr	-1977
▁innov	-1978
▁communication	-1979
overty	-1980
bilities	-1981
▁Therefore	-1982
▁Secondly	-1983
rael	-1984
▁pack	-1985
pite	-1986
ania	-1987
ging	-1988
▁terrorism	-1989
▁seems	-1990
▁colleagues	-1991
▁criteria	-1992
▁provisions	-1993
anced	-1994
▁answer	-1995
rect	-1996
▁elections	-1997
▁practice	-1998
▁changes	-1999
▁ve	-2000
by	-2001
▁pleased	-2002
▁netw	-2003
▁investment	-2004
term	-2005
▁harmon	-2006
▁defin	-2007
▁crucial	-2008
▁existing	-2009
▁voting	-2010
▁One	-2011
▁sci	-2012
▁industr	-2013
▁review	-2014
▁week	-2015
▁procedures	-2016
▁avo	-2017
▁ear	-2018
▁mis	-2019
▁Israel	-2020
conomic	-2021
etary	-2022
ti	-2023
▁stability	-2024
▁accession	-2025
ison	-2026
ven	-2027
▁ourselves	-2028
▁pen	-2029
▁grant	-2030
▁cho	-2031
▁tell	-2032
ications	-2033
chan	-2034
▁obvious	-2035
▁integr	-2036
▁violence	-2037
▁times	-2038
▁mechan	-2039
▁consult	-2040
itting	-2041
▁Brit	-2042
▁precise	-2043
▁Gree	-2044
▁China	-2045
▁hold	-2046
▁until	-2047
▁Ind	-2048
▁cohesion	-2049
▁assistance	-2050
els	-2051
▁post	-2052
▁poverty	-2053
▁creation	-2054
▁quick	-2055
▁everyone	-2056
▁hard	-2057
ourable	-2058
▁employ	-2059
▁potential	-2060
angu	-2061
▁saying	-2062
illeg	-2063
▁regulations	-2064
▁char	-2065
▁repe	-2066
gic	-2067
▁talk	-2068
▁basic	-2069
▁carried	-2070
imination	-2071
issions	-2072
▁prof	-2073
▁arr	-2074
▁service	-2075
aring	-2076
▁illeg	-2077
▁Pal	-2078
uine	-2079
▁unem	-2080
fer	-2081
▁bo	-2082
▁dest	-2083
▁asked	-2084
▁consequences	-2085
▁military	-2086
▁increased	-2087
▁conn	-2088
▁tabled	-2089
▁dut	-2090
▁organisations	-2091
▁wast	-2092
▁facil	-2093
▁cultural	-2094
istic	-2095
▁statement	-2096
▁held	-2097
▁relating	-2098
▁farmers	-2099
ars	-2100
▁balance	-2101
▁fall	-2102
▁challeng	-2103
▁namely	-2104
▁reduce	-2105
▁mor	-2106
iting	-2107
▁ground	-2108
▁training	-2109
▁flex	-2110
▁sec	-2111
▁sense	-2112
▁requirements	-2113
▁application	-2114
ively	-2115
▁required	-2116
▁along	-2117
▁fishing	-2118
▁guid	-2119
▁rule	-2120
▁liberal	-2121
▁carry	-2122
▁presented	-2123
▁everything	-2124
▁traff	-2125
▁When	-2126
▁water	-2127
sels	-2128
▁determ	-2129
▁cut	-2130
▁instruments	-2131
▁equal	-2132
itarian	-2133
▁Re	-2134
▁disast	-2135
▁attempt	-2136
▁thus	-2137
ians	-2138
▁speech	-2139
more	-2140
▁langu	-2141
▁Thank	-2142
▁opportunities	-2143
ruction	-2144
▁closed	-2145
▁face	-2146
▁value	-2147
▁regret	-2148
▁join	-2149
aration	-2150
▁undert	-2151
▁throughout	-2152
uly	-2153
▁gener	-2154
ires	-2155
▁she	-2156
▁Le	-2157
▁immedi	-2158
▁stage	-2159
▁Just	-2160
▁priorities	-2161
ighbour	-2162
▁nature	-2163
▁either	-2164
aced	-2165
▁budgetary	-2166
▁analy	-2167
yl	-2168
▁called	-2169
▁initiatives	-2170
▁doubt	-2171
unction	-2172
▁discr	-2173
ateral	-2174
gu	-2175
▁satisf	-2176
ctions	-2177
▁around	-2178
rast	-2179
▁community	-2180
▁territ	-2181
▁hear	-2182
▁decided	-2183
line	-2184
encies	-2185
▁prepared	-2186
▁stop	-2187
▁crimin	-2188
▁Party	-2189
rad	-2190
▁purs	-2191
▁avoid	-2192
▁correct	-2193
▁external	-2194
▁Li	-2195
▁Constitution	-2196
'.	-2197
▁old	-2198
uses	-2199
orders	-2200
▁movement	-2201
▁traffic	-2202
▁indic	-2203
▁pros	-2204
ize	-2205
▁encourage	-2206
ilateral	-2207
▁across	-2208
▁emer	-2209
▁effici	-2210
▁reached	-2211
▁instrument	-2212
▁pressure	-2213
▁five	-2214
▁wa	-2215
▁dire	-2216
rench	-2217
▁task	-2218
▁remind	-2219
▁Bal	-2220
rought	-2221
▁expressed	-2222
▁raised	-2223
▁Pe	-2224
▁using	-2225
▁powers	-2226
▁monitoring	-2227
une	-2228
▁assoc	-2229
▁levels	-2230
▁cross	-2231
▁export	-2232
▁talking	-2233
▁package	-2234
▁capital	-2235
▁live	-2236
▁exch	-2237
▁justice	-2238
▁death	-2239
▁conclusion	-2240
theless	-2241
▁challenges	-2242
ung	-2243
▁Palest	-2244
▁head	-2245
velopment	-2246
iance	-2247
agraph	-2248
▁implemented	-2249
▁genuine	-2250
alu	-2251
rats	-2252
▁document	-2253
app	-2254
▁official	-2255
▁lear	-2256
▁involve	-2257
ished	-2258
▁respond	-2259
reland	-2260
▁dam	-2261
▁medium	-2262
▁reflect	-2263
▁Ireland	-2264
▁included	-2265
cri	-2266
▁whose	-2267
▁waste	-2268
▁direction	-2269
▁fellow	-2270
▁fisheries	-2271
▁More	-2272
▁reading	-2273
▁billion	-2274
▁super	-2275
▁experience	-2276
▁mess	-2277
▁competit	-2278
▁vital	-2279
▁immigration	-2280
reg	-2281
▁Wor	-2282
▁illegal	-2283
▁relev	-2284
▁Further	-2285
▁according	-2286
▁absolutely	-2287
▁ever	-2288
▁quickly	-2289
▁French	-2290
▁Med	-2291
▁Swed	-2292
▁borders	-2293
▁established	-2294
▁crime	-2295
▁enable	-2296
▁private	-2297
▁presidency	-2298
▁recently	-2299
▁quot	-2300
▁victims	-2301
▁cam	-2302
▁gr	-2303
▁sectors	-2304
▁reduction	-2305
▁capac	-2306
▁partnership	-2307
▁scient	-2308
▁reality	-2309
▁light	-2310
▁coming	-2311
▁return	-2312
▁effects	-2313
▁bre	-2314
▁agriculture	-2315
▁run	-2316
▁supported	-2317
▁exer	-2318
▁fra	-2319
▁thanks	-2320
▁outside	-2321
reh	-2322
ilar	-2323
duct	-2324
▁Port	-2325
▁top	-2326
sibilities	-2327
▁renew	-2328
▁link	-2329
itional	-2330
▁Conference	-2331
▁France	-2332
▁completely	-2333
▁critic	-2334
▁note	-2335
▁reforms	-2336
raq	-2337
▁becom	-2338
▁enterpr	-2339
▁cand	-2340
ges	-2341
▁event	-2342
▁Development	-2343
▁neighbour	-2344
▁brought	-2345
▁Iraq	-2346
sp	-2347
▁Br	-2348
▁cla	-2349
▁price	-2350
anish	-2351
▁dr	-2352
▁candid	-2353
▁giving	-2354
▁unac	-2355
▁left	-2356
elines	-2357
▁May	-2358
iterran	-2359
▁prices	-2360
▁yes	-2361
iterranean	-2362
▁structural	-2363
▁cod	-2364
▁big	-2365
rup	-2366
▁motion	-2367
just	-2368
▁emissions	-2369
▁finally	-2370
cember	-2371
▁summit	-2372
▁except	-2373
reement	-2374
▁deleg	-2375
▁extent	-2376
▁consist	-2377
▁Or	-2378
erve	-2379
▁December	-2380
▁representatives	-2381
tle	-2382
▁cause	-2383
▁unemployment	-2384
▁took	-2385
la	-2386
▁received	-2387
▁Republic	-2388
ex	-2389
▁businesses	-2390
▁possibility	-2391
▁applied	-2392
mitted	-2393
▁Nations	-2394
▁highlight	-2395
▁circum	-2396
iversity	-2397
ustr	-2398
rist	-2399
vere	-2400
inking	-2401
▁Africa	-2402
▁heard	-2403
▁dise	-2404
ler	-2405
▁else	-2406
par	-2407
▁almost	-2408
▁dev	-2409
▁additional	-2410
▁approved	-2411
▁Firstly	-2412
pective	-2413
▁coordination	-2414
to	-2415
ator	-2416
▁ensuring	-2417
iver	-2418
arily	-2419
▁tack	-2420
▁Portug	-2421
▁total	-2422
▁six	-2423
▁away	-2424
pid	-2425
▁discussed	-2426
▁model	-2427
istan	-2428
▁natural	-2429
▁unaccept	-2430
▁influ	-2431
▁eng	-2432
idd	-2433
▁relevant	-2434
▁leaders	-2435
▁treatment	-2436
▁takes	-2437
▁analys	-2438
be	-2439
▁behind	-2440
▁test	-2441
▁living	-2442
▁practical	-2443
▁creating	-2444
▁lot	-2445
▁Furthermore	-2446
▁restrict	-2447
▁ME	-2448
▁competitiveness	-2449
▁discussions	-2450
▁und	-2451
▁Co	-2452
▁strengthen	-2453
▁events	-2454
▁assessment	-2455
▁offer	-2456
▁confidence	-2457
Euro	-2458
▁simpl	-2459
ylum	-2460
▁men	-2461
acy	-2462
▁remains	-2463
force	-2464
▁unacceptable	-2465
▁British	-2466
▁guidelines	-2467
▁fig	-2468
▁parliamentary	-2469
▁nor	-2470
▁Budget	-2471
▁adoption	-2472
▁sent	-2473
▁days	-2474
hold	-2475
▁capacity	-2476
▁conduct	-2477
itud	-2478
▁central	-2479
▁%	-2480
▁knowledge	-2481
▁ten	-2482
▁measure	-2483
▁provision	-2484
▁Of	-2485
▁scope	-2486
▁solutions	-2487
ifically	-2488
▁paragraph	-2489
▁goods	-2490
▁huge	-2491
rastruct	-2492
▁author	-2493
▁proceed	-2494
uted	-2495
ster	-2496
▁los	-2497
arter	-2498
▁weak	-2499
▁recon	-2500
▁considered	-2501
▁Bank	-2502
know	-2503
▁vol	-2504
▁family	-2505
▁den	-2506
Europe	-2507
ption	-2508
▁affected	-2509
▁depend	-2510
▁evalu	-2511
▁aimed	-2512
unch	-2513
lusions	-2514
▁condem	-2515
▁infrastruct	-2516
▁combat	-2517
▁despite	-2518
▁defence	-2519
ann	-2520
▁effectively	-2521
▁Do	-2522
▁humanitarian	-2523
entions	-2524
▁criminal	-2525
▁design	-2526
▁Democrats	-2527
isc	-2528
▁discrimination	-2529
▁dom	-2530
▁circumst	-2531
icy	-2532
▁industrial	-2533
egu	-2534
▁substant	-2535
▁er	-2536
lf	-2537
▁met	-2538
▁argu	-2539
▁firm	-2540
▁Central	-2541
▁precisely	-2542
ool	-2543
▁trying	-2544
▁rail	-2545
▁contribute	-2546
▁difficulties	-2547
▁asylum	-2548
bourg	-2549
▁rate	-2550
▁altern	-2551
olid	-2552
▁Agreement	-2553
▁explain	-2554
ional	-2555
▁confirm	-2556
▁obtain	-2557
enge	-2558
▁sitting	-2559
▁supply	-2560
iable	-2561
▁International	-2562
ization	-2563
▁shown	-2564
▁efficiency	-2565
endit	-2566
).	-2567
▁Now	-2568
▁June	-2569
▁safegu	-2570
wise	-2571
▁occas	-2572
▁side	-2573
▁instead	-2574
▁Justice	-2575
▁content	-2576
▁developed	-2577
▁personal	-2578
▁limit	-2579
▁concept	-2580
▁honourable	-2581
▁self	-2582
▁rein	-2583
▁land	-2584
▁penal	-2585
▁message	-2586
EC	-2587
terday	-2588
▁accordance	-2589
▁connection	-2590
▁circumstances	-2591
▁half	-2592
▁World	-2593
▁repl	-2594
▁spo	-2595
▁reference	-2596
▁coordin	-2597
urea	-2598
▁Palestin	-2599
alled	-2600
▁function	-2601
▁clar	-2602
▁Economic	-2603
▁drug	-2604
ological	-2605
omp	-2606
▁oil	-2607
▁technology	-2608
way	-2609
ograph	-2610
▁forces	-2611
▁refuge	-2612
▁conclusions	-2613
ously	-2614
▁regime	-2615
zed	-2616
go	-2617
▁culture	-2618
▁poll	-2619
▁active	-2620
▁ir	-2621
▁improving	-2622
▁Kos	-2623
▁administrative	-2624
▁mand	-2625
▁advant	-2626
▁committed	-2627
▁constitution	-2628
▁gra	-2629
▁qual	-2630
▁alloc	-2631
▁institutional	-2632
ha	-2633
▁ill	-2634
▁allowed	-2635
▁wrong	-2636
▁comments	-2637
▁People	-2638
▁Germany	-2639
uth	-2640
▁providing	-2641
▁goes	-2642
govern	-2643
ught	-2644
▁investig	-2645
▁produc	-2646
▁created	-2647
eneral	-2648
▁provides	-2649
▁Kosov	-2650
▁challenge	-2651
▁enterprises	-2652
▁beginning	-2653
ake	-2654
▁benefits	-2655
▁minimum	-2656
▁independent	-2657
erial	-2658
▁status	-2659
anu	-2660
▁mass	-2661
▁innovation	-2662
▁Regulation	-2663
▁considerable	-2664
▁duty	-2665
▁accepted	-2666
▁cover	-2667
▁rightly	-2668
▁modern	-2669
▁date	-2670
▁calls	-2671
▁ver	-2672
erb	-2673
ussels	-2674
▁purpose	-2675
▁consideration	-2676
▁Policy	-2677
▁propose	-2678
yond	-2679
▁WTO	-2680
▁convin	-2681
▁successful	-2682
▁poor	-2683
igrant	-2684
ert	-2685
▁implementing	-2686
▁construct	-2687
▁Brussels	-2688
ash	-2689
ban	-2690
▁lives	-2691
▁stated	-2692
▁forms	-2693
▁participation	-2694
any	-2695
▁unfortunately	-2696
▁views	-2697
▁Min	-2698
▁rural	-2699
▁promoting	-2700
dam	-2701
▁referred	-2702
▁lab	-2703
▁closely	-2704
▁Tr	-2705
▁seriously	-2706
▁colleague	-2707
▁home	-2708
▁worth	-2709
▁specifically	-2710
ps	-2711
ustom	-2712
▁overall	-2713
▁dealing	-2714
▁Ir	-2715
▁mut	-2716
▁material	-2717
▁receive	-2718
▁compreh	-2719
▁spir	-2720
rade	-2721
▁media	-2722
kra	-2723
ousand	-2724
dom	-2725
▁famil	-2726
▁prim	-2727
▁similar	-2728
▁plans	-2729
▁beyond	-2730
▁mere	-2731
apt	-2732
▁relig	-2733
itation	-2734
▁decide	-2735
governmental	-2736
▁lat	-2737
▁san	-2738
▁steps	-2739
▁wanted	-2740
▁urgent	-2741
▁legit	-2742
▁history	-2743
▁scientific	-2744
▁fri	-2745
itude	-2746
▁introduction	-2747
▁explo	-2748
▁relationship	-2749
acks	-2750
▁fear	-2751
▁Kosovo	-2752
▁Tod	-2753
▁ways	-2754
▁disp	-2755
▁seek	-2756
▁sens	-2757
▁MEP	-2758
isms	-2759
▁expendit	-2760
▁strategic	-2761
▁Human	-2762
▁directly	-2763
itious	-2764
rupt	-2765
▁happen	-2766
▁Today	-2767
▁financing	-2768
orks	-2769
sian	-2770
▁Can	-2771
▁requires	-2772
▁travel	-2773
▁study	-2774
▁Ex	-2775
▁commitments	-2776
▁Mediterranean	-2777
▁Ac	-2778
▁Pa	-2779
paign	-2780
▁Ukra	-2781
▁Res	-2782
▁Sum	-2783
▁eth	-2784
ured	-2785
af	-2786
action	-2787
▁exchange	-2788
European	-2789
ender	-2790
▁counter	-2791
▁produce	-2792
▁expenditure	-2793
▁bod	-2794
▁Irish	-2795
▁adequ	-2796
iddle	-2797
▁border	-2798
▁brief	-2799
▁demands	-2800
▁thousand	-2801
etimes	-2802
▁port	-2803
▁equality	-2804
▁campaign	-2805
▁commer	-2806
anuary	-2807
▁leave	-2808
▁myself	-2809
▁intended	-2810
lands	-2811
▁January	-2812
▁deg	-2813
▁fulf	-2814
▁Summit	-2815
▁red	-2816
sized	-2817
▁activity	-2818
▁Iran	-2819
▁exact	-2820
▁emb	-2821
▁party	-2822
▁bar	-2823
▁sort	-2824
▁sufficient	-2825
▁setting	-2826
li	-2827
▁contract	-2828
▁ce	-2829
ken	-2830
▁Europeans	-2831
▁age	-2832
ush	-2833
▁useful	-2834
▁comment	-2835
▁rapid	-2836
SE	-2837
▁paid	-2838
▁burd	-2839
▁earl	-2840
▁cat	-2841
imately	-2842
▁remark	-2843
▁adapt	-2844
▁distrib	-2845
▁speaking	-2846
▁incor	-2847
▁supporting	-2848
▁alone	-2849
▁highly	-2850
▁Pr	-2851
),	-2852
..	-2853
▁bodies	-2854
▁anything	-2855
▁Prog	-2856
▁efficient	-2857
▁Greece	-2858
anim	-2859
▁Last	-2860
▁tour	-2861
▁competitive	-2862
where	-2863
▁Fore	-2864
hic	-2865
▁interp	-2866
▁deep	-2867
▁weeks	-2868
▁substantial	-2869
▁led	-2870
▁properly	-2871
▁Cons	-2872
icit	-2873
▁shows	-2874
▁referen	-2875
▁conclude	-2876
ocol	-2877
▁gas	-2878
▁yesterday	-2879
▁higher	-2880
▁anti	-2881
▁gain	-2882
▁developments	-2883
head	-2884
▁discussing	-2885
▁limited	-2886
▁Rules	-2887
▁known	-2888
▁collect	-2889
▁ambitious	-2890
▁police	-2891
▁Although	-2892
▁dim	-2893
▁forget	-2894
▁former	-2895
▁risks	-2896
▁rad	-2897
▁calling	-2898
vis	-2899
▁Prot	-2900
▁minister	-2901
▁increasingly	-2902
▁caused	-2903
▁type	-2904
▁animal	-2905
▁Environ	-2906
▁gives	-2907
▁cle	-2908
▁establishing	-2909
▁whom	-2910
▁schem	-2911
▁complex	-2912
inary	-2913
▁Unfortunately	-2914
▁profession	-2915
urally	-2916
▁improved	-2917
▁authority	-2918
▁vehic	-2919
▁represents	-2920
▁histor	-2921
▁unanim	-2922
FR	-2923
▁desire	-2924
ront	-2925
▁ship	-2926
▁prob	-2927
▁opposition	-2928
▁won	-2929
▁remember	-2930
▁early	-2931
az	-2932
making	-2933
▁achieving	-2934
trary	-2935
ifying	-2936
▁happened	-2937
▁welcom	-2938
▁vo	-2939
▁awa	-2940
▁aims	-2941
The	-2942
ins	-2943
uct	-2944
▁strengthening	-2945
▁descri	-2946
ours	-2947
▁associ	-2948
▁annual	-2949
ys	-2950
border	-2951
▁emphasise	-2952
ger	-2953
▁reducing	-2954
▁comprehensive	-2955
▁urge	-2956
▁Minutes	-2957
▁produced	-2958
▁obviously	-2959
▁profit	-2960
▁statements	-2961
▁Security	-2962
bly	-2963
▁Since	-2964
▁acknow	-2965
▁Cy	-2966
▁South	-2967
▁pursu	-2968
uff	-2969
▁safeguard	-2970
rest	-2971
▁manner	-2972
▁March	-2973
ensus	-2974
▁convinced	-2975
rete	-2976
▁later	-2977
▁Be	-2978
ME	-2979
▁thought	-2980
▁candidate	-2981
▁producers	-2982
▁enorm	-2983
lov	-2984
▁currency	-2985
▁looking	-2986
▁animals	-2987
ira	-2988
▁transfer	-2989
ized	-2990
▁chec	-2991
▁outcome	-2992
ient	-2993
▁trust	-2994
▁Moreover	-2995
▁compens	-2996
▁infrastructure	-2997
▁Foreign	-2998
called	-2999
▁Never	-3000
▁facilit	-3001
unt	-3002
▁firstly	-3003
▁wants	-3004
▁Italy	-3005
ciliation	-3006
▁bad	-3007
▁Green	-3008
▁z	-3009
▁constit	-3010
▁combating	-3011
igrants	-3012
▁balanced	-3013
body	-3014
▁rise	-3015
▁appre	-3016
▁language	-3017
▁monetary	-3018
▁Third	-3019
▁sometimes	-3020
oph	-3021
▁says	-3022
▁union	-3023
▁launch	-3024
▁recognise	-3025
▁earlier	-3026
▁analysis	-3027
udit	-3028
▁recognition	-3029
▁staff	-3030
▁prison	-3031
ote	-3032
▁elements	-3033
▁enh	-3034
▁conference	-3035
▁succeed	-3036
▁dangerous	-3037
▁documents	-3038
▁extra	-3039
▁damage	-3040
▁concrete	-3041
▁influence	-3042
▁Hung	-3043
▁member	-3044
▁fraud	-3045
▁acceptable	-3046
▁thinking	-3047
ology	-3048
▁entirely	-3049
aria	-3050
ober	-3051
itial	-3052
▁Spanish	-3053
▁building	-3054
▁By	-3055
▁contrary	-3056
▁heart	-3057
▁occur	-3058
▁becoming	-3059
apon	-3060
▁rapporteurs	-3061
▁pointed	-3062
▁Ma	-3063
▁spirit	-3064
ource	-3065
▁parts	-3066
▁introduce	-3067
▁cooper	-3068
▁constant	-3069
▁introduced	-3070
',	-3071
val	-3072
▁delay	-3073
▁willing	-3074
▁prevention	-3075
▁Romania	-3076
▁facing	-3077
▁dead	-3078
ties	-3079
▁Some	-3080
▁commercial	-3081
▁After	-3082
▁Trans	-3083
▁Inter	-3084
▁appreci	-3085
▁standard	-3086
amber	-3087
▁reduced	-3088
▁Nevertheless	-3089
▁Internet	-3090
▁differences	-3091
istics	-3092
▁American	-3093
lines	-3094
▁passeng	-3095
▁susp	-3096
▁tool	-3097
▁custom	-3098
▁obst	-3099
dra	-3100
▁negative	-3101
▁laws	-3102
▁Inst	-3103
▁Slov	-3104
▁consensus	-3105
▁delegation	-3106
hern	-3107
▁recommendations	-3108
▁sources	-3109
aving	-3110
▁speed	-3111
▁alternative	-3112
sec	-3113
uf	-3114
▁Belg	-3115
set	-3116
estic	-3117
▁norm	-3118
▁arrange	-3119
▁flexibility	-3120
ptember	-3121
▁UK	-3122
aging	-3123
▁asking	-3124
ored	-3125
▁Inde	-3126
yn	-3127
▁added	-3128
▁September	-3129
ility	-3130
▁probably	-3131
oot	-3132
▁Spain	-3133
lus	-3134
ulg	-3135
▁establishment	-3136
▁raise	-3137
▁assum	-3138
▁closer	-3139
▁ge	-3140
▁initial	-3141
▁Indeed	-3142
ury	-3143
▁Ital	-3144
▁liberalisation	-3145
▁separ	-3146
▁King	-3147
ories	-3148
▁morning	-3149
▁transparent	-3150
▁networks	-3151
▁strict	-3152
iet	-3153
▁record	-3154
▁body	-3155
▁methods	-3156
▁wide	-3157
▁weapon	-3158
of	-3159
▁Ministers	-3160
▁Environment	-3161
▁school	-3162
▁strongly	-3163
▁disch	-3164
▁Turk	-3165
▁announ	-3166
▁sound	-3167
▁perspective	-3168
▁Ukraine	-3169
▁incorpor	-3170
▁applies	-3171
▁exactly	-3172
▁sex	-3173
▁organisation	-3174
ton	-3175
▁America	-3176
ovember	-3177
▁directives	-3178
▁practices	-3179
▁intervention	-3180
erent	-3181
itten	-3182
▁Proced	-3183
ufact	-3184
▁drawn	-3185
portion	-3186
▁Strate	-3187
▁ult	-3188
▁November	-3189
▁sanctions	-3190
▁company	-3191
▁bear	-3192
▁loss	-3193
▁chance	-3194
ij	-3195
acter	-3196
ilst	-3197
urance	-3198
ying	-3199
▁ideas	-3200
▁mer	-3201
▁failure	-3202
estern	-3203
▁reply	-3204
▁laid	-3205
▁dealt	-3206
▁refugees	-3207
▁ut	-3208
▁SME	-3209
▁fu	-3210
▁Palestinian	-3211
▁arm	-3212
▁manufact	-3213
▁MEPs	-3214
▁withdra	-3215
▁sk	-3216
▁dimension	-3217
▁submitted	-3218
▁targets	-3219
iction	-3220
▁applic	-3221
▁contact	-3222
ervation	-3223
▁agencies	-3224
▁opening	-3225
▁character	-3226
▁Procedure	-3227
▁defend	-3228
▁happy	-3229
▁enormous	-3230
▁fre	-3231
ristian	-3232
▁Ad	-3233
▁Ladies	-3234
▁contro	-3235
▁subsidi	-3236
▁constructive	-3237
▁acqu	-3238
▁Program	-3239
▁mechanism	-3240
▁coll	-3241
▁addressed	-3242
ats	-3243
▁ones	-3244
▁bi	-3245
▁conver	-3246
▁network	-3247
bed	-3248
sman	-3249
▁Why	-3250
▁informed	-3251
▁governance	-3252
▁af	-3253
▁integrated	-3254
▁critical	-3255
▁improvement	-3256
▁Paper	-3257
▁obligations	-3258
▁sw	-3259
▁excess	-3260
▁Italian	-3261
▁putting	-3262
▁mandate	-3263
▁hop	-3264
▁Bulg	-3265
▁appeal	-3266
idents	-3267
▁growing	-3268
arus	-3269
▁managed	-3270
▁immediately	-3271
▁contains	-3272
ctober	-3273
▁ign	-3274
coming	-3275
▁Middle	-3276
▁enabl	-3277
▁forest	-3278
▁Kingdom	-3279
▁parliaments	-3280
▁univers	-3281
▁unable	-3282
▁send	-3283
▁choice	-3284
▁sensitive	-3285
▁October	-3286
▁organised	-3287
▁mechanisms	-3288
ppl	-3289
▁Belarus	-3290
▁ahead	-3291
▁burea	-3292
▁definition	-3293
▁resolutions	-3294
▁consultation	-3295
▁mutual	-3296
▁mainly	-3297
▁Prime	-3298
▁comply	-3299
▁mist	-3300
▁Acc	-3301
▁unf	-3302
▁rejected	-3303
▁operation	-3304
▁Strategy	-3305
ream	-3306
▁medic	-3307
▁Russian	-3308
▁lar	-3309
▁positions	-3310
▁referend	-3311
▁sal	-3312
▁simple	-3313
▁Ob	-3314
▁insist	-3315
▁merely	-3316
▁easy	-3317
▁debates	-3318
▁Trade	-3319
inding	-3320
▁appear	-3321
▁understanding	-3322
gies	-3323
▁sport	-3324
▁administration	-3325
uest	-3326
▁leading	-3327
▁intention	-3328
itable	-3329
PL	-3330
▁lo	-3331
▁Even	-3332
▁persons	-3333
▁Health	-3334
▁Charter	-3335
vereign	-3336
▁signed	-3337
ipl	-3338
joy	-3339
▁guarantees	-3340
mp	-3341
▁interpret	-3342
▁Agency	-3343
ateg	-3344
▁abol	-3345
▁sovereign	-3346
▁continuing	-3347
fect	-3348
▁Amendments	-3349
▁tim	-3350
▁wat	-3351
▁Turkish	-3352
sterdam	-3353
▁Programme	-3354
Os	-3355
IT	-3356
di	-3357
▁impl	-3358
aries	-3359
▁discharge	-3360
▁enjoy	-3361
▁Chamber	-3362
▁thousands	-3363
▁Amsterdam	-3364
empor	-3365
▁impossible	-3366
▁worked	-3367
▁resolve	-3368
▁figures	-3369
▁elected	-3370
▁includes	-3371
▁react	-3372
▁burden	-3373
▁exercise	-3374
▁bureauc	-3375
lant	-3376
▁told	-3377
▁Barro	-3378
▁Lu	-3379
▁occup	-3380
▁obser	-3381
▁concentr	-3382
oples	-3383
▁came	-3384
▁lost	-3385
pplause	-3386
▁prospect	-3387
▁adequate	-3388
▁Many	-3389
▁disaster	-3390
▁independence	-3391
cl	-3392
▁speakers	-3393
▁renewable	-3394
▁evidence	-3395
hood	-3396
▁wonder	-3397
fin	-3398
▁advantage	-3399
▁totally	-3400
▁payments	-3401
▁near	-3402
▁ought	-3403
▁technologies	-3404
ev	-3405
CO	-3406
arket	-3407
orn	-3408
engen	-3409
▁repeat	-3410
ateful	-3411
ients	-3412
▁recommendation	-3413
ighted	-3414
▁wishes	-3415
▁warm	-3416
▁table	-3417
ourage	-3418
orse	-3419
ittees	-3420
▁degree	-3421
oor	-3422
ature	-3423
▁interv	-3424
▁structure	-3425
▁Afgh	-3426
▁attitude	-3427
▁failed	-3428
▁peoples	-3429
▁subsidiarity	-3430
▁pill	-3431
enary	-3432
▁economies	-3433
▁related	-3434
▁max	-3435
illions	-3436
▁safe	-3437
ulated	-3438
▁expression	-3439
▁rates	-3440
▁Schengen	-3441
▁regular	-3442
▁situations	-3443
▁surpr	-3444
▁supports	-3445
respon	-3446
PE	-3447
▁Serb	-3448
▁SMEs	-3449
▁votes	-3450
▁bringing	-3451
▁forth	-3452
▁condemn	-3453
▁instance	-3454
ival	-3455
▁adver	-3456
▁summ	-3457
▁extend	-3458
▁territory	-3459
illed	-3460
▁affairs	-3461
▁membership	-3462
elling	-3463
▁grateful	-3464
▁perform	-3465
▁controls	-3466
▁linked	-3467
▁income	-3468
▁Pact	-3469
urs	-3470
▁treaty	-3471
▁Monetary	-3472
▁promotion	-3473
▁Struct	-3474
sequently	-3475
▁Accord	-3476
▁families	-3477
icated	-3478
▁belie	-3479
▁trafficking	-3480
ters	-3481
▁Organ	-3482
prus	-3483
▁acts	-3484
▁publ	-3485
▁involvement	-3486
▁opposed	-3487
▁lines	-3488
wide	-3489
▁actual	-3490
▁involving	-3491
▁secure	-3492
▁Cyprus	-3493
▁Afghan	-3494
▁Structural	-3495
▁learn	-3496
▁North	-3497
eb	-3498
CP	-3499
▁talks	-3500
▁getting	-3501
▁complain	-3502
ked	-3503
▁Thirdly	-3504
▁obstac	-3505
▁Portugal	-3506
▁element	-3507
ired	-3508
overy	-3509
▁Balk	-3510
▁green	-3511
▁weapons	-3512
▁II	-3513
▁perman	-3514
▁der	-3515
▁explan	-3516
▁unc	-3517
▁original	-3518
▁claim	-3519
▁ready	-3520
▁drugs	-3521
▁Funds	-3522
▁truly	-3523
▁plenary	-3524
▁immediate	-3525
▁office	-3526
▁Agricult	-3527
omb	-3528
▁faced	-3529
▁pension	-3530
▁happening	-3531
▁protecting	-3532
▁goal	-3533
uditors	-3534
▁underm	-3535
▁perfect	-3536
▁log	-3537
▁tro	-3538
▁tourism	-3539
▁Ver	-3540
▁forced	-3541
rep	-3542
rs	-3543
ivity	-3544
hol	-3545
▁Leg	-3546
▁rele	-3547
▁finance	-3548
▁greatest	-3549
ift	-3550
▁emerg	-3551
que	-3552
orthern	-3553
▁hy	-3554
▁starting	-3555
▁referendum	-3556
▁recognised	-3557
▁credit	-3558
▁div	-3559
▁Poland	-3560
▁consolid	-3561
pol	-3562
▁adopting	-3563
▁election	-3564
▁followed	-3565
ES	-3566
ior	-3567
lantic	-3568
▁sides	-3569
▁interesting	-3570
▁plac	-3571
▁Nos	-3572
iplom	-3573
▁intend	-3574
▁disease	-3575
vered	-3576
▁granted	-3577
mbly	-3578
sembly	-3579
▁round	-3580
ping	-3581
ones	-3582
ik	-3583
▁tackle	-3584
▁According	-3585
icians	-3586
▁cal	-3587
▁July	-3588
▁diversity	-3589
rain	-3590
▁African	-3591
▁seeking	-3592
▁Lat	-3593
aken	-3594
▁committees	-3595
▁meetings	-3596
▁Ber	-3597
ca	-3598
▁Bl	-3599
▁Per	-3600
ruption	-3601
amic	-3602
▁via	-3603
▁appoint	-3604
▁covered	-3605
▁shared	-3606
▁danger	-3607
▁minorities	-3608
▁substances	-3609
▁mobility	-3610
▁vehicles	-3611
▁Sweden	-3612
▁CO	-3613
▁carefully	-3614
ocks	-3615
itime	-3616
▁ability	-3617
open	-3618
▁NA	-3619
ya	-3620
▁Public	-3621
▁sea	-3622
▁gender	-3623
▁dict	-3624
▁benef	-3625
lement	-3626
▁diplom	-3627
standing	-3628
emporary	-3629
▁globalisation	-3630
▁ton	-3631
▁Austr	-3632
ma	-3633
▁categ	-3634
▁continues	-3635
▁changed	-3636
▁foot	-3637
▁designed	-3638
▁chair	-3639
enn	-3640
ederal	-3641
Applause	-3642
▁ey	-3643
▁proposing	-3644
arations	-3645
▁suffering	-3646
▁subsidies	-3647
▁presence	-3648
org	-3649
inks	-3650
▁disapp	-3651
▁thereby	-3652
▁communities	-3653
▁path	-3654
▁Mar	-3655
ought	-3656
▁continent	-3657
▁evaluation	-3658
▁detailed	-3659
▁pollution	-3660
▁competence	-3661
▁serve	-3662
▁courage	-3663
▁criticism	-3664
agen	-3665
▁Col	-3666
▁While	-3667
▁Bulgaria	-3668
▁range	-3669
▁Swedish	-3670
▁structures	-3671
▁judicial	-3672
▁bilateral	-3673
▁advoc	-3674
▁floor	-3675
▁naturally	-3676
▁sole	-3677
aw	-3678
▁proportion	-3679
rend	-3680
enced	-3681
▁causes	-3682
atically	-3683
fare	-3684
▁spent	-3685
▁Ge	-3686
▁series	-3687
▁Barroso	-3688
▁arms	-3689
undred	-3690
▁harmonisation	-3691
erves	-3692
▁class	-3693
▁Auditors	-3694
▁hours	-3695
▁binding	-3696
▁endorse	-3697
▁undertaking	-3698
▁exclud	-3699
rel	-3700
▁voice	-3701
▁typ	-3702
▁attack	-3703
ah	-3704
▁consistent	-3705
▁emphasis	-3706
▁improvements	-3707
▁anyone	-3708
▁minority	-3709
AT	-3710
▁consumption	-3711
▁stri	-3712
ots	-3713
▁professional	-3714
▁expected	-3715
▁meant	-3716
ets	-3717
▁oral	-3718
▁board	-3719
ruit	-3720
pril	-3721
▁Eastern	-3722
going	-3723
▁credibility	-3724
▁entit	-3725
comm	-3726
▁taxation	-3727
▁jour	-3728
▁limits	-3729
▁volunt	-3730
using	-3731
▁late	-3732
▁withdraw	-3733
▁April	-3734
AP	-3735
▁ACP	-3736
ana	-3737
▁reasonable	-3738
▁approval	-3739
▁planning	-3740
▁regis	-3741
▁fulfil	-3742
▁otherwise	-3743
▁nations	-3744
▁repeated	-3745
▁ec	-3746
▁employees	-3747
the	-3748
▁heav	-3749
▁aver	-3750
▁Cz	-3751
▁lay	-3752
▁Rule	-3753
riers	-3754
▁Energy	-3755
▁prosper	-3756
▁Greek	-3757
▁stake	-3758
▁destro	-3759
▁freedoms	-3760
▁amongst	-3761
▁Only	-3762
▁debt	-3763
▁arrangements	-3764
▁declaration	-3765
▁Such	-3766
uestion	-3767
▁wid	-3768
▁participate	-3769
▁Commissioners	-3770
▁exec	-3771
▁glad	-3772
▁entry	-3773
▁compar	-3774
▁recovery	-3775
▁maximum	-3776
▁goals	-3777
▁gave	-3778
▁tele	-3779
atever	-3780
▁sha	-3781
▁started	-3782
▁religious	-3783
▁Czech	-3784
▁decis	-3785
▁immigrants	-3786
▁lies	-3787
▁representative	-3788
▁neither	-3789
▁Em	-3790
▁don	-3791
▁factors	-3792
▁regulatory	-3793
▁hundred	-3794
▁disappoint	-3795
▁,	-3796
▁enforce	-3797
▁Sea	-3798
▁obligation	-3799
▁lower	-3800
nic	-3801
▁citizen	-3802
nes	-3803
▁politicians	-3804
▁PPE	-3805
ense	-3806
▁session	-3807
▁generally	-3808
▁Those	-3809
ployed	-3810
▁factor	-3811
▁signal	-3812
▁easier	-3813
▁inh	-3814
▁source	-3815
mbud	-3816
▁whilst	-3817
▁contributions	-3818
▁encouraging	-3819
ather	-3820
▁grounds	-3821
▁works	-3822
▁compensation	-3823
acco	-3824
▁attacks	-3825
▁Every	-3826
▁terrorist	-3827
PT	-3828
iss	-3829
▁vir	-3830
▁visit	-3831
▁belong	-3832
▁Roma	-3833
▁Bur	-3834
▁politics	-3835
▁Agriculture	-3836
▁Vice	-3837
hagen	-3838
sibly	-3839
▁banks	-3840
ulate	-3841
▁appears	-3842
▁From	-3843
▁languages	-3844
▁dign	-3845
▁domestic	-3846
earch	-3847
▁superv	-3848
stitutional	-3849
▁permanent	-3850
▁Socialist	-3851
▁moving	-3852
lying	-3853
▁delighted	-3854
ancing	-3855
▁elimin	-3856
▁uns	-3857
▁respected	-3858
bur	-3859
reness	-3860
▁prefer	-3861
▁flexible	-3862
▁Research	-3863
based	-3864
poses	-3865
▁fr	-3866
▁facilitate	-3867
▁Cro	-3868
▁Western	-3869
ancial	-3870
▁feed	-3871
▁speaker	-3872
▁welfare	-3873
ook	-3874
▁hom	-3875
▁imposed	-3876
▁conflicts	-3877
▁Des	-3878
▁news	-3879
actory	-3880
▁gradu	-3881
▁General	-3882
▁Market	-3883
▁Legal	-3884
▁equally	-3885
▁crimes	-3886
etheless	-3887
▁proposes	-3888
▁compliance	-3889
▁restrictions	-3890
mark	-3891
▁appropriations	-3892
▁Mor	-3893
resident	-3894
acking	-3895
ons	-3896
▁capable	-3897
▁evening	-3898
▁inclusion	-3899
▁opinions	-3900
▁arrest	-3901
asbourg	-3902
▁adjust	-3903
▁investments	-3904
ulner	-3905
▁century	-3906
▁partner	-3907
▁issu	-3908
onia	-3909
openhagen	-3910
▁operations	-3911
▁forthcoming	-3912
▁experts	-3913
▁requirement	-3914
cast	-3915
xem	-3916
▁awareness	-3917
▁helping	-3918
▁guaranteed	-3919
▁construction	-3920
mbudsman	-3921
▁interested	-3922
bal	-3923
ronic	-3924
▁placed	-3925
▁migration	-3926
▁spending	-3927
▁Copenhagen	-3928
▁constitutional	-3929
▁likely	-3930
▁rig	-3931
▁Strasbourg	-3932
▁negotiating	-3933
▁pun	-3934
ishing	-3935
▁Luxem	-3936
▁Stability	-3937
uting	-3938
etherlands	-3939
pping	-3940
▁vulner	-3941
▁NATO	-3942
▁solve	-3943
▁Consum	-3944
▁diseases	-3945
▁deli	-3946
▁fighting	-3947
▁scale	-3948
▁tasks	-3949
▁tob	-3950
▁personally	-3951
▁Sy	-3952
▁Afghanistan	-3953
▁Netherlands	-3954
▁Sh	-3955
operation	-3956
▁visa	-3957
▁impose	-3958
alt	-3959
▁tobacco	-3960
▁numerous	-3961
▁supplement	-3962
▁resolved	-3963
▁Ab	-3964
▁Not	-3965
▁purposes	-3966
▁Ky	-3967
▁truth	-3968
▁incent	-3969
▁payment	-3970
▁allowing	-3971
irms	-3972
ervations	-3973
▁labelling	-3974
▁Luxembourg	-3975
orial	-3976
▁pra	-3977
utch	-3978
▁customs	-3979
▁saving	-3980
▁contrad	-3981
▁Are	-3982
▁trading	-3983
▁manufacture	-3984
▁slow	-3985
▁continued	-3986
icate	-3987
▁Croat	-3988
▁poore	-3989
▁quant	-3990
▁separate	-3991
ifications	-3992
▁traditional	-3993
▁defined	-3994
ites	-3995
lation	-3996
orough	-3997
▁attach	-3998
▁prior	-3999
▁peaceful	-4000
▁existence	-4001
▁voluntary	-4002
emical	-4003
▁millions	-4004
eries	-4005
▁worse	-4006
▁Agenda	-4007
▁east	-4008
▁disasters	-4009
DP	-4010
▁exists	-4011
▁demonstrated	-4012
▁occasion	-4013
▁demonstrate	-4014
ills	-4015
▁remarks	-4016
cent	-4017
President	-4018
▁NG	-4019
rian	-4020
▁break	-4021
▁Balkans	-4022
▁thorough	-4023
▁deliver	-4024
▁occasions	-4025
▁functioning	-4026
▁distribution	-4027
▁New	-4028
gence	-4029
▁Head	-4030
▁effectiveness	-4031
▁letter	-4032
▁option	-4033
▁associated	-4034
▁ECU	-4035
▁fif	-4036
▁Georg	-4037
▁coast	-4038
▁settle	-4039
nother	-4040
▁Budgets	-4041
rich	-4042
▁individuals	-4043
▁Baltic	-4044
▁Action	-4045
▁Another	-4046
▁ves	-4047
▁remo	-4048
▁maritime	-4049
▁scheme	-4050
▁mission	-4051
▁smo	-4052
▁written	-4053
▁tried	-4054
hib	-4055
▁protected	-4056
▁knows	-4057
▁retain	-4058
▁operators	-4059
▁ultimately	-4060
▁officials	-4061
uese	-4062
▁sexual	-4063
▁examples	-4064
▁Lastly	-4065
▁operate	-4066
▁Austria	-4067
▁Ombudsman	-4068
▁flow	-4069
▁assure	-4070
▁Framework	-4071
▁contained	-4072
▁bank	-4073
▁India	-4074
▁friend	-4075
▁USA	-4076
▁equip	-4077
▁relative	-4078
oubted	-4079
▁entitled	-4080
▁legitimate	-4081
▁Portuguese	-4082
▁Treat	-4083
ulations	-4084
cel	-4085
▁ste	-4086
arent	-4087
▁concluded	-4088
▁primarily	-4089
▁Gu	-4090
▁hands	-4091
▁base	-4092
▁vision	-4093
▁average	-4094
▁corruption	-4095
▁host	-4096
▁High	-4097
▁justified	-4098
▁hor	-4099
▁electric	-4100
▁Sub	-4101
▁amounts	-4102
▁definite	-4103
▁Cont	-4104
economic	-4105
pay	-4106
▁court	-4107
▁approve	-4108
▁spread	-4109
▁realise	-4110
▁Nor	-4111
▁overcome	-4112
▁exempt	-4113
▁restruct	-4114
▁dignity	-4115
▁meaning	-4116
Ch	-4117
ott	-4118
inese	-4119
gn	-4120
ades	-4121
▁difference	-4122
▁toler	-4123
▁involves	-4124
▁Ass	-4125
mission	-4126
▁noted	-4127
▁passed	-4128
outher	-4129
▁dispos	-4130
▁frequ	-4131
lection	-4132
▁Pl	-4133
what	-4134
▁played	-4135
▁violations	-4136
▁Despite	-4137
▁airport	-4138
▁Treaties	-4139
▁infring	-4140
▁substance	-4141
▁statistics	-4142
adv	-4143
echn	-4144
urely	-4145
▁examine	-4146
▁Chinese	-4147
▁extended	-4148
▁cooperate	-4149
illing	-4150
lled	-4151
▁Dutch	-4152
▁secret	-4153
▁allocated	-4154
outhern	-4155
▁ethnic	-4156
ebru	-4157
▁imag	-4158
ebruary	-4159
▁penalty	-4160
▁rich	-4161
abor	-4162
urning	-4163
br	-4164
▁Ara	-4165
▁firmly	-4166
▁Cub	-4167
oubtedly	-4168
▁temporary	-4169
▁condition	-4170
▁imports	-4171
▁democrat	-4172
▁nevertheless	-4173
ilt	-4174
▁collective	-4175
▁cou	-4176
▁revision	-4177
▁win	-4178
ected	-4179
▁normal	-4180
▁passengers	-4181
▁February	-4182
▁whatever	-4183
▁emergency	-4184
▁clause	-4185
avi	-4186
▁treated	-4187
▁Bec	-4188
▁ministers	-4189
▁reiter	-4190
▁wit	-4191
▁Given	-4192
▁got	-4193
▁Liber	-4194
▁dou	-4195
▁lose	-4196
▁Financial	-4197
▁unless	-4198
▁vulnerable	-4199
adow	-4200
▁CAP	-4201
iling	-4202
▁Perhaps	-4203
▁farming	-4204
▁planned	-4205
▁decisive	-4206
▁ord	-4207
▁offers	-4208
uls	-4209
▁sl	-4210
▁obstacles	-4211
▁requested	-4212
▁secondly	-4213
▁industries	-4214
▁happens	-4215
▁latter	-4216
▁Organisation	-4217
▁valu	-4218
gment	-4219
iscal	-4220
▁Assembly	-4221
▁space	-4222
▁taxes	-4223
▁miss	-4224
▁chemical	-4225
▁che	-4226
institutional	-4227
▁somewhat	-4228
▁excessive	-4229
adequ	-4230
▁Fish	-4231
pped	-4232
lav	-4233
▁nation	-4234
▁Here	-4235
▁afford	-4236
▁impression	-4237
osed	-4238
▁Women	-4239
ecision	-4240
▁allows	-4241
▁technological	-4242
▁gone	-4243
lin	-4244
▁agency	-4245
▁preparing	-4246
▁Serv	-4247
advant	-4248
▁honest	-4249
enty	-4250
▁rul	-4251
ingu	-4252
▁compared	-4253
▁acknowledge	-4254
ames	-4255
▁sincere	-4256
▁prepare	-4257
aviour	-4258
phere	-4259
▁worry	-4260
▁front	-4261
▁preventing	-4262
▁considering	-4263
▁Sec	-4264
▁prove	-4265
▁exclus	-4266
▁property	-4267
iform	-4268
▁disadvant	-4269
ef	-4270
▁highest	-4271
oon	-4272
▁Sc	-4273
nal	-4274
▁centre	-4275
▁inadequ	-4276
▁Isl	-4277
▁geograph	-4278
▁please	-4279
▁undoubtedly	-4280
apan	-4281
▁Slovak	-4282
▁Prodi	-4283
va	-4284
▁unfair	-4285
▁bat	-4286
▁autom	-4287
▁spoken	-4288
▁Israeli	-4289
▁phase	-4290
▁abuse	-4291
▁bound	-4292
▁formal	-4293
oul	-4294
▁dyn	-4295
▁constantly	-4296
▁urgently	-4297
▁Transport	-4298
▁Then	-4299
▁NGOs	-4300
▁insurance	-4301
▁appreciate	-4302
▁drawing	-4303
▁fishermen	-4304
▁operational	-4305
▁aband	-4306
▁accounts	-4307
▁applying	-4308
▁phen	-4309
▁spoke	-4310
▁pursue	-4311
▁details	-4312
▁elector	-4313
▁exception	-4314
ague	-4315
▁Because	-4316
▁friends	-4317
▁behaviour	-4318
▁trend	-4319
▁relates	-4320
▁apparent	-4321
▁extension	-4322
▁abstain	-4323
▁quotas	-4324
▁phenomen	-4325
raft	-4326
▁Other	-4327
▁electronic	-4328
▁Kore	-4329
▁latest	-4330
▁processes	-4331
▁Any	-4332
au	-4333
▁taxpay	-4334
int	-4335
▁duties	-4336
▁uncertain	-4337
▁distort	-4338
▁expectations	-4339
▁advance	-4340
▁keeping	-4341
▁codecision	-4342
▁stronger	-4343
▁introducing	-4344
▁facts	-4345
▁Fundamental	-4346
stood	-4347
▁determined	-4348
cont	-4349
▁fiscal	-4350
eff	-4351
▁Alliance	-4352
▁described	-4353
▁pillar	-4354
▁abandon	-4355
▁announced	-4356
▁exclusion	-4357
▁witness	-4358
▁i	-4359
▁fuel	-4360
▁restric	-4361
▁sensible	-4362
▁welcomed	-4363
part	-4364
▁Croatia	-4365
▁prosperity	-4366
essions	-4367
▁proceedings	-4368
▁Japan	-4369
▁stocks	-4370
▁convention	-4371
▁Cong	-4372
▁Report	-4373
▁places	-4374
try	-4375
▁art	-4376
▁supervision	-4377
oh	-4378
▁engage	-4379
▁fruit	-4380
▁imper	-4381
sk	-4382
amb	-4383
▁historic	-4384
ulture	-4385
▁arguments	-4386
▁types	-4387
inated	-4388
▁operating	-4389
▁strengthened	-4390
▁strategies	-4391
▁paper	-4392
▁timet	-4393
▁association	-4394
▁disag	-4395
▁seven	-4396
▁confirmed	-4397
ressive	-4398
▁Commun	-4399
▁traged	-4400
▁studies	-4401
lined	-4402
▁minutes	-4403
▁represented	-4404
▁Asia	-4405
sc	-4406
▁exploitation	-4407
▁Bos	-4408
▁barriers	-4409
▁intends	-4410
vest	-4411
▁pet	-4412
▁coordinated	-4413
▁margin	-4414
▁clarify	-4415
ground	-4416
▁Fisheries	-4417
care	-4418
oto	-4419
▁beings	-4420
▁replace	-4421
▁convergence	-4422
rog	-4423
▁fields	-4424
RO	-4425
▁submit	-4426
▁kept	-4427
▁block	-4428
▁Secret	-4429
▁accomp	-4430
▁briefly	-4431
▁prohib	-4432
▁sad	-4433
ery	-4434
rees	-4435
▁advert	-4436
iding	-4437
▁largely	-4438
amp	-4439
▁tend	-4440
▁uniform	-4441
▁debating	-4442
▁largest	-4443
▁conciliation	-4444
▁multilateral	-4445
mbol	-4446
▁Consumer	-4447
▁ratification	-4448
oslav	-4449
respond	-4450
ugoslav	-4451
▁suppl	-4452
▁sovereignty	-4453
sh	-4454
▁protest	-4455
▁materials	-4456
struction	-4457
▁published	-4458
▁attract	-4459
▁prem	-4460
▁equipment	-4461
▁coherent	-4462
▁politically	-4463
▁realistic	-4464
▁White	-4465
▁destroy	-4466
▁leadership	-4467
▁Protection	-4468
▁stim	-4469
▁correspond	-4470
▁electricity	-4471
▁plant	-4472
▁symbol	-4473
▁follows	-4474
▁Ne	-4475
▁brings	-4476
▁mobil	-4477
▁contracts	-4478
year	-4479
▁maintaining	-4480
NL	-4481
▁believes	-4482
reens	-4483
▁virt	-4484
▁pie	-4485
▁bit	-4486
▁suffer	-4487
▁Employment	-4488
▁undertaken	-4489
▁stra	-4490
▁cars	-4491
levision	-4492
cer	-4493
▁nan	-4494
▁estim	-4495
▁urgency	-4496
▁room	-4497
▁perfectly	-4498
ai	-4499
eter	-4500
orry	-4501
utin	-4502
▁resum	-4503
akistan	-4504
▁united	-4505
▁innovative	-4506
▁clean	-4507
▁Constitutional	-4508
▁surve	-4509
▁Instead	-4510
▁offered	-4511
iciently	-4512
▁answers	-4513
under	-4514
▁finding	-4515
▁amending	-4516
▁felt	-4517
General	-4518
▁patients	-4519
▁ongoing	-4520
▁rac	-4521
▁Serbia	-4522
▁identity	-4523
▁shadow	-4524
▁Pakistan	-4525
▁careful	-4526
▁significantly	-4527
▁et	-4528
etic	-4529
lling	-4530
▁dependent	-4531
▁transition	-4532
deav	-4533
▁universal	-4534
▁vig	-4535
▁absence	-4536
▁determination	-4537
▁endeav	-4538
▁waiting	-4539
▁territorial	-4540
AC	-4541
▁regrett	-4542
▁accidents	-4543
▁define	-4544
▁argument	-4545
▁stable	-4546
ria	-4547
lder	-4548
▁wealth	-4549
▁legally	-4550
▁budgets	-4551
ulsory	-4552
▁proved	-4553
▁changing	-4554
▁Saf	-4555
ona	-4556
roduct	-4557
▁qualified	-4558
▁Heads	-4559
▁patent	-4560
position	-4561
▁difficulty	-4562
▁wait	-4563
▁choose	-4564
▁lic	-4565
appe	-4566
▁fine	-4567
▁understood	-4568
▁resist	-4569
ze	-4570
▁surv	-4571
▁Consequently	-4572
▁cro	-4573
▁Represent	-4574
quir	-4575
bu	-4576
▁Under	-4577
▁recall	-4578
▁highlighted	-4579
▁genuinely	-4580
nel	-4581
▁expert	-4582
▁amended	-4583
▁distin	-4584
▁supposed	-4585
▁learning	-4586
aching	-4587
▁honour	-4588
▁constitu	-4589
▁legitim	-4590
▁vessels	-4591
▁Aust	-4592
▁medical	-4593
▁neighbours	-4594
▁preced	-4595
▁seeing	-4596
▁restructuring	-4597
ique	-4598
▁disposal	-4599
▁wine	-4600
▁significance	-4601
▁valuable	-4602
ellig	-4603
▁Georgia	-4604
▁VAT	-4605
▁aud	-4606
▁envis	-4607
▁holding	-4608
▁inspect	-4609
▁extensive	-4610
%.	-4611
’.	-4612
▁West	-4613
gl	-4614
▁Protocol	-4615
▁satisfactory	-4616
gle	-4617
▁permit	-4618
▁Hungarian	-4619
▁referring	-4620
▁resulting	-4621
aff	-4622
▁exports	-4623
▁Mc	-4624
rimin	-4625
aily	-4626
▁leads	-4627
▁Cooperation	-4628
▁deficit	-4629
▁eight	-4630
▁proc	-4631
ursday	-4632
▁driving	-4633
▁apart	-4634
▁Pat	-4635
▁figure	-4636
▁deliber	-4637
▁infringe	-4638
like	-4639
necess	-4640
▁displ	-4641
▁touch	-4642
▁primary	-4643
▁Thursday	-4644
▁isol	-4645
ops	-4646
▁Ha	-4647
▁sustainability	-4648
akes	-4649
▁vac	-4650
▁divid	-4651
▁destruction	-4652
▁becomes	-4653
▁boost	-4654
▁Finland	-4655
▁Bosn	-4656
▁Food	-4657
▁negotiation	-4658
atible	-4659
▁Latin	-4660
▁societ	-4661
posed	-4662
▁slight	-4663
iability	-4664
▁daily	-4665
session	-4666
▁Greens	-4667
▁dism	-4668
▁waters	-4669
formation	-4670
LA	-4671
▁trial	-4672
▁suggested	-4673
ries	-4674
▁users	-4675
▁unnecess	-4676
▁preparation	-4677
▁requests	-4678
▁Where	-4679
▁considers	-4680
▁milk	-4681
▁Control	-4682
▁Equ	-4683
▁Internal	-4684
▁saw	-4685
▁Before	-4686
▁assume	-4687
▁neighbouring	-4688
ches	-4689
▁Arab	-4690
▁acknowled	-4691
▁medicines	-4692
▁someone	-4693
▁actively	-4694
▁disappe	-4695
▁playing	-4696
▁protocol	-4697
bit	-4698
▁Over	-4699
▁monop	-4700
dd	-4701
▁listen	-4702
▁journal	-4703
▁Northern	-4704
▁built	-4705
▁During	-4706
▁constitute	-4707
▁Once	-4708
roc	-4709
▁strug	-4710
▁Par	-4711
▁dram	-4712
▁severe	-4713
▁stock	-4714
▁Britain	-4715
utr	-4716
▁wider	-4717
▁plants	-4718
onom	-4719
▁parent	-4720
▁urban	-4721
▁stands	-4722
▁elsewhere	-4723
▁meat	-4724
▁sets	-4725
▁numbers	-4726
▁television	-4727
▁speeches	-4728
▁version	-4729
▁GDP	-4730
IS	-4731
▁Safety	-4732
▁team	-4733
▁greatly	-4734
▁maintained	-4735
ellect	-4736
▁identify	-4737
▁Sim	-4738
▁indicated	-4739
▁release	-4740
▁satisfied	-4741
ixed	-4742
▁previously	-4743
▁sufficiently	-4744
▁thanking	-4745
iar	-4746
▁valid	-4747
▁concentrate	-4748
ength	-4749
▁breach	-4750
▁possibly	-4751
▁investigation	-4752
▁trib	-4753
anging	-4754
▁liber	-4755
▁obliged	-4756
Christian	-4757
▁collabor	-4758
▁inadequate	-4759
▁Common	-4760
osen	-4761
active	-4762
▁links	-4763
▁Regional	-4764
▁opposite	-4765
▁code	-4766
▁Without	-4767
▁diver	-4768
ament	-4769
▁transitional	-4770
▁etc	-4771
▁zone	-4772
usion	-4773
▁moreover	-4774
dict	-4775
▁tragic	-4776
▁External	-4777
house	-4778
no	-4779
▁partly	-4780
ini	-4781
ari	-4782
▁Austrian	-4783
▁background	-4784
▁pleas	-4785
▁accident	-4786
▁timetable	-4787
▁double	-4788
igu	-4789
▁affects	-4790
▁check	-4791
related	-4792
▁motor	-4793
▁running	-4794
▁attempts	-4795
▁reaction	-4796
▁prisoners	-4797
▁compulsory	-4798
▁aviation	-4799
▁EM	-4800
▁Thus	-4801
▁identified	-4802
pir	-4803
alle	-4804
▁complement	-4805
▁sil	-4806
▁Europol	-4807
▁suffered	-4808
▁Christ	-4809
▁deserves	-4810
▁himself	-4811
imb	-4812
▁enforcement	-4813
▁push	-4814
▁van	-4815
▁Kyoto	-4816
▁remove	-4817
▁debated	-4818
▁launched	-4819
▁aftern	-4820
▁topic	-4821
▁mid	-4822
itage	-4823
▁chosen	-4824
teen	-4825
arding	-4826
▁BSE	-4827
▁helped	-4828
▁carrying	-4829
▁possibilities	-4830
▁enhance	-4831
▁completed	-4832
▁interpretation	-4833
▁unp	-4834
▁options	-4835
▁conducted	-4836
▁pain	-4837
▁societies	-4838
▁reconstruction	-4839
▁Having	-4840
▁went	-4841
▁Liberal	-4842
▁flag	-4843
▁hearing	-4844
▁ports	-4845
▁issued	-4846
▁implications	-4847
▁moral	-4848
vent	-4849
▁flood	-4850
▁depart	-4851
▁schemes	-4852
▁intellig	-4853
▁guaranteeing	-4854
▁stay	-4855
ellectual	-4856
▁species	-4857
▁seeks	-4858
▁length	-4859
▁complicated	-4860
▁Moroc	-4861
▁Nice	-4862
▁GM	-4863
▁house	-4864
▁stabil	-4865
ein	-4866
▁National	-4867
ane	-4868
▁spite	-4869
▁afternoon	-4870
▁competent	-4871
iety	-4872
▁Non	-4873
▁sorry	-4874
▁har	-4875
▁poorest	-4876
▁surely	-4877
▁facilities	-4878
▁Rec	-4879
build	-4880
▁belief	-4881
▁Danish	-4882
▁ratified	-4883
▁gap	-4884
▁Hungary	-4885
▁Christian	-4886
▁definitely	-4887
▁beg	-4888
▁count	-4889
▁proof	-4890
▁Bosnia	-4891
▁tragedy	-4892
asm	-4893
▁dri	-4894
nership	-4895
▁Secretary	-4896
▁intentions	-4897
▁whereby	-4898
▁successfully	-4899
ris	-4900
▁heavy	-4901
▁worldwide	-4902
celona	-4903
▁Belgian	-4904
▁cy	-4905
▁southern	-4906
▁openness	-4907
▁Bro	-4908
▁addressing	-4909
ithu	-4910
▁Tun	-4911
▁texts	-4912
▁centres	-4913
▁deals	-4914
▁inequ	-4915
fe	-4916
▁massive	-4917
▁judge	-4918
▁diplomatic	-4919
▁Nat	-4920
▁prospects	-4921
▁Gl	-4922
itizens	-4923
▁Presidents	-4924
▁size	-4925
▁Subject	-4926
▁Representative	-4927
▁dig	-4928
▁Lithu	-4929
▁mistake	-4930
abled	-4931
anges	-4932
▁optim	-4933
▁Socialists	-4934
▁Will	-4935
irable	-4936
▁purely	-4937
COM	-4938
atures	-4939
▁advertising	-4940
▁Den	-4941
▁cities	-4942
▁expand	-4943
▁Coh	-4944
▁lob	-4945
▁Barcelona	-4946
▁forg	-4947
▁contradict	-4948
▁coal	-4949
▁chann	-4950
▁cop	-4951
▁inev	-4952
▁approx	-4953
▁solely	-4954
▁Partnership	-4955
▁increases	-4956
▁harmful	-4957
cohol	-4958
▁Belgium	-4959
▁nationals	-4960
free	-4961
atlantic	-4962
▁unanimously	-4963
commun	-4964
▁Polish	-4965
▁players	-4966
▁demanding	-4967
▁worst	-4968
▁intellectual	-4969
umping	-4970
▁opened	-4971
▁generation	-4972
▁Auth	-4973
▁worrying	-4974
▁...	-4975
▁blood	-4976
▁determine	-4977
▁considerations	-4978
▁acquis	-4979
▁producing	-4980
burg	-4981
▁sugar	-4982
▁skills	-4983
▁profits	-4984
▁Pers	-4985
▁autonom	-4986
▁foremost	-4987
▁hundreds	-4988
▁stressed	-4989
▁relatively	-4990
▁essentially	-4991
▁La	-4992
▁acting	-4993
▁percent	-4994
▁pensions	-4995
▁phenomenon	-4996
ony	-4997
scale	-4998
▁taxpayers	-4999
▁schools	-5000
▁governing	-5001
▁Grow	-5002
▁healthy	-5003
▁extending	-5004
ped	-5005
▁Does	-5006
edly	-5007
▁depends	-5008
▁Time	-5009
▁Korea	-5010
▁phys	-5011
EL	-5012
▁Pet	-5013
▁threats	-5014
▁chap	-5015
▁tools	-5016
▁easily	-5017
▁respects	-5018
▁dispute	-5019
▁correctly	-5020
▁San	-5021
▁Chair	-5022
▁hopes	-5023
▁purch	-5024
▁Est	-5025
▁prosec	-5026
▁prevail	-5027
▁Both	-5028
▁extraord	-5029
holders	-5030
LAF	-5031
ses	-5032
▁reve	-5033
▁rapidly	-5034
▁proud	-5035
gypt	-5036
▁Growth	-5037
▁reinforce	-5038
▁scand	-5039
hr	-5040
▁hous	-5041
▁heritage	-5042
▁advice	-5043
▁considerably	-5044
▁Home	-5045
▁charges	-5046
▁savings	-5047
▁explicit	-5048
inc	-5049
▁crises	-5050
▁Left	-5051
▁achievement	-5052
▁pict	-5053
▁multi	-5054
EU	-5055
▁cuts	-5056
reneur	-5057
▁refers	-5058
repreneur	-5059
rem	-5060
▁environmentally	-5061
▁recip	-5062
▁enabling	-5063
▁decades	-5064
▁exceed	-5065
▁reass	-5066
▁feeling	-5067
oring	-5068
▁faith	-5069
▁quote	-5070
raz	-5071
▁remaining	-5072
cipl	-5073
▁core	-5074
▁promised	-5075
ipe	-5076
▁reinfor	-5077
▁chairman	-5078
▁terri	-5079
▁dictators	-5080
encing	-5081
▁Egypt	-5082
▁claims	-5083
▁tort	-5084
▁reliable	-5085
▁advantages	-5086
▁incom	-5087
▁geographical	-5088
ifies	-5089
▁experienced	-5090
▁granting	-5091
▁manufacturers	-5092
▁communications	-5093
▁Cuba	-5094
▁reven	-5095
ls	-5096
oted	-5097
▁spend	-5098
▁focused	-5099
▁pan	-5100
▁alcohol	-5101
▁clarity	-5102
ibet	-5103
▁favourable	-5104
aud	-5105
▁encouraged	-5106
▁Four	-5107
▁bureaucracy	-5108
▁paying	-5109
SP	-5110
▁regrettable	-5111
▁town	-5112
▁doubts	-5113
▁willingness	-5114
▁black	-5115
▁Budgetary	-5116
▁piece	-5117
ception	-5118
▁oppose	-5119
▁calc	-5120
▁emphasised	-5121
▁ECB	-5122
▁declared	-5123
▁suitable	-5124
▁Tibet	-5125
▁contributed	-5126
▁entered	-5127
▁Tw	-5128
▁agg	-5129
▁reflected	-5130
▁applicable	-5131
▁Sol	-5132
▁heading	-5133
▁certainty	-5134
hus	-5135
nual	-5136
thly	-5137
▁modified	-5138
▁undertakings	-5139
▁carbon	-5140
▁fil	-5141
isch	-5142
▁ded	-5143
utive	-5144
▁controvers	-5145
▁Act	-5146
▁Maced	-5147
▁legitimacy	-5148
ino	-5149
▁succeeded	-5150
▁Canad	-5151
▁compon	-5152
▁competences	-5153
oured	-5154
▁biggest	-5155
▁affecting	-5156
▁historical	-5157
▁War	-5158
▁upd	-5159
▁admit	-5160
▁insuff	-5161
▁island	-5162
mpath	-5163
▁unnecessary	-5164
▁mac	-5165
▁passenger	-5166
▁endors	-5167
ka	-5168
right	-5169
▁powerful	-5170
▁dynamic	-5171
▁imagine	-5172
sy	-5173
▁article	-5174
▁eastern	-5175
▁owners	-5176
▁alleg	-5177
▁detri	-5178
abilities	-5179
▁constitutes	-5180
▁Sud	-5181
erved	-5182
▁indirect	-5183
▁beef	-5184
▁Denmark	-5185
▁regarded	-5186
SC	-5187
▁sla	-5188
▁Rural	-5189
▁whereas	-5190
▁negotiated	-5191
▁arise	-5192
ophob	-5193
ulating	-5194
▁violation	-5195
▁punish	-5196
▁entrepreneur	-5197
Parliament	-5198
▁radical	-5199
tering	-5200
resh	-5201
▁vast	-5202
▁removed	-5203
▁tradition	-5204
reshold	-5205
▁ships	-5206
▁reaching	-5207
▁performance	-5208
▁Bas	-5209
▁sympath	-5210
▁persu	-5211
▁courts	-5212
▁applications	-5213
▁Like	-5214
▁Parliamentary	-5215
▁utmost	-5216
▁threshold	-5217
▁Com	-5218
ience	-5219
▁firms	-5220
▁rational	-5221
▁surround	-5222
raid	-5223
▁antic	-5224
▁reiterate	-5225
▁reservations	-5226
▁healthcare	-5227
▁deeply	-5228
cle	-5229
▁Her	-5230
richt	-5231
anda	-5232
▁Stat	-5233
▁sought	-5234
▁scr	-5235
▁Tunis	-5236
▁leader	-5237
astricht	-5238
▁incorporated	-5239
▁supplementary	-5240
cision	-5241
ourism	-5242
▁afraid	-5243
cip	-5244
▁presenting	-5245
▁consequence	-5246
▁Authority	-5247
▁overl	-5248
▁airlines	-5249
▁subjects	-5250
quiry	-5251
▁Civil	-5252
▁intervene	-5253
DA	-5254
icro	-5255
▁forum	-5256
▁embar	-5257
▁hence	-5258
▁Som	-5259
ax	-5260
▁greenhouse	-5261
▁fast	-5262
ticles	-5263
▁straight	-5264
uter	-5265
▁Maastricht	-5266
▁citizenship	-5267
ustry	-5268
▁Mart	-5269
▁chain	-5270
▁everybody	-5271
▁biod	-5272
▁fairly	-5273
▁prompt	-5274
duc	-5275
alities	-5276
▁summer	-5277
▁Culture	-5278
▁explanation	-5279
▁noon	-5280
▁earth	-5281
▁Sloven	-5282
ading	-5283
▁restore	-5284
oll	-5285
▁sake	-5286
oard	-5287
▁aside	-5288
▁Its	-5289
▁alarm	-5290
▁Plan	-5291
▁Joint	-5292
▁night	-5293
inational	-5294
▁obtained	-5295
▁dro	-5296
▁weight	-5297
ores	-5298
▁Assoc	-5299
rid	-5300
▁south	-5301
ova	-5302
▁smaller	-5303
▁applicant	-5304
▁radio	-5305
▁tests	-5306
▁targeted	-5307
▁Citizens	-5308
▁je	-5309
▁racism	-5310
illenn	-5311
▁raising	-5312
inal	-5313
▁deserve	-5314
▁leaving	-5315
▁privile	-5316
▁door	-5317
▁Clear	-5318
spect	-5319
▁excluded	-5320
▁tun	-5321
▁tight	-5322
point	-5323
▁religion	-5324
%,	-5325
ographic	-5326
inent	-5327
▁save	-5328
▁sched	-5329
na	-5330
▁declarations	-5331
▁Invest	-5332
let	-5333
▁CF	-5334
while	-5335
▁Burma	-5336
▁watch	-5337
▁anticip	-5338
▁inflation	-5339
▁creates	-5340
▁Gaz	-5341
obile	-5342
▁Follow	-5343
▁welcomes	-5344
▁simplification	-5345
▁employers	-5346
ming	-5347
actions	-5348
▁incentives	-5349
▁transl	-5350
▁ordinary	-5351
▁marketing	-5352
▁entail	-5353
▁treaties	-5354
ox	-5355
▁bio	-5356
▁negotiate	-5357
▁Berlin	-5358
▁Tourism	-5359
▁Mold	-5360
ID	-5361
▁importantly	-5362
▁jointly	-5363
▁derog	-5364
▁electoral	-5365
▁suggestions	-5366
▁Mus	-5367
▁cert	-5368
alling	-5369
▁multinational	-5370
work	-5371
▁disabled	-5372
▁dos	-5373
▁eyes	-5374
▁stip	-5375
illennium	-5376
▁Industry	-5377
▁credible	-5378
▁armed	-5379
▁enlar	-5380
▁revised	-5381
▁Gal	-5382
▁necessarily	-5383
jud	-5384
abwe	-5385
imbabwe	-5386
▁doct	-5387
▁macro	-5388
bre	-5389
▁Az	-5390
comings	-5391
▁combined	-5392
▁Go	-5393
arer	-5394
▁Van	-5395
▁buy	-5396
▁hyp	-5397
▁pact	-5398
▁wording	-5399
▁Slovakia	-5400
▁terrible	-5401
▁fleet	-5402
▁reflects	-5403
▁buildings	-5404
▁surprised	-5405
▁outstanding	-5406
itle	-5407
▁scrutin	-5408
put	-5409
▁showing	-5410
▁settlement	-5411
▁shortcomings	-5412
▁eye	-5413
▁tonnes	-5414
▁drafting	-5415
▁complaints	-5416
▁Association	-5417
▁charge	-5418
osp	-5419
▁examined	-5420
▁bureaucratic	-5421
road	-5422
▁justify	-5423
itz	-5424
orous	-5425
▁repeatedly	-5426
▁intens	-5427
▁disagree	-5428
emic	-5429
opard	-5430
▁Well	-5431
aks	-5432
wing	-5433
▁sac	-5434
▁pleasure	-5435
bate	-5436
▁eliminate	-5437
▁Sudan	-5438
▁expressing	-5439
▁accur	-5440
▁Global	-5441
▁nearly	-5442
▁persec	-5443
▁Following	-5444
▁Cor	-5445
▁exceptional	-5446
▁Burea	-5447
▁hit	-5448
▁representation	-5449
▁Roman	-5450
erences	-5451
stuff	-5452
▁foundations	-5453
mon	-5454
▁Lab	-5455
itative	-5456
▁federal	-5457
▁Im	-5458
▁cancer	-5459
▁broader	-5460
▁jeopard	-5461
▁turned	-5462
▁EP	-5463
▁underline	-5464
▁preparations	-5465
▁transactions	-5466
pread	-5467
EN	-5468
▁suspended	-5469
▁candidates	-5470
▁unemployed	-5471
communications	-5472
idespread	-5473
▁Alb	-5474
▁periods	-5475
gue	-5476
ull	-5477
▁jur	-5478
▁resulted	-5479
▁Cl	-5480
▁kinds	-5481
▁educational	-5482
▁checks	-5483
▁Lam	-5484
▁hardly	-5485
gen	-5486
ugoslavia	-5487
uck	-5488
usal	-5489
▁Macedonia	-5490
▁widespread	-5491
▁bearing	-5492
▁economically	-5493
▁commend	-5494
▁students	-5495
▁fewer	-5496
▁familiar	-5497
▁Bureau	-5498
▁intensive	-5499
▁below	-5500
▁shape	-5501
viously	-5502
▁biodiversity	-5503
.)	-5504
▁select	-5505
▁rid	-5506
▁fresh	-5507
▁delays	-5508
▁PSE	-5509
▁airports	-5510
astro	-5511
▁bomb	-5512
▁none	-5513
▁Leban	-5514
▁warmly	-5515
▁discrimin	-5516
▁picture	-5517
▁liability	-5518
▁falls	-5519
▁undermine	-5520
▁science	-5521
▁penalties	-5522
▁Lib	-5523
▁fort	-5524
bing	-5525
▁param	-5526
▁deadline	-5527
▁She	-5528
▁lobby	-5529
▁unity	-5530
▁preserve	-5531
craft	-5532
▁tough	-5533
▁incomp	-5534
▁incident	-5535
▁tackling	-5536
AR	-5537
▁quota	-5538
▁stance	-5539
▁ambition	-5540
▁physical	-5541
▁fost	-5542
▁incon	-5543
▁broadcast	-5544
anks	-5545
▁redund	-5546
fortunate	-5547
▁abolition	-5548
▁allocation	-5549
itute	-5550
▁relate	-5551
▁losses	-5552
▁organiz	-5553
▁Palestinians	-5554
allel	-5555
▁wind	-5556
▁category	-5557
▁unfortunate	-5558
▁Gene	-5559
▁lasting	-5560
▁discipl	-5561
▁tariff	-5562
▁expense	-5563
▁transatlantic	-5564
▁restricted	-5565
▁pil	-5566
▁Free	-5567
▁lessons	-5568
▁procure	-5569
iced	-5570
▁youth	-5571
roductive	-5572
▁processing	-5573
▁minim	-5574
▁enhanced	-5575
glish	-5576
▁became	-5577
▁freely	-5578
▁insufficient	-5579
▁satisfaction	-5580
▁widely	-5581
▁Freedom	-5582
▁city	-5583
SV	-5584
▁scandal	-5585
▁shares	-5586
ara	-5587
▁Cent	-5588
▁Islamic	-5589
▁condemned	-5590
oler	-5591
▁depr	-5592
▁qualifications	-5593
▁Geneva	-5594
▁drafted	-5595
▁dictatorship	-5596
▁spl	-5597
▁Albania	-5598
▁Clearly	-5599
▁occurred	-5600
▁explained	-5601
▁teach	-5602
irth	-5603
▁Morocco	-5604
▁army	-5605
▁cele	-5606
▁English	-5607
▁civilian	-5608
▁expensive	-5609
▁regulated	-5610
nam	-5611
▁aircraft	-5612
▁puts	-5613
▁EMU	-5614
▁uncertainty	-5615
▁twenty	-5616
▁regulate	-5617
▁gradually	-5618
▁motions	-5619
▁vacc	-5620
▁larger	-5621
▁juris	-5622
▁covers	-5623
itiative	-5624
▁Lithuania	-5625
▁terrorists	-5626
▁deaths	-5627
▁fire	-5628
▁Gaza	-5629
▁digital	-5630
▁nonetheless	-5631
▁demonstrates	-5632
lderly	-5633
▁populations	-5634
see	-5635
▁Kurd	-5636
▁diss	-5637
▁causing	-5638
▁unanimous	-5639
▁indicate	-5640
▁receiving	-5641
▁remed	-5642
▁outset	-5643
▁turning	-5644
▁offering	-5645
▁swift	-5646
oviet	-5647
razil	-5648
▁pref	-5649
▁ignore	-5650
▁minute	-5651
▁Director	-5652
▁announce	-5653
▁promises	-5654
▁regardless	-5655
▁Malt	-5656
building	-5657
▁accompan	-5658
▁frank	-5659
▁indicators	-5660
▁reserve	-5661
hand	-5662
itical	-5663
▁raw	-5664
atell	-5665
▁ethical	-5666
▁Obviously	-5667
▁Rome	-5668
▁advis	-5669
▁railway	-5670
▁fun	-5671
▁collaboration	-5672
ensible	-5673
▁corpor	-5674
▁parents	-5675
▁listened	-5676
▁suggestion	-5677
▁IG	-5678
disc	-5679
▁coordinate	-5680
▁finances	-5681
▁ecological	-5682
▁unique	-5683
ques	-5684
▁asse	-5685
▁began	-5686
▁elderly	-5687
▁financed	-5688
▁generations	-5689
pectives	-5690
▁extraordinary	-5691
▁conce	-5692
▁declare	-5693
▁sphere	-5694
▁endeavour	-5695
▁procurement	-5696
itch	-5697
▁battle	-5698
▁Mer	-5699
▁unw	-5700
▁observed	-5701
oz	-5702
▁comparison	-5703
▁journalists	-5704
abit	-5705
▁lie	-5706
▁Finn	-5707
aut	-5708
▁engaged	-5709
▁Again	-5710
▁dossi	-5711
▁warning	-5712
▁tang	-5713
▁equival	-5714
▁basically	-5715
apers	-5716
▁Most	-5717
▁deterior	-5718
▁soft	-5719
▁inj	-5720
oly	-5721
▁Sad	-5722
gm	-5723
ancy	-5724
▁killed	-5725
▁weakness	-5726
▁spect	-5727
▁register	-5728
oman	-5729
▁Americans	-5730
stuffs	-5731
▁undertake	-5732
▁presentation	-5733
ume	-5734
coun	-5735
▁notice	-5736
oud	-5737
▁enthus	-5738
▁preca	-5739
▁demonst	-5740
▁necessity	-5741
spe	-5742
▁promise	-5743
▁congratulations	-5744
iles	-5745
regular	-5746
etically	-5747
▁prevented	-5748
▁Nonetheless	-5749
▁forgot	-5750
▁territories	-5751
▁attend	-5752
▁abstained	-5753
appro	-5754
▁exerc	-5755
▁couple	-5756
▁promoted	-5757
visory	-5758
▁extrem	-5759
▁contacts	-5760
▁Decl	-5761
’,	-5762
▁Fisch	-5763
▁demographic	-5764
off	-5765
▁viable	-5766
▁supplies	-5767
▁catch	-5768
▁suspect	-5769
▁associations	-5770
▁tribute	-5771
▁struggle	-5772
▁adh	-5773
▁looked	-5774
▁illustr	-5775
▁frequently	-5776
▁sending	-5777
▁Sup	-5778
▁drivers	-5779
asc	-5780
▁Brazil	-5781
ocking	-5782
▁shame	-5783
▁clearer	-5784
▁section	-5785
▁informal	-5786
▁beneficial	-5787
▁kn	-5788
▁Def	-5789
▁Chechn	-5790
▁search	-5791
▁troops	-5792
▁compatible	-5793
▁nobody	-5794
▁strike	-5795
place	-5796
istical	-5797
▁IGC	-5798
▁dia	-5799
▁pursued	-5800
▁shortly	-5801
▁torture	-5802
▁Chechnya	-5803
▁sincerely	-5804
Med	-5805
▁Soviet	-5806
lim	-5807
regulation	-5808
EEC	-5809
▁moved	-5810
▁roads	-5811
▁arising	-5812
illance	-5813
▁agrees	-5814
▁dumping	-5815
▁blame	-5816
▁haz	-5817
▁monit	-5818
▁reloc	-5819
▁choices	-5820
IDS	-5821
▁transit	-5822
▁Investment	-5823
▁noise	-5824
▁Also	-5825
▁unlike	-5826
▁unre	-5827
.'	-5828
▁accompanied	-5829
heart	-5830
ritten	-5831
bs	-5832
ables	-5833
iring	-5834
▁Wall	-5835
▁Office	-5836
▁revenue	-5837
▁OLAF	-5838
▁Canada	-5839
▁emerging	-5840
▁irregular	-5841
▁congratulating	-5842
ato	-5843
diction	-5844
▁talked	-5845
ont	-5846
level	-5847
ula	-5848
▁banking	-5849
▁Declaration	-5850
▁persist	-5851
fu	-5852
ondon	-5853
▁divided	-5854
▁predict	-5855
▁forests	-5856
▁alongside	-5857
▁approximately	-5858
mination	-5859
▁London	-5860
▁rejection	-5861
▁exclusively	-5862
AL	-5863
▁reveal	-5864
▁enlarged	-5865
▁conventions	-5866
▁princip	-5867
▁clarification	-5868
▁distinction	-5869
▁keen	-5870
▁Their	-5871
▁efficiently	-5872
FI	-5873
▁Mil	-5874
▁ant	-5875
▁accessible	-5876
▁birth	-5877
▁cheap	-5878
▁imbal	-5879
arians	-5880
▁respecting	-5881
▁ineff	-5882
ophobia	-5883
▁defending	-5884
▁organise	-5885
▁simplify	-5886
▁harmonised	-5887
▁erad	-5888
▁collection	-5889
):	-5890
▁Red	-5891
▁vehicle	-5892
▁Great	-5893
▁Labour	-5894
▁Educ	-5895
▁strictly	-5896
▁surveillance	-5897
▁Moldova	-5898
▁wage	-5899
▁Ca	-5900
▁crops	-5901
▁marine	-5902
▁refuse	-5903
▁campaigns	-5904
▁percentage	-5905
▁Object	-5906
▁perspectives	-5907
rous	-5908
exist	-5909
▁timely	-5910
▁northern	-5911
▁stations	-5912
▁socio	-5913
▁division	-5914
▁pharm	-5915
▁unequ	-5916
▁Mal	-5917
▁postal	-5918
▁observation	-5919
▁unions	-5920
▁hum	-5921
▁disappointed	-5922
▁loans	-5923
▁rising	-5924
▁Petitions	-5925
▁mur	-5926
▁begun	-5927
▁spring	-5928
▁experiencing	-5929
▁evident	-5930
▁judgment	-5931
▁Otherwise	-5932
▁coherence	-5933
▁unanimity	-5934
time	-5935
▁horiz	-5936
country	-5937
▁parallel	-5938
lights	-5939
▁distingu	-5940
▁alternatives	-5941
▁voc	-5942
▁AL	-5943
olidarity	-5944
▁friendly	-5945
▁quarter	-5946
ederation	-5947
▁fourth	-5948
▁Centre	-5949
min	-5950
▁Cohesion	-5951
keep	-5952
▁items	-5953
▁route	-5954
▁string	-5955
▁consulted	-5956
▁neighbourhood	-5957
▁Reform	-5958
▁inhabit	-5959
▁directed	-5960
▁Ash	-5961
▁bott	-5962
IB	-5963
▁fem	-5964
▁Finnish	-5965
▁Atlantic	-5966
▁stem	-5967
▁hypoc	-5968
▁Tam	-5969
▁cease	-5970
▁Statute	-5971
▁desirable	-5972
▁absurd	-5973
▁Education	-5974
riminal	-5975
▁invite	-5976
▁syn	-5977
▁usual	-5978
▁Palestine	-5979
requ	-5980
▁standing	-5981
▁yourself	-5982
▁threatened	-5983
tion	-5984
▁secur	-5985
▁intoler	-5986
▁tangible	-5987
▁ruling	-5988
▁lacking	-5989
▁traditions	-5990
Mediterranean	-5991
▁Two	-5992
▁Service	-5993
▁entrepreneurs	-5994
▁card	-5995
▁replaced	-5996
▁enshr	-5997
▁permitted	-5998
▁genetically	-5999
omet	-6000
▁dream	-6001
▁sharing	-6002
▁connected	-6003
▁reflection	-6004
▁conservation	-6005
▁Ham	-6006
atform	-6007
▁raises	-6008
ented	-6009
▁forgotten	-6010
▁refused	-6011
▁hoped	-6012
debate	-6013
▁Single	-6014
▁acceptance	-6015
▁benefici	-6016
pro	-6017
▁victim	-6018
▁Fer	-6019
▁image	-6020
▁Similar	-6021
▁partial	-6022
▁authorisation	-6023
enna	-6024
iate	-6025
▁pursuant	-6026
cyc	-6027
▁joined	-6028
oe	-6029
rey	-6030
▁mach	-6031
▁plural	-6032
petus	-6033
▁observers	-6034
zone	-6035
▁emission	-6036
▁respective	-6037
▁compete	-6038
▁defining	-6039
limin	-6040
down	-6041
▁Allow	-6042
▁outer	-6043
▁impetus	-6044
inn	-6045
▁murder	-6046
▁residence	-6047
verse	-6048
▁soil	-6049
▁consequently	-6050
▁controversial	-6051
rust	-6052
▁categories	-6053
national	-6054
ife	-6055
▁integrity	-6056
▁Defence	-6057
rimination	-6058
▁stre	-6059
▁Ple	-6060
▁ideal	-6061
▁plays	-6062
▁showed	-6063
▁worthy	-6064
▁contributing	-6065
▁dramatic	-6066
arked	-6067
▁orient	-6068
▁confusion	-6069
▁highlights	-6070
▁underlying	-6071
▁assessments	-6072
▁Conserv	-6073
ilos	-6074
▁ben	-6075
▁popular	-6076
▁Regarding	-6077
stream	-6078
▁imposing	-6079
▁expan	-6080
▁exchanges	-6081
▁resumed	-6082
▁logical	-6083
iferation	-6084
▁characteristics	-6085
mar	-6086
▁consci	-6087
▁uphold	-6088
▁procedural	-6089
▁Information	-6090
HU	-6091
ode	-6092
▁farms	-6093
▁migrants	-6094
▁rare	-6095
▁slightly	-6096
▁celebr	-6097
osis	-6098
▁reconciliation	-6099
▁mobile	-6100
▁prejud	-6101
▁textile	-6102
aves	-6103
soever	-6104
▁observe	-6105
▁rating	-6106
▁funded	-6107
▁privat	-6108
▁prelimin	-6109
▁estimated	-6110
lo	-6111
▁lawy	-6112
▁housing	-6113
▁railways	-6114
▁scrutiny	-6115
▁counterfe	-6116
rison	-6117
sequent	-6118
▁helpful	-6119
▁cell	-6120
▁north	-6121
▁App	-6122
▁grat	-6123
▁murd	-6124
▁signing	-6125
▁cultures	-6126
ugust	-6127
▁interim	-6128
▁ambitions	-6129
▁ment	-6130
tration	-6131
▁missing	-6132
▁resource	-6133
▁achievements	-6134
▁disreg	-6135
▁expansion	-6136
iox	-6137
▁joining	-6138
▁unilateral	-6139
▁Stock	-6140
▁micro	-6141
ipping	-6142
▁reductions	-6143
▁organizations	-6144
▁Pre	-6145
izing	-6146
ountain	-6147
▁whatsoever	-6148
AS	-6149
▁Car	-6150
▁notably	-6151
▁preventive	-6152
▁x	-6153
oss	-6154
▁coastal	-6155
▁equivalent	-6156
teg	-6157
inder	-6158
ski	-6159
text	-6160
ublin	-6161
▁Frid	-6162
▁Solidarity	-6163
▁preliminary	-6164
▁sacr	-6165
ancies	-6166
▁Malta	-6167
▁systematic	-6168
▁distributed	-6169
ucas	-6170
▁pilot	-6171
▁track	-6172
exic	-6173
▁subsequently	-6174
rew	-6175
race	-6176
▁contrast	-6177
istered	-6178
▁justification	-6179
▁subsequent	-6180
▁surrounding	-6181
▁Monday	-6182
▁managing	-6183
▁approaches	-6184
utical	-6185
quality	-6186
▁reported	-6187
orne	-6188
iannual	-6189
ective	-6190
▁chapter	-6191
▁controlled	-6192
▁irre	-6193
othing	-6194
▁Please	-6195
▁investors	-6196
▁Written	-6197
met	-6198
▁advanced	-6199
▁occupation	-6200
▁accordingly	-6201
▁representing	-6202
rors	-6203
▁destroyed	-6204
pone	-6205
▁advocate	-6206
))	-6207
▁IC	-6208
▁Joh	-6209
▁Nig	-6210
▁adverse	-6211
▁Criminal	-6212
▁diox	-6213
▁envisaged	-6214
▁Conf	-6215
itably	-6216
▁chemicals	-6217
▁movements	-6218
▁ratify	-6219
▁imported	-6220
▁commission	-6221
▁Day	-6222
▁outermost	-6223
▁exceptions	-6224
ednes	-6225
▁Latv	-6226
▁Dublin	-6227
▁losing	-6228
ednesday	-6229
▁postpone	-6230
▁flows	-6231
▁woman	-6232
▁August	-6233
TA	-6234
▁xen	-6235
▁Doha	-6236
abil	-6237
▁failing	-6238
▁mistakes	-6239
▁regularly	-6240
▁universities	-6241
▁participating	-6242
▁elig	-6243
▁motiv	-6244
▁revolution	-6245
▁perpe	-6246
▁sales	-6247
▁System	-6248
▁banned	-6249
▁solved	-6250
antly	-6251
▁devast	-6252
▁philos	-6253
▁resistance	-6254
▁Iraqi	-6255
▁inhabitants	-6256
iov	-6257
▁feas	-6258
▁hung	-6259
▁arbit	-6260
▁founded	-6261
▁disputes	-6262
oning	-6263
▁perpetr	-6264
▁compromises	-6265
▁cens	-6266
▁fixed	-6267
▁Wednesday	-6268
▁safeguarding	-6269
HO	-6270
▁nine	-6271
ughter	-6272
▁looks	-6273
▁contam	-6274
▁Tunisia	-6275
CS	-6276
ball	-6277
▁scen	-6278
dden	-6279
▁profound	-6280
▁conviction	-6281
▁gained	-6282
▁concent	-6283
▁sentence	-6284
▁Who	-6285
arded	-6286
▁fears	-6287
igation	-6288
▁appointment	-6289
▁providers	-6290
▁eventually	-6291
▁restrictive	-6292
known	-6293
▁copy	-6294
▁decre	-6295
appropri	-6296
▁regimes	-6297
▁fires	-6298
▁Certain	-6299
▁Dan	-6300
▁Nord	-6301
▁prol	-6302
otechn	-6303
▁Techn	-6304
▁fails	-6305
▁covering	-6306
▁aspir	-6307
▁Lebanon	-6308
▁disappear	-6309
▁dangers	-6310
▁pretext	-6311
▁Democratic	-6312
▁delegations	-6313
▁depl	-6314
▁prec	-6315
▁enfor	-6316
▁abuses	-6317
▁nom	-6318
▁inside	-6319
▁convince	-6320
▁experiences	-6321
▁infringement	-6322
▁Ms	-6323
▁error	-6324
▁liked	-6325
▁Anne	-6326
▁reaff	-6327
▁monitored	-6328
umn	-6329
▁drive	-6330
igned	-6331
▁abroad	-6332
▁fal	-6333
▁Communist	-6334
▁mandatory	-6335
▁fat	-6336
▁conve	-6337
▁interf	-6338
▁Indones	-6339
▁concentration	-6340
alia	-6341
▁Mexic	-6342
iversary	-6343
▁Similarly	-6344
elong	-6345
▁tolerance	-6346
▁withdrawal	-6347
▁gross	-6348
▁rely	-6349
▁fuels	-6350
▁integrate	-6351
▁blind	-6352
▁signs	-6353
▁incorporate	-6354
▁nar	-6355
▁suggests	-6356
▁infrastructures	-6357
beit	-6358
ooking	-6359
▁Objective	-6360
▁investigations	-6361
▁wages	-6362
▁stages	-6363
▁precaution	-6364
▁Tim	-6365
erving	-6366
▁arch	-6367
▁Solana	-6368
▁supervisory	-6369
▁divers	-6370
▁ignored	-6371
▁accepting	-6372
▁listening	-6373
▁Hence	-6374
tenance	-6375
▁Through	-6376
▁humanity	-6377
▁wholeheart	-6378
▁Tra	-6379
▁Services	-6380
▁containing	-6381
▁acknowledged	-6382
ley	-6383
▁older	-6384
▁consent	-6385
▁confident	-6386
▁anniversary	-6387
che	-6388
gling	-6389
▁innoc	-6390
▁marked	-6391
▁statute	-6392
▁warrant	-6393
▁functions	-6394
ussions	-6395
▁assets	-6396
SCE	-6397
▁ALDE	-6398
aceutical	-6399
▁brid	-6400
▁brut	-6401
▁unjust	-6402
▁pursuing	-6403
▁reporting	-6404
▁examination	-6405
...	-6406
emb	-6407
pow	-6408
▁Pri	-6409
▁consistency	-6410
▁hour	-6411
bling	-6412
▁Patten	-6413
▁freight	-6414
▁stakeholders	-6415
IF	-6416
lex	-6417
ashion	-6418
▁models	-6419
▁sudden	-6420
▁wise	-6421
▁neutr	-6422
▁albeit	-6423
▁Liberals	-6424
▁criminals	-6425
▁accounting	-6426
requis	-6427
▁EIB	-6428
reaching	-6429
▁mountain	-6430
▁expertise	-6431
▁jurisdiction	-6432
▁concludes	-6433
▁president	-6434
▁resolving	-6435
ero	-6436
▁Scot	-6437
▁visited	-6438
▁stringent	-6439
▁decline	-6440
▁offices	-6441
unately	-6442
▁fit	-6443
ulous	-6444
▁invited	-6445
▁foundation	-6446
▁indis	-6447
▁ener	-6448
astroph	-6449
▁decentral	-6450
▁Syria	-6451
▁actors	-6452
▁engine	-6453
▁answered	-6454
▁outlined	-6455
▁sell	-6456
▁accountability	-6457
apse	-6458
empl	-6459
uries	-6460
▁Could	-6461
▁furthermore	-6462
Rule	-6463
ctic	-6464
▁Fif	-6465
▁sold	-6466
▁sight	-6467
ationally	-6468
▁constrain	-6469
wan	-6470
▁variety	-6471
▁catastroph	-6472
▁Rel	-6473
▁biofu	-6474
cape	-6475
▁imprison	-6476
▁meantime	-6477
holm	-6478
▁Libya	-6479
▁Colomb	-6480
▁proven	-6481
erion	-6482
▁prerequis	-6483
▁Chairman	-6484
▁IM	-6485
▁esc	-6486
▁denied	-6487
▁postpon	-6488
▁employed	-6489
▁criterion	-6490
▁finish	-6491
▁hazard	-6492
▁apolog	-6493
▁decent	-6494
▁falling	-6495
▁immunity	-6496
celer	-6497
▁Decision	-6498
▁recognises	-6499
ugen	-6500
▁vit	-6501
▁cast	-6502
▁arrive	-6503
▁violent	-6504
iated	-6505
orage	-6506
▁recital	-6507
▁pharmaceutical	-6508
▁tonight	-6509
▁backing	-6510
▁modernisation	-6511
ulf	-6512
▁prime	-6513
▁Friday	-6514
▁sympathy	-6515
▁organic	-6516
▁util	-6517
▁voters	-6518
▁usually	-6519
▁registration	-6520
▁consolidation	-6521
haust	-6522
▁names	-6523
▁domin	-6524
▁gradual	-6525
stic	-6526
▁learned	-6527
yes	-6528
▁helps	-6529
▁autonomy	-6530
▁irrespon	-6531
▁squ	-6532
▁recyc	-6533
▁pestic	-6534
▁neglect	-6535
▁Roth	-6536
▁euros	-6537
▁visas	-6538
▁fifteen	-6539
▁visible	-6540
▁Ashton	-6541
▁female	-6542
hne	-6543
▁train	-6544
▁monopol	-6545
▁refugee	-6546
▁incentive	-6547
▁sites	-6548
▁ceiling	-6549
▁mal	-6550
▁maintenance	-6551
▁consultations	-6552
▁acceler	-6553
▁dossier	-6554
▁endorsed	-6555
▁GMOs	-6556
▁badly	-6557
ovina	-6558
▁OSCE	-6559
▁cutting	-6560
▁features	-6561
▁clauses	-6562
▁released	-6563
▁safeguards	-6564
▁corresponding	-6565
▁Spe	-6566
▁notes	-6567
▁observations	-6568
▁substantially	-6569
▁died	-6570
▁disastrous	-6571
ressed	-6572
▁hopefully	-6573
▁indication	-6574
▁pipe	-6575
▁appointed	-6576
▁virtually	-6577
▁acted	-6578
▁renewed	-6579
▁entering	-6580
▁Millennium	-6581
▁adequately	-6582
▁hes	-6583
▁false	-6584
▁explanations	-6585
esty	-6586
whel	-6587
▁Bush	-6588
▁warn	-6589
▁dismant	-6590
▁pragm	-6591
▁ageing	-6592
▁storage	-6593
financing	-6594
▁forecast	-6595
▁philosoph	-6596
ney	-6597
utor	-6598
▁Above	-6599
▁surpl	-6600
▁partnerships	-6601
zen	-6602
▁atm	-6603
venth	-6604
▁confront	-6605
respective	-6606
vote	-6607
▁leaves	-6608
▁overwhel	-6609
▁Naturally	-6610
NG	-6611
▁collapse	-6612
▁trace	-6613
▁examining	-6614
▁paragraphs	-6615
▁Fl	-6616
▁Annex	-6617
oper	-6618
▁essence	-6619
amentally	-6620
icits	-6621
▁argue	-6622
▁avoided	-6623
▁executive	-6624
▁consistently	-6625
▁evaluate	-6626
▁die	-6627
▁productivity	-6628
▁corner	-6629
▁Scotland	-6630
▁veget	-6631
▁apparently	-6632
eep	-6633
upp	-6634
rate	-6635
erland	-6636
▁borne	-6637
▁excuse	-6638
▁privacy	-6639
▁scientists	-6640
ruck	-6641
▁bra	-6642
ulz	-6643
heugen	-6644
▁damaging	-6645
NS	-6646
▁Alban	-6647
▁misunder	-6648
riend	-6649
▁hosp	-6650
▁emerged	-6651
son	-6652
▁Alg	-6653
▁cere	-6654
▁Schulz	-6655
▁inquiry	-6656
▁Verheugen	-6657
overed	-6658
▁smooth	-6659
▁devoted	-6660
▁Fischler	-6661
▁deficits	-6662
▁focusing	-6663
zeg	-6664
state	-6665
▁Slovenia	-6666
discrimination	-6667
pection	-6668
itzerland	-6669
▁initially	-6670
▁completion	-6671
▁satell	-6672
▁stric	-6673
▁enables	-6674
▁everywhere	-6675
▁Po	-6676
▁Within	-6677
isen	-6678
▁definitive	-6679
▁programming	-6680
ko	-6681
mann	-6682
▁earm	-6683
▁mother	-6684
▁reserves	-6685
▁assurance	-6686
▁inspection	-6687
uled	-6688
▁retire	-6689
▁closure	-6690
iment	-6691
racies	-6692
▁game	-6693
▁meets	-6694
▁cha	-6695
▁tackled	-6696
▁pret	-6697
▁match	-6698
▁exhaust	-6699
▁productive	-6700
▁sums	-6701
▁Congo	-6702
▁fifth	-6703
▁platform	-6704
▁rigorous	-6705
▁flu	-6706
▁Switzerland	-6707
amed	-6708
zegovina	-6709
▁Pos	-6710
▁Conc	-6711
▁reper	-6712
▁Santer	-6713
▁Whilst	-6714
sch	-6715
▁heads	-6716
▁resort	-6717
▁presents	-6718
▁arrived	-6719
▁precond	-6720
▁annex	-6721
▁testing	-6722
▁Stockholm	-6723
▁recommended	-6724
sen	-6725
▁cope	-6726
▁guard	-6727
▁imperative	-6728
olved	-6729
▁struck	-6730
▁Brok	-6731
▁exclusive	-6732
▁democratically	-6733
▁reciproc	-6734
▁inappropri	-6735
elled	-6736
▁ensured	-6737
▁generous	-6738
adm	-6739
ounce	-6740
▁vigil	-6741
▁accused	-6742
UE	-6743
▁precautionary	-6744
▁Me	-6745
▁cow	-6746
cient	-6747
▁fron	-6748
▁fate	-6749
▁sections	-6750
pere	-6751
friend	-6752
▁grave	-6753
▁shift	-6754
▁autumn	-6755
▁progressive	-6756
pel	-6757
▁disg	-6758
▁abort	-6759
▁transform	-6760
sist	-6761
▁Liberties	-6762
▁repression	-6763
▁explicitly	-6764
▁fundamentally	-6765
▁uses	-6766
idential	-6767
▁Tampere	-6768
▁enabled	-6769
▁wall	-6770
ounded	-6771
▁fought	-6772
▁anx	-6773
▁sit	-6774
anged	-6775
▁minor	-6776
▁display	-6777
▁detention	-6778
▁statistical	-6779
▁responses	-6780
▁deny	-6781
▁incred	-6782
▁embargo	-6783
▁vocational	-6784
▁volume	-6785
▁personnel	-6786
lymp	-6787
▁earn	-6788
▁reperc	-6789
▁desired	-6790
▁computer	-6791
▁irregularities	-6792
diers	-6793
▁fault	-6794
▁soldiers	-6795
▁continuation	-6796
▁story	-6797
▁simplified	-6798
▁Bol	-6799
▁transf	-6800
ipher	-6801
▁middle	-6802
▁Olymp	-6803
▁prescri	-6804
▁Eur	-6805
aratory	-6806
▁marginal	-6807
▁enshrined	-6808
ivered	-6809
▁repercussions	-6810
erted	-6811
▁sett	-6812
▁milit	-6813
▁interm	-6814
▁disadvantaged	-6815
▁Har	-6816
▁admitted	-6817
AN	-6818
oles	-6819
▁pled	-6820
▁Would	-6821
▁sports	-6822
▁wherever	-6823
▁fulfilled	-6824
▁handling	-6825
▁Fron	-6826
▁prop	-6827
▁exemption	-6828
tt	-6829
▁dispar	-6830
▁socially	-6831
how	-6832
▁Gar	-6833
▁ast	-6834
▁convey	-6835
▁laying	-6836
▁notion	-6837
▁shipping	-6838
▁delivered	-6839
▁Globalisation	-6840
IV	-6841
▁Ph	-6842
uster	-6843
▁Bu	-6844
▁Vi	-6845
▁seekers	-6846
▁surprise	-6847
▁Bus	-6848
▁Hels	-6849
▁lists	-6850
▁adapted	-6851
▁democratisation	-6852
▁flights	-6853
▁inse	-6854
▁fashion	-6855
▁investigate	-6856
▁inequalities	-6857
asion	-6858
▁lingu	-6859
▁exposed	-6860
▁consolidate	-6861
ashing	-6862
oval	-6863
▁reaffirm	-6864
ala	-6865
inki	-6866
▁distur	-6867
▁horizont	-6868
▁detriment	-6869
ett	-6870
▁GUE	-6871
keeping	-6872
aire	-6873
▁exploit	-6874
▁medicinal	-6875
▁homes	-6876
▁unres	-6877
friendly	-6878
▁lifelong	-6879
▁participants	-6880
isual	-6881
▁teleph	-6882
▁initiated	-6883
ibly	-6884
▁openly	-6885
▁planet	-6886
▁attached	-6887
▁football	-6888
ustrial	-6889
▁Special	-6890
▁Helsinki	-6891
▁component	-6892
▁attractive	-6893
▁presidential	-6894
uv	-6895
xic	-6896
▁stick	-6897
▁install	-6898
▁preparatory	-6899
eds	-6900
▁Ro	-6901
▁Man	-6902
▁dele	-6903
▁ownership	-6904
▁Dim	-6905
▁pace	-6906
▁transferred	-6907
▁Work	-6908
▁doll	-6909
▁Romanian	-6910
▁objections	-6911
▁twice	-6912
ompl	-6913
▁Air	-6914
▁pays	-6915
iovisual	-6916
GF	-6917
NGL	-6918
▁Mos	-6919
erate	-6920
▁assured	-6921
▁Inc	-6922
▁Iranian	-6923
▁ended	-6924
▁accompl	-6925
▁removal	-6926
▁seat	-6927
▁pressing	-6928
initiative	-6929
▁dependence	-6930
▁multiannual	-6931
▁sale	-6932
law	-6933
▁scar	-6934
▁praise	-6935
▁Everyone	-6936
SK	-6937
iest	-6938
▁logic	-6939
▁wished	-6940
▁accurate	-6941
▁alarming	-6942
▁inevitably	-6943
▁Bon	-6944
▁narrow	-6945
▁forestry	-6946
▁Bang	-6947
▁coinc	-6948
▁desper	-6949
▁stricter	-6950
▁facility	-6951
▁internationally	-6952
▁Comp	-6953
▁findings	-6954
▁speculation	-6955
pin	-6956
▁fallen	-6957
▁islands	-6958
▁overwhelming	-6959
ware	-6960
▁manif	-6961
▁posts	-6962
▁serves	-6963
▁obstacle	-6964
▁potentially	-6965
▁harmonise	-6966
▁constraints	-6967
stan	-6968
▁burdens	-6969
▁innocent	-6970
▁inappropriate	-6971
dep	-6972
▁minds	-6973
▁errors	-6974
▁hunger	-6975
icing	-6976
▁trem	-6977
▁foodstuffs	-6978
▁concessions	-6979
pens	-6980
▁bul	-6981
▁Colle	-6982
▁applaud	-6983
▁hospital	-6984
▁appalling	-6985
▁frag	-6986
▁enterprise	-6987
▁originally	-6988
▁El	-6989
▁rob	-6990
▁cultiv	-6991
▁silence	-6992
▁inspections	-6993
cul	-6994
▁Kar	-6995
▁title	-6996
itology	-6997
▁adult	-6998
▁attain	-6999
▁donors	-7000
▁feature	-7001
▁monopoly	-7002
▁Institute	-7003
▁draftsman	-7004
▁comparable	-7005
▁USD	-7006
ommission	-7007
▁wholeheartedly	-7008
▁suspic	-7009
▁Fourthly	-7010
▁principal	-7011
▁characterised	-7012
▁AIDS	-7013
▁reun	-7014
▁Islam	-7015
▁Tai	-7016
ommod	-7017
▁vary	-7018
▁discipline	-7019
rov	-7020
▁pillars	-7021
▁distance	-7022
▁constituency	-7023
ALE	-7024
ustain	-7025
▁disse	-7026
agement	-7027
▁western	-7028
▁appreciation	-7029
▁empt	-7030
▁systematically	-7031
▁Federal	-7032
▁remained	-7033
▁assessing	-7034
▁Mich	-7035
▁linguistic	-7036
▁telling	-7037
▁accommod	-7038
▁practically	-7039
▁Latvia	-7040
▁researchers	-7041
fur	-7042
ileo	-7043
▁routes	-7044
▁broadly	-7045
▁stating	-7046
▁horizontal	-7047
▁irrespective	-7048
▁genoc	-7049
▁biofuels	-7050
▁bench	-7051
▁missions	-7052
▁Er	-7053
▁generate	-7054
ariat	-7055
▁Among	-7056
▁Cypri	-7057
▁colon	-7058
▁Algeria	-7059
▁closing	-7060
▁demanded	-7061
▁hazardous	-7062
▁deciding	-7063
▁recorded	-7064
▁McC	-7065
▁tape	-7066
▁Mexico	-7067
▁stopped	-7068
▁tremend	-7069
▁automatically	-7070
ooks	-7071
▁ali	-7072
ilty	-7073
xual	-7074
▁Vienna	-7075
▁earthqu	-7076
▁criticised	-7077
▁transposition	-7078
ald	-7079
being	-7080
▁fing	-7081
esides	-7082
▁Nob	-7083
▁offic	-7084
DF	-7085
med	-7086
▁Guine	-7087
▁complied	-7088
▁criticisms	-7089
▁civilians	-7090
▁stimulate	-7091
▁persecution	-7092
▁survival	-7093
▁deadlines	-7094
▁references	-7095
ER	-7096
inian	-7097
▁arbitr	-7098
ulates	-7099
▁adjustment	-7100
▁xenophobia	-7101
sych	-7102
arious	-7103
▁bases	-7104
▁disabilities	-7105
▁Galileo	-7106
▁travelling	-7107
▁interference	-7108
▁Law	-7109
▁thoroughly	-7110
▁Sm	-7111
▁Taiwan	-7112
▁detain	-7113
▁offences	-7114
▁morator	-7115
▁placing	-7116
▁worried	-7117
▁subjected	-7118
kers	-7119
depth	-7120
▁manifest	-7121
▁composition	-7122
▁onto	-7123
▁tuna	-7124
▁marks	-7125
osphere	-7126
▁guilty	-7127
▁channels	-7128
▁Hamas	-7129
▁assessed	-7130
▁fragment	-7131
▁recycling	-7132
▁Saddam	-7133
▁producer	-7134
▁parad	-7135
▁Estonia	-7136
▁cancell	-7137
▁retirement	-7138
ares	-7139
ietnam	-7140
▁Baron	-7141
▁Kurdish	-7142
▁coordinating	-7143
employed	-7144
▁adaptation	-7145
oke	-7146
▁bottom	-7147
teneg	-7148
icking	-7149
▁label	-7150
▁contributes	-7151
umb	-7152
▁blue	-7153
▁camps	-7154
▁topics	-7155
▁formally	-7156
▁incidents	-7157
▁plain	-7158
▁dispro	-7159
▁thirdly	-7160
▁topical	-7161
▁comitology	-7162
▁Timor	-7163
▁sensit	-7164
▁ideological	-7165
▁hot	-7166
▁psych	-7167
emocratic	-7168
vy	-7169
reced	-7170
▁Verts	-7171
▁grants	-7172
▁lesson	-7173
▁reminded	-7174
rum	-7175
▁root	-7176
▁decade	-7177
▁mainstream	-7178
▁kil	-7179
▁book	-7180
▁victory	-7181
establish	-7182
▁wake	-7183
▁scheduled	-7184
▁Christians	-7185
▁intelligent	-7186
▁His	-7187
▁authorised	-7188
▁wars	-7189
ernity	-7190
▁punishment	-7191
▁race	-7192
▁differ	-7193
▁refusal	-7194
▁sem	-7195
▁everyday	-7196
▁unit	-7197
lusive	-7198
▁underest	-7199
▁obtaining	-7200
▁moratorium	-7201
ba	-7202
vo	-7203
conn	-7204
▁unpreced	-7205
▁estimates	-7206
▁transfers	-7207
▁conscience	-7208
▁protectionism	-7209
▁rh	-7210
acerb	-7211
▁zero	-7212
▁relief	-7213
▁delicate	-7214
▁emot	-7215
▁exacerb	-7216
▁Cur	-7217
▁gir	-7218
▁disarm	-7219
▁insp	-7220
▁conform	-7221
▁audiovisual	-7222
gent	-7223
ivoc	-7224
▁fer	-7225
▁mine	-7226
▁arises	-7227
▁realised	-7228
▁kill	-7229
▁embry	-7230
▁biotechn	-7231
▁depth	-7232
▁avoiding	-7233
▁demonstration	-7234
▁council	-7235
▁genocide	-7236
▁isolation	-7237
▁Black	-7238
▁tempt	-7239
anas	-7240
mitting	-7241
▁withdrawn	-7242
▁beneficiaries	-7243
▁unprecedented	-7244
ili	-7245
▁Armen	-7246
ifiable	-7247
▁imperial	-7248
▁era	-7249
▁incomes	-7250
▁patient	-7251
▁passport	-7252
▁contradiction	-7253
enses	-7254
ificial	-7255
▁modest	-7256
▁Vietnam	-7257
▁passing	-7258
▁returned	-7259
IP	-7260
▁Caucas	-7261
▁floods	-7262
▁heavily	-7263
▁satellite	-7264
ils	-7265
irty	-7266
stat	-7267
▁illness	-7268
▁stream	-7269
▁analyse	-7270
▁facilitating	-7271
ki	-7272
iguous	-7273
▁Should	-7274
▁reviewed	-7275
▁arrested	-7276
▁Federation	-7277
▁arrangement	-7278
band	-7279
▁phr	-7280
▁conj	-7281
▁articles	-7282
▁input	-7283
▁born	-7284
▁atmosphere	-7285
▁pesticides	-7286
aj	-7287
▁acced	-7288
▁throw	-7289
▁towns	-7290
▁Baroness	-7291
▁addresses	-7292
organ	-7293
▁mort	-7294
▁contra	-7295
▁foster	-7296
▁publish	-7297
▁remarkable	-7298
ales	-7299
▁abolish	-7300
▁persuade	-7301
▁HIV	-7302
▁Monteneg	-7303
▁indicates	-7304
▁dur	-7305
▁Hague	-7306
▁Democrat	-7307
▁RE	-7308
▁deem	-7309
▁assert	-7310
▁anywhere	-7311
▁empty	-7312
▁thinks	-7313
▁consists	-7314
▁clarified	-7315
▁instability	-7316
▁emphasises	-7317
mail	-7318
▁endang	-7319
undering	-7320
ivest	-7321
▁banana	-7322
ivestock	-7323
▁differently	-7324
ultural	-7325
▁Neighbour	-7326
▁irresponsible	-7327
mas	-7328
uber	-7329
lihood	-7330
▁glob	-7331
▁confron	-7332
▁ultimate	-7333
iant	-7334
▁datab	-7335
▁artificial	-7336
▁posed	-7337
▁stresses	-7338
▁indispens	-7339
▁Code	-7340
▁accus	-7341
▁exclude	-7342
innock	-7343
▁Asian	-7344
issible	-7345
rehensible	-7346
▁attempting	-7347
▁responding	-7348
▁interventions	-7349
LT	-7350
tini	-7351
view	-7352
▁reverse	-7353
▁reinforced	-7354
▁disadvantage	-7355
▁Ev	-7356
▁Kinnock	-7357
▁quantity	-7358
osy	-7359
oting	-7360
▁Fort	-7361
▁ball	-7362
▁dual	-7363
zz	-7364
olly	-7365
ensions	-7366
▁investing	-7367
▁prerequisite	-7368
ano	-7369
board	-7370
▁gases	-7371
▁solving	-7372
▁governed	-7373
▁accompany	-7374
oli	-7375
tra	-7376
▁corporate	-7377
rates	-7378
rading	-7379
▁Madrid	-7380
▁diverse	-7381
▁integral	-7382
▁monopolies	-7383
▁registered	-7384
▁indispensable	-7385
▁connect	-7386
▁Congress	-7387
▁normally	-7388
▁workforce	-7389
with	-7390
idden	-7391
▁webs	-7392
▁misle	-7393
▁ends	-7394
▁Apart	-7395
▁foods	-7396
▁trends	-7397
▁believed	-7398
▁abolished	-7399
▁disparities	-7400
jour	-7401
▁sees	-7402
▁creative	-7403
▁pointing	-7404
att	-7405
▁ol	-7406
▁scept	-7407
▁toxic	-7408
▁witnessed	-7409
oeuv	-7410
rage	-7411
enous	-7412
orously	-7413
▁divide	-7414
▁ensures	-7415
▁Caucasus	-7416
▁disproportion	-7417
aded	-7418
▁adding	-7419
▁assembly	-7420
▁messages	-7421
▁Dep	-7422
▁map	-7423
▁shock	-7424
▁served	-7425
▁smoking	-7426
▁concepts	-7427
▁livestock	-7428
▁sustained	-7429
orient	-7430
▁remit	-7431
▁strikes	-7432
▁removing	-7433
▁recognising	-7434
▁Eco	-7435
▁dear	-7436
▁Haiti	-7437
▁expenses	-7438
▁isolated	-7439
▁orientation	-7440
▁Six	-7441
▁CFSP	-7442
▁pick	-7443
▁recover	-7444
▁describe	-7445
▁criticise	-7446
▁wonderful	-7447
▁Monti	-7448
▁resc	-7449
▁propag	-7450
▁manoeuv	-7451
ECD	-7452
tex	-7453
▁liter	-7454
COD	-7455
▁Te	-7456
iasm	-7457
tiers	-7458
▁Democracy	-7459
▁democracies	-7460
▁Ter	-7461
utors	-7462
ography	-7463
▁unequivoc	-7464
▁Nordic	-7465
▁strange	-7466
ids	-7467
uble	-7468
▁Dav	-7469
▁Mosc	-7470
▁advances	-7471
▁emphasize	-7472
▁relationships	-7473
▁cycle	-7474
oration	-7475
▁lowest	-7476
isations	-7477
▁convict	-7478
▁combination	-7479
▁illegally	-7480
▁inevitable	-7481
▁roll	-7482
▁affair	-7483
▁whenever	-7484
▁aspirations	-7485
airy	-7486
irds	-7487
▁ASE	-7488
▁availability	-7489
▁identification	-7490
cho	-7491
▁poorer	-7492
▁satisfy	-7493
▁inequality	-7494
▁patents	-7495
▁civilisation	-7496
▁totalitarian	-7497
▁doors	-7498
▁disgrace	-7499
▁recession	-7500
▁Montenegro	-7501
▁organization	-7502
▁mix	-7503
▁ours	-7504
▁enjoyed	-7505
▁translation	-7506
▁vent	-7507
▁Resolution	-7508
▁surprising	-7509
▁condemnation	-7510
▁mun	-7511
▁commod	-7512
▁enthusiasm	-7513
akis	-7514
▁Blair	-7515
▁publicly	-7516
▁donor	-7517
▁moves	-7518
▁Neighbourhood	-7519
▁Sal	-7520
▁unb	-7521
▁Nigeria	-7522
▁footing	-7523
ok	-7524
▁cells	-7525
▁caught	-7526
▁Against	-7527
▁securing	-7528
▁precedent	-7529
rier	-7530
▁gather	-7531
▁claimed	-7532
▁confirms	-7533
▁energies	-7534
uite	-7535
▁epid	-7536
▁strive	-7537
▁limiting	-7538
ioned	-7539
▁incur	-7540
▁philosophy	-7541
inations	-7542
▁instruct	-7543
▁inconsist	-7544
usse	-7545
mense	-7546
stone	-7547
▁formula	-7548
icip	-7549
▁appeared	-7550
▁promotes	-7551
▁Pap	-7552
▁Sah	-7553
▁emerge	-7554
LO	-7555
arsh	-7556
▁gets	-7557
ushing	-7558
▁steel	-7559
▁Arctic	-7560
▁interpreted	-7561
ipped	-7562
icable	-7563
▁genetic	-7564
▁gratitude	-7565
▁absor	-7566
▁feels	-7567
▁dioxide	-7568
▁immense	-7569
▁occupied	-7570
▁Guinea	-7571
▁fleets	-7572
▁frankly	-7573
▁earmarked	-7574
ige	-7575
water	-7576
▁drop	-7577
▁yield	-7578
▁threatening	-7579
opol	-7580
▁nav	-7581
▁maybe	-7582
▁cattle	-7583
▁Frontex	-7584
▁manufacturing	-7585
▁ES	-7586
etor	-7587
▁transnational	-7588
▁IN	-7589
iously	-7590
▁Eurostat	-7591
IA	-7592
llor	-7593
▁Sen	-7594
▁Each	-7595
▁Kong	-7596
▁dairy	-7597
ovation	-7598
▁licences	-7599
itudes	-7600
▁Paris	-7601
▁audit	-7602
▁compr	-7603
▁faces	-7604
▁oppon	-7605
▁aiming	-7606
justment	-7607
)).	-7608
ola	-7609
▁handled	-7610
▁premium	-7611
elve	-7612
▁von	-7613
▁Until	-7614
▁grass	-7615
iciency	-7616
▁Olympic	-7617
▁encouragement	-7618
EA	-7619
bes	-7620
owski	-7621
osystem	-7622
▁finger	-7623
▁focuses	-7624
enth	-7625
▁vague	-7626
▁concluding	-7627
▁broken	-7628
▁remote	-7629
asmus	-7630
▁Martin	-7631
▁requiring	-7632
▁tremendous	-7633
sider	-7634
iciary	-7635
▁safer	-7636
ranging	-7637
▁preference	-7638
▁multinationals	-7639
erson	-7640
▁pose	-7641
▁Ferre	-7642
▁outbre	-7643
▁warming	-7644
▁Neither	-7645
deter	-7646
▁Camb	-7647
▁prud	-7648
▁perce	-7649
ipheral	-7650
▁Thanks	-7651
▁combine	-7652
▁abortion	-7653
▁pragmatic	-7654
▁confidential	-7655
▁Hong	-7656
▁subs	-7657
▁remedy	-7658
esterday	-7659
▁delayed	-7660
▁location	-7661
▁abandoned	-7662
▁ecosystem	-7663
▁publication	-7664
▁lays	-7665
▁Peace	-7666
▁Prize	-7667
▁roots	-7668
▁survive	-7669
▁Indonesia	-7670
▁displaced	-7671
▁indirectly	-7672
▁exert	-7673
▁Colombia	-7674
▁workplace	-7675
▁reproductive	-7676
▁positively	-7677
urch	-7678
gments	-7679
▁signals	-7680
▁sacrific	-7681
ustainable	-7682
▁problematic	-7683
obod	-7684
▁mental	-7685
▁convincing	-7686
▁quantities	-7687
▁preferred	-7688
▁Conciliation	-7689
▁calm	-7690
▁intr	-7691
assion	-7692
▁rhetor	-7693
▁exploited	-7694
berg	-7695
▁postponed	-7696
▁elimination	-7697
ube	-7698
vic	-7699
oren	-7700
▁Tom	-7701
ourse	-7702
▁veto	-7703
▁slaughter	-7704
▁ham	-7705
▁doctors	-7706
▁expressly	-7707
iot	-7708
▁Dar	-7709
▁Ecofin	-7710
▁ing	-7711
▁licence	-7712
▁sectoral	-7713
agn	-7714
turn	-7715
▁Appro	-7716
▁conjunction	-7717
ault	-7718
▁Husse	-7719
▁Milose	-7720
▁petition	-7721
▁secondary	-7722
▁intelligence	-7723
▁administrations	-7724
▁Hol	-7725
▁Process	-7726
▁violated	-7727
▁encourages	-7728
▁regulating	-7729
▁privatisation	-7730
In	-7731
NP	-7732
ancellor	-7733
▁dedicated	-7734
▁Net	-7735
▁judiciary	-7736
▁utter	-7737
▁Compet	-7738
▁teachers	-7739
▁organized	-7740
ijing	-7741
▁attrib	-7742
▁determining	-7743
ani	-7744
▁stead	-7745
▁extrad	-7746
existence	-7747
▁cul	-7748
▁vill	-7749
▁Hussein	-7750
▁Milosevic	-7751
▁player	-7752
▁Concern	-7753
▁club	-7754
▁diagn	-7755
▁Rather	-7756
▁driven	-7757
▁enforced	-7758
▁invested	-7759
ua	-7760
ched	-7761
rorism	-7762
▁holid	-7763
▁weaknesses	-7764
iers	-7765
▁pity	-7766
▁allev	-7767
▁priorit	-7768
▁complexity	-7769
▁Floren	-7770
▁accepts	-7771
▁symbolic	-7772
idity	-7773
▁understandable	-7774
ky	-7775
▁minors	-7776
▁controlling	-7777
uel	-7778
▁Del	-7779
▁uphe	-7780
▁Child	-7781
▁feasible	-7782
▁recognize	-7783
▁suspension	-7784
ros	-7785
▁dup	-7786
▁manag	-7787
▁brutal	-7788
▁pipeline	-7789
▁Certainly	-7790
▁adjustments	-7791
ey	-7792
▁OECD	-7793
▁await	-7794
▁online	-7795
▁switch	-7796
▁Chancellor	-7797
▁broadcasting	-7798
▁Cot	-7799
▁Gen	-7800
tical	-7801
contro	-7802
▁merit	-7803
▁urged	-7804
▁zones	-7805
▁runs	-7806
▁initiate	-7807
▁generated	-7808
▁Adjustment	-7809
▁acad	-7810
▁smug	-7811
ultane	-7812
▁holds	-7813
▁faster	-7814
akers	-7815
▁units	-7816
▁harmonization	-7817
▁Beijing	-7818
power	-7819
▁liqu	-7820
▁shar	-7821
▁Relations	-7822
ama	-7823
fire	-7824
liers	-7825
▁banning	-7826
▁resolute	-7827
▁shortage	-7828
▁Perspective	-7829
▁announcement	-7830
▁disappointment	-7831
abe	-7832
▁bill	-7833
▁spectrum	-7834
▁biological	-7835
▁derogation	-7836
▁integrating	-7837
▁TAC	-7838
▁complaint	-7839
▁execution	-7840
▁split	-7841
ressing	-7842
▁traceability	-7843
CNS	-7844
▁IMF	-7845
icism	-7846
▁flight	-7847
accession	-7848
▁Freedoms	-7849
▁pluralism	-7850
▁Ice	-7851
paper	-7852
▁scra	-7853
▁Cambod	-7854
▁reluct	-7855
▁implies	-7856
▁Articles	-7857
▁unsatisf	-7858
▁specified	-7859
▁imbalances	-7860
cury	-7861
paration	-7862
▁underpin	-7863
▁preservation	-7864
▁professionals	-7865
back	-7866
eken	-7867
▁drinking	-7868
▁simplifying	-7869
▁concentrated	-7870
izes	-7871
▁Cam	-7872
itect	-7873
▁alter	-7874
▁radioactive	-7875
▁DG	-7876
coni	-7877
▁lag	-7878
▁agents	-7879
▁devote	-7880
▁establishes	-7881
ario	-7882
▁Rad	-7883
▁inhuman	-7884
▁unified	-7885
▁transmission	-7886
urt	-7887
▁separation	-7888
▁deliberately	-7889
▁halt	-7890
▁Goals	-7891
▁renewal	-7892
▁defended	-7893
▁rejecting	-7894
▁suppliers	-7895
atri	-7896
▁Frat	-7897
▁hide	-7898
▁backed	-7899
▁knowing	-7900
▁demonstrations	-7901
▁Barn	-7902
osexual	-7903
▁surplus	-7904
▁Tal	-7905
oboda	-7906
▁wishing	-7907
▁analyses	-7908
▁simultane	-7909
▁Communities	-7910
▁communicate	-7911
rop	-7912
ura	-7913
▁mig	-7914
▁Laeken	-7915
▁ties	-7916
▁ingred	-7917
ashington	-7918
▁acquired	-7919
▁components	-7920
ika	-7921
▁guide	-7922
▁hesit	-7923
▁Iceland	-7924
▁Working	-7925
▁bananas	-7926
▁threaten	-7927
▁university	-7928
enko	-7929
inate	-7930
▁eligible	-7931
▁interpre	-7932
▁architect	-7933
rass	-7934
▁supr	-7935
▁sadly	-7936
▁Balkan	-7937
▁selection	-7938
▁deregulation	-7939
▁Industrial	-7940
▁continuous	-7941
ker	-7942
▁Os	-7943
acing	-7944
▁echo	-7945
▁shop	-7946
▁bears	-7947
ustration	-7948
▁enhancing	-7949
▁Washington	-7950
▁ridic	-7951
▁sheep	-7952
▁supran	-7953
▁Swoboda	-7954
▁fragile	-7955
▁medicine	-7956
▁luck	-7957
market	-7958
▁consc	-7959
▁Darfur	-7960
▁Frattini	-7961
▁responded	-7962
▁SIS	-7963
▁iron	-7964
▁Sever	-7965
▁entails	-7966
▁invitation	-7967
▁intolerable	-7968
▁Mand	-7969
▁affirm	-7970
▁belonging	-7971
▁interoper	-7972
▁derogations	-7973
▁expos	-7974
▁arisen	-7975
▁station	-7976
▁mobilisation	-7977
ali	-7978
▁Board	-7979
▁seats	-7980
▁Muslim	-7981
▁copyright	-7982
▁Kh	-7983
acio	-7984
▁odd	-7985
▁blow	-7986
▁dupl	-7987
▁Forum	-7988
▁girls	-7989
▁tensions	-7990
▁circulation	-7991
PA	-7992
▁caut	-7993
▁Climate	-7994
▁approving	-7995
▁reactions	-7996
kest	-7997
▁reb	-7998
▁trouble	-7999
ACH	-8000
▁porn	-8001
▁Anyone	-8002
▁Moscow	-8003
▁consolidated	-8004
▁decommission	-8005
▁supranational	-8006
▁unsatisfactory	-8007
▁Far	-8008
▁existed	-8009
▁intense	-8010
▁momentum	-8011
▁salaries	-8012
▁seas	-8013
▁Danube	-8014
▁deprived	-8015
▁pensioners	-8016
▁stabilisation	-8017
▁Eth	-8018
▁tension	-8019
▁diplomacy	-8020
▁eliminating	-8021
cile	-8022
▁toys	-8023
▁incap	-8024
▁conceal	-8025
▁macroeconomic	-8026
gs	-8027
ray	-8028
▁mines	-8029
▁Person	-8030
▁demonstrating	-8031
▁outl	-8032
▁seemed	-8033
▁located	-8034
▁advocates	-8035
▁telephone	-8036
▁cofinancing	-8037
iful	-8038
▁hat	-8039
▁hyd	-8040
▁Pack	-8041
uesday	-8042
▁manip	-8043
kestein	-8044
▁Regions	-8045
▁lawyers	-8046
▁tabling	-8047
▁packaging	-8048
▁definitions	-8049
▁asks	-8050
▁harass	-8051
▁resign	-8052
▁Paragraph	-8053
▁exemptions	-8054
▁formulated	-8055
▁Round	-8056
▁retail	-8057
▁residents	-8058
▁fulfilling	-8059
ician	-8060
▁unamb	-8061
itherto	-8062
cos	-8063
▁champ	-8064
▁ending	-8065
▁hoping	-8066
▁worker	-8067
▁preserving	-8068
▁underlined	-8069
▁scarce	-8070
▁socialist	-8071
▁detrimental	-8072
▁defe	-8073
▁proves	-8074
▁cloning	-8075
▁guidance	-8076
▁revealed	-8077
▁magn	-8078
▁flags	-8079
▁Michel	-8080
▁electorate	-8081
▁indications	-8082
▁undermining	-8083
risy	-8084
▁Barnier	-8085
▁Mac	-8086
▁depending	-8087
▁courageous	-8088
▁explanatory	-8089
▁sensitivity	-8090
do	-8091
▁aqu	-8092
▁dates	-8093
▁formed	-8094
▁ministerial	-8095
▁substantive	-8096
rame	-8097
▁grown	-8098
▁knew	-8099
▁grand	-8100
▁impart	-8101
▁listed	-8102
▁feeding	-8103
▁operates	-8104
▁customers	-8105
▁Guant	-8106
▁cruel	-8107
▁theory	-8108
▁Tuesday	-8109
▁journey	-8110
▁tariffs	-8111
▁officially	-8112
erba	-8113
▁REACH	-8114
▁famous	-8115
▁blocked	-8116
▁reforming	-8117
▁organising	-8118
▁infringements	-8119
▁boy	-8120
▁enrich	-8121
▁fishery	-8122
▁weekend	-8123
▁reassure	-8124
▁accountable	-8125
▁rect	-8126
ettering	-8127
▁marking	-8128
▁continuity	-8129
▁insecurity	-8130
▁Palacio	-8131
▁subsidy	-8132
▁hypocrisy	-8133
▁worthwhile	-8134
annes	-8135
eters	-8136
▁gaps	-8137
▁neutral	-8138
▁swiftly	-8139
▁Equality	-8140
▁thoughts	-8141
call	-8142
roots	-8143
develop	-8144
▁judges	-8145
▁suddenly	-8146
mer	-8147
▁learnt	-8148
▁selling	-8149
▁Poettering	-8150
▁noticed	-8151
▁offence	-8152
▁misleading	-8153
▁distortions	-8154
▁disappointing	-8155
def	-8156
▁discover	-8157
▁aro	-8158
▁capt	-8159
▁indig	-8160
▁issuing	-8161
▁purchase	-8162
▁Bolkestein	-8163
▁veter	-8164
▁escape	-8165
▁censure	-8166
▁frontiers	-8167
▁Concerning	-8168
seen	-8169
▁breed	-8170
▁merits	-8171
▁attended	-8172
▁Christmas	-8173
▁earthquake	-8174
po	-8175
▁IT	-8176
▁delivery	-8177
▁optimistic	-8178
iny	-8179
▁carriers	-8180
ministr	-8181
▁subscri	-8182
▁wanting	-8183
▁breaches	-8184
▁newspaper	-8185
ador	-8186
anen	-8187
▁streets	-8188
▁refusing	-8189
▁arbitrary	-8190
▁reconcile	-8191
aces	-8192
▁refund	-8193
▁coalition	-8194
▁objection	-8195
▁capacities	-8196
▁distinguish	-8197
▁identifying	-8198
determination	-8199
▁Organization	-8200
▁Eri	-8201
▁finds	-8202
▁domain	-8203
▁mercury	-8204
▁tourist	-8205
▁software	-8206
▁tendency	-8207
▁dynam	-8208
▁airline	-8209
▁dismiss	-8210
ille	-8211
▁pregn	-8212
▁massac	-8213
▁summary	-8214
▁attitudes	-8215
▁expresses	-8216
▁wave	-8217
icating	-8218
▁exempl	-8219
▁dictator	-8220
▁vigilant	-8221
▁nationality	-8222
atom	-8223
here	-8224
▁Val	-8225
▁beaut	-8226
▁books	-8227
▁reput	-8228
▁Albanian	-8229
▁scenario	-8230
▁Ukrainian	-8231
▁premature	-8232
▁God	-8233
▁Gra	-8234
aming	-8235
▁ECHO	-8236
▁lend	-8237
▁injust	-8238
▁twelve	-8239
▁College	-8240
▁recruit	-8241
▁propaganda	-8242
▁Area	-8243
▁chief	-8244
▁Islands	-8245
▁awaiting	-8246
▁financially	-8247
▁redundancies	-8248
▁da	-8249
▁wis	-8250
▁enem	-8251
▁Cuban	-8252
▁Gender	-8253
▁career	-8254
▁authors	-8255
asp	-8256
kel	-8257
fall	-8258
▁pig	-8259
▁acquire	-8260
▁caution	-8261
▁Independ	-8262
istrib	-8263
lessly	-8264
▁wholly	-8265
▁pursuit	-8266
▁destabil	-8267
▁Administr	-8268
▁condemning	-8269
II	-8270
▁speaks	-8271
▁disability	-8272
▁Mug	-8273
▁poss	-8274
▁permits	-8275
▁opponents	-8276
▁transportation	-8277
uestions	-8278
▁intermedi	-8279
▁undermined	-8280
▁complementary	-8281
▁desp	-8282
▁distinct	-8283
▁advocated	-8284
▁mus	-8285
▁escal	-8286
▁newly	-8287
reening	-8288
▁abst	-8289
▁wors	-8290
alistic	-8291
▁allies	-8292
▁lengthy	-8293
▁mobilise	-8294
▁officers	-8295
▁incorrect	-8296
▁judgments	-8297
▁restriction	-8298
▁counterfeiting	-8299
gro	-8300
▁shut	-8301
▁thro	-8302
▁Serbian	-8303
▁mutually	-8304
▁devastating	-8305
▁biotechnology	-8306
▁deterioration	-8307
▁senior	-8308
▁reformed	-8309
▁Much	-8310
▁mixed	-8311
mentioned	-8312
▁successes	-8313
▁autonomous	-8314
▁write	-8315
aping	-8316
▁sooner	-8317
▁realities	-8318
▁structured	-8319
▁Tri	-8320
cosur	-8321
▁Mugabe	-8322
▁Surely	-8323
▁papers	-8324
▁redundant	-8325
▁Herzegovina	-8326
ixt	-8327
▁white	-8328
▁alleged	-8329
▁bankrupt	-8330
▁contradictory	-8331
ita	-8332
▁trip	-8333
▁faire	-8334
▁compensate	-8335
▁inspectors	-8336
▁meaningful	-8337
ux	-8338
▁Sak	-8339
▁excise	-8340
▁certific	-8341
▁automatic	-8342
roliferation	-8343
▁constituents	-8344
US	-8345
eper	-8346
▁crew	-8347
▁Small	-8348
▁bigger	-8349
▁phrase	-8350
▁belongs	-8351
▁agreeing	-8352
▁indigenous	-8353
▁Next	-8354
others	-8355
▁privileged	-8356
gans	-8357
▁billions	-8358
▁centuries	-8359
▁gri	-8360
▁bold	-8361
▁geared	-8362
▁paradox	-8363
▁interconn	-8364
DR	-8365
RE	-8366
erm	-8367
▁III	-8368
▁owe	-8369
spapers	-8370
▁Southern	-8371
▁coins	-8372
▁organs	-8373
▁compare	-8374
▁sentences	-8375
aper	-8376
▁bridge	-8377
Comm	-8378
▁summar	-8379
▁update	-8380
▁fruitful	-8381
oked	-8382
▁trig	-8383
▁household	-8384
akh	-8385
▁cos	-8386
▁dimin	-8387
▁theme	-8388
▁adjour	-8389
▁inland	-8390
za	-8391
ustoms	-8392
▁seriousness	-8393
cker	-8394
onou	-8395
▁Inn	-8396
ritical	-8397
▁costly	-8398
▁Directorate	-8399
▁insult	-8400
▁memory	-8401
aterally	-8402
▁Confederal	-8403
▁departments	-8404
▁proportionality	-8405
▁Card	-8406
erbaij	-8407
▁vitally	-8408
roduction	-8409
▁textiles	-8410
ilaterally	-8411
ga	-8412
pass	-8413
▁robust	-8414
▁kilomet	-8415
▁suspend	-8416
▁alliance	-8417
▁expecting	-8418
unal	-8419
▁cig	-8420
▁Schm	-8421
▁gest	-8422
▁Basque	-8423
▁killing	-8424
▁rhetoric	-8425
▁engagement	-8426
▁restricting	-8427
kind	-8428
▁slowly	-8429
▁voices	-8430
▁adapting	-8431
▁allowances	-8432
▁discovered	-8433
▁homosexual	-8434
▁counterpart	-8435
▁excessively	-8436
▁incompatible	-8437
▁hal	-8438
▁Mean	-8439
▁user	-8440
▁tested	-8441
▁newspapers	-8442
▁breat	-8443
▁score	-8444
▁absent	-8445
▁Cotonou	-8446
▁mentions	-8447
reme	-8448
rote	-8449
▁preferences	-8450
▁deliberations	-8451
NI	-8452
▁tens	-8453
▁frequent	-8454
▁acute	-8455
▁harsh	-8456
▁prejudice	-8457
▁returning	-8458
▁Communication	-8459
▁charter	-8460
▁feelings	-8461
▁hitherto	-8462
▁Accordingly	-8463
can	-8464
▁Several	-8465
▁supporters	-8466
▁tem	-8467
opoul	-8468
▁liberty	-8469
▁Azerbaij	-8470
▁differing	-8471
▁disregard	-8472
▁manoeuvre	-8473
dez	-8474
▁tick	-8475
▁Conservative	-8476
iev	-8477
ione	-8478
▁mit	-8479
icious	-8480
▁Together	-8481
▁apologise	-8482
▁Su	-8483
harov	-8484
▁cold	-8485
▁wood	-8486
▁reward	-8487
▁awarded	-8488
▁painful	-8489
▁ideology	-8490
gers	-8491
laim	-8492
lock	-8493
▁Cat	-8494
▁Chile	-8495
▁assent	-8496
▁cheaper	-8497
▁interfere	-8498
▁contamination	-8499
▁poses	-8500
developed	-8501
gi	-8502
orate	-8503
▁charged	-8504
▁teaching	-8505
▁inclusive	-8506
▁mentioning	-8507
bles	-8508
iled	-8509
iques	-8510
▁foresee	-8511
▁dimensions	-8512
▁continually	-8513
▁conventional	-8514
▁eat	-8515
▁mad	-8516
▁Sakharov	-8517
▁reception	-8518
▁competitors	-8519
▁conditional	-8520
front	-8521
▁Maur	-8522
urances	-8523
▁buying	-8524
▁observ	-8525
▁Turning	-8526
▁scandalous	-8527
▁Fortunately	-8528
▁Av	-8529
▁Chern	-8530
▁viewed	-8531
▁murdered	-8532
▁Political	-8533
▁prostitution	-8534
▁reunification	-8535
▁Putin	-8536
atories	-8537
▁Norway	-8538
▁hinder	-8539
▁proport	-8540
▁unclear	-8541
▁petitions	-8542
▁Jer	-8543
▁weaken	-8544
▁certification	-8545
▁ru	-8546
▁plus	-8547
itives	-8548
▁scour	-8549
▁season	-8550
▁tolerate	-8551
hard	-8552
▁Bet	-8553
▁Has	-8554
makers	-8555
▁prisons	-8556
▁quantitative	-8557
▁dare	-8558
▁hearings	-8559
▁proactive	-8560
ude	-8561
vens	-8562
▁gall	-8563
▁assumed	-8564
▁recourse	-8565
▁translated	-8566
▁disarmament	-8567
▁liberalization	-8568
▁Jean	-8569
decess	-8570
▁handed	-8571
together	-8572
▁outline	-8573
▁severely	-8574
▁instances	-8575
▁predecess	-8576
▁cooperating	-8577
obyl	-8578
▁gam	-8579
▁Sport	-8580
▁Mercosur	-8581
▁eurozone	-8582
▁incapable	-8583
▁Gr	-8584
▁unh	-8585
ilingual	-8586
▁anybody	-8587
▁pending	-8588
▁collected	-8589
▁recommends	-8590
▁countryside	-8591
▁appropriately	-8592
face	-8593
selt	-8594
▁Hel	-8595
habil	-8596
▁accum	-8597
▁debts	-8598
▁Indian	-8599
▁Canc	-8600
▁Exper	-8601
▁impunity	-8602
▁Chernobyl	-8603
▁viewpoint	-8604
eness	-8605
think	-8606
▁Seventh	-8607
▁breaking	-8608
▁founding	-8609
▁impartial	-8610
▁laundering	-8611
▁Finance	-8612
▁forecasts	-8613
▁recognized	-8614
▁lit	-8615
iracy	-8616
▁site	-8617
▁minimal	-8618
▁retained	-8619
▁conscious	-8620
▁launching	-8621
▁qualitative	-8622
▁capabilities	-8623
enez	-8624
uous	-8625
▁superf	-8626
▁Posselt	-8627
▁maternity	-8628
ami	-8629
▁pollut	-8630
▁specul	-8631
▁drastic	-8632
▁Meanwhile	-8633
▁profitable	-8634
▁conferences	-8635
adays	-8636
▁bare	-8637
▁hast	-8638
▁adhere	-8639
▁argued	-8640
▁Whether	-8641
FO	-8642
ole	-8643
▁Add	-8644
▁rehabil	-8645
▁receives	-8646
▁promising	-8647
▁redistrib	-8648
▁destination	-8649
▁limitations	-8650
▁pornography	-8651
▁referendums	-8652
▁unus	-8653
enburg	-8654
▁possess	-8655
▁boundaries	-8656
▁reinforcing	-8657
iop	-8658
▁barb	-8659
▁intim	-8660
▁conven	-8661
▁cooperative	-8662
▁ingredients	-8663
▁technically	-8664
mes	-8665
▁stood	-8666
istance	-8667
▁contents	-8668
▁techniques	-8669
▁dw	-8670
▁UEN	-8671
▁Leon	-8672
ounced	-8673
▁CFP	-8674
▁love	-8675
▁habit	-8676
▁cigare	-8677
▁rescue	-8678
▁punished	-8679
▁participated	-8680
▁mainstreaming	-8681
.,	-8682
▁whe	-8683
▁Equal	-8684
▁sends	-8685
▁finished	-8686
▁shoulder	-8687
▁Personally	-8688
ossil	-8689
▁fairer	-8690
▁Euratom	-8691
▁municip	-8692
▁entirety	-8693
▁liberties	-8694
▁precondition	-8695
unte	-8696
athers	-8697
▁Three	-8698
▁opens	-8699
▁entrust	-8700
atch	-8701
reyer	-8702
▁cart	-8703
▁Customs	-8704
▁simpler	-8705
▁likewise	-8706
▁organisms	-8707
▁dil	-8708
▁lacks	-8709
▁revise	-8710
egoti	-8711
▁handle	-8712
▁mothers	-8713
▁clothing	-8714
▁benchmark	-8715
lez	-8716
▁Jew	-8717
elect	-8718
▁Title	-8719
▁Venez	-8720
▁ruled	-8721
iciencies	-8722
▁commerce	-8723
▁underlines	-8724
▁highlighting	-8725
▁%.	-8726
pring	-8727
▁prohibited	-8728
▁reputation	-8729
▁modes	-8730
balanced	-8731
▁pushing	-8732
▁insisted	-8733
▁professions	-8734
east	-8735
▁gold	-8736
▁rigid	-8737
▁roles	-8738
▁judged	-8739
▁lifting	-8740
burse	-8741
▁hect	-8742
▁breast	-8743
▁unrest	-8744
▁attempted	-8745
▁threatens	-8746
▁installations	-8747
oid	-8748
alan	-8749
▁box	-8750
atson	-8751
ulling	-8752
▁labor	-8753
▁storm	-8754
▁Venezuel	-8755
▁measured	-8756
▁mistaken	-8757
▁Azerbaijan	-8758
▁conducting	-8759
ump	-8760
ocation	-8761
▁silent	-8762
▁letters	-8763
▁settled	-8764
atibility	-8765
▁activists	-8766
ands	-8767
will	-8768
▁cab	-8769
▁Found	-8770
▁thera	-8771
ilation	-8772
▁Watson	-8773
▁missed	-8774
▁guiding	-8775
▁injured	-8776
▁destroying	-8777
▁excellence	-8778
▁MEDA	-8779
▁guided	-8780
▁entities	-8781
▁requesting	-8782
▁spot	-8783
▁indiff	-8784
▁revers	-8785
▁decrease	-8786
▁dismantling	-8787
itoring	-8788
▁viability	-8789
▁harmonising	-8790
▁Conservatives	-8791
▁eg	-8792
▁eco	-8793
▁Sark	-8794
▁confine	-8795
▁profile	-8796
▁advisory	-8797
▁protests	-8798
ibiot	-8799
pelled	-8800
▁shipy	-8801
▁fossil	-8802
regional	-8803
usterity	-8804
ibb	-8805
ratory	-8806
▁separately	-8807
▁disagreement	-8808
▁hoc	-8809
▁informing	-8810
▁psychological	-8811
▁film	-8812
▁nutr	-8813
▁Media	-8814
▁deemed	-8815
▁chapters	-8816
▁inherent	-8817
▁produces	-8818
▁pressures	-8819
▁relevance	-8820
▁accusations	-8821
▁Eng	-8822
▁Fran	-8823
▁shel	-8824
▁survey	-8825
▁refrain	-8826
▁touched	-8827
▁cautious	-8828
▁Bulgarian	-8829
inu	-8830
ndez	-8831
group	-8832
▁Good	-8833
▁loud	-8834
▁lands	-8835
▁wrote	-8836
▁opposing	-8837
▁ineffective	-8838
▁classification	-8839
▁transformation	-8840
▁na	-8841
iably	-8842
▁shif	-8843
▁hatred	-8844
▁Johannes	-8845
▁duration	-8846
▁spreading	-8847
far	-8848
▁austerity	-8849
▁confronted	-8850
ozy	-8851
▁Goth	-8852
▁choos	-8853
▁chose	-8854
▁marria	-8855
▁deplore	-8856
▁striking	-8857
oa	-8858
Rus	-8859
▁spon	-8860
▁Ethiop	-8861
▁suspicion	-8862
▁ridiculous	-8863
ho	-8864
▁Nie	-8865
space	-8866
▁sick	-8867
▁supplied	-8868
▁veterinary	-8869
▁discriminatory	-8870
▁diversification	-8871
▁jun	-8872
ander	-8873
▁unch	-8874
▁blocking	-8875
▁welcoming	-8876
▁distortion	-8877
▁globalised	-8878
ek	-8879
erred	-8880
▁precedence	-8881
▁appreciated	-8882
pled	-8883
▁upg	-8884
▁Sarkozy	-8885
▁allocate	-8886
▁identical	-8887
▁partially	-8888
emann	-8889
▁discrep	-8890
▁somewhere	-8891
cks	-8892
▁fix	-8893
▁Gulf	-8894
cultural	-8895
▁dominant	-8896
▁moderate	-8897
▁emphasising	-8898
▁wild	-8899
erential	-8900
▁attaches	-8901
▁exposure	-8902
▁altogether	-8903
▁Ref	-8904
▁cyn	-8905
▁bond	-8906
▁resid	-8907
idently	-8908
aculture	-8909
▁Ban	-8910
▁flaw	-8911
▁distr	-8912
▁prerog	-8913
▁Cambodia	-8914
▁enthusia	-8915
▁inability	-8916
▁parameters	-8917
▁Jar	-8918
inter	-8919
▁Erika	-8920
▁visits	-8921
▁Councils	-8922
▁prosecution	-8923
iban	-8924
icity	-8925
▁toll	-8926
▁Support	-8927
▁exemplary	-8928
▁formulate	-8929
▁replacing	-8930
▁thrust	-8931
▁venture	-8932
▁coexistence	-8933
NR	-8934
oyal	-8935
▁Naz	-8936
▁mostly	-8937
▁discret	-8938
▁globally	-8939
▁deepening	-8940
▁independently	-8941
▁Cost	-8942
▁weigh	-8943
reasing	-8944
▁repair	-8945
▁website	-8946
▁sentenced	-8947
▁precarious	-8948
rez	-8949
▁Ann	-8950
inery	-8951
▁Natura	-8952
▁outrage	-8953
▁Israelis	-8954
▁antibiot	-8955
▁applause	-8956
▁decommissioning	-8957
▁aer	-8958
▁Current	-8959
▁pattern	-8960
▁Gothenburg	-8961
▁perpetrators	-8962
yan	-8963
bled	-8964
▁Ang	-8965
▁ILO	-8966
▁sup	-8967
aunch	-8968
▁facto	-8969
▁relax	-8970
▁plenty	-8971
▁departure	-8972
▁Foundation	-8973
▁transposed	-8974
▁proliferation	-8975
▁Luk	-8976
▁presum	-8977
▁forcing	-8978
▁extradition	-8979
▁unrealistic	-8980
uzz	-8981
sofar	-8982
▁incin	-8983
▁reactors	-8984
▁asset	-8985
▁peripheral	-8986
▁anticipated	-8987
▁industrialised	-8988
ata	-8989
▁suit	-8990
▁intimid	-8991
asures	-8992
▁anyway	-8993
largement	-8994
▁innovations	-8995
▁prohibition	-8996
IC	-8997
hn	-8998
acity	-8999
▁reconcil	-9000
▁relaunch	-9001
▁processed	-9002
ET	-9003
▁fasc	-9004
▁pron	-9005
▁Wallstr	-9006
▁confined	-9007
▁internally	-9008
▁disappeared	-9009
▁incidentally	-9010
onym	-9011
▁Lom	-9012
▁Nic	-9013
▁airspace	-9014
▁outbreak	-9015
▁discretion	-9016
▁tur	-9017
rical	-9018
ibbean	-9019
▁schedule	-9020
▁additives	-9021
▁reconsider	-9022
add	-9023
▁tone	-9024
▁Reding	-9025
▁encomp	-9026
▁Maritime	-9027
▁EL	-9028
emen	-9029
▁Dis	-9030
cture	-9031
▁fill	-9032
▁suic	-9033
▁encompass	-9034
▁Pac	-9035
earing	-9036
▁looph	-9037
▁rigour	-9038
▁migratory	-9039
▁restoring	-9040
▁delivering	-9041
reb	-9042
▁dark	-9043
▁secured	-9044
▁typical	-9045
▁database	-9046
▁Mu	-9047
▁prevents	-9048
▁exercising	-9049
▁cultivation	-9050
▁safeguarded	-9051
▁preferential	-9052
▁John	-9053
▁fell	-9054
▁nice	-9055
▁Taliban	-9056
▁reorgan	-9057
▁confused	-9058
▁equipped	-9059
▁disadvantages	-9060
ica	-9061
lig	-9062
inded	-9063
▁lift	-9064
▁teams	-9065
▁capitalist	-9066
▁jeopardise	-9067
iki	-9068
▁Mo	-9069
sians	-9070
▁clash	-9071
▁Scient	-9072
▁deeper	-9073
rameworks	-9074
▁Slovenian	-9075
ral	-9076
▁evil	-9077
usalem	-9078
▁aston	-9079
rencies	-9080
▁Jerusalem	-9081
▁strongest	-9082
▁repressive	-9083
▁inspir	-9084
▁imbalance	-9085
▁accompanying	-9086
sighted	-9087
▁linking	-9088
▁exercised	-9089
▁assurances	-9090
▁currencies	-9091
▁unresolved	-9092
▁Johannesburg	-9093
▁exceptionally	-9094
yle	-9095
oral	-9096
▁chances	-9097
▁Lank	-9098
▁unqu	-9099
legisl	-9100
▁protein	-9101
▁unwilling	-9102
▁introduces	-9103
▁witnessing	-9104
OL	-9105
cin	-9106
commer	-9107
▁speedy	-9108
▁uncond	-9109
▁uncontro	-9110
▁paramount	-9111
▁Innovation	-9112
▁aggressive	-9113
▁Sri	-9114
▁nit	-9115
▁depos	-9116
▁invent	-9117
▁records	-9118
▁Dr	-9119
▁atroc	-9120
▁draws	-9121
▁olive	-9122
inistry	-9123
▁England	-9124
▁Eurojust	-9125
▁taxpayer	-9126
▁Monitoring	-9127
lers	-9128
▁Eff	-9129
▁Imm	-9130
▁Imp	-9131
▁sun	-9132
▁cash	-9133
through	-9134
▁mining	-9135
▁complying	-9136
▁expanding	-9137
▁motivated	-9138
▁harassment	-9139
ARE	-9140
▁PH	-9141
▁lived	-9142
▁restored	-9143
productive	-9144
▁permission	-9145
ouses	-9146
▁Form	-9147
▁gains	-9148
▁upheld	-9149
stically	-9150
▁exceeded	-9151
▁promptly	-9152
▁purchasing	-9153
▁signatures	-9154
DC	-9155
▁Bow	-9156
▁EDF	-9157
▁Pen	-9158
▁Jarz	-9159
▁assisting	-9160
▁privilege	-9161
▁compliment	-9162
▁dependency	-9163
▁submitting	-9164
▁aquaculture	-9165
▁replacement	-9166
▁exag	-9167
depend	-9168
▁abide	-9169
▁Jarzemb	-9170
▁enlarge	-9171
▁colonial	-9172
▁Caribbean	-9173
▁adjourned	-9174
▁eliminated	-9175
▁emphatically	-9176
▁investigated	-9177
comp	-9178
▁Nobody	-9179
▁salary	-9180
▁assumption	-9181
▁benefiting	-9182
▁endeavours	-9183
▁stipulates	-9184
▁Jac	-9185
▁drew	-9186
▁hind	-9187
▁advise	-9188
▁secretariat	-9189
ds	-9190
alus	-9191
▁occurs	-9192
▁pushed	-9193
▁resume	-9194
▁passion	-9195
▁Business	-9196
▁envisage	-9197
▁specialist	-9198
▁reciprocity	-9199
alon	-9200
▁Corb	-9201
icular	-9202
▁deple	-9203
▁maxim	-9204
▁wisdom	-9205
▁optimism	-9206
▁screening	-9207
auer	-9208
plan	-9209
urity	-9210
▁alive	-9211
forward	-9212
▁entity	-9213
▁splend	-9214
▁trials	-9215
▁livelihood	-9216
▁Jarzembowski	-9217
iro	-9218
lins	-9219
▁dub	-9220
essor	-9221
pical	-9222
▁bans	-9223
▁bran	-9224
▁encoun	-9225
▁militar	-9226
▁impressive	-9227
▁strengthens	-9228
▁incorporating	-9229
▁fan	-9230
▁Prof	-9231
▁pride	-9232
▁unite	-9233
▁Corbett	-9234
▁Erasmus	-9235
▁comfort	-9236
▁scourge	-9237
▁academic	-9238
▁divisions	-9239
▁frameworks	-9240
▁unification	-9241
▁presidencies	-9242
ella	-9243
imer	-9244
▁regain	-9245
▁wasted	-9246
▁gaining	-9247
▁maintains	-9248
▁creativity	-9249
▁understands	-9250
▁duly	-9251
▁ease	-9252
▁conserv	-9253
▁Approval	-9254
▁relocation	-9255
elt	-9256
▁neo	-9257
▁Sund	-9258
▁Very	-9259
▁Oomen	-9260
▁humane	-9261
AO	-9262
outs	-9263
serv	-9264
▁Men	-9265
tered	-9266
▁Somalia	-9267
▁courses	-9268
▁volunte	-9269
▁benefited	-9270
▁afterwards	-9271
▁rot	-9272
▁rum	-9273
▁enact	-9274
▁owing	-9275
▁Unless	-9276
▁obstruct	-9277
▁affordable	-9278
▁Environmental	-9279
mn	-9280
▁kid	-9281
anian	-9282
▁decides	-9283
▁Japanese	-9284
▁hygi	-9285
▁tact	-9286
forest	-9287
▁Vitor	-9288
oriented	-9289
roducing	-9290
▁insofar	-9291
▁margins	-9292
▁servants	-9293
▁sporting	-9294
▁judgement	-9295
▁trialogue	-9296
▁deliberate	-9297
▁oppression	-9298
▁deficiencies	-9299
Ru	-9300
▁TV	-9301
archy	-9302
month	-9303
speed	-9304
▁inex	-9305
▁boats	-9306
▁street	-9307
▁barrier	-9308
▁modernise	-9309
▁nons	-9310
▁mouth	-9311
▁circle	-9312
▁dollar	-9313
▁vessel	-9314
▁Nothing	-9315
▁utterly	-9316
▁splendid	-9317
▁simultaneously	-9318
▁UC	-9319
▁COM	-9320
▁List	-9321
▁star	-9322
▁overr	-9323
▁Nuclear	-9324
▁fairness	-9325
▁injustice	-9326
lah	-9327
orthy	-9328
▁PHARE	-9329
▁alike	-9330
▁Besides	-9331
▁suggesting	-9332
ctu	-9333
iam	-9334
tar	-9335
▁sanction	-9336
des	-9337
omin	-9338
undi	-9339
▁Cath	-9340
▁Sahara	-9341
▁thrown	-9342
▁Ferrero	-9343
▁summits	-9344
▁inspired	-9345
▁obligatory	-9346
tail	-9347
▁Kaz	-9348
▁cry	-9349
anium	-9350
▁drag	-9351
▁spare	-9352
▁houses	-9353
▁racist	-9354
▁phenomena	-9355
▁prosperous	-9356
▁description	-9357
bus	-9358
▁EGF	-9359
▁Ren	-9360
arters	-9361
taking	-9362
▁unlikely	-9363
▁standardisation	-9364
▁Int	-9365
▁Agree	-9366
▁Games	-9367
▁cards	-9368
▁emergence	-9369
ubb	-9370
▁bab	-9371
▁Lang	-9372
uty	-9373
East	-9374
Ruij	-9375
rence	-9376
▁Prov	-9377
▁successive	-9378
▁?	-9379
▁CE	-9380
Ruijten	-9381
▁weaker	-9382
▁Vitorino	-9383
▁managers	-9384
▁anticipate	-9385
▁restoration	-9386
hor	-9387
▁SA	-9388
istr	-9389
ongue	-9390
▁ASEAN	-9391
▁tells	-9392
▁machinery	-9393
▁deployment	-9394
▁rehabilitation	-9395
jo	-9396
▁fed	-9397
backs	-9398
▁thirty	-9399
▁evaluating	-9400
▁overcoming	-9401
▁straightforward	-9402
uy	-9403
ested	-9404
pling	-9405
▁stimul	-9406
▁updated	-9407
▁coverage	-9408
▁recruitment	-9409
▁Vol	-9410
ogues	-9411
▁acknowledges	-9412
▁decentralised	-9413
rig	-9414
ifice	-9415
▁tank	-9416
▁damaged	-9417
aldner	-9418
▁popul	-9419
▁waiver	-9420
▁vigorously	-9421
▁approaching	-9422
▁settlements	-9423
▁occupational	-9424
▁shipbuilding	-9425
agh	-9426
▁Fra	-9427
▁Lukash	-9428
▁Spring	-9429
▁Armenia	-9430
▁channel	-9431
▁pricing	-9432
▁redress	-9433
▁Agreements	-9434
▁imprisoned	-9435
▁imperialist	-9436
▁vaccination	-9437
▁dramatically	-9438
astic	-9439
▁begins	-9440
▁Cypriot	-9441
▁radiation	-9442
▁protectionist	-9443
mo	-9444
▁Jun	-9445
scept	-9446
▁evol	-9447
ikanen	-9448
▁lifted	-9449
▁classes	-9450
▁democrats	-9451
▁neglected	-9452
▁cornerstone	-9453
edge	-9454
ogen	-9455
▁blat	-9456
▁pure	-9457
▁Scott	-9458
▁adults	-9459
▁orders	-9460
▁Pacific	-9461
▁uranium	-9462
▁Liikanen	-9463
▁incredibly	-9464
▁individually	-9465
▁Cap	-9466
▁Chad	-9467
▁risen	-9468
▁lawyer	-9469
▁evaluated	-9470
▁evolution	-9471
▁politician	-9472
bul	-9473
fold	-9474
▁sym	-9475
rogen	-9476
oultry	-9477
▁scene	-9478
▁prolong	-9479
▁formation	-9480
▁assistants	-9481
▁Governments	-9482
tw	-9483
zing	-9484
▁award	-9485
▁Annual	-9486
▁transpl	-9487
▁Sometimes	-9488
▁smuggling	-9489
▁Regulations	-9490
olic	-9491
▁Cohn	-9492
Bendit	-9493
person	-9494
▁TACIS	-9495
▁prize	-9496
quarters	-9497
▁ignoring	-9498
▁selected	-9499
▁workable	-9500
▁conversion	-9501
▁catastrophe	-9502
▁fundamentalism	-9503
▁Off	-9504
▁Along	-9505
▁rough	-9506
▁hidden	-9507
▁virtue	-9508
▁intensify	-9509
▁Lukashenko	-9510
▁allegations	-9511
As	-9512
▁asc	-9513
▁swe	-9514
▁Lehne	-9515
▁Sixth	-9516
▁dread	-9517
▁licens	-9518
▁consulting	-9519
▁unjustified	-9520
Is	-9521
▁ELDR	-9522
▁saved	-9523
Waldner	-9524
▁checked	-9525
▁navigation	-9526
▁challenging	-9527
▁dies	-9528
▁portf	-9529
lusconi	-9530
▁League	-9531
▁neglig	-9532
▁multiple	-9533
▁dominated	-9534
▁signature	-9535
▁abolishing	-9536
bek	-9537
artet	-9538
▁repeal	-9539
▁salmon	-9540
▁Russians	-9541
▁goodwill	-9542
▁nationalism	-9543
ny	-9544
ller	-9545
ooked	-9546
▁tail	-9547
▁frustr	-9548
▁completing	-9549
arbon	-9550
▁quiet	-9551
▁Berlusconi	-9552
▁Dec	-9553
▁ECO	-9554
▁unex	-9555
Russia	-9556
▁codes	-9557
▁discl	-9558
▁transported	-9559
usp	-9560
ivable	-9561
owners	-9562
▁corrid	-9563
▁deport	-9564
▁Workers	-9565
▁specify	-9566
▁Progress	-9567
▁contempt	-9568
▁beautiful	-9569
▁perceived	-9570
▁millennium	-9571
elson	-9572
▁horm	-9573
▁page	-9574
▁poultry	-9575
▁trained	-9576
▁stipulated	-9577
omic	-9578
▁Jos	-9579
compl	-9580
▁fees	-9581
▁Socrates	-9582
▁observer	-9583
▁forgetting	-9584
▁reasonably	-9585
hm	-9586
een	-9587
▁cas	-9588
▁Drug	-9589
iments	-9590
looking	-9591
▁ethics	-9592
▁concerted	-9593
▁advocating	-9594
▁permanently	-9595
alin	-9596
date	-9597
▁Cres	-9598
▁abund	-9599
▁dying	-9600
▁devices	-9601
▁expects	-9602
▁shameful	-9603
▁backwards	-9604
▁retention	-9605
▁disturbing	-9606
▁vegetables	-9607
▁authoritarian	-9608
▁consolidating	-9609
);	-9610
lims	-9611
cific	-9612
▁align	-9613
▁seize	-9614
▁forefront	-9615
▁suspected	-9616
▁GSP	-9617
▁ash	-9618
▁geopol	-9619
▁hygiene	-9620
▁restrain	-9621
▁unreason	-9622
phe	-9623
mese	-9624
oure	-9625
utory	-9626
▁Costa	-9627
▁fines	-9628
▁condol	-9629
▁kilometres	-9630
▁reiterated	-9631
ih	-9632
▁EF	-9633
▁Op	-9634
▁Taj	-9635
andum	-9636
▁crop	-9637
orandum	-9638
▁counting	-9639
▁occurring	-9640
▁experiment	-9641
▁Enlargement	-9642
SA	-9643
seas	-9644
rated	-9645
▁flying	-9646
▁intent	-9647
▁piracy	-9648
▁dubious	-9649
▁gallery	-9650
▁crossing	-9651
▁Sev	-9652
ivate	-9653
▁Thess	-9654
▁Sunday	-9655
▁preserved	-9656
▁explaining	-9657
▁journalist	-9658
chi	-9659
▁eve	-9660
▁hun	-9661
▁alert	-9662
▁harder	-9663
▁starts	-9664
▁anxious	-9665
▁treating	-9666
▁exporting	-9667
onz	-9668
gain	-9669
namo	-9670
prin	-9671
osure	-9672
ounds	-9673
▁Mann	-9674
ocolate	-9675
▁Langen	-9676
▁cereals	-9677
▁assuming	-9678
▁stepping	-9679
▁undermines	-9680
▁Uz	-9681
▁Burmese	-9682
▁congest	-9683
▁striving	-9684
▁contradictions	-9685
▁bur	-9686
▁Made	-9687
▁biom	-9688
▁Maurit	-9689
▁Opport	-9690
▁handic	-9691
▁Tibetan	-9692
▁holiday	-9693
▁claiming	-9694
▁communaut	-9695
▁multilingual	-9696
▁notification	-9697
▁Aid	-9698
▁haul	-9699
▁heat	-9700
orries	-9701
▁rejects	-9702
▁overview	-9703
▁competing	-9704
▁confirmation	-9705
pire	-9706
▁unden	-9707
▁weather	-9708
▁incurred	-9709
▁centralised	-9710
ym	-9711
lements	-9712
▁gambling	-9713
▁Thessalon	-9714
▁vegetable	-9715
▁Scientific	-9716
▁fortunately	-9717
chet	-9718
suff	-9719
▁hur	-9720
▁Exec	-9721
ighter	-9722
▁turns	-9723
▁Korean	-9724
▁ambigu	-9725
▁urging	-9726
▁replied	-9727
▁studied	-9728
▁repeating	-9729
▁applicants	-9730
made	-9731
▁bee	-9732
▁camp	-9733
▁fool	-9734
▁categor	-9735
▁Australia	-9736
▁corrected	-9737
recy	-9738
▁Pan	-9739
▁bid	-9740
▁flee	-9741
▁unst	-9742
▁arrog	-9743
▁assass	-9744
▁elabor	-9745
▁validity	-9746
▁Consumers	-9747
▁incredible	-9748
▁breakthrough	-9749
▁imprisonment	-9750
▁communautaire	-9751
▁au	-9752
ager	-9753
grow	-9754
▁wal	-9755
▁Uzbek	-9756
▁timing	-9757
asse	-9758
ingly	-9759
liberal	-9760
▁scarcely	-9761
▁alleviate	-9762
▁Agricultural	-9763
▁hab	-9764
▁pull	-9765
▁Water	-9766
▁chaos	-9767
▁mitig	-9768
▁virus	-9769
▁liable	-9770
▁catches	-9771
▁deadlock	-9772
▁deployed	-9773
▁expanded	-9774
▁frontier	-9775
▁eradication	-9776
▁stimulating	-9777
TS	-9778
▁Lamy	-9779
▁Shar	-9780
imated	-9781
▁window	-9782
oliberal	-9783
▁carries	-9784
▁reinteg	-9785
▁surface	-9786
▁Accession	-9787
▁Initiative	-9788
▁provisional	-9789
▁unambiguous	-9790
eh	-9791
aval	-9792
irac	-9793
▁havens	-9794
ressions	-9795
▁drought	-9796
▁mergers	-9797
▁analysed	-9798
▁guardian	-9799
▁shocking	-9800
▁legislate	-9801
▁lobbyists	-9802
▁legislators	-9803
▁transferring	-9804
Pl	-9805
▁horr	-9806
minded	-9807
ountered	-9808
▁Harbour	-9809
▁lorries	-9810
▁communist	-9811
▁radically	-9812
▁encountered	-9813
▁unilaterally	-9814
wa	-9815
fat	-9816
uis	-9817
alys	-9818
▁PNR	-9819
▁Trib	-9820
orking	-9821
▁Schmid	-9822
▁theore	-9823
▁gesture	-9824
▁Scottish	-9825
▁weakened	-9826
▁prevailing	-9827
▁contractual	-9828
▁Opportunities	-9829
py	-9830
reet	-9831
▁fab	-9832
eline	-9833
▁Have	-9834
▁Viol	-9835
▁Deleg	-9836
▁remun	-9837
ubercul	-9838
▁timber	-9839
▁detained	-9840
▁pointless	-9841
▁hypocritical	-9842
▁modification	-9843
Am	-9844
ijk	-9845
voy	-9846
rine	-9847
▁rush	-9848
▁ultra	-9849
▁proving	-9850
▁epidemic	-9851
▁reserved	-9852
▁underway	-9853
uberculosis	-9854
▁Particular	-9855
▁capitalism	-9856
map	-9857
mun	-9858
ora	-9859
▁barely	-9860
▁spokes	-9861
▁damages	-9862
▁failures	-9863
arth	-9864
▁Gonz	-9865
▁rape	-9866
▁rend	-9867
▁vice	-9868
▁Taking	-9869
▁poorly	-9870
▁replies	-9871
▁serving	-9872
▁Whatever	-9873
unctioning	-9874
▁prominent	-9875
▁visibility	-9876
▁connections	-9877
▁Thessaloniki	-9878
▁compatibility	-9879
▁hol	-9880
▁rock	-9881
▁volat	-9882
ittings	-9883
▁predom	-9884
▁Muslims	-9885
▁internet	-9886
▁eradicate	-9887
▁Ken	-9888
▁pup	-9889
▁sharp	-9890
▁arrival	-9891
▁Bangemann	-9892
▁allowance	-9893
▁stressing	-9894
▁neoliberal	-9895
▁substitute	-9896
ias	-9897
taine	-9898
▁reim	-9899
▁Stand	-9900
▁desert	-9901
▁appeals	-9902
▁mankind	-9903
▁occupying	-9904
▁calculated	-9905
▁enormously	-9906
oping	-9907
▁Mult	-9908
▁bath	-9909
▁Instru	-9910
▁attacked	-9911
▁ascertain	-9912
▁clarifying	-9913
▁convictions	-9914
apsed	-9915
ontaine	-9916
▁unknown	-9917
▁postponement	-9918
▁accessibility	-9919
▁pock	-9920
ometric	-9921
▁honesty	-9922
bursement	-9923
▁Ministry	-9924
▁comparative	-9925
amped	-9926
▁adds	-9927
lander	-9928
ologies	-9929
▁Crespo	-9930
▁taught	-9931
▁readiness	-9932
▁accelerate	-9933
weg	-9934
▁ER	-9935
▁Rehn	-9936
▁dece	-9937
▁male	-9938
ulsion	-9939
▁driver	-9940
▁phasing	-9941
▁improves	-9942
▁tourists	-9943
▁traffick	-9944
▁translate	-9945
▁counterfeit	-9946
▁Rw	-9947
fund	-9948
hardt	-9949
▁bloc	-9950
▁wines	-9951
▁Madeira	-9952
▁Network	-9953
▁secrecy	-9954
▁Executive	-9955
▁Professor	-9956
▁analysing	-9957
▁Everything	-9958
▁committing	-9959
▁proceeding	-9960
▁proportionate	-9961
▁Sil	-9962
▁une	-9963
▁Mont	-9964
▁blocks	-9965
▁legality	-9966
▁packages	-9967
▁celebrate	-9968
ester	-9969
uartet	-9970
▁Swiss	-9971
▁lever	-9972
inating	-9973
▁Change	-9974
▁temper	-9975
▁bargain	-9976
▁derived	-9977
▁slavery	-9978
ssen	-9979
class	-9980
pheres	-9981
▁Serbs	-9982
quiries	-9983
▁Kazakh	-9984
▁subord	-9985
▁executions	-9986
▁imposition	-9987
▁illustrates	-9988
▁questionable	-9989
lem	-9990
ulph	-9991
▁quo	-9992
▁forb	-9993
▁loan	-9994
▁director	-9995
▁reviewing	-9996
▁aggression	-9997
▁shareholders	-9998
oni	-9999
pes	-10000
▁Right	-10001
▁river	-10002
▁sorts	-10003
▁capita	-10004
▁quoted	-10005
▁distant	-10006
▁refunds	-10007
ologically	-10008
▁Venezuela	-10009
▁admission	-10010
aped	-10011
▁defeat	-10012
▁herself	-10013
▁passive	-10014
▁unusual	-10015
▁quarters	-10016
▁diagnosis	-10017
▁Which	-10018
▁synth	-10019
▁equity	-10020
▁lastly	-10021
▁voiced	-10022
▁fathers	-10023
▁estimate	-10024
▁exported	-10025
▁ecosystems	-10026
▁architecture	-10027
aul	-10028
▁Bo	-10029
▁tries	-10030
▁behave	-10031
▁suicide	-10032
istically	-10033
cott	-10034
▁batter	-10035
▁fabric	-10036
▁farmer	-10037
▁denying	-10038
▁chocolate	-10039
▁insisting	-10040
dor	-10041
comes	-10042
▁Comb	-10043
▁Sadly	-10044
▁violate	-10045
regulated	-10046
▁countless	-10047
▁perception	-10048
TE	-10049
DEM	-10050
▁lev	-10051
mouth	-10052
redit	-10053
▁burn	-10054
assador	-10055
▁embark	-10056
▁pretty	-10057
▁Jacques	-10058
▁extract	-10059
▁watching	-10060
▁supportive	-10061
nesty	-10062
▁slog	-10063
▁ratio	-10064
embered	-10065
▁barbar	-10066
▁artists	-10067
▁commodity	-10068
▁confidentiality	-10069
oms	-10070
▁fro	-10071
▁thr	-10072
rupted	-10073
▁Refuge	-10074
▁Sharon	-10075
▁denounce	-10076
▁honestly	-10077
▁proclaim	-10078
▁readmission	-10079
▁lia	-10080
sters	-10081
▁smart	-10082
▁tunnel	-10083
▁Section	-10084
▁standpoint	-10085
▁intolerance	-10086
▁perpetrated	-10087
▁reliability	-10088
▁undemocratic	-10089
▁IV	-10090
exam	-10091
▁Ben	-10092
▁indicating	-10093
▁condolences	-10094
▁Vel	-10095
▁pool	-10096
ptions	-10097
▁forming	-10098
▁repatri	-10099
▁roadmap	-10100
▁patience	-10101
▁coordinator	-10102
▁IND	-10103
▁Nep	-10104
minute	-10105
▁economics	-10106
▁eligibility	-10107
▁geopolitical	-10108
▁peacekeeping	-10109
▁Barrot	-10110
▁adopts	-10111
▁milest	-10112
▁protects	-10113
▁blackmail	-10114
▁offensive	-10115
▁antibiotics	-10116
▁transaction	-10117
▁Administration	-10118
▁Ul	-10119
atur	-10120
life	-10121
vert	-10122
▁Nap	-10123
▁Malm	-10124
▁kidn	-10125
▁Rober	-10126
▁intra	-10127
intensive	-10128
▁extremism	-10129
▁counterparts	-10130
zio	-10131
▁Kurds	-10132
▁infect	-10133
▁secular	-10134
▁earliest	-10135
▁persecuted	-10136
proliferation	-10137
inet	-10138
▁favours	-10139
▁worries	-10140
▁desperate	-10141
▁renational	-10142
▁Sant	-10143
▁medi	-10144
iances	-10145
▁opted	-10146
▁trains	-10147
▁credits	-10148
▁favoured	-10149
▁imminent	-10150
▁hospitals	-10151
▁weakening	-10152
▁incorporation	-10153
Af	-10154
oned	-10155
ocial	-10156
▁decou	-10157
▁refuses	-10158
▁overlook	-10159
▁defenders	-10160
▁sceptical	-10161
▁remembered	-10162
▁responsibly	-10163
▁dissemination	-10164
step	-10165
▁TEN	-10166
erers	-10167
▁Carl	-10168
▁tune	-10169
▁Categ	-10170
▁tender	-10171
▁symbols	-10172
▁prohibit	-10173
bo	-10174
▁%,	-10175
▁Dal	-10176
▁Cross	-10177
ilities	-10178
▁fluctu	-10179
▁excluding	-10180
▁approached	-10181
▁designated	-10182
▁concentrating	-10183
party	-10184
ignific	-10185
▁nowhere	-10186
▁reveals	-10187
apporteur	-10188
▁visiting	-10189
▁um	-10190
stad	-10191
▁Kal	-10192
▁Alger	-10193
▁flour	-10194
▁pages	-10195
▁persistent	-10196
▁preferable	-10197
▁collectively	-10198
▁underestimate	-10199
SL	-10200
cup	-10201
reas	-10202
otive	-10203
▁Nepal	-10204
▁pieces	-10205
▁extends	-10206
▁lagging	-10207
▁revising	-10208
▁biometric	-10209
airo	-10210
▁coup	-10211
▁panel	-10212
▁humans	-10213
▁Ethiopia	-10214
▁annually	-10215
▁extremists	-10216
▁regulators	-10217
▁Competition	-10218
war	-10219
tries	-10220
▁Alex	-10221
▁pand	-10222
orship	-10223
▁Angola	-10224
▁embryos	-10225
▁somehow	-10226
▁Fontaine	-10227
▁honoured	-10228
▁lobbying	-10229
▁thematic	-10230
▁visitors	-10231
▁embarrass	-10232
▁indicative	-10233
▁methodology	-10234
▁distinguished	-10235
▁fly	-10236
▁growers	-10237
▁onwards	-10238
▁shocked	-10239
▁councils	-10240
▁illustrate	-10241
cean	-10242
ford	-10243
adesh	-10244
upper	-10245
▁ausp	-10246
▁brain	-10247
▁reint	-10248
▁store	-10249
ructive	-10250
▁labels	-10251
▁ceasefire	-10252
▁mortality	-10253
▁regrettably	-10254
▁specialised	-10255
▁unequivocal	-10256
atz	-10257
eal	-10258
reevy	-10259
stadt	-10260
▁Anti	-10261
ladesh	-10262
▁David	-10263
▁recur	-10264
▁harmony	-10265
▁lending	-10266
▁Children	-10267
▁employee	-10268
▁capability	-10269
withstanding	-10270
ao	-10271
uts	-10272
zhe	-10273
inen	-10274
▁bol	-10275
▁Prosec	-10276
▁abused	-10277
▁engines	-10278
▁reminds	-10279
▁shaping	-10280
▁donation	-10281
▁overseas	-10282
▁sessions	-10283
▁Technology	-10284
ja	-10285
▁Lanka	-10286
▁sixth	-10287
▁lesser	-10288
▁moments	-10289
▁tragedies	-10290
▁Delegation	-10291
▁engineering	-10292
▁unreasonable	-10293
▁Ed	-10294
▁Move	-10295
▁Niels	-10296
▁syner	-10297
▁deleted	-10298
▁impacts	-10299
▁stepped	-10300
▁vigorous	-10301
▁Bangladesh	-10302
big	-10303
haz	-10304
nez	-10305
▁dog	-10306
▁Annan	-10307
▁Stalin	-10308
▁bought	-10309
▁Seville	-10310
▁dollars	-10311
▁unequal	-10312
▁equitable	-10313
▁factories	-10314
▁religions	-10315
▁influenced	-10316
Ps	-10317
best	-10318
▁unt	-10319
orable	-10320
rection	-10321
zheimer	-10322
▁McCreevy	-10323
▁headings	-10324
▁warnings	-10325
▁shipyards	-10326
▁stabilise	-10327
hips	-10328
idal	-10329
▁ICT	-10330
▁Frank	-10331
▁boosting	-10332
▁somebody	-10333
▁struggling	-10334
IFE	-10335
▁coff	-10336
▁arrests	-10337
▁revital	-10338
▁dreadful	-10339
▁updating	-10340
▁resolutely	-10341
gage	-10342
▁cum	-10343
▁cure	-10344
▁dial	-10345
▁unav	-10346
▁loyal	-10347
▁repro	-10348
▁Bonino	-10349
▁misuse	-10350
▁reacted	-10351
▁balances	-10352
▁Alzheimer	-10353
▁frustration	-10354
▁investigating	-10355
ardo	-10356
▁tied	-10357
▁brave	-10358
▁Delors	-10359
Community	-10360
▁Florence	-10361
▁unreserved	-10362
dis	-10363
agon	-10364
Afric	-10365
▁clim	-10366
▁feet	-10367
▁craft	-10368
▁undes	-10369
▁unlaw	-10370
▁advent	-10371
▁borrow	-10372
▁Malmstr	-10373
▁shorter	-10374
▁weakest	-10375
▁nowadays	-10376
col	-10377
ede	-10378
rav	-10379
▁divor	-10380
▁poison	-10381
▁migrant	-10382
▁predomin	-10383
▁performed	-10384
▁Instrument	-10385
▁congestion	-10386
CC	-10387
due	-10388
aten	-10389
▁GAT	-10390
▁backd	-10391
▁bombs	-10392
▁themes	-10393
▁Applause	-10394
▁checking	-10395
▁flooding	-10396
▁stimulus	-10397
▁reflecting	-10398
iel	-10399
▁Diam	-10400
▁fatal	-10401
▁commem	-10402
▁biomass	-10403
▁vaccines	-10404
▁supposedly	-10405
ords	-10406
▁Ath	-10407
▁keeps	-10408
▁counts	-10409
▁nonsense	-10410
▁resident	-10411
▁sittings	-10412
employment	-10413
▁Dimension	-10414
▁interdepend	-10415
▁contaminated	-10416
lete	-10417
trade	-10418
▁Garc	-10419
▁semin	-10420
restige	-10421
▁father	-10422
▁explore	-10423
▁Cypriots	-10424
▁collecting	-10425
▁limitation	-10426
▁groundwater	-10427
▁catastrophic	-10428
▁organisational	-10429
▁Bay	-10430
▁Cox	-10431
sided	-10432
▁None	-10433
▁arena	-10434
▁Medina	-10435
▁tempor	-10436
▁outlook	-10437
▁Category	-10438
▁charging	-10439
▁choosing	-10440
▁engaging	-10441
▁attending	-10442
▁mediation	-10443
▁sacrifice	-10444
▁commendable	-10445
IM	-10446
▁WHO	-10447
▁cot	-10448
▁hier	-10449
▁meal	-10450
gically	-10451
▁advised	-10452
▁hostage	-10453
▁institute	-10454
▁backs	-10455
▁Argent	-10456
▁breeding	-10457
▁controversy	-10458
ects	-10459
sted	-10460
stein	-10461
▁heed	-10462
▁west	-10463
▁Arafat	-10464
▁Azores	-10465
terrorism	-10466
▁dissatisf	-10467
▁selective	-10468
▁neutrality	-10469
▁protective	-10470
▁predecessor	-10471
ogau	-10472
▁Jord	-10473
▁Saud	-10474
▁Wogau	-10475
▁sulph	-10476
▁upper	-10477
▁verify	-10478
iological	-10479
▁preconditions	-10480
EF	-10481
▁ep	-10482
▁enemy	-10483
▁devise	-10484
▁enters	-10485
▁defines	-10486
▁reduces	-10487
▁minimise	-10488
generation	-10489
isa	-10490
orily	-10491
▁fant	-10492
▁drift	-10493
▁urges	-10494
▁Superv	-10495
▁Velzen	-10496
▁rarely	-10497
▁corrupt	-10498
▁Kazakhstan	-10499
▁experiments	-10500
▁formulation	-10501
▁traditionally	-10502
▁Fe	-10503
▁Roc	-10504
▁sle	-10505
▁aids	-10506
estion	-10507
▁birds	-10508
▁childcare	-10509
▁renewables	-10510
▁submission	-10511
▁temptation	-10512
▁personality	-10513
▁instructions	-10514
aside	-10515
▁Guid	-10516
▁afore	-10517
▁grasp	-10518
▁misery	-10519
▁render	-10520
▁lifesty	-10521
▁spectac	-10522
▁spheres	-10523
▁Management	-10524
▁electrical	-10525
lla	-10526
olf	-10527
▁Byr	-10528
▁Sir	-10529
▁Cast	-10530
▁libr	-10531
▁Polit	-10532
▁games	-10533
opoulos	-10534
▁Lulling	-10535
▁harvest	-10536
▁inflict	-10537
▁dealings	-10538
▁subscribe	-10539
▁legislator	-10540
▁duplication	-10541
▁facilitation	-10542
▁verification	-10543
▁Rev	-10544
▁music	-10545
▁stret	-10546
▁exagger	-10547
▁Belgrade	-10548
▁auspices	-10549
▁foreseen	-10550
▁breakdown	-10551
▁displayed	-10552
▁illnesses	-10553
▁licensing	-10554
▁classified	-10555
▁overlooked	-10556
▁contracting	-10557
▁interaction	-10558
▁uncontrolled	-10559
AIDS	-10560
icia	-10561
oking	-10562
▁Oost	-10563
▁clubs	-10564
▁rebuild	-10565
▁assigned	-10566
▁feasibility	-10567
plete	-10568
▁nurs	-10569
▁Byrne	-10570
▁ozone	-10571
ilitary	-10572
▁eating	-10573
forestation	-10574
▁Belarusian	-10575
▁legislature	-10576
iqu	-10577
▁km	-10578
▁Bud	-10579
▁GNP	-10580
ached	-10581
▁LIFE	-10582
▁Merkel	-10583
▁attent	-10584
▁varied	-10585
▁Countries	-10586
▁generating	-10587
▁privileges	-10588
▁certificates	-10589
paid	-10590
▁sid	-10591
▁Chech	-10592
▁deeds	-10593
▁detect	-10594
▁verdict	-10595
▁accorded	-10596
▁conformity	-10597
BG	-10598
▁reads	-10599
▁revol	-10600
▁suited	-10601
▁Looking	-10602
▁arguing	-10603
▁factory	-10604
▁dynamism	-10605
▁revenues	-10606
▁smoothly	-10607
▁Mandelson	-10608
▁Oostlander	-10609
▁allocating	-10610
▁atrocities	-10611
▁congratulated	-10612
▁coc	-10613
▁Bour	-10614
ologne	-10615
▁elite	-10616
▁deploy	-10617
▁command	-10618
▁realisation	-10619
▁tuberculosis	-10620
▁fragmentation	-10621
INI	-10622
cut	-10623
oses	-10624
osity	-10625
vency	-10626
▁rain	-10627
▁seed	-10628
rators	-10629
▁Saudi	-10630
▁Cologne	-10631
▁adhered	-10632
▁student	-10633
▁condemns	-10634
▁explains	-10635
▁villages	-10636
▁entrusted	-10637
▁fostering	-10638
▁landscape	-10639
▁inconsistent	-10640
CR	-10641
brid	-10642
▁Pra	-10643
▁alia	-10644
▁diet	-10645
▁eleven	-10646
▁fortun	-10647
▁readily	-10648
▁realize	-10649
▁Tribunal	-10650
▁broadband	-10651
▁measuring	-10652
▁desperately	-10653
▁negotiators	-10654
▁interpreters	-10655
▁confrontation	-10656
▁aforementioned	-10657
lining	-10658
▁Impro	-10659
▁cotton	-10660
▁invasion	-10661
▁premiums	-10662
▁calculation	-10663
▁Jud	-10664
ensen	-10665
▁Mulder	-10666
▁petrol	-10667
ightened	-10668
▁Society	-10669
▁statutory	-10670
▁admittedly	-10671
▁decisively	-10672
▁pollutants	-10673
▁thresholds	-10674
▁convenience	-10675
▁manufactured	-10676
▁unequivocally	-10677
sun	-10678
otti	-10679
▁Kla	-10680
▁fifty	-10681
▁interl	-10682
iscrimin	-10683
▁endorses	-10684
▁province	-10685
▁referenda	-10686
▁Uzbekistan	-10687
▁headquarters	-10688
bet	-10689
rea	-10690
ste	-10691
▁EPP	-10692
▁fru	-10693
▁ice	-10694
▁Germ	-10695
▁stone	-10696
taining	-10697
▁concur	-10698
▁Equally	-10699
▁Inquiry	-10700
▁Rothley	-10701
▁besides	-10702
▁arriving	-10703
▁Obama	-10704
▁maize	-10705
▁accede	-10706
▁Poverty	-10707
▁Recently	-10708
▁inhumane	-10709
▁passports	-10710
▁exploiting	-10711
▁disappearance	-10712
▁ju	-10713
▁Pie	-10714
▁Need	-10715
▁Legisl	-10716
contract	-10717
▁Galicia	-10718
▁seconds	-10719
▁Prestige	-10720
We	-10721
agu	-10722
bol	-10723
▁fur	-10724
solete	-10725
▁Elect	-10726
▁stagn	-10727
▁aggrav	-10728
▁hearts	-10729
▁operator	-10730
▁reciprocal	-10731
▁temporarily	-10732
▁prerogatives	-10733
▁dictatorships	-10734
▁Rio	-10735
▁Post	-10736
▁anch	-10737
▁reset	-10738
▁Robert	-10739
▁legacy	-10740
▁potato	-10741
▁locally	-10742
▁regrets	-10743
identally	-10744
▁responds	-10745
oty	-10746
roducts	-10747
▁warned	-10748
▁Moroccan	-10749
▁civilised	-10750
▁objectively	-10751
▁documentation	-10752
▁unconditional	-10753
otic	-10754
▁Mod	-10755
apped	-10756
stedt	-10757
▁ster	-10758
▁Former	-10759
▁Voting	-10760
▁diesel	-10761
▁images	-10762
▁dischar	-10763
▁mineral	-10764
▁traders	-10765
▁employer	-10766
▁finalised	-10767
▁socialists	-10768
▁specifications	-10769
RC	-10770
▁Gh	-10771
tlement	-10772
▁influx	-10773
▁offset	-10774
▁troubl	-10775
▁speeding	-10776
▁speculative	-10777
▁ax	-10778
ests	-10779
▁Cas	-10780
▁Ext	-10781
▁cite	-10782
▁obsc	-10783
▁vers	-10784
▁smoke	-10785
▁Church	-10786
▁ballot	-10787
▁delete	-10788
▁Measures	-10789
▁obsolete	-10790
▁fulfilment	-10791
▁-,	-10792
rendt	-10793
▁Rand	-10794
▁drain	-10795
▁doctor	-10796
▁labelled	-10797
▁Implement	-10798
▁combining	-10799
▁forwarded	-10800
▁worsening	-10801
▁continents	-10802
▁resignation	-10803
cap	-10804
▁sn	-10805
five	-10806
▁carcin	-10807
▁Overall	-10808
▁tighten	-10809
▁loopholes	-10810
▁Prosecutor	-10811
▁manufacturer	-10812
▁Du	-10813
▁Lama	-10814
▁ally	-10815
▁nets	-10816
▁Evans	-10817
▁bread	-10818
▁overs	-10819
▁spons	-10820
▁sympt	-10821
ounding	-10822
▁cataly	-10823
▁younger	-10824
▁Currently	-10825
▁disgraceful	-10826
Her	-10827
ham	-10828
case	-10829
▁Don	-10830
first	-10831
▁seaf	-10832
uccess	-10833
continu	-10834
inarily	-10835
▁Canary	-10836
▁Algerian	-10837
▁Official	-10838
▁backdrop	-10839
▁forwards	-10840
▁Something	-10841
▁fragmented	-10842
▁inspiration	-10843
▁Aut	-10844
▁Tob	-10845
aches	-10846
▁shed	-10847
compet	-10848
iations	-10849
▁ideals	-10850
lessness	-10851
▁executed	-10852
▁injuries	-10853
▁studying	-10854
▁amounting	-10855
▁unchanged	-10856
▁transplant	-10857
▁expectation	-10858
ROM	-10859
▁lod	-10860
▁Kash	-10861
▁file	-10862
▁gath	-10863
▁novel	-10864
▁Nielson	-10865
▁conflicting	-10866
rot	-10867
run	-10868
tte	-10869
▁Cardiff	-10870
▁unavoid	-10871
▁interview	-10872
▁fingerprin	-10873
▁functional	-10874
▁questioned	-10875
Beh	-10876
▁Too	-10877
anism	-10878
▁slightest	-10879
▁synergies	-10880
▁beneficiary	-10881
▁corresponds	-10882
▁foreseeable	-10883
▁reservation	-10884
▁discriminated	-10885
▁profitability	-10886
afe	-10887
▁Tax	-10888
asant	-10889
luous	-10890
voire	-10891
enders	-10892
etting	-10893
▁pione	-10894
▁indign	-10895
Behrendt	-10896
▁Juncker	-10897
▁eventual	-10898
compliance	-10899
▁evidently	-10900
▁reinforcement	-10901
BC	-10902
▁Fa	-10903
▁Kyi	-10904
▁Fifth	-10905
▁Nobel	-10906
▁UCLAF	-10907
▁paralys	-10908
▁Tomorrow	-10909
▁approxim	-10910
▁versions	-10911
▁respectively	-10912
▁misunderstand	-10913
▁modifications	-10914
▁constructively	-10915
sely	-10916
▁ECR	-10917
▁cra	-10918
attle	-10919
▁Camp	-10920
▁Coel	-10921
▁sing	-10922
ilings	-10923
▁landf	-10924
▁enjoys	-10925
▁fertil	-10926
▁Burundi	-10927
▁beliefs	-10928
▁dropped	-10929
ignificant	-10930
▁reasoning	-10931
▁Mauritania	-10932
▁indiscrimin	-10933
ttes	-10934
▁Farm	-10935
▁dile	-10936
▁pert	-10937
▁seal	-10938
▁lament	-10939
▁modify	-10940
▁evasion	-10941
▁reaches	-10942
represent	-10943
▁Sudanese	-10944
▁polluting	-10945
poll	-10946
eland	-10947
emics	-10948
▁Take	-10949
▁clin	-10950
langes	-10951
▁Coelho	-10952
▁safely	-10953
▁critici	-10954
▁heating	-10955
▁correction	-10956
▁accommodate	-10957
▁superfluous	-10958
umes	-10959
▁Rap	-10960
Plath	-10961
▁bulk	-10962
▁Mitch	-10963
▁Rwanda	-10964
itutions	-10965
▁Randzio	-10966
▁Univers	-10967
▁rulings	-10968
▁demonstrators	-10969
▁Up	-10970
trans	-10971
▁vacu	-10972
Ivoire	-10973
erated	-10974
▁Jordan	-10975
▁machine	-10976
▁modulation	-10977
▁remuneration	-10978
awa	-10979
▁coin	-10980
▁dilem	-10981
▁trigg	-10982
▁square	-10983
▁chaired	-10984
▁curtail	-10985
▁reminding	-10986
▁Bourlanges	-10987
▁possession	-10988
▁withdrawing	-10989
▁conservative	-10990
▁continuously	-10991
erc	-10992
▁Ank	-10993
▁CIA	-10994
▁fals	-10995
▁imply	-10996
▁winter	-10997
▁murders	-10998
▁contempl	-10999
▁precious	-11000
▁wondering	-11001
▁appearance	-11002
▁automotive	-11003
▁securities	-11004
▁principally	-11005
▁relocations	-11006
aur	-11007
night	-11008
▁gang	-11009
▁phot	-11010
▁Wales	-11011
▁juncture	-11012
▁literally	-11013
▁tolerated	-11014
▁emphasized	-11015
rained	-11016
urches	-11017
▁ignor	-11018
parency	-11019
▁incumb	-11020
▁master	-11021
▁cleaner	-11022
▁immigrant	-11023
▁milestone	-11024
uk	-11025
lab	-11026
▁Suu	-11027
▁glass	-11028
▁upset	-11029
▁pledge	-11030
▁imposes	-11031
▁irrever	-11032
▁skilled	-11033
▁gathered	-11034
▁marriage	-11035
▁extraordinarily	-11036
FIN	-11037
zens	-11038
▁cohes	-11039
▁vacuum	-11040
▁insists	-11041
▁sulphur	-11042
▁holdings	-11043
▁penalised	-11044
▁relatives	-11045
▁accurately	-11046
▁modernising	-11047
▁Ug	-11048
▁Fat	-11049
▁Ford	-11050
▁pave	-11051
▁rose	-11052
▁cited	-11053
▁Fourth	-11054
▁troika	-11055
actorily	-11056
▁infected	-11057
▁republic	-11058
▁gathering	-11059
▁insistence	-11060
▁performing	-11061
?'	-11062
Al	-11063
VC	-11064
rett	-11065
▁Valen	-11066
▁convers	-11067
▁wrongly	-11068
▁Supervis	-11069
▁afforded	-11070
development	-11071
▁exchanging	-11072
▁intimidation	-11073
eem	-11074
otal	-11075
tega	-11076
▁stup	-11077
▁hamper	-11078
▁circles	-11079
lad	-11080
arks	-11081
essim	-11082
▁buses	-11083
▁norms	-11084
▁Castro	-11085
aluation	-11086
▁virtual	-11087
▁Schreyer	-11088
▁liquidity	-11089
▁proportions	-11090
▁questioning	-11091
▁calculations	-11092
▁incineration	-11093
aes	-11094
arest	-11095
endar	-11096
ierra	-11097
▁gear	-11098
▁named	-11099
▁Ankara	-11100
▁Ortega	-11101
▁bitter	-11102
▁prudent	-11103
▁hesitate	-11104
▁Temporary	-11105
▁extremist	-11106
▁cigarettes	-11107
▁peacefully	-11108
▁specialists	-11109
kop	-11110
abuc	-11111
appy	-11112
▁leap	-11113
finite	-11114
ieties	-11115
▁bonds	-11116
▁grips	-11117
▁ECOFIN	-11118
▁Recent	-11119
▁Dialogue	-11120
▁cancelled	-11121
▁escalation	-11122
▁accelerated	-11123
▁destructive	-11124
net	-11125
▁Sa	-11126
▁Bor	-11127
▁mag	-11128
▁Disc	-11129
bestos	-11130
▁Dalai	-11131
▁ceilings	-11132
▁describes	-11133
▁abandoning	-11134
▁inventions	-11135
▁Secretariat	-11136
▁traffickers	-11137
▁Technological	-11138
AG	-11139
▁Vig	-11140
otted	-11141
▁Aung	-11142
▁rout	-11143
▁frame	-11144
ishment	-11145
▁degrad	-11146
▁habits	-11147
▁Aviation	-11148
▁dividing	-11149
▁coincidence	-11150
▁corporations	-11151
gone	-11152
aphne	-11153
▁Chap	-11154
▁boat	-11155
abucco	-11156
▁tongue	-11157
▁overdue	-11158
▁populated	-11159
▁beforehand	-11160
ON	-11161
icts	-11162
edoph	-11163
struct	-11164
▁arose	-11165
▁solar	-11166
▁malaria	-11167
democratic	-11168
▁Albanians	-11169
▁undergoing	-11170
▁liberalised	-11171
▁undesirable	-11172
▁redistribution	-11173
oes	-11174
cons	-11175
▁Wyn	-11176
onian	-11177
▁Ange	-11178
▁odds	-11179
▁tsun	-11180
▁Karas	-11181
▁Sierra	-11182
ritorial	-11183
▁lowering	-11184
den	-11185
emp	-11186
ima	-11187
mir	-11188
▁blank	-11189
▁eager	-11190
limited	-11191
▁Athens	-11192
▁frozen	-11193
▁termed	-11194
▁delegated	-11195
▁restraint	-11196
Herzegovina	-11197
▁Incidentally	-11198
▁satisfactorily	-11199
▁colour	-11200
▁perpet	-11201
▁stopping	-11202
▁unexpect	-11203
▁outrageous	-11204
▁commodities	-11205
▁comprehensible	-11206
neys	-11207
atism	-11208
efficient	-11209
▁reminder	-11210
▁observing	-11211
▁observance	-11212
▁yourselves	-11213
raud	-11214
▁Ten	-11215
▁Ult	-11216
itual	-11217
▁Faced	-11218
▁overt	-11219
▁rests	-11220
▁Chirac	-11221
▁ancient	-11222
▁varying	-11223
▁backward	-11224
▁parental	-11225
▁justifies	-11226
▁expressions	-11227
▁liberalising	-11228
hem	-11229
▁Ol	-11230
▁Sing	-11231
design	-11232
health	-11233
▁confisc	-11234
financial	-11235
▁reaffirmed	-11236
▁Sustainable	-11237
▁accomplished	-11238
IFT	-11239
rim	-11240
WIFT	-11241
▁fee	-11242
uters	-11243
▁deriv	-11244
▁Nabucco	-11245
▁synergy	-11246
▁asbestos	-11247
▁assisted	-11248
▁outcomes	-11249
▁unquestion	-11250
▁Ell	-11251
dated	-11252
track	-11253
▁Dell	-11254
▁shops	-11255
▁transpose	-11256
▁Ultimately	-11257
▁theoretical	-11258
▁reimbursement	-11259
▁Adam	-11260
▁dish	-11261
▁Unlike	-11262
▁addiction	-11263
▁federalist	-11264
una	-11265
aker	-11266
aste	-11267
ashed	-11268
▁plea	-11269
▁horse	-11270
arantee	-11271
▁Daphne	-11272
▁noting	-11273
▁dissemin	-11274
▁conferred	-11275
▁retaining	-11276
▁shortages	-11277
▁prioritise	-11278
▁prosecutor	-11279
arers	-11280
aware	-11281
▁Scand	-11282
▁dwell	-11283
▁envoy	-11284
▁inher	-11285
▁pupils	-11286
▁enforcing	-11287
▁frequency	-11288
▁Prevention	-11289
▁recommending	-11290
▁supplemented	-11291
▁acknowledging	-11292
amm	-11293
iten	-11294
▁Wel	-11295
▁ped	-11296
▁Basel	-11297
▁Recon	-11298
▁drink	-11299
▁hedge	-11300
▁varies	-11301
▁altered	-11302
▁cohesive	-11303
▁unstable	-11304
▁incumbent	-11305
▁department	-11306
▁memorandum	-11307
▁profoundly	-11308
ded	-11309
▁Mot	-11310
▁unim	-11311
alogue	-11312
▁Niger	-11313
entials	-11314
▁derive	-11315
▁Radical	-11316
▁degrees	-11317
▁paedoph	-11318
▁ambiguous	-11319
▁incomplete	-11320
conf	-11321
ymmet	-11322
▁Data	-11323
▁racial	-11324
▁Germans	-11325
▁chairmen	-11326
▁commence	-11327
▁encounter	-11328
▁fortunate	-11329
▁importing	-11330
▁Directives	-11331
▁administer	-11332
▁foreigners	-11333
ams	-11334
▁GMO	-11335
▁Hon	-11336
burgh	-11337
▁cust	-11338
▁inadm	-11339
▁explos	-11340
▁Chapter	-11341
▁devised	-11342
▁publicity	-11343
▁friendship	-11344
och	-11345
aran	-11346
oded	-11347
rians	-11348
▁Blok	-11349
atered	-11350
ogenic	-11351
▁chick	-11352
▁films	-11353
▁prest	-11354
commerce	-11355
▁Amnesty	-11356
▁anxiety	-11357
▁Presidencies	-11358
▁City	-11359
▁metres	-11360
▁generic	-11361
▁churches	-11362
▁hectares	-11363
▁authorise	-11364
▁persuaded	-11365
▁reluctant	-11366
▁recipients	-11367
inav	-11368
sing	-11369
▁Jour	-11370
▁spell	-11371
▁termin	-11372
▁tsunami	-11373
itionally	-11374
▁Likewise	-11375
▁premises	-11376
▁practised	-11377
▁Lithuanian	-11378
jer	-11379
▁id	-11380
▁Bali	-11381
▁Fern	-11382
▁repet	-11383
▁Herman	-11384
▁adjusted	-11385
▁recipient	-11386
nar	-11387
emit	-11388
▁Buiten	-11389
▁dozens	-11390
▁inject	-11391
▁pessim	-11392
▁bombing	-11393
▁operated	-11394
▁recitals	-11395
▁directors	-11396
▁upholding	-11397
▁tendencies	-11398
▁unavoidable	-11399
need	-11400
▁inde	-11401
▁Maybe	-11402
▁SWIFT	-11403
▁tends	-11404
▁Others	-11405
missible	-11406
▁blatant	-11407
▁relying	-11408
▁routine	-11409
▁Catholic	-11410
▁Lebanese	-11411
▁protocols	-11412
▁harmonious	-11413
▁supermarket	-11414
▁unnecessarily	-11415
cs	-11416
vity	-11417
ulent	-11418
elected	-11419
▁returns	-11420
producing	-11421
▁unlawful	-11422
▁Scandinav	-11423
▁Universal	-11424
▁Indonesian	-11425
▁exacerbated	-11426
▁illustrated	-11427
ada	-11428
ady	-11429
olio	-11430
▁MED	-11431
▁Rac	-11432
otage	-11433
▁Hist	-11434
▁barbaric	-11435
▁exciting	-11436
▁signatories	-11437
▁endeavouring	-11438
aint	-11439
onic	-11440
▁Fab	-11441
▁ECSC	-11442
▁trap	-11443
▁unde	-11444
▁Staff	-11445
▁Supreme	-11446
▁emerges	-11447
▁Egyptian	-11448
▁combated	-11449
▁illusion	-11450
▁notified	-11451
▁pregnant	-11452
▁distorted	-11453
▁intensified	-11454
eck	-11455
ibr	-11456
lyn	-11457
▁Sam	-11458
ilipp	-11459
integ	-11460
▁Florenz	-11461
▁Journal	-11462
▁illicit	-11463
▁advisable	-11464
▁usefulness	-11465
▁progressing	-11466
hof	-11467
▁sky	-11468
eenth	-11469
pered	-11470
▁mism	-11471
apping	-11472
▁Dimas	-11473
▁mount	-11474
▁timef	-11475
▁Rocard	-11476
▁deepen	-11477
▁Fifteen	-11478
▁Seattle	-11479
▁indefinite	-11480
▁liberalise	-11481
▁discrepancies	-11482
▁interpretations	-11483
Nord	-11484
ctor	-11485
dorf	-11486
esis	-11487
lean	-11488
falus	-11489
▁Hope	-11490
▁Wynn	-11491
▁flat	-11492
▁brand	-11493
▁trick	-11494
▁famine	-11495
▁asymmet	-11496
▁auction	-11497
▁Tunisian	-11498
▁patterns	-11499
▁appealing	-11500
▁emotional	-11501
▁undertook	-11502
▁exhaustive	-11503
▁celebrating	-11504
▁drastically	-11505
▁justifiable	-11506
asy	-11507
van	-11508
▁Abk	-11509
▁Kat	-11510
apore	-11511
▁Erit	-11512
evident	-11513
▁calendar	-11514
▁capitals	-11515
▁Combating	-11516
▁confusing	-11517
arliamentary	-11518
▁unreservedly	-11519
▁characteristic	-11520
mat	-11521
▁laud	-11522
thirds	-11523
▁wheel	-11524
falussy	-11525
growing	-11526
▁Verhof	-11527
▁closest	-11528
▁dilemma	-11529
▁endless	-11530
▁dossiers	-11531
▁corridors	-11532
▁hierarchy	-11533
▁portfolio	-11534
▁supporter	-11535
▁ga	-11536
bies	-11537
trust	-11538
▁Coord	-11539
▁Kashmir	-11540
▁realism	-11541
itiveness	-11542
established	-11543
▁University	-11544
▁deplorable	-11545
▁directions	-11546
▁hesitation	-11547
▁tightening	-11548
▁feedingstuffs	-11549
▁unsustainable	-11550
▁underestimated	-11551
ns	-11552
ta	-11553
ilib	-11554
▁web	-11555
▁ring	-11556
▁alien	-11557
avoured	-11558
▁Abkhaz	-11559
▁Titley	-11560
▁rooted	-11561
mittedly	-11562
▁depleted	-11563
▁practise	-11564
▁recalled	-11565
▁mobilised	-11566
▁waterways	-11567
▁Verhofstadt	-11568
food	-11569
risk	-11570
▁Ster	-11571
▁output	-11572
▁Bearing	-11573
▁hunting	-11574
▁seventh	-11575
▁penalise	-11576
▁separated	-11577
▁supplying	-11578
▁Admittedly	-11579
▁households	-11580
▁originating	-11581
▁stabilising	-11582
PS	-11583
COS	-11584
bone	-11585
rium	-11586
▁honey	-11587
▁sounds	-11588
▁turnover	-11589
▁mutilation	-11590
ava	-11591
enza	-11592
▁Pir	-11593
▁hus	-11594
illon	-11595
▁Oper	-11596
▁curb	-11597
▁levy	-11598
luding	-11599
▁solemn	-11600
▁tougher	-11601
▁useless	-11602
▁Leonardo	-11603
▁policing	-11604
▁prompted	-11605
▁similarly	-11606
▁targeting	-11607
abilisation	-11608
▁bankruptcy	-11609
▁bargaining	-11610
▁reintegration	-11611
lets	-11612
▁Cash	-11613
▁rice	-11614
Nordic	-11615
metics	-11616
orious	-11617
▁perse	-11618
▁Peters	-11619
▁casual	-11620
▁oblige	-11621
▁plight	-11622
▁recast	-11623
▁delaying	-11624
▁journeys	-11625
▁rebuilding	-11626
▁differentiated	-11627
EE	-11628
St	-11629
dr	-11630
owed	-11631
▁wre	-11632
▁multipl	-11633
▁optimum	-11634
▁suffers	-11635
▁endanger	-11636
▁flagrant	-11637
▁Argentina	-11638
▁balancing	-11639
▁exporters	-11640
▁publishing	-11641
▁resumption	-11642
▁enthusiastic	-11643
olit	-11644
▁bon	-11645
inner	-11646
▁Spec	-11647
▁Integ	-11648
▁Arabia	-11649
▁Region	-11650
▁esteem	-11651
▁seized	-11652
iningrad	-11653
▁passage	-11654
▁touches	-11655
▁outdated	-11656
▁Singapore	-11657
▁expulsion	-11658
▁indicator	-11659
▁shipowners	-11660
▁Kaliningrad	-11661
▁approximation	-11662
▁representations	-11663
Th	-11664
elf	-11665
sub	-11666
atem	-11667
imal	-11668
smen	-11669
▁Sac	-11670
▁Haut	-11671
▁deaf	-11672
▁Britt	-11673
▁denial	-11674
▁Blokland	-11675
▁champion	-11676
▁surpluses	-11677
▁Lamfalussy	-11678
▁manipulation	-11679
▁multilingualism	-11680
NA	-11681
acc	-11682
overs	-11683
▁Mark	-11684
▁grey	-11685
bollah	-11686
▁aller	-11687
portant	-11688
▁Hautala	-11689
▁Regrett	-11690
▁unaware	-11691
▁winners	-11692
▁referral	-11693
▁widening	-11694
▁Transparency	-11695
ask	-11696
efe	-11697
esity	-11698
ighth	-11699
▁Rail	-11700
▁Vigo	-11701
▁twin	-11702
▁Satur	-11703
ophobic	-11704
▁tactics	-11705
▁dialogues	-11706
▁evaluations	-11707
▁Transatlantic	-11708
zy	-11709
▁Ram	-11710
▁soul	-11711
▁Broek	-11712
▁Guatem	-11713
▁overha	-11714
▁qualify	-11715
▁Saturday	-11716
increasing	-11717
▁convicted	-11718
▁detainees	-11719
▁expectancy	-11720
An	-11721
usa	-11722
iger	-11723
▁inflex	-11724
▁multif	-11725
▁winner	-11726
▁husband	-11727
▁Georgian	-11728
▁Mitchell	-11729
▁decoupling	-11730
▁travellers	-11731
▁designation	-11732
▁transmitted	-11733
▁uncertainties	-11734
RA	-11735
ckx	-11736
bene	-11737
▁cosm	-11738
iating	-11739
▁broke	-11740
▁skill	-11741
▁freeze	-11742
▁destiny	-11743
▁origins	-11744
▁importers	-11745
▁nutrition	-11746
▁rigorously	-11747
▁indifferent	-11748
▁voluntarily	-11749
▁Stabilisation	-11750
opl	-11751
munia	-11752
rable	-11753
defined	-11754
▁Wallis	-11755
▁Almunia	-11756
▁Cashman	-11757
▁forever	-11758
▁rectify	-11759
▁wealthy	-11760
▁optional	-11761
▁preceded	-11762
▁disruption	-11763
▁motivation	-11764
▁criticising	-11765
LE	-11766
felt	-11767
▁Gas	-11768
▁Sky	-11769
needed	-11770
▁filled	-11771
▁pockets	-11772
committee	-11773
▁complies	-11774
▁develops	-11775
▁unfounded	-11776
▁transformed	-11777
▁resettlement	-11778
▁Ku	-11779
word	-11780
▁Amb	-11781
▁Dam	-11782
▁edge	-11783
▁prox	-11784
ogical	-11785
▁steady	-11786
ilibrium	-11787
▁bathing	-11788
▁Croatian	-11789
▁municipal	-11790
▁ratifying	-11791
▁Regrettably	-11792
▁irreversible	-11793
dac	-11794
oye	-11795
fast	-11796
▁Kof	-11797
▁cycl	-11798
▁eman	-11799
▁format	-11800
▁Capital	-11801
▁Chechen	-11802
▁Sterckx	-11803
▁attacking	-11804
▁sacrificed	-11805
▁Institutions	-11806
▁compensatory	-11807
cu	-11808
long	-11809
▁Migu	-11810
handed	-11811
levant	-11812
weight	-11813
▁Osset	-11814
▁cargo	-11815
▁breaks	-11816
decision	-11817
▁differs	-11818
▁telecom	-11819
▁freezing	-11820
▁imagination	-11821
▁fo	-11822
▁Ste	-11823
▁Lann	-11824
▁cool	-11825
▁vain	-11826
onymous	-11827
▁Lannoye	-11828
▁Philipp	-11829
▁holders	-11830
▁stories	-11831
▁Movement	-11832
▁blockade	-11833
▁benchmarks	-11834
▁consisting	-11835
▁inefficient	-11836
▁historically	-11837
▁deteriorating	-11838
▁multilateralism	-11839
▁Es	-11840
aked	-11841
▁Mat	-11842
▁maf	-11843
▁Hans	-11844
▁Oslo	-11845
▁inac	-11846
▁shot	-11847
▁phased	-11848
▁slogan	-11849
▁confuse	-11850
▁pledged	-11851
▁massacre	-11852
▁confirming	-11853
▁repatriation	-11854
inem	-11855
thal	-11856
clared	-11857
formed	-11858
posing	-11859
▁Leinen	-11860
▁exerted	-11861
▁hopeful	-11862
▁embarked	-11863
▁ambiguity	-11864
▁attendance	-11865
▁likelihood	-11866
▁scientifically	-11867
abs	-11868
▁myth	-11869
▁Aznar	-11870
▁Feira	-11871
▁bloody	-11872
▁headed	-11873
▁lively	-11874
▁ranging	-11875
▁Canadian	-11876
▁pandemic	-11877
▁scandals	-11878
▁cancellation	-11879
card	-11880
oyle	-11881
▁Tro	-11882
▁Bert	-11883
▁agri	-11884
▁soya	-11885
▁rises	-11886
▁Jewish	-11887
▁incidence	-11888
▁influenza	-11889
▁violating	-11890
▁prescribed	-11891
▁sacrifices	-11892
▁intercultural	-11893
▁Vir	-11894
ereoty	-11895
▁repay	-11896
▁native	-11897
▁thirds	-11898
interest	-11899
▁Greater	-11900
▁fulfils	-11901
▁educated	-11902
▁provider	-11903
▁Assistance	-11904
▁constituent	-11905
▁contributors	-11906
▁entrepreneurial	-11907
anes	-11908
inos	-11909
▁McK	-11910
▁Sav	-11911
occup	-11912
▁baby	-11913
▁jail	-11914
▁rede	-11915
amount	-11916
▁Based	-11917
▁Cairo	-11918
marking	-11919
▁makers	-11920
▁unused	-11921
▁insight	-11922
▁rethink	-11923
▁undergo	-11924
▁vicious	-11925
discrimin	-11926
▁destined	-11927
▁accessing	-11928
▁impressed	-11929
▁pertinent	-11930
▁Independent	-11931
▁desertification	-11932
egal	-11933
illa	-11934
oris	-11935
▁Lud	-11936
osion	-11937
which	-11938
▁Doyle	-11939
▁Elles	-11940
▁Asylum	-11941
favoured	-11942
specific	-11943
▁despair	-11944
▁presupp	-11945
▁vigilance	-11946
▁continental	-11947
BP	-11948
rak	-11949
▁EE	-11950
icks	-11951
▁Cal	-11952
▁Rem	-11953
▁dogm	-11954
▁tiss	-11955
vation	-11956
▁timesc	-11957
▁outlines	-11958
▁crucially	-11959
▁equilibrium	-11960
▁ETA	-11961
▁Bowis	-11962
▁tenth	-11963
▁Baring	-11964
▁occupy	-11965
▁overly	-11966
▁ticket	-11967
▁denomin	-11968
▁watered	-11969
▁associate	-11970
▁progressively	-11971
▁qualification	-11972
GA	-11973
eek	-11974
▁zu	-11975
▁Due	-11976
child	-11977
▁penet	-11978
▁Almost	-11979
▁Groups	-11980
▁perpetu	-11981
▁catalyst	-11982
▁Hopefully	-11983
▁counteract	-11984
▁reluctance	-11985
▁subsidised	-11986
discriminatory	-11987
ener	-11988
▁luc	-11989
▁amaz	-11990
▁fier	-11991
social	-11992
ourably	-11993
sharing	-11994
▁embass	-11995
vernight	-11996
▁Ossetia	-11997
▁chiefly	-11998
▁deprive	-11999
▁suppose	-12000
▁killings	-12001
▁qualities	-12002
▁Baringdorf	-12003
▁mobilising	-12004
▁disregarded	-12005
▁interfering	-12006
MO	-12007
ibe	-12008
rgy	-12009
real	-12010
▁Att	-12011
estors	-12012
▁Senate	-12013
▁cleans	-12014
▁broaden	-12015
▁ignores	-12016
▁Violence	-12017
▁envisages	-12018
▁Progressive	-12019
▁coordinators	-12020
aid	-12021
peut	-12022
sile	-12023
▁joy	-12024
cking	-12025
umped	-12026
▁Nass	-12027
▁reop	-12028
▁yours	-12029
▁McKenna	-12030
▁impover	-12031
▁climatic	-12032
▁outright	-12033
▁advertise	-12034
▁summarise	-12035
▁comprising	-12036
▁dedication	-12037
▁generosity	-12038
▁notwithstanding	-12039
nistr	-12040
annual	-12041
▁Poles	-12042
raining	-12043
▁Lamped	-12044
▁Prague	-12045
▁forums	-12046
▁quicker	-12047
▁allegedly	-12048
▁heartfelt	-12049
▁overnight	-12050
▁seafarers	-12051
▁facilitated	-12052
▁jeopardising	-12053
rm	-12054
ivic	-12055
▁Gil	-12056
▁gun	-12057
agues	-12058
ctory	-12059
▁sand	-12060
▁Graefe	-12061
▁curious	-12062
▁obesity	-12063
▁ordered	-12064
▁awarding	-12065
▁customer	-12066
▁cosmetics	-12067
▁Honourable	-12068
▁allocations	-12069
▁endorsement	-12070
chez	-12071
▁GBP	-12072
▁ICC	-12073
ulled	-12074
▁Pass	-12075
▁Leone	-12076
▁trees	-12077
benefit	-12078
private	-12079
▁aeropl	-12080
▁coasts	-12081
▁misman	-12082
▁contrav	-12083
▁disrupt	-12084
▁hostile	-12085
▁spouses	-12086
political	-12087
▁Speaking	-12088
▁acceding	-12089
▁inviting	-12090
▁Statement	-12091
▁acquisition	-12092
▁inadmissible	-12093
▁intermediate	-12094
▁occasionally	-12095
▁standardised	-12096
▁Geb	-12097
▁Out	-12098
▁nut	-12099
▁GATT	-12100
▁Police	-12101
▁rivers	-12102
▁capture	-12103
▁ratings	-12104
▁staying	-12105
▁violates	-12106
▁Lampedusa	-12107
▁donations	-12108
▁changeover	-12109
▁establishments	-12110
ding	-12111
load	-12112
roed	-12113
▁dry	-12114
▁pit	-12115
▁Kall	-12116
▁Paul	-12117
ethnic	-12118
▁oversh	-12119
▁assault	-12120
▁inclined	-12121
▁ignorance	-12122
▁intensity	-12123
▁volatility	-12124
▁intervening	-12125
▁fluctuations	-12126
arg	-12127
ears	-12128
itar	-12129
▁Fig	-12130
▁bes	-12131
asive	-12132
▁busy	-12133
▁tram	-12134
peutic	-12135
▁reall	-12136
▁Access	-12137
▁church	-12138
▁harbour	-12139
▁richest	-12140
▁tickets	-12141
▁Needless	-12142
▁clearing	-12143
▁prevails	-12144
▁stereoty	-12145
▁Alexander	-12146
▁Greenland	-12147
▁distances	-12148
▁predicted	-12149
▁circumvent	-12150
▁discourage	-12151
▁grassroots	-12152
▁nationalist	-12153
▁marginalised	-12154
elli	-12155
▁Maj	-12156
anted	-12157
vable	-12158
▁overf	-12159
▁merger	-12160
▁Schroed	-12161
▁chamber	-12162
▁motives	-12163
▁unhappy	-12164
designate	-12165
▁Abkhazia	-12166
▁magnific	-12167
▁occurrence	-12168
▁reconciling	-12169
▁universally	-12170
▁accommodation	-12171
FOR	-12172
eda	-12173
irk	-12174
▁Rh	-12175
iech	-12176
▁Mun	-12177
▁UNH	-12178
▁Daul	-12179
▁Hugh	-12180
▁pred	-12181
ailand	-12182
▁delet	-12183
▁disgu	-12184
▁trium	-12185
▁Anders	-12186
existent	-12187
▁Thailand	-12188
▁allotted	-12189
▁inquiries	-12190
▁timetables	-12191
▁illustration	-12192
hour	-12193
▁Docu	-12194
▁EURO	-12195
▁annum	-12196
▁embra	-12197
▁plane	-12198
▁Eurodac	-12199
▁Fischer	-12200
▁Turkmen	-12201
▁ashamed	-12202
▁disturb	-12203
▁discoura	-12204
▁mitigate	-12205
▁batteries	-12206
▁infection	-12207
▁abandonment	-12208
▁communicated	-12209
▁Na	-12210
▁ENP	-12211
▁tant	-12212
ducive	-12213
▁Draft	-12214
control	-12215
▁Recomm	-12216
▁richer	-12217
fficking	-12218
▁Collins	-12219
▁Fifthly	-12220
▁Senegal	-12221
▁divorce	-12222
▁synthetic	-12223
▁fraudulent	-12224
▁denominator	-12225
▁meaningless	-12226
▁Specifically	-12227
▁deforestation	-12228
BR	-12229
▁TR	-12230
ower	-12231
acies	-12232
▁Kenya	-12233
▁cater	-12234
▁midst	-12235
rometer	-12236
▁Various	-12237
▁composed	-12238
▁computers	-12239
▁presently	-12240
▁Hungarians	-12241
▁challenged	-12242
▁derivatives	-12243
▁indignation	-12244
Ar	-12245
▁Il	-12246
lude	-12247
ranca	-12248
▁mira	-12249
▁soph	-12250
▁yard	-12251
artite	-12252
▁sexes	-12253
▁assign	-12254
▁renegoti	-12255
▁shopping	-12256
Wh	-12257
ius	-12258
uma	-12259
mond	-12260
▁sin	-12261
▁Clin	-12262
▁misg	-12263
▁vide	-12264
ivings	-12265
▁brill	-12266
▁cancel	-12267
▁spiral	-12268
▁Parties	-12269
▁doubled	-12270
▁tropical	-12271
▁identifies	-12272
▁postponing	-12273
▁reinforces	-12274
▁predictable	-12275
rgyz	-12276
▁NGO	-12277
▁lux	-12278
▁ran	-12279
arder	-12280
iller	-12281
▁Corn	-12282
change	-12283
▁cinem	-12284
▁forty	-12285
▁recre	-12286
▁recru	-12287
▁Things	-12288
▁fronts	-12289
financed	-12290
▁letting	-12291
▁tankers	-12292
▁village	-12293
▁laudable	-12294
▁Recommend	-12295
▁conducive	-12296
▁dignified	-12297
▁guideline	-12298
▁massacres	-12299
▁distribute	-12300
▁undeclared	-12301
ider	-12302
pine	-12303
▁Moz	-12304
arios	-12305
style	-12306
▁Kofi	-12307
▁reck	-12308
▁sham	-12309
▁laugh	-12310
▁seeds	-12311
▁Pirker	-12312
▁Theato	-12313
▁doping	-12314
▁Develop	-12315
▁erosion	-12316
▁premise	-12317
▁Gebhardt	-12318
▁detected	-12319
▁doctrine	-12320
▁appearing	-12321
▁successor	-12322
▁scepticism	-12323
▁disciplinary	-12324
▁conditionality	-12325
cia	-12326
▁Iz	-12327
cles	-12328
orge	-12329
aling	-12330
pidla	-12331
▁Cold	-12332
▁Haug	-12333
▁Jacks	-12334
▁pecul	-12335
▁stuck	-12336
▁injury	-12337
isenberg	-12338
▁couples	-12339
▁distress	-12340
▁improper	-12341
▁remedies	-12342
▁automobile	-12343
▁identities	-12344
▁tantamount	-12345
▁undeniable	-12346
▁preventative	-12347
ios	-12348
lor	-12349
unta	-12350
▁Cab	-12351
▁bog	-12352
▁Berg	-12353
▁fits	-12354
isible	-12355
utable	-12356
▁Salaf	-12357
▁instig	-12358
▁provin	-12359
▁wisely	-12360
▁Warrant	-12361
▁impasse	-12362
▁objects	-12363
▁landfill	-12364
▁staffing	-12365
▁oversight	-12366
▁scenarios	-12367
▁Duisenberg	-12368
▁forcefully	-12369
▁emergencies	-12370
▁introductory	-12371
▁militarisation	-12372
Sah	-12373
ipt	-12374
kov	-12375
voc	-12376
isers	-12377
shore	-12378
▁horror	-12379
▁hugely	-12380
▁Jackson	-12381
▁emotion	-12382
▁forgive	-12383
ightening	-12384
▁artistic	-12385
▁steadily	-12386
▁upcoming	-12387
▁explosion	-12388
▁platforms	-12389
▁Throughout	-12390
▁attributed	-12391
▁contemporary	-12392
list	-12393
meat	-12394
print	-12395
▁fram	-12396
▁rejo	-12397
rating	-12398
▁assem	-12399
▁phone	-12400
alified	-12401
general	-12402
▁Arrest	-12403
▁Kyrgyz	-12404
▁Racism	-12405
▁starch	-12406
▁Between	-12407
▁Conduct	-12408
▁Opening	-12409
▁Training	-12410
▁doubtful	-12411
▁Transnistr	-12412
▁channelled	-12413
▁devastated	-12414
▁exacerbate	-12415
▁authorising	-12416
▁degradation	-12417
EM	-12418
Bur	-12419
amo	-12420
math	-12421
ebted	-12422
▁Road	-12423
▁aged	-12424
▁sheet	-12425
▁token	-12426
working	-12427
▁stored	-12428
▁burning	-12429
▁headway	-12430
▁homeland	-12431
▁hydrogen	-12432
▁polluter	-12433
▁lifestyle	-12434
▁prevailed	-12435
▁registers	-12436
▁unlimited	-12437
▁intensively	-12438
▁CS	-12439
auth	-12440
uing	-12441
Semit	-12442
ursed	-12443
▁Thom	-12444
▁demag	-12445
parable	-12446
▁mature	-12447
▁passes	-12448
▁stupid	-12449
▁Ludford	-12450
▁Recital	-12451
▁dictate	-12452
▁tempted	-12453
▁triumph	-12454
icultural	-12455
▁consumed	-12456
▁describing	-12457
▁misgivings	-12458
▁corrections	-12459
EPA	-12460
puy	-12461
eded	-12462
imity	-12463
▁Bonn	-12464
render	-12465
▁march	-12466
ocratic	-12467
▁Rompuy	-12468
▁surveys	-12469
▁enjoying	-12470
▁aftermath	-12471
▁declining	-12472
▁Ministerial	-12473
oca	-12474
otes	-12475
▁ang	-12476
opath	-12477
▁ASEM	-12478
▁Read	-12479
▁stir	-12480
▁tiny	-12481
igious	-12482
inence	-12483
▁Level	-12484
▁Patent	-12485
▁School	-12486
rupulous	-12487
▁cynical	-12488
▁pretend	-12489
effective	-12490
▁arranged	-12491
▁investor	-12492
▁cleansing	-12493
▁databases	-12494
▁irrelevant	-12495
err	-12496
owned	-12497
▁gulf	-12498
▁appra	-12499
▁dilig	-12500
▁exhib	-12501
▁polls	-12502
▁walls	-12503
keepers	-12504
▁Ferber	-12505
▁hiding	-12506
▁multip	-12507
▁bridges	-12508
▁college	-12509
▁Nassauer	-12510
▁supplier	-12511
▁detection	-12512
▁generates	-12513
▁Philippines	-12514
▁irr	-12515
South	-12516
▁ages	-12517
▁stif	-12518
itement	-12519
▁Uganda	-12520
▁feared	-12521
▁Haarder	-12522
▁embrace	-12523
▁volumes	-12524
▁overturn	-12525
▁answering	-12526
▁logistics	-12527
▁timeframe	-12528
▁constitutions	-12529
▁globalization	-12530
nen	-12531
sson	-12532
▁sixt	-12533
▁awful	-12534
▁fierce	-12535
▁authent	-12536
▁cleared	-12537
▁factual	-12538
▁landing	-12539
▁pleasant	-12540
▁advancing	-12541
▁catalogue	-12542
▁lawmaking	-12543
▁proximity	-12544
competitive	-12545
VIT	-12546
▁Cup	-12547
▁son	-12548
essed	-12549
▁orph	-12550
Americ	-12551
enable	-12552
▁defer	-12553
▁noble	-12554
ighting	-12555
▁holidays	-12556
▁triggered	-12557
▁Salafranca	-12558
▁moderation	-12559
ITES	-12560
ondo	-12561
▁Did	-12562
▁Jan	-12563
OLVIT	-12564
ister	-12565
▁fora	-12566
▁wond	-12567
usions	-12568
Saharan	-12569
▁butter	-12570
▁bypass	-12571
▁unfore	-12572
missions	-12573
speaking	-12574
▁consume	-12575
▁convert	-12576
▁inconven	-12577
▁machines	-12578
▁travelled	-12579
▁Particularly	-12580
▁transparently	-12581
▁fundamentalist	-12582
duly	-12583
odox	-12584
inity	-12585
▁Wars	-12586
▁fled	-12587
opular	-12588
rorist	-12589
▁Langu	-12590
▁stamp	-12591
finance	-12592
▁Twenty	-12593
▁unders	-12594
▁tortured	-12595
▁Guarantee	-12596
▁Terrorism	-12597
▁surrender	-12598
▁categorically	-12599
▁complementarity	-12600
lene	-12601
umer	-12602
▁Lan	-12603
▁acid	-12604
▁globe	-12605
amation	-12606
ifiably	-12607
▁Forest	-12608
▁audits	-12609
▁afflict	-12610
▁Refugees	-12611
▁Experience	-12612
▁unexpected	-12613
▁supplements	-12614
▁authorisations	-12615
human	-12616
ivial	-12617
mines	-12618
▁Gall	-12619
▁Grad	-12620
▁Gros	-12621
▁Past	-12622
▁tire	-12623
▁Lange	-12624
▁flout	-12625
▁lunch	-12626
▁motto	-12627
reating	-12628
▁Savary	-12629
▁Tajani	-12630
▁breath	-12631
▁liquid	-12632
▁preval	-12633
administr	-12634
▁overhaul	-12635
▁adherence	-12636
▁pregnancy	-12637
▁repetition	-12638
▁homosexuals	-12639
▁magnificent	-12640
▁suppression	-12641
▁differentiation	-12642
vez	-12643
▁Gor	-12644
dumping	-12645
▁energet	-12646
▁suspects	-12647
▁withhold	-12648
▁comprises	-12649
▁doubtless	-12650
▁Functioning	-12651
▁therapeutic	-12652
▁utilisation	-12653
oj	-12654
▁-.	-12655
rams	-12656
quier	-12657
▁hall	-12658
ibralt	-12659
▁lorry	-12660
▁SOLVIT	-12661
▁provoc	-12662
▁shores	-12663
▁complac	-12664
▁Armenian	-12665
▁exercises	-12666
▁upgrading	-12667
▁wellbeing	-12668
▁absorption	-12669
▁nomination	-12670
▁incorporates	-12671
▁indifference	-12672
▁Institutional	-12673
HR	-12674
my	-12675
mod	-12676
▁Cun	-12677
▁Pay	-12678
▁Manu	-12679
▁Sand	-12680
▁pigs	-12681
▁unsc	-12682
▁Helms	-12683
▁grain	-12684
▁humil	-12685
▁miles	-12686
▁panic	-12687
▁shoot	-12688
icurity	-12689
▁Gibralt	-12690
▁believing	-12691
▁bordering	-12692
▁deterrent	-12693
▁favourably	-12694
▁compensated	-12695
▁livelihoods	-12696
▁advantageous	-12697
▁acknowledgement	-12698
For	-12699
rime	-12700
west	-12701
etime	-12702
▁coach	-12703
quierdo	-12704
▁reopen	-12705
▁unduly	-12706
▁unsafe	-12707
▁Grosset	-12708
▁clashes	-12709
▁horrific	-12710
▁customary	-12711
▁subsidiary	-12712
▁enlargements	-12713
oqu	-12714
abul	-12715
▁bell	-12716
▁mini	-12717
▁civic	-12718
▁insol	-12719
▁taste	-12720
raising	-12721
▁Better	-12722
▁Gradin	-12723
▁branch	-12724
▁illiter	-12725
▁peculiar	-12726
▁proceeds	-12727
▁locations	-12728
▁pronounce	-12729
▁purchases	-12730
▁extraction	-12731
▁interconnection	-12732
▁Ve	-12733
▁Wat	-12734
▁Lind	-12735
▁embod	-12736
▁Hughes	-12737
▁gladly	-12738
▁mistrust	-12739
▁Izquierdo	-12740
▁endangered	-12741
▁Ah	-12742
▁Dur	-12743
▁Bern	-12744
▁sadd	-12745
roduced	-12746
▁inspire	-12747
▁backbone	-12748
▁levelled	-12749
rapporteur	-12750
▁Basically	-12751
▁abundantly	-12752
▁achievable	-12753
▁Turkmenistan	-12754
▁mismanagement	-12755
▁Competitiveness	-12756
ael	-12757
endas	-12758
▁ESDP	-12759
▁Jews	-12760
▁Lord	-12761
▁batt	-12762
▁admin	-12763
▁sleep	-12764
▁Mozamb	-12765
▁tables	-12766
▁coupled	-12767
▁whoever	-12768
▁situated	-12769
▁explosive	-12770
▁rationale	-12771
▁scoreboard	-12772
▁constructed	-12773
▁spectacular	-12774
▁consultative	-12775
arre	-12776
▁Fam	-12777
▁lax	-12778
▁pal	-12779
isive	-12780
ports	-12781
▁files	-12782
▁greet	-12783
▁Negoti	-12784
▁Clinton	-12785
▁chronic	-12786
▁clients	-12787
▁defects	-12788
▁plainly	-12789
▁coincide	-12790
▁implicit	-12791
▁waterway	-12792
▁websites	-12793
▁employing	-12794
▁institutes	-12795
▁fingerprints	-12796
▁instrumental	-12797
▁concentrations	-12798
arc	-12799
fish	-12800
▁McM	-12801
▁pin	-12802
after	-12803
bonds	-12804
▁EPAs	-12805
▁Wolf	-12806
▁mode	-12807
prises	-12808
▁Gener	-12809
▁Dayton	-12810
▁Howitt	-12811
▁Review	-12812
▁Syrian	-12813
▁aspire	-12814
▁insert	-12815
▁enemies	-12816
▁trivial	-12817
▁diminish	-12818
▁exhausted	-12819
▁fantastic	-12820
▁favouring	-12821
▁Revolution	-12822
▁preferably	-12823
▁extensively	-12824
▁commissioned	-12825
▁vulnerability	-12826
ohl	-12827
aman	-12828
aysia	-12829
grass	-12830
nchez	-12831
▁Crow	-12832
▁dust	-12833
untary	-12834
▁anger	-12835
▁cryst	-12836
▁naive	-12837
▁ranks	-12838
▁risky	-12839
▁Either	-12840
▁flawed	-12841
▁Crowley	-12842
▁indebted	-12843
▁shifting	-12844
▁Buitenweg	-12845
▁temperature	-12846
▁unregulated	-12847
▁administered	-12848
▁appointments	-12849
huber	-12850
▁crude	-12851
▁traps	-12852
▁earned	-12853
▁critics	-12854
▁fitting	-12855
▁pledges	-12856
▁Gibraltar	-12857
▁scrapping	-12858
▁treatments	-12859
▁proportional	-12860
▁Ur	-12861
arat	-12862
▁bed	-12863
▁absorb	-12864
▁correl	-12865
business	-12866
▁Experts	-12867
▁agendas	-12868
▁hardest	-12869
▁Malaysia	-12870
▁Morillon	-12871
▁speedily	-12872
▁overriding	-12873
▁Reconstruction	-12874
ED	-12875
No	-12876
anz	-12877
▁ow	-12878
mans	-12879
uzzo	-12880
▁PVC	-12881
uture	-12882
▁laps	-12883
▁Drugs	-12884
▁waves	-12885
▁heated	-12886
▁wholes	-12887
▁cluster	-12888
▁clinical	-12889
▁systemic	-12890
▁Communism	-12891
▁Guatemala	-12892
▁concession	-12893
▁contentious	-12894
▁legitimately	-12895
new	-12896
lynn	-12897
ichet	-12898
oming	-12899
▁cows	-12900
▁ruin	-12901
▁scan	-12902
▁Strip	-12903
▁cocoa	-12904
▁classic	-12905
▁rolling	-12906
▁branches	-12907
▁cosmetic	-12908
▁adversely	-12909
▁budgeting	-12910
▁decreased	-12911
▁denounced	-12912
▁motorways	-12913
▁provocation	-12914
▁rub	-12915
▁bail	-12916
urable	-12917
▁expir	-12918
▁junta	-12919
▁scrap	-12920
▁cereal	-12921
▁hypoth	-12922
▁luxury	-12923
▁Farmers	-12924
▁auditing	-12925
▁Andersson	-12926
▁dismantle	-12927
▁negligence	-12928
▁benchmarking	-12929
▁Ke	-12930
hrkop	-12931
stant	-12932
▁deposit	-12933
▁seminar	-12934
▁attracted	-12935
▁Colleagues	-12936
▁sentiments	-12937
ctors	-12938
▁Karl	-12939
▁spur	-12940
funded	-12941
▁Flynn	-12942
▁Front	-12943
inburgh	-12944
▁Depart	-12945
▁Monnet	-12946
▁valued	-12947
▁Trichet	-12948
▁gravity	-12949
▁intrins	-12950
▁catching	-12951
▁mentality	-12952
▁realising	-12953
▁tripartite	-12954
▁generalised	-12955
ocal	-12956
▁Dup	-12957
▁Sur	-12958
legal	-12959
assoni	-12960
▁Klaus	-12961
▁Order	-12962
▁stems	-12963
▁unfav	-12964
sidents	-12965
▁Martens	-12966
▁exceeds	-12967
▁genital	-12968
▁notable	-12969
▁Frassoni	-12970
▁homework	-12971
▁compelled	-12972
▁celebrated	-12973
▁exaggerated	-12974
raw	-12975
uss	-12976
▁ox	-12977
China	-12978
▁Magh	-12979
▁Rest	-12980
▁band	-12981
▁plun	-12982
▁Veter	-12983
▁unple	-12984
▁dioxin	-12985
▁vested	-12986
▁Mission	-12987
▁conting	-12988
▁detract	-12989
▁receipt	-12990
▁Edinburgh	-12991
▁Whitehead	-12992
▁calculating	-12993
▁certificate	-12994
▁discriminate	-12995
▁installation	-12996
▁insignificant	-12997
▁fib	-12998
ichol	-12999
▁abdu	-13000
▁feat	-13001
▁indu	-13002
eeping	-13003
▁Minsk	-13004
▁basin	-13005
▁stops	-13006
▁turbul	-13007
▁Maghreb	-13008
▁winning	-13009
▁exerting	-13010
▁failings	-13011
▁habitats	-13012
▁arrogance	-13013
▁libraries	-13014
▁astonishing	-13015
▁distributing	-13016
▁interpreting	-13017
win	-13018
chel	-13019
isan	-13020
▁bag	-13021
usive	-13022
▁Flem	-13023
holder	-13024
reated	-13025
▁Nichol	-13026
entially	-13027
▁History	-13028
▁boycott	-13029
▁supreme	-13030
▁vaccine	-13031
thinkable	-13032
▁Contrary	-13033
▁prohibiting	-13034
esy	-13035
icacy	-13036
▁Five	-13037
▁TRIP	-13038
▁grip	-13039
▁dreams	-13040
▁lasted	-13041
informed	-13042
▁Country	-13043
▁Fatuzzo	-13044
▁sticking	-13045
▁magnitude	-13046
▁undergone	-13047
▁Veterinary	-13048
▁decreasing	-13049
▁formulating	-13050
▁unthinkable	-13051
ips	-13052
ette	-13053
ppro	-13054
rance	-13055
▁Prom	-13056
▁indul	-13057
▁likes	-13058
▁expiry	-13059
▁roughly	-13060
▁tighter	-13061
▁tightened	-13062
▁witnesses	-13063
▁gratifying	-13064
▁prerequisites	-13065
▁Recommendation	-13066
▁dissatisfaction	-13067
cers	-13068
feld	-13069
inth	-13070
▁sat	-13071
yssen	-13072
▁Mech	-13073
▁pream	-13074
olitano	-13075
▁Alpine	-13076
▁shield	-13077
▁careers	-13078
▁obliges	-13079
▁Africans	-13080
▁approves	-13081
▁leverage	-13082
▁maturity	-13083
▁entertain	-13084
▁exceeding	-13085
▁patenting	-13086
▁stipulate	-13087
▁domination	-13088
▁volunteers	-13089
cycl	-13090
oven	-13091
▁Dem	-13092
▁Inf	-13093
▁Phil	-13094
▁kick	-13095
▁leis	-13096
▁walk	-13097
▁Peter	-13098
▁UNHCR	-13099
▁steer	-13100
loading	-13101
▁Stream	-13102
▁monies	-13103
▁revive	-13104
▁sorted	-13105
▁strain	-13106
▁Company	-13107
▁assumes	-13108
▁suffice	-13109
isticated	-13110
▁expelled	-13111
▁intermod	-13112
▁pictures	-13113
▁diplomats	-13114
▁Napolitano	-13115
▁precautions	-13116
iler	-13117
▁FAO	-13118
forth	-13119
assoure	-13120
▁colleg	-13121
▁Eritrea	-13122
▁cumbers	-13123
▁fleeing	-13124
▁liaison	-13125
▁diversify	-13126
▁finishing	-13127
▁Ambassador	-13128
▁carcinogenic	-13129
inqu	-13130
▁VII	-13131
still	-13132
▁Bagh	-13133
▁Situ	-13134
▁doom	-13135
▁exit	-13136
carbon	-13137
ieving	-13138
▁Consid	-13139
▁Kallas	-13140
▁Respon	-13141
▁dishon	-13142
▁fixing	-13143
▁losers	-13144
▁Thyssen	-13145
▁auditors	-13146
▁incoming	-13147
▁workings	-13148
▁Technical	-13149
▁assertion	-13150
▁declaring	-13151
▁embryonic	-13152
▁Lamassoure	-13153
▁dissidents	-13154
▁transporting	-13155
▁assassination	-13156
▁comprehensively	-13157
▁ESF	-13158
▁sam	-13159
onial	-13160
▁Lies	-13161
▁unle	-13162
▁wife	-13163
▁CITES	-13164
▁Medic	-13165
▁crews	-13166
▁style	-13167
▁tonne	-13168
ivities	-13169
▁Airbus	-13170
▁Atomic	-13171
▁drinks	-13172
▁worded	-13173
sessions	-13174
▁happily	-13175
opulation	-13176
▁Position	-13177
▁Pakistani	-13178
▁abilities	-13179
▁indefinitely	-13180
▁civilisations	-13181
At	-13182
MS	-13183
▁Sj	-13184
▁wip	-13185
olese	-13186
▁Habs	-13187
Africa	-13188
▁Works	-13189
▁cyber	-13190
▁disqu	-13191
essment	-13192
ouncing	-13193
▁oversee	-13194
▁reactor	-13195
▁trigger	-13196
▁disposed	-13197
▁smallest	-13198
▁offenders	-13199
▁cumbersome	-13200
dad	-13201
viol	-13202
▁Lag	-13203
▁Ret	-13204
▁nic	-13205
▁row	-13206
ogene	-13207
Burton	-13208
ported	-13209
thodox	-13210
▁owner	-13211
▁dictated	-13212
▁omission	-13213
▁Colombian	-13214
▁continual	-13215
▁defensive	-13216
▁Schroedter	-13217
▁initiating	-13218
▁proclaimed	-13219
▁prosecuted	-13220
▁unpleasant	-13221
▁codification	-13222
ati	-13223
▁Ros	-13224
▁Tony	-13225
parent	-13226
ricted	-13227
▁admir	-13228
▁bills	-13229
▁consp	-13230
▁giant	-13231
▁retro	-13232
chement	-13233
umption	-13234
▁Deputy	-13235
▁fusion	-13236
▁Correct	-13237
▁stretch	-13238
▁Habsburg	-13239
▁Recovery	-13240
▁reversed	-13241
▁Eurogroup	-13242
▁commented	-13243
▁consequent	-13244
▁compromised	-13245
▁anticipation	-13246
▁unfavourable	-13247
stay	-13248
▁Ott	-13249
▁sav	-13250
▁Stud	-13251
▁fats	-13252
ensity	-13253
stones	-13254
▁Liese	-13255
▁annoy	-13256
▁chequ	-13257
▁Dupuis	-13258
▁unfold	-13259
ceptions	-13260
▁dealers	-13261
▁isolate	-13262
▁Decisions	-13263
▁Generally	-13264
▁champions	-13265
▁cigarette	-13266
▁Mozambique	-13267
▁admiration	-13268
▁conception	-13269
▁disclosure	-13270
▁geographic	-13271
CF	-13272
▁FIF	-13273
▁Coal	-13274
▁anth	-13275
idakis	-13276
▁waged	-13277
▁coffee	-13278
ventions	-13279
▁Baghdad	-13280
▁Welcome	-13281
▁breathe	-13282
▁Cultural	-13283
▁maximise	-13284
▁tailored	-13285
▁throwing	-13286
▁converted	-13287
▁elaborate	-13288
▁permissible	-13289
▁subordinate	-13290
▁artificially	-13291
▁sophisticated	-13292
▁Schr	-13293
▁bees	-13294
worthy	-13295
▁Adopt	-13296
▁Being	-13297
▁knock	-13298
▁revis	-13299
▁rival	-13300
earning	-13301
▁fruits	-13302
▁rappro	-13303
▁shocks	-13304
atzidakis	-13305
▁cleaning	-13306
▁indiscriminate	-13307
▁IA	-13308
▁VI	-13309
greg	-13310
gues	-13311
▁Fal	-13312
▁Nag	-13313
illar	-13314
posal	-13315
▁Trak	-13316
▁forge	-13317
▁mercy	-13318
▁uncon	-13319
atellis	-13320
inently	-13321
▁Future	-13322
▁Pension	-13323
▁monthly	-13324
▁roaming	-13325
▁wasting	-13326
paragraph	-13327
▁flourish	-13328
▁preamble	-13329
▁seasonal	-13330
▁Kyrgyzstan	-13331
▁censorship	-13332
▁facilitates	-13333
▁rapprochement	-13334
ena	-13335
cend	-13336
▁IMO	-13337
▁Life	-13338
▁anom	-13339
▁extr	-13340
▁Cunha	-13341
▁Weber	-13342
ceptive	-13343
sidered	-13344
children	-13345
▁listing	-13346
▁officer	-13347
▁hormones	-13348
▁perceive	-13349
▁meanwhile	-13350
▁recovered	-13351
▁abstaining	-13352
▁corrective	-13353
▁pronounced	-13354
▁Trakatellis	-13355
▁discrepancy	-13356
▁commissioners	-13357
▁Implementation	-13358
Ts	-13359
ori	-13360
▁Ant	-13361
▁bom	-13362
▁Alps	-13363
▁beer	-13364
▁mail	-13365
▁veal	-13366
▁Times	-13367
▁empow	-13368
▁irrit	-13369
▁tired	-13370
▁bottlene	-13371
▁populist	-13372
▁prestige	-13373
▁tribunal	-13374
▁communism	-13375
▁mountains	-13376
▁shortfall	-13377
▁critically	-13378
▁remembering	-13379
▁reproduction	-13380
administration	-13381
avan	-13382
bels	-13383
▁tab	-13384
antic	-13385
▁Arms	-13386
▁Tele	-13387
▁culp	-13388
atical	-13389
aluable	-13390
▁misused	-13391
barometer	-13392
▁discards	-13393
▁downturn	-13394
▁indisput	-13395
▁settling	-13396
▁specifies	-13397
▁revolutionary	-13398
prom	-13399
▁mixt	-13400
▁thin	-13401
founded	-13402
▁Franco	-13403
▁curric	-13404
▁bluefin	-13405
▁inconce	-13406
▁leisure	-13407
▁thereof	-13408
▁forceful	-13409
▁unwanted	-13410
▁paradoxical	-13411
▁superficial	-13412
▁strategically	-13413
ijs	-13414
tat	-13415
ych	-13416
▁IP	-13417
isal	-13418
mony	-13419
▁gru	-13420
▁Nazi	-13421
▁thir	-13422
▁angle	-13423
▁paths	-13424
▁George	-13425
▁slaught	-13426
uccessful	-13427
▁cabotage	-13428
▁ceremony	-13429
▁hostages	-13430
industrial	-13431
▁Governing	-13432
▁apologies	-13433
▁conceived	-13434
▁accusation	-13435
▁appointing	-13436
ellaf	-13437
enter	-13438
▁Goeb	-13439
brella	-13440
roduce	-13441
▁Camer	-13442
▁infer	-13443
▁Breyer	-13444
▁Advisory	-13445
▁Euroscept	-13446
▁landmines	-13447
▁powerless	-13448
▁Hatzidakis	-13449
▁progressed	-13450
▁standstill	-13451
▁xenophobic	-13452
▁laboratories	-13453
▁totalitarianism	-13454
CTA	-13455
ras	-13456
quin	-13457
wage	-13458
ouble	-13459
▁Laos	-13460
▁aven	-13461
▁lying	-13462
▁annexed	-13463
▁earnest	-13464
▁handing	-13465
▁restaur	-13466
ellafield	-13467
▁Goebbels	-13468
▁closures	-13469
▁Documents	-13470
▁dismissed	-13471
▁groupings	-13472
▁presumably	-13473
▁contradicts	-13474
▁restructure	-13475
▁Transnistria	-13476
▁governmental	-13477
zek	-13478
▁Ru	-13479
▁VO	-13480
avour	-13481
ernal	-13482
eting	-13483
otism	-13484
▁gene	-13485
▁cloud	-13486
▁disin	-13487
▁matches	-13488
▁exempted	-13489
▁provoked	-13490
▁recording	-13491
▁signatory	-13492
▁accomplish	-13493
bel	-13494
zog	-13495
rugu	-13496
▁Abu	-13497
▁Bah	-13498
▁Gah	-13499
balgs	-13500
▁ears	-13501
▁Turks	-13502
▁freed	-13503
▁relies	-13504
▁Lancker	-13505
▁contest	-13506
▁sharply	-13507
alienable	-13508
▁Piebalgs	-13509
▁mandates	-13510
▁marketed	-13511
▁collapsed	-13512
▁Sellafield	-13513
▁nutritional	-13514
▁slaughtered	-13515
▁constructing	-13516
EGF	-13517
inci	-13518
▁vic	-13519
inked	-13520
▁Lucas	-13521
▁Ocean	-13522
▁tanks	-13523
▁golden	-13524
▁reside	-13525
▁counted	-13526
▁demagog	-13527
personnel	-13528
▁reacting	-13529
▁illusions	-13530
▁inflicted	-13531
▁stagnation	-13532
▁definitively	-13533
afi	-13534
▁Ay	-13535
roes	-13536
▁Kor	-13537
▁Tor	-13538
▁Diff	-13539
▁mood	-13540
▁stig	-13541
admium	-13542
linson	-13543
ocaust	-13544
▁gangs	-13545
▁inval	-13546
▁reign	-13547
▁rebate	-13548
▁custody	-13549
▁deepest	-13550
▁inaccur	-13551
▁nominal	-13552
▁obscure	-13553
▁evolving	-13554
▁Tomlinson	-13555
▁Department	-13556
▁campaigning	-13557
▁eradicating	-13558
uit	-13559
▁Had	-13560
▁tor	-13561
erting	-13562
▁Fraga	-13563
▁hards	-13564
▁resem	-13565
▁chains	-13566
▁evolve	-13567
▁waited	-13568
military	-13569
▁confess	-13570
▁rumours	-13571
▁warmest	-13572
unctional	-13573
▁formerly	-13574
▁residing	-13575
▁abstention	-13576
▁invaluable	-13577
▁nationally	-13578
▁earthquakes	-13579
▁transposing	-13580
▁deteriorated	-13581
▁predominantly	-13582
▁Representatives	-13583
Pal	-13584
imm	-13585
irs	-13586
bner	-13587
ials	-13588
risis	-13589
stick	-13590
▁Tann	-13591
▁olig	-13592
author	-13593
secure	-13594
▁Alber	-13595
opoulou	-13596
respect	-13597
▁Lamber	-13598
▁phases	-13599
▁rebels	-13600
▁Tannock	-13601
itisation	-13602
▁Platform	-13603
▁commonly	-13604
▁deletion	-13605
▁homeless	-13606
▁preoccup	-13607
▁supervis	-13608
▁divergent	-13609
▁documented	-13610
▁permitting	-13611
▁criminality	-13612
▁influential	-13613
▁broadcasters	-13614
▁substitution	-13615
Est	-13616
pse	-13617
Loud	-13618
phas	-13619
▁Mol	-13620
urate	-13621
works	-13622
▁Burg	-13623
▁Capp	-13624
▁Fava	-13625
▁Gisc	-13626
▁eggs	-13627
▁Earth	-13628
▁owned	-13629
▁lawful	-13630
▁strand	-13631
polluter	-13632
▁Giscard	-13633
▁revival	-13634
▁teacher	-13635
▁umbrella	-13636
▁outbreaks	-13637
▁prohibits	-13638
▁specifying	-13639
▁reactionary	-13640
▁Eurobarometer	-13641
▁clarifications	-13642
▁municipalities	-13643
AI	-13644
Ex	-13645
oom	-13646
ppi	-13647
▁Nicar	-13648
▁index	-13649
▁Animal	-13650
▁Econom	-13651
▁opting	-13652
▁posted	-13653
uaestors	-13654
▁Cappato	-13655
▁miracle	-13656
▁residues	-13657
▁acquiring	-13658
▁Rapporteur	-13659
▁suspending	-13660
▁presupposes	-13661
▁inconceivable	-13662
POL	-13663
Weg	-13664
ogas	-13665
▁Kau	-13666
▁WEU	-13667
▁hake	-13668
▁slip	-13669
▁Facil	-13670
▁corps	-13671
▁Libyan	-13672
▁Observ	-13673
▁myster	-13674
▁lobbies	-13675
▁Valencia	-13676
▁abstract	-13677
▁dominate	-13678
▁takeover	-13679
▁Alongside	-13680
▁alcoholic	-13681
▁forbidden	-13682
▁interrupted	-13683
aug	-13684
bas	-13685
aard	-13686
oulou	-13687
▁mild	-13688
Weggen	-13689
▁celeb	-13690
▁coerc	-13691
▁eloqu	-13692
▁reimb	-13693
▁trian	-13694
▁Sacconi	-13695
▁horrend	-13696
▁Increasing	-13697
▁overshadow	-13698
▁constituted	-13699
▁inalienable	-13700
▁unrestricted	-13701
vig	-13702
idis	-13703
pret	-13704
▁Put	-13705
arthy	-13706
avier	-13707
▁Gill	-13708
▁Maij	-13709
▁Mier	-13710
people	-13711
▁overe	-13712
atorial	-13713
▁Munich	-13714
▁rounds	-13715
▁Amongst	-13716
▁accounted	-13717
▁disparity	-13718
▁infectious	-13719
▁surrounded	-13720
▁commissioner	-13721
▁interdependence	-13722
.’	-13723
▁Di	-13724
agasc	-13725
aired	-13726
armon	-13727
▁Duff	-13728
▁Buzek	-13729
▁helpl	-13730
▁mafia	-13731
▁tyran	-13732
ighters	-13733
▁Making	-13734
▁argues	-13735
▁segreg	-13736
products	-13737
▁expired	-13738
▁McCarthy	-13739
▁Guidelines	-13740
▁appropriation	-13741
▁multicultural	-13742
ado	-13743
bro	-13744
emy	-13745
isi	-13746
aing	-13747
urtz	-13748
▁rand	-13749
▁Charl	-13750
▁Wurtz	-13751
▁blunt	-13752
▁layer	-13753
▁Kauppi	-13754
▁deduct	-13755
▁pedest	-13756
▁Diamant	-13757
▁crystal	-13758
▁Tibetans	-13759
▁conveyed	-13760
▁endorsing	-13761
▁liberation	-13762
▁presidents	-13763
▁reassuring	-13764
▁correlation	-13765
▁Independence	-13766
▁cornerstones	-13767
REG	-13768
azed	-13769
▁shr	-13770
▁tie	-13771
▁Gold	-13772
▁epis	-13773
saving	-13774
▁Genoa	-13775
▁Katif	-13776
▁dirty	-13777
▁insur	-13778
▁patch	-13779
▁redef	-13780
stanbul	-13781
▁Belder	-13782
▁Turmes	-13783
▁random	-13784
▁Whereas	-13785
▁annexes	-13786
▁shelter	-13787
vin	-13788
▁CD	-13789
cost	-13790
assad	-13791
ceans	-13792
▁Mess	-13793
▁Ross	-13794
guided	-13795
▁Force	-13796
▁Staes	-13797
▁McCart	-13798
▁Warsaw	-13799
▁admire	-13800
▁indict	-13801
ternally	-13802
▁Fernand	-13803
▁Maltese	-13804
▁Istanbul	-13805
▁broadest	-13806
▁polluted	-13807
legislator	-13808
▁pertaining	-13809
▁physically	-13810
▁formalities	-13811
▁underground	-13812
▁ecologically	-13813
OS	-13814
RB	-13815
plo	-13816
Alba	-13817
annel	-13818
wning	-13819
▁Oral	-13820
▁gift	-13821
▁verb	-13822
▁wear	-13823
aments	-13824
racted	-13825
▁ample	-13826
▁undue	-13827
▁coward	-13828
▁Holland	-13829
▁apparat	-13830
▁carrier	-13831
▁Madagasc	-13832
▁Nigerian	-13833
▁excesses	-13834
▁Katiforis	-13835
▁Nicholson	-13836
▁childhood	-13837
▁nominated	-13838
▁reassured	-13839
▁strengths	-13840
▁logistical	-13841
▁variations	-13842
▁jeopardised	-13843
▁Negotiations	-13844
▁Unemployment	-13845
▁Ts	-13846
orum	-13847
▁INT	-13848
catch	-13849
ilder	-13850
▁ERDF	-13851
▁beet	-13852
▁fran	-13853
▁amazed	-13854
▁decree	-13855
▁invoked	-13856
▁diplomas	-13857
▁sterling	-13858
Commission	-13859
▁attentive	-13860
▁unbalanced	-13861
▁observatory	-13862
)(	-13863
DER	-13864
ape	-13865
▁Kl	-13866
ESCO	-13867
post	-13868
inson	-13869
▁Sepp	-13870
▁bind	-13871
▁MEDIA	-13872
▁actor	-13873
▁dozen	-13874
▁sweet	-13875
undling	-13876
▁accent	-13877
▁testim	-13878
▁Brittan	-13879
▁opposes	-13880
▁turnout	-13881
intention	-13882
▁excludes	-13883
▁flagship	-13884
▁offshore	-13885
▁rendered	-13886
▁apparatus	-13887
▁exchanged	-13888
▁supervise	-13889
▁announcing	-13890
▁enrichment	-13891
▁Corrections	-13892
▁Observatory	-13893
▁speculators	-13894
▁Diamantopoulou	-13895
Un	-13896
ae	-13897
fl	-13898
ups	-13899
odes	-13900
▁Lar	-13901
▁eup	-13902
chair	-13903
ollar	-13904
▁Wise	-13905
▁bone	-13906
▁dedu	-13907
erates	-13908
public	-13909
landers	-13910
manship	-13911
ulously	-13912
▁requis	-13913
▁strang	-13914
▁enacted	-13915
▁Congratul	-13916
▁Situation	-13917
▁brilliant	-13918
▁aspiration	-13919
▁henceforth	-13920
▁horrendous	-13921
continuation	-13922
▁Conventions	-13923
▁Eurocontrol	-13924
▁collaborate	-13925
▁complaining	-13926
▁stereotypes	-13927
SME	-13928
asi	-13929
▁Si	-13930
aden	-13931
▁Lyn	-13932
atric	-13933
▁Dise	-13934
▁Iron	-13935
▁Tind	-13936
▁fles	-13937
▁hang	-13938
▁spar	-13939
addafi	-13940
izarre	-13941
▁inaug	-13942
cessing	-13943
seekers	-13944
▁Javier	-13945
▁harness	-13946
▁quoting	-13947
▁perverse	-13948
▁clarifies	-13949
▁delegates	-13950
▁intending	-13951
▁logically	-13952
▁astonished	-13953
▁interconnect	-13954
▁disagreements	-13955
ikh	-13956
agua	-13957
▁MPs	-13958
elles	-13959
▁load	-13960
▁arsen	-13961
▁demol	-13962
assadors	-13963
▁verified	-13964
peripheral	-13965
▁Strategic	-13966
▁pipelines	-13967
▁intervened	-13968
▁distributors	-13969
▁:	-13970
BRD	-13971
tes	-13972
imed	-13973
▁FTA	-13974
▁Job	-13975
▁Lou	-13976
▁Tog	-13977
atics	-13978
green	-13979
laude	-13980
▁Pope	-13981
Palest	-13982
ealand	-13983
ruguay	-13984
▁Lakes	-13985
▁bounds	-13986
▁Interim	-13987
implement	-13988
▁Interior	-13989
▁accuracy	-13990
▁incompet	-13991
▁headlines	-13992
▁flexicurity	-13993
▁employability	-13994
▁geographically	-13995
▁Congratulations	-13996
ilin	-13997
▁Exc	-13998
▁Vil	-13999
anamo	-14000
undus	-14001
▁EEAS	-14002
sector	-14003
▁Point	-14004
▁avian	-14005
▁Rasmus	-14006
▁Solbes	-14007
▁cinema	-14008
▁expose	-14009
▁lodged	-14010
▁vigour	-14011
ichester	-14012
▁Latvian	-14013
▁Uruguay	-14014
▁matched	-14015
▁cutbacks	-14016
▁distrust	-14017
▁doubling	-14018
▁mortgage	-14019
▁adjusting	-14020
▁falsified	-14021
▁infringed	-14022
▁restricts	-14023
▁sympathetic	-14024
▁reorganisation	-14025
aya	-14026
raf	-14027
ilia	-14028
▁Bav	-14029
nisch	-14030
venes	-14031
▁Link	-14032
▁unbel	-14033
minated	-14034
pelling	-14035
reading	-14036
▁Maaten	-14037
Atlantic	-14038
▁Renault	-14039
▁contend	-14040
▁advisers	-14041
▁rightful	-14042
▁marriages	-14043
▁misguided	-14044
▁opportune	-14045
▁pesticide	-14046
▁prejudices	-14047
▁endeavoured	-14048
▁subcontract	-14049
▁transforming	-14050
▁intermediaries	-14051
UC	-14052
▁Hy	-14053
adel	-14054
tier	-14055
▁Tar	-14056
▁apt	-14057
▁Goll	-14058
▁hate	-14059
insula	-14060
ounder	-14061
▁Eight	-14062
▁River	-14063
▁extin	-14064
▁Jensen	-14065
▁intact	-14066
▁notify	-14067
▁Precise	-14068
▁Respect	-14069
▁concise	-14070
▁contexts	-14071
▁devising	-14072
▁disputed	-14073
▁utilised	-14074
▁Gollnisch	-14075
▁Rasmussen	-14076
▁revealing	-14077
sufficiency	-14078
▁Chichester	-14079
▁Especially	-14080
▁Madagascar	-14081
▁cooperated	-14082
▁discharges	-14083
▁inflexible	-14084
VE	-14085
Tur	-14086
opp	-14087
vol	-14088
type	-14089
▁aeg	-14090
▁mir	-14091
▁sli	-14092
▁Ribe	-14093
▁reap	-14094
▁Boliv	-14095
▁haste	-14096
▁video	-14097
▁biogas	-14098
▁caring	-14099
▁strugg	-14100
[...]
