<pad>	0
<s>	0
</s>	0
<unk>	0
▁d	-0
es	-1
▁l	-2
on	-3
en	-4
▁p	-5
▁c	-6
ti	-7
▁de	-8
ur	-9
qu	-10
▁s	-11
▁a	-12
er	-13
ent	-14
re	-15
an	-16
is	-17
ou	-18
▁e	-19
▁qu	-20
in	-21
it	-22
▁la	-23
tion	-24
▁n	-25
▁m	-26
le	-27
ment	-28
ra	-29
ar	-30
un	-31
▁et	-32
si	-33
or	-34
▁le	-35
om	-36
te	-37
ré	-38
▁les	-39
▁t	-40
▁à	-41
▁des	-42
▁f	-43
ro	-44
ons	-45
il	-46
▁po	-47
▁que	-48
▁en	-49
ous	-50
▁un	-51
▁v	-52
▁au	-53
el	-54
ation	-55
me	-56
ont	-57
ant	-58
▁é	-59
ai	-60
li	-61
res	-62
▁C	-63
ans	-64
op	-65
ce	-66
▁ce	-67
▁dé	-68
▁par	-69
us	-70
est	-71
▁pro	-72
as	-73
ri	-74
▁pour	-75
té	-76
au	-77
ta	-78
ci	-79
▁du	-80
▁com	-81
que	-82
ve	-83
al	-84
ne	-85
▁ré	-86
▁j	-87
ité	-88
▁in	-89
▁dans	-90
▁nous	-91
tre	-92
▁con	-93
▁qui	-94
lement	-95
▁M	-96
▁b	-97
oi	-98
▁L	-99
▁re	-100
▁P	-101
urop	-102
pp	-103
ch	-104
▁une	-105
mp	-106
▁pas	-107
▁g	-108
▁sur	-109
▁est	-110
ort	-111
sion	-112
▁pl	-113
eu	-114
se	-115
our	-116
de	-117
ais	-118
mis	-119
éen	-120
aire	-121
uropéen	-122
eur	-123
les	-124
▁européen	-125
ts	-126
ff	-127
di	-128
ni	-129
▁ne	-130
ag	-131
▁ra	-132
ait	-133
tte	-134
ter	-135
ouv	-136
ère	-137
▁se	-138
ol	-139
▁pré	-140
▁di	-141
os	-142
▁J	-143
ces	-144
end	-145
ab	-146
mes	-147
mb	-148
ir	-149
sid	-150
ée	-151
▁je	-152
ac	-153
▁plus	-154
tions	-155
▁Com	-156
▁ex	-157
▁me	-158
mission	-159
pe	-160
▁su	-161
ers	-162
▁r	-163
▁tou	-164
▁ac	-165
imp	-166
ques	-167
ati	-168
▁av	-169
▁ch	-170
tu	-171
elle	-172
▁il	-173
▁-	-174
▁tr	-175
ain	-176
ul	-177
▁N	-178
ens	-179
urs	-180
▁cons	-181
ie	-182
at	-183
ys	-184
▁pr	-185
ès	-186
▁tra	-187
▁aux	-188
▁E	-189
és	-190
▁rapp	-191
▁Je	-192
▁o	-193
▁cette	-194
▁cont	-195
une	-196
ence	-197
▁I	-198
▁mo	-199
▁dev	-200
tique	-201
ations	-202
▁pa	-203
▁comp	-204
▁Commission	-205
sieur	-206
▁sou	-207
onn	-208
ord	-209
▁conc	-210
▁européenne	-211
av	-212
▁sont	-213
ées	-214
fi	-215
sident	-216
▁ave	-217
ure	-218
être	-219
ten	-220
ér	-221
▁so	-222
ance	-223
▁poli	-224
▁prop	-225
du	-226
tes	-227
oir	-228
Uni	-229
ale	-230
ux	-231
▁ent	-232
ad	-233
▁li	-234
▁avec	-235
Éta	-236
▁Il	-237
▁Par	-238
aux	-239
cti	-240
ge	-241
je	-242
and	-243
▁res	-244
Union	-245
▁comm	-246
ins	-247
aut	-248
ue	-249
ssi	-250
▁imp	-251
▁h	-252
▁Nous	-253
▁peu	-254
▁si	-255
▁parti	-256
oc	-257
▁ser	-258
ég	-259
éra	-260
▁Pré	-261
▁Mon	-262
ments	-263
ction	-264
▁mais	-265
▁ces	-266
▁pays	-267
▁S	-268
▁no	-269
vi	-270
▁te	-271
▁gr	-272
▁Président	-273
sent	-274
▁Monsieur	-275
▁rapport	-276
▁Éta	-277
am	-278
lè	-279
aires	-280
▁être	-281
gi	-282
▁app	-283
▁dis	-284
▁D	-285
▁fait	-286
ui	-287
tr	-288
ois	-289
▁ou	-290
eil	-291
▁A	-292
▁Parlement	-293
for	-294
▁été	-295
▁ont	-296
▁memb	-297
▁La	-298
cu	-299
roit	-300
▁ég	-301
alement	-302
▁États	-303
▁Le	-304
che	-305
osi	-306
ien	-307
ond	-308
▁politique	-309
pr	-310
▁vous	-311
▁dire	-312
▁Cons	-313
▁ques	-314
▁mon	-315
ail	-316
age	-317
▁entre	-318
én	-319
▁droit	-320
ême	-321
▁comme	-322
▁trav	-323
▁an	-324
▁éc	-325
▁Conseil	-326
▁tout	-327
ct	-328
▁vo	-329
▁pu	-330
▁membres	-331
mi	-332
ite	-333
bli	-334
ors	-335
onne	-336
▁mes	-337
▁co	-338
ise	-339
titu	-340
▁fin	-341
▁(	-342
elles	-343
▁également	-344
éc	-345
ven	-346
▁eff	-347
oit	-348
lle	-349
ouver	-350
ble	-351
fin	-352
▁per	-353
▁nom	-354
▁déc	-355
gra	-356
▁T	-357
▁B	-358
éri	-359
teur	-360
ves	-361
oy	-362
▁vou	-363
▁aussi	-364
urope	-365
▁mar	-366
▁En	-367
ités	-368
cess	-369
▁concer	-370
▁travail	-371
▁inter	-372
isi	-373
bre	-374
ants	-375
▁acc	-376
ex	-377
▁vi	-378
▁Ce	-379
vent	-380
ique	-381
▁rés	-382
teurs	-383
▁import	-384
onom	-385
▁faire	-386
▁notre	-387
▁cer	-388
tra	-389
lé	-390
▁dép	-391
ela	-392
ales	-393
▁aut	-394
▁ins	-395
▁soci	-396
olu	-397
jour	-398
mer	-399
▁y	-400
ures	-401
able	-402
gn	-403
▁bien	-404
▁avons	-405
ande	-406
▁proposi	-407
▁leur	-408
▁doit	-409
onc	-410
ème	-411
▁tous	-412
ense	-413
tiques	-414
▁pers	-415
co	-416
▁ad	-417
ine	-418
▁ter	-419
eux	-420
▁certa	-421
▁très	-422
▁Les	-423
▁for	-424
▁trans	-425
▁dem	-426
▁son	-427
endre	-428
ace	-429
▁question	-430
▁es	-431
lis	-432
▁ca	-433
▁prob	-434
▁même	-435
▁commun	-436
▁dév	-437
met	-438
elop	-439
ilité	-440
dra	-441
▁né	-442
cation	-443
éd	-444
▁peut	-445
▁cl	-446
ères	-447
▁déb	-448
▁dévelop	-449
min	-450
rai	-451
▁ob	-452
tru	-453
alis	-454
emp	-455
▁diff	-456
tés	-457
▁devons	-458
ani	-459
▁économ	-460
ét	-461
▁as	-462
▁am	-463
▁problè	-464
▁i	-465
acc	-466
app	-467
ouve	-468
ut	-469
gu	-470
aine	-471
vre	-472
▁droits	-473
▁présent	-474
▁deux	-475
int	-476
▁nos	-477
▁régi	-478
rois	-479
fs	-480
enti	-481
ist	-482
▁ni	-483
jet	-484
▁march	-485
▁contre	-486
ler	-487
▁R	-488
▁produ	-489
ard	-490
▁ti	-491
▁rép	-492
▁nécess	-493
éli	-494
▁pri	-495
▁voudra	-496
▁pouv	-497
▁lors	-498
UE	-499
▁nombre	-500
tin	-501
▁sa	-502
itu	-503
alité	-504
cip	-505
ser	-506
ic	-507
èg	-508
▁seu	-509
▁fond	-510
▁col	-511
ctive	-512
▁voudrais	-513
els	-514
▁rec	-515
Europe	-516
▁inté	-517
iter	-518
▁pre	-519
use	-520
▁dém	-521
▁non	-522
ises	-523
▁at	-524
uti	-525
ob	-526
gie	-527
▁développe	-528
ud	-529
▁cela	-530
▁particu	-531
▁fa	-532
lu	-533
▁exp	-534
▁particuli	-535
▁grou	-536
ille	-537
itoy	-538
▁som	-539
ération	-540
▁donc	-541
rit	-542
▁al	-543
▁règ	-544
rait	-545
ante	-546
▁rel	-547
▁ren	-548
▁jus	-549
▁disp	-550
cep	-551
▁développement	-552
▁ses	-553
▁proposition	-554
▁dont	-555
insi	-556
▁dom	-557
▁prin	-558
form	-559
olution	-560
▁lég	-561
▁cré	-562
▁mati	-563
miss	-564
mment	-565
▁donn	-566
▁soit	-567
ang	-568
core	-569
▁ma	-570
▁sans	-571
iti	-572
▁quel	-573
▁situ	-574
▁encore	-575
▁mani	-576
jourd	-577
ellement	-578
▁possi	-579
ende	-580
▁citoy	-581
tri	-582
▁personn	-583
équ	-584
jecti	-585
écur	-586
ora	-587
hui	-588
▁car	-589
▁sec	-590
▁der	-591
ver	-592
nement	-593
écurité	-594
▁rep	-595
▁ainsi	-596
ig	-597
sions	-598
missaire	-599
mps	-600
▁éta	-601
▁commission	-602
▁F	-603
um	-604
▁publi	-605
▁accord	-606
cer	-607
▁débat	-608
▁ann	-609
ôle	-610
▁sécurité	-611
tant	-612
▁mil	-613
anti	-614
▁important	-615
▁cas	-616
▁effe	-617
ours	-618
▁toute	-619
omm	-620
enir	-621
▁derni	-622
▁faut	-623
▁suis	-624
céd	-625
▁concern	-626
▁nouv	-627
▁finan	-628
nes	-629
▁ag	-630
▁ar	-631
adre	-632
▁ab	-633
cher	-634
aient	-635
▁rais	-636
gram	-637
ose	-638
ents	-639
ara	-640
rer	-641
▁mesures	-642
ada	-643
bilité	-644
▁point	-645
▁marché	-646
anis	-647
uer	-648
ocra	-649
sse	-650
▁matière	-651
▁program	-652
▁situation	-653
▁premi	-654
vir	-655
▁sys	-656
▁compr	-657
▁posi	-658
▁pense	-659
▁citoyens	-660
▁or	-661
oivent	-662
orte	-663
its	-664
▁gouver	-665
▁consid	-666
▁min	-667
▁elle	-668
▁G	-669
▁permet	-670
▁bud	-671
oci	-672
isse	-673
▁V	-674
bles	-675
ision	-676
▁leurs	-677
mble	-678
▁nive	-679
ner	-680
▁nouve	-681
▁groupe	-682
id	-683
▁transp	-684
▁cet	-685
▁doivent	-686
ils	-687
iste	-688
▁Mes	-689
▁afin	-690
onnement	-691
▁politiques	-692
▁év	-693
nation	-694
jà	-695
▁sommes	-696
ative	-697
autres	-698
▁syst	-699
▁sav	-700
▁déjà	-701
▁gén	-702
▁nation	-703
▁actu	-704
▁conf	-705
▁bas	-706
ult	-707
oin	-708
▁où	-709
utilis	-710
rop	-711
▁met	-712
▁crois	-713
▁lib	-714
▁respe	-715
▁économique	-716
▁manière	-717
▁gar	-718
▁O	-719
▁cadre	-720
▁aujourd	-721
ences	-722
▁main	-723
▁"	-724
eure	-725
rê	-726
sieurs	-727
tement	-728
ables	-729
▁propos	-730
adame	-731
▁ass	-732
endant	-733
▁démocra	-734
pu	-735
▁op	-736
oup	-737
▁aff	-738
▁souti	-739
▁Madame	-740
isl	-741
▁souh	-742
▁concerne	-743
tionn	-744
auc	-745
▁vis	-746
ong	-747
èrement	-748
▁internation	-749
▁part	-750
rib	-751
quer	-752
▁financi	-753
▁men	-754
▁différ	-755
▁nég	-756
▁constitu	-757
▁tant	-758
pons	-759
▁niveau	-760
▁objecti	-761
▁sera	-762
▁temps	-763
dé	-764
▁directive	-765
out	-766
ente	-767
accord	-768
▁demand	-769
▁collè	-770
▁aur	-771
▁souhait	-772
▁législ	-773
▁problème	-774
erci	-775
▁servi	-776
vironnement	-777
ca	-778
▁coop	-779
▁grand	-780
arg	-781
▁on	-782
près	-783
▁dit	-784
▁personnes	-785
▁garanti	-786
▁procéd	-787
résent	-788
▁sp	-789
▁respons	-790
▁Pour	-791
ganis	-792
orts	-793
iss	-794
▁adop	-795
▁sta	-796
fois	-797
ront	-798
▁avant	-799
agit	-800
▁déf	-801
▁entrepr	-802
▁représent	-803
aines	-804
gues	-805
omme	-806
▁éle	-807
▁ess	-808
tection	-809
▁questions	-810
oute	-811
▁tel	-812
▁milli	-813
quoi	-814
mbl	-815
em	-816
olo	-817
▁U	-818
▁rappor	-819
▁fois	-820
él	-821
tenir	-822
▁protection	-823
▁contr	-824
▁autres	-825
édi	-826
ili	-827
▁Europe	-828
▁Dans	-829
▁cr	-830
▁toutes	-831
▁concernant	-832
merci	-833
▁conséqu	-834
▁parce	-835
oire	-836
▁remerci	-837
ire	-838
▁certains	-839
da	-840
▁sein	-841
ass	-842
▁bes	-843
ange	-844
▁exemp	-845
▁soi	-846
im	-847
▁amende	-848
▁domaine	-849
oris	-850
▁jour	-851
▁coopération	-852
hé	-853
▁contrib	-854
▁vue	-855
▁prof	-856
▁moy	-857
▁mal	-858
▁Mme	-859
▁moins	-860
iv	-861
▁décl	-862
▁princip	-863
▁système	-864
▁région	-865
▁institu	-866
▁généra	-867
▁auc	-868
exp	-869
▁monde	-870
▁réf	-871
▁cap	-872
▁fer	-873
esp	-874
lons	-875
uses	-876
homme	-877
ali	-878
traté	-879
ateurs	-880
▁problèmes	-881
▁règlement	-882
▁seulement	-883
tamment	-884
▁disc	-885
▁préc	-886
▁européens	-887
orités	-888
ide	-889
▁fr	-890
tiv	-891
gue	-892
cle	-893
▁renfor	-894
inté	-895
▁mettre	-896
év	-897
▁straté	-898
▁ceux	-899
▁rédu	-900
dre	-901
▁compte	-902
vention	-903
▁contin	-904
▁raison	-905
▁pourquoi	-906
orité	-907
▁cha	-908
ctions	-909
▁condi	-910
uri	-911
▁certain	-912
▁mise	-913
▁be	-914
▁sub	-915
▁grande	-916
rieur	-917
▁demande	-918
des	-919
▁programme	-920
ari	-921
truct	-922
▁négoci	-923
▁savoir	-924
ici	-925
▁gouvernement	-926
▁fem	-927
▁pouvoir	-928
▁secteur	-929
▁résolution	-930
▁consomm	-931
▁président	-932
cessus	-933
érer	-934
ov	-935
tention	-936
ulation	-937
xte	-938
▁processus	-939
▁rapporteur	-940
loi	-941
▁mont	-942
aucoup	-943
▁lieu	-944
uvre	-945
▁avoir	-946
jours	-947
▁particulier	-948
▁sous	-949
▁Si	-950
▁Mais	-951
▁possible	-952
▁emp	-953
▁toujours	-954
atives	-955
▁budge	-956
arti	-957
ances	-958
▁inc	-959
elon	-960
sance	-961
▁souli	-962
▁communaut	-963
▁exemple	-964
iques	-965
▁fon	-966
▁puis	-967
▁devrait	-968
entes	-969
▁pe	-970
▁base	-971
▁form	-972
▁simp	-973
sidence	-974
mblée	-975
▁ri	-976
éta	-977
ions	-978
▁beaucoup	-979
▁vote	-980
▁prév	-981
dus	-982
puis	-983
▁entreprises	-984
▁sujet	-985
urer	-986
nis	-987
▁soutien	-988
ric	-989
ph	-990
▁notamment	-991
quelle	-992
▁Commissaire	-993
▁laquelle	-994
▁À	-995
▁cours	-996
▁dépu	-997
ion	-998
▁prendre	-999
▁résul	-1000
▁services	-1001
▁eng	-1002
ient	-1003
▁mondi	-1004
▁cent	-1005
ément	-1006
▁commune	-1007
ament	-1008
ième	-1009
▁essenti	-1010
érence	-1011
veur	-1012
▁autre	-1013
▁long	-1014
▁traité	-1015
▁Cela	-1016
▁ju	-1017
orer	-1018
▁supp	-1019
▁propositions	-1020
▁partie	-1021
▁rôle	-1022
anté	-1023
▁H	-1024
▁faveur	-1025
▁collègues	-1026
▁conn	-1027
▁réalis	-1028
▁prog	-1029
▁Cette	-1030
hésion	-1031
▁Q	-1032
éci	-1033
▁K	-1034
▁santé	-1035
▁rég	-1036
▁lu	-1037
▁mesure	-1038
▁nécessaire	-1039
▁fondament	-1040
▁spéci	-1041
vers	-1042
▁tech	-1043
▁pouvons	-1044
▁effet	-1045
▁effic	-1046
▁prom	-1047
▁besoin	-1048
vis	-1049
▁utilis	-1050
▁claire	-1051
leurs	-1052
pendant	-1053
▁soient	-1054
▁votre	-1055
uridi	-1056
▁%	-1057
▁ress	-1058
▁juridi	-1059
▁cri	-1060
▁femmes	-1061
▁dur	-1062
▁Ch	-1063
été	-1064
ssemblée	-1065
abilité	-1066
fication	-1067
dustri	-1068
gne	-1069
▁serait	-1070
▁position	-1071
▁plu	-1072
tée	-1073
▁Au	-1074
▁années	-1075
▁recher	-1076
▁amendements	-1077
▁fonction	-1078
▁organis	-1079
▁vie	-1080
▁mis	-1081
▁reconn	-1082
▁pop	-1083
▁indi	-1084
ies	-1085
▁voi	-1086
▁objectifs	-1087
▁décision	-1088
éré	-1089
▁nouveau	-1090
▁fi	-1091
▁nouvelle	-1092
▁public	-1093
▁De	-1094
▁résulta	-1095
▁esp	-1096
ression	-1097
▁ét	-1098
çon	-1099
fic	-1100
action	-1101
▁soulign	-1102
▁ici	-1103
▁était	-1104
▁peuvent	-1105
▁plan	-1106
▁lui	-1107
▁pra	-1108
▁place	-1109
tie	-1110
▁défin	-1111
▁moi	-1112
omp	-1113
ussi	-1114
▁ils	-1115
lément	-1116
raient	-1117
anc	-1118
▁budget	-1119
▁cor	-1120
▁liber	-1121
heure	-1122
▁commissaire	-1123
▁conditions	-1124
tive	-1125
▁hum	-1126
cipe	-1127
fier	-1128
gment	-1129
▁produits	-1130
▁pai	-1131
tent	-1132
▁pê	-1133
enne	-1134
nent	-1135
▁pass	-1136
▁contrôle	-1137
▁équ	-1138
▁depuis	-1139
▁réfor	-1140
usement	-1141
ôt	-1142
▁unique	-1143
▁maj	-1144
▁meille	-1145
▁proch	-1146
lication	-1147
▁alors	-1148
ger	-1149
inter	-1150
▁ris	-1151
oration	-1152
ulture	-1153
▁après	-1154
gration	-1155
lles	-1156
▁justi	-1157
▁:	-1158
▁crise	-1159
cid	-1160
▁accep	-1161
endu	-1162
lent	-1163
cup	-1164
quel	-1165
▁nor	-1166
gé	-1167
▁mi	-1168
▁ans	-1169
environnement	-1170
élic	-1171
gique	-1172
jou	-1173
▁stratégie	-1174
par	-1175
▁quelques	-1176
▁principe	-1177
▁façon	-1178
ources	-1179
ann	-1180
▁députés	-1181
acité	-1182
mati	-1183
▁sociale	-1184
▁to	-1185
orter	-1186
▁félic	-1187
▁Messieurs	-1188
avant	-1189
▁présidence	-1190
venir	-1191
tenant	-1192
dames	-1193
▁respect	-1194
▁inform	-1195
▁régions	-1196
▁règles	-1197
▁lim	-1198
▁première	-1199
▁particip	-1200
ager	-1201
vesti	-1202
emploi	-1203
antes	-1204
▁là	-1205
▁para	-1206
▁Présidente	-1207
liqu	-1208
rodu	-1209
▁Mesdames	-1210
ez	-1211
▁dés	-1212
▁ten	-1213
urr	-1214
▁fonds	-1215
▁vrai	-1216
œuvre	-1217
▁dél	-1218
▁change	-1219
▁bonne	-1220
▁disposi	-1221
▁sû	-1222
▁recherche	-1223
▁sens	-1224
rêt	-1225
▁évi	-1226
eff	-1227
espère	-1228
ole	-1229
▁institutions	-1230
avenir	-1231
▁rap	-1232
▁vers	-1233
ouvent	-1234
oins	-1235
▁améli	-1236
▁eu	-1237
▁européennes	-1238
▁vol	-1239
▁nouveaux	-1240
▁projet	-1241
▁répons	-1242
▁jou	-1243
abord	-1244
ints	-1245
▁parlement	-1246
rons	-1247
▁initi	-1248
▁sign	-1249
éfi	-1250
▁viol	-1251
▁modi	-1252
aide	-1253
étaire	-1254
rions	-1255
▁millions	-1256
gré	-1257
▁législation	-1258
st	-1259
▁trois	-1260
▁bi	-1261
▁cel	-1262
vé	-1263
▁appro	-1264
▁struct	-1265
▁qualité	-1266
▁terme	-1267
érit	-1268
▁négociations	-1269
ordre	-1270
▁off	-1271
▁Qu	-1272
ss	-1273
▁parten	-1274
▁garantir	-1275
▁lutte	-1276
▁selon	-1277
▁?	-1278
▁va	-1279
▁séri	-1280
▁bon	-1281
▁clairement	-1282
▁peti	-1283
▁contribu	-1284
nements	-1285
ot	-1286
▁décisi	-1287
▁pourrait	-1288
▁nat	-1289
▁nouvelles	-1290
ode	-1291
▁remercier	-1292
▁communautaire	-1293
▁compé	-1294
▁bén	-1295
rent	-1296
▁oc	-1297
auté	-1298
ages	-1299
tif	-1300
entre	-1301
pes	-1302
▁four	-1303
éner	-1304
▁tota	-1305
▁procédure	-1306
▁consommateurs	-1307
▁mois	-1308
▁nombreux	-1309
▁im	-1310
▁sé	-1311
▁z	-1312
ill	-1313
▁seront	-1314
era	-1315
▁moment	-1316
jets	-1317
▁mod	-1318
lex	-1319
▁suff	-1320
▁respec	-1321
man	-1322
air	-1323
▁gra	-1324
▁dès	-1325
Unis	-1326
énergie	-1327
▁rem	-1328
▁éner	-1329
▁œuvre	-1330
▁pris	-1331
▁concurr	-1332
▁celle	-1333
▁nécessité	-1334
▁celui	-1335
▁bénéfi	-1336
▁voté	-1337
gni	-1338
▁voir	-1339
▁efficace	-1340
▁exc	-1341
▁juridique	-1342
▁trop	-1343
▁Assemblée	-1344
▁él	-1345
▁cour	-1346
▁sal	-1347
bil	-1348
▁conclu	-1349
inement	-1350
▁maintenant	-1351
▁chaque	-1352
cour	-1353
▁fav	-1354
▁ali	-1355
▁pours	-1356
▁abs	-1357
anger	-1358
import	-1359
▁pêche	-1360
tout	-1361
▁chose	-1362
▁plusieurs	-1363
autre	-1364
▁aid	-1365
▁vale	-1366
▁rapide	-1367
▁signi	-1368
▁convi	-1369
▁ph	-1370
▁points	-1371
▁membre	-1372
▁autorités	-1373
ancement	-1374
▁efforts	-1375
▁société	-1376
inform	-1377
mbre	-1378
▁reg	-1379
per	-1380
itaire	-1381
rim	-1382
issement	-1383
blig	-1384
▁ver	-1385
▁inf	-1386
▁visant	-1387
aration	-1388
▁premier	-1389
arité	-1390
rès	-1391
▁donner	-1392
gence	-1393
▁prix	-1394
▁Ces	-1395
oser	-1396
▁att	-1397
▁péri	-1398
▁coû	-1399
▁aucun	-1400
ress	-1401
avantage	-1402
▁surtout	-1403
▁médi	-1404
▁ressources	-1405
▁certaines	-1406
ître	-1407
▁enf	-1408
▁Une	-1409
▁démocratie	-1410
▁reste	-1411
▁liberté	-1412
ites	-1413
amende	-1414
moi	-1415
▁elles	-1416
occup	-1417
graph	-1418
▁atte	-1419
▁zon	-1420
▁budg	-1421
atis	-1422
▁économiques	-1423
atif	-1424
▁voulons	-1425
eurs	-1426
▁répond	-1427
▁tiens	-1428
▁avez	-1429
▁fac	-1430
agne	-1431
▁discus	-1432
▁précis	-1433
mun	-1434
tage	-1435
▁réun	-1436
anque	-1437
lid	-1438
▁importante	-1439
État	-1440
▁réponse	-1441
▁écrit	-1442
rè	-1443
▁solution	-1444
▁moyen	-1445
économ	-1446
▁responsabilité	-1447
▁Elle	-1448
▁comment	-1449
▁ref	-1450
▁intérieur	-1451
▁commerci	-1452
▁croissance	-1453
▁jusqu	-1454
unes	-1455
article	-1456
amin	-1457
▁comb	-1458
▁réc	-1459
▁conséquent	-1460
▁opp	-1461
estion	-1462
ensemble	-1463
ains	-1464
▁semble	-1465
casion	-1466
▁fra	-1467
▁travailleurs	-1468
▁davantage	-1469
▁réglement	-1470
▁soutenir	-1471
rico	-1472
cès	-1473
▁contrai	-1474
▁consta	-1475
ues	-1476
▁fut	-1477
▁relations	-1478
liquer	-1479
▁agrico	-1480
▁cli	-1481
▁veu	-1482
andi	-1483
▁concurrence	-1484
matique	-1485
▁lar	-1486
▁pens	-1487
▁fais	-1488
▁vérit	-1489
▁pres	-1490
quie	-1491
▁instru	-1492
▁Et	-1493
lic	-1494
▁donné	-1495
▁dernier	-1496
▁Comme	-1497
▁transpar	-1498
▁appr	-1499
vestisse	-1500
▁demander	-1501
▁égard	-1502
▁actuellement	-1503
▁centra	-1504
▁lorsque	-1505
▁aspe	-1506
▁.	-1507
indre	-1508
▁Toute	-1509
▁face	-1510
▁sûr	-1511
▁internationale	-1512
▁environnement	-1513
▁sem	-1514
▁création	-1515
ran	-1516
▁souligner	-1517
▁étr	-1518
▁volont	-1519
ate	-1520
ocu	-1521
▁domaines	-1522
▁État	-1523
eng	-1524
▁constitue	-1525
mette	-1526
ctives	-1527
▁progrès	-1528
▁sorte	-1529
▁outre	-1530
▁programmes	-1531
▁cir	-1532
ogue	-1533
▁terr	-1534
alu	-1535
▁id	-1536
▁différents	-1537
▁activ	-1538
nolo	-1539
dustrie	-1540
erce	-1541
éch	-1542
▁éch	-1543
▁paix	-1544
tifs	-1545
arm	-1546
▁aucune	-1547
fique	-1548
▁On	-1549
▁pau	-1550
▁termes	-1551
ctu	-1552
▁souvent	-1553
▁large	-1554
▁augment	-1555
▁dernière	-1556
▁ense	-1557
ier	-1558
▁avis	-1559
uite	-1560
vement	-1561
▁nu	-1562
ches	-1563
▁deuxième	-1564
▁renforcer	-1565
▁toutefois	-1566
▁lesqu	-1567
▁aura	-1568
▁avait	-1569
▁texte	-1570
ing	-1571
ement	-1572
ablement	-1573
ats	-1574
▁trouver	-1575
▁affaires	-1576
▁production	-1577
cont	-1578
▁rien	-1579
esti	-1580
isation	-1581
ussie	-1582
istre	-1583
amendement	-1584
▁dou	-1585
table	-1586
▁circ	-1587
▁mieux	-1588
qué	-1589
adop	-1590
▁connais	-1591
▁remar	-1592
onti	-1593
▁décisions	-1594
cts	-1595
agement	-1596
rêts	-1597
▁données	-1598
▁peup	-1599
▁gestion	-1600
ivi	-1601
▁rappel	-1602
argissement	-1603
êmes	-1604
▁repr	-1605
ateur	-1606
tis	-1607
tées	-1608
▁population	-1609
▁ait	-1610
▁clair	-1611
▁dial	-1612
▁comprom	-1613
▁sus	-1614
oses	-1615
isb	-1616
ête	-1617
▁aliment	-1618
▁transport	-1619
ît	-1620
▁communi	-1621
▁Tur	-1622
▁traite	-1623
isbonne	-1624
rée	-1625
▁résultats	-1626
èmes	-1627
▁tour	-1628
▁lequel	-1629
ap	-1630
dam	-1631
texte	-1632
▁compris	-1633
▁Lisbonne	-1634
trême	-1635
▁libre	-1636
▁enfants	-1637
▁possibilité	-1638
▁Un	-1639
▁telle	-1640
aise	-1641
ay	-1642
▁moyens	-1643
▁Con	-1644
istra	-1645
nique	-1646
même	-1647
atisf	-1648
▁existe	-1649
▁contra	-1650
▁nécessaires	-1651
▁étant	-1652
▁Toutefois	-1653
▁suiv	-1654
▁étrang	-1655
▁constru	-1656
▁publique	-1657
▁souhaite	-1658
ordin	-1659
▁choses	-1660
▁créer	-1661
▁docu	-1662
▁terroris	-1663
▁préoccup	-1664
▁seul	-1665
fie	-1666
ossi	-1667
▁voie	-1668
▁commerce	-1669
▁permettre	-1670
▁objectif	-1671
▁justice	-1672
▁période	-1673
isme	-1674
▁ple	-1675
▁diffic	-1676
▁financement	-1677
▁groupes	-1678
ministra	-1679
▁nombreuses	-1680
rimer	-1681
▁devraient	-1682
▁dialogue	-1683
▁technolo	-1684
alisation	-1685
▁fix	-1686
▁suffis	-1687
▁ty	-1688
gies	-1689
▁normes	-1690
▁quelque	-1691
▁actuelle	-1692
tons	-1693
▁heur	-1694
ercice	-1695
▁majorité	-1696
dis	-1697
la	-1698
▁général	-1699
EN	-1700
application	-1701
▁oblig	-1702
objecti	-1703
et	-1704
▁exig	-1705
▁année	-1706
▁accords	-1707
▁satisf	-1708
▁projets	-1709
▁commen	-1710
▁série	-1711
▁recomm	-1712
importance	-1713
améli	-1714
adhésion	-1715
▁remercie	-1716
▁esti	-1717
▁Enfin	-1718
▁proté	-1719
▁considéra	-1720
cteurs	-1721
▁devrions	-1722
lo	-1723
▁bénéfici	-1724
▁destin	-1725
information	-1726
lob	-1727
▁confi	-1728
aff	-1729
act	-1730
▁international	-1731
▁réforme	-1732
▁marchés	-1733
mination	-1734
téri	-1735
▁preu	-1736
▁diffici	-1737
▁Turquie	-1738
▁juste	-1739
▁simplement	-1740
▁fronti	-1741
mettez	-1742
sement	-1743
▁extrême	-1744
DE	-1745
▁poursui	-1746
▁continuer	-1747
▁démocratique	-1748
▁nationaux	-1749
▁propre	-1750
▁rév	-1751
▁compromis	-1752
land	-1753
▁ir	-1754
▁relative	-1755
▁cô	-1756
vez	-1757
▁ret	-1758
▁social	-1759
▁aille	-1760
▁essentiel	-1761
▁Russie	-1762
pend	-1763
▁titre	-1764
az	-1765
omb	-1766
ensi	-1767
▁enti	-1768
▁eux	-1769
fiques	-1770
▁encour	-1771
économie	-1772
▁jeunes	-1773
▁énergé	-1774
année	-1775
▁entendu	-1776
qui	-1777
industrie	-1778
▁arri	-1779
inc	-1780
▁intérêts	-1781
lois	-1782
ru	-1783
▁stabilité	-1784
▁dépens	-1785
ennent	-1786
sence	-1787
demment	-1788
▁libéra	-1789
ouvert	-1790
▁veil	-1791
▁capit	-1792
▁tiers	-1793
▁suc	-1794
âce	-1795
▁abord	-1796
▁contexte	-1797
▁ensemble	-1798
▁dispositions	-1799
▁raisons	-1800
▁ailleurs	-1801
vant	-1802
▁int	-1803
▁solid	-1804
amais	-1805
gueur	-1806
heureusement	-1807
▁vraiment	-1808
▁déter	-1809
▁pos	-1810
▁natur	-1811
aboration	-1812
▁cependant	-1813
▁réalité	-1814
▁principes	-1815
▁souten	-1816
▁actions	-1817
écu	-1818
▁exist	-1819
utilisation	-1820
▁sais	-1821
utôt	-1822
▁tent	-1823
lique	-1824
▁fam	-1825
▁crit	-1826
objectif	-1827
onds	-1828
olutions	-1829
▁jamais	-1830
osition	-1831
▁difficile	-1832
▁fau	-1833
▁Commun	-1834
▁condu	-1835
▁convient	-1836
▁seule	-1837
▁structur	-1838
▁Vous	-1839
▁voter	-1840
▁indé	-1841
tivité	-1842
▁perspe	-1843
lure	-1844
▁changement	-1845
roisi	-1846
▁Cour	-1847
▁compéti	-1848
▁appel	-1849
▁pratique	-1850
▁doute	-1851
élargissement	-1852
▁parler	-1853
▁suite	-1854
ancer	-1855
▁confl	-1856
▁port	-1857
roisième	-1858
▁divers	-1859
▁loc	-1860
▁contrô	-1861
▁cult	-1862
avoir	-1863
▁activités	-1864
nous	-1865
riculture	-1866
▁reconnais	-1867
▁quand	-1868
itaires	-1869
▁approche	-1870
clé	-1871
▁plutôt	-1872
▁financière	-1873
▁discu	-1874
▁extrêmement	-1875
".	-1876
endra	-1877
▁évid	-1878
▁territ	-1879
rir	-1880
ension	-1881
rec	-1882
▁quant	-1883
▁priv	-1884
▁informations	-1885
▁rendre	-1886
▁rev	-1887
▁conv	-1888
▁transf	-1889
▁font	-1890
égalité	-1891
▁dispos	-1892
▁dernières	-1893
appro	-1894
llem	-1895
asse	-1896
▁transparence	-1897
euros	-1898
ras	-1899
▁celles	-1900
toc	-1901
▁rapidement	-1902
dire	-1903
▁mondiale	-1904
▁répondre	-1905
▁risque	-1906
▁communication	-1907
moins	-1908
▁budgétaire	-1909
▁conséquences	-1910
▁contraire	-1911
▁aide	-1912
missions	-1913
▁volonté	-1914
▁parties	-1915
▁coll	-1916
tation	-1917
▁che	-1918
▁consci	-1919
▁eur	-1920
▁tels	-1921
▁accomp	-1922
▁nationales	-1923
▁durable	-1924
aluation	-1925
ène	-1926
▁glob	-1927
▁remp	-1928
▁étu	-1929
▁supplément	-1930
intérêt	-1931
▁Cependant	-1932
▁recommand	-1933
▁réduire	-1934
▁rapports	-1935
accep	-1936
▁puisse	-1937
ister	-1938
▁vois	-1939
éth	-1940
▁profes	-1941
▁lorsqu	-1942
▁différentes	-1943
▁permettra	-1944
▁déclaration	-1945
▁cara	-1946
▁orient	-1947
▁contribuer	-1948
▁systèmes	-1949
▁victi	-1950
▁hom	-1951
outi	-1952
▁preuve	-1953
▁réjou	-1954
▁mul	-1955
▁cause	-1956
▁devant	-1957
▁chers	-1958
▁Union	-1959
▁gouvernements	-1960
▁sy	-1961
▁collègue	-1962
▁déclar	-1963
avons	-1964
▁direc	-1965
▁Fonds	-1966
▁aspects	-1967
▁solidarité	-1968
lus	-1969
yp	-1970
▁fondamentaux	-1971
blis	-1972
isc	-1973
▁peux	-1974
niques	-1975
▁favora	-1976
▁méc	-1977
▁nuclé	-1978
▁cin	-1979
éric	-1980
▁meilleure	-1981
remi	-1982
▁fran	-1983
titude	-1984
▁entra	-1985
▁Nations	-1986
▁convain	-1987
▁fourni	-1988
serv	-1989
▁rése	-1990
êt	-1991
▁qua	-1992
▁importance	-1993
▁inv	-1994
médi	-1995
▁défense	-1996
▁savons	-1997
ret	-1998
sp	-1999
temps	-2000
▁ani	-2001
lande	-2002
▁cohésion	-2003
▁conten	-2004
▁Tout	-2005
anmoins	-2006
▁frontières	-2007
▁formation	-2008
▁Communauté	-2009
▁grâce	-2010
▁amb	-2011
▁appelle	-2012
suite	-2013
▁pendant	-2014
▁popul	-2015
▁sommet	-2016
▁assurer	-2017
▁candi	-2018
▁adopté	-2019
térieur	-2020
▁féliciter	-2021
ventions	-2022
▁attention	-2023
miner	-2024
▁précéd	-2025
rique	-2026
▁anim	-2027
ug	-2028
▁confiance	-2029
mettre	-2030
▁Premi	-2031
ris	-2032
opp	-2033
▁forme	-2034
▁régime	-2035
▁difficul	-2036
▁déta	-2037
▁th	-2038
▁-,	-2039
▁vu	-2040
▁aurait	-2041
▁demain	-2042
▁sci	-2043
atifs	-2044
▁critères	-2045
▁personne	-2046
accès	-2047
tives	-2048
▁fisc	-2049
▁ur	-2050
▁ay	-2051
arge	-2052
▁guer	-2053
▁taux	-2054
▁agricole	-2055
▁;	-2056
▁telles	-2057
▁Ils	-2058
ropri	-2059
▁Mal	-2060
▁vigueur	-2061
▁fai	-2062
oires	-2063
étu	-2064
érons	-2065
léments	-2066
▁réser	-2067
▁réduction	-2068
issant	-2069
prit	-2070
blir	-2071
▁procédures	-2072
▁unies	-2073
▁résultat	-2074
agn	-2075
▁danger	-2076
▁san	-2077
▁importants	-2078
▁uti	-2079
▁représente	-2080
▁examin	-2081
ducation	-2082
objet	-2083
titution	-2084
oni	-2085
agriculture	-2086
▁véritable	-2087
▁énergétique	-2088
▁promouv	-2089
▁ministre	-2090
▁passé	-2091
loit	-2092
▁té	-2093
intégration	-2094
nov	-2095
▁type	-2096
olument	-2097
▁valeurs	-2098
▁cher	-2099
▁trouve	-2100
▁améliorer	-2101
▁signifie	-2102
▁terrorisme	-2103
▁prises	-2104
▁sc	-2105
effic	-2106
▁Deux	-2107
ori	-2108
▁sociaux	-2109
▁industri	-2110
▁financières	-2111
ariat	-2112
▁administra	-2113
mé	-2114
▁propres	-2115
▁méth	-2116
téra	-2117
osé	-2118
▁exercice	-2119
all	-2120
▁équili	-2121
▁compét	-2122
tionnel	-2123
armon	-2124
▁chi	-2125
sez	-2126
ast	-2127
art	-2128
▁exprim	-2129
▁Tra	-2130
ends	-2131
ards	-2132
sionn	-2133
▁enfin	-2134
▁réellement	-2135
▁paragraph	-2136
▁prochaine	-2137
▁uniquement	-2138
▁investisse	-2139
▁élections	-2140
ines	-2141
▁victimes	-2142
▁mer	-2143
adoption	-2144
▁subst	-2145
▁pauvre	-2146
▁rappeler	-2147
tal	-2148
uss	-2149
▁certainement	-2150
ub	-2151
initi	-2152
▁faudra	-2153
occasion	-2154
▁relatives	-2155
dici	-2156
▁prise	-2157
▁partage	-2158
ivre	-2159
▁mécanis	-2160
▁introdu	-2161
▁veiller	-2162
▁promouvoir	-2163
▁veut	-2164
▁manque	-2165
igine	-2166
orm	-2167
épu	-2168
▁manif	-2169
venus	-2170
▁présenter	-2171
auv	-2172
▁reç	-2173
▁présente	-2174
▁fort	-2175
▁Des	-2176
illes	-2177
▁tenir	-2178
▁Bien	-2179
▁renforce	-2180
▁respecter	-2181
était	-2182
ailleurs	-2183
iles	-2184
▁autant	-2185
èle	-2186
argent	-2187
▁grandes	-2188
▁protéger	-2189
▁financiers	-2190
cture	-2191
ira	-2192
▁discussion	-2193
▁statu	-2194
▁Sch	-2195
▁cultur	-2196
▁all	-2197
oncer	-2198
▁pourra	-2199
aître	-2200
▁guerre	-2201
▁participation	-2202
mage	-2203
migration	-2204
OM	-2205
▁parvenir	-2206
▁travers	-2207
trib	-2208
▁propose	-2209
resser	-2210
are	-2211
pens	-2212
▁dépl	-2213
▁souhaiter	-2214
▁Al	-2215
▁déci	-2216
▁évidemment	-2217
▁culture	-2218
▁évo	-2219
▁coûts	-2220
▁loin	-2221
cri	-2222
otre	-2223
adi	-2224
▁dois	-2225
▁coordin	-2226
cident	-2227
▁sep	-2228
giques	-2229
abil	-2230
▁transports	-2231
▁service	-2232
▁organisations	-2233
▁priorité	-2234
▁centrale	-2235
▁dési	-2236
▁envis	-2237
▁éléments	-2238
▁national	-2239
▁pauvreté	-2240
▁appropri	-2241
▁début	-2242
▁priorités	-2243
efficacité	-2244
▁pol	-2245
▁chô	-2246
▁petites	-2247
exc	-2248
▁sensi	-2249
▁communautaires	-2250
▁zone	-2251
▁publics	-2252
▁but	-2253
▁Chine	-2254
aces	-2255
erts	-2256
▁discri	-2257
▁résou	-2258
▁minist	-2259
éducation	-2260
pré	-2261
▁référence	-2262
▁financier	-2263
▁pén	-2264
amment	-2265
▁concrè	-2266
▁absolument	-2267
▁soumis	-2268
▁lut	-2269
▁commencer	-2270
▁excel	-2271
aur	-2272
▁tâ	-2273
▁étaient	-2274
vous	-2275
▁nav	-2276
istance	-2277
▁signal	-2278
▁précisément	-2279
dats	-2280
estime	-2281
▁travailler	-2282
▁coh	-2283
▁accepter	-2284
▁sociales	-2285
▁formul	-2286
▁hommes	-2287
▁secteurs	-2288
▁porte	-2289
ouvé	-2290
▁apporter	-2291
ec	-2292
▁amendement	-2293
cev	-2294
▁dépenses	-2295
onde	-2296
éni	-2297
▁totalement	-2298
▁concent	-2299
▁cat	-2300
rés	-2301
ritan	-2302
▁dû	-2303
▁réformes	-2304
▁Deuxième	-2305
ib	-2306
CE	-2307
▁Bar	-2308
▁professionn	-2309
rance	-2310
▁affir	-2311
▁générale	-2312
▁paragraphe	-2313
avis	-2314
▁réunion	-2315
oli	-2316
▁passer	-2317
organis	-2318
▁parmi	-2319
origine	-2320
issent	-2321
▁parole	-2322
▁demandé	-2323
roph	-2324
▁condam	-2325
▁partenaires	-2326
▁contribution	-2327
ition	-2328
▁développer	-2329
▁gens	-2330
▁conform	-2331
▁document	-2332
▁traitement	-2333
▁tenu	-2334
▁pratiques	-2335
▁importantes	-2336
▁judici	-2337
initiative	-2338
▁scienti	-2339
▁appliqu	-2340
inf	-2341
▁por	-2342
▁proposé	-2343
▁violence	-2344
▁grands	-2345
ctivement	-2346
oles	-2347
▁indis	-2348
▁rester	-2349
yer	-2350
▁considération	-2351
▁ajou	-2352
▁résoudre	-2353
tern	-2354
▁peuple	-2355
▁confront	-2356
égard	-2357
▁crimin	-2358
▁produit	-2359
▁aéri	-2360
inion	-2361
▁attend	-2362
▁difficultés	-2363
▁instruments	-2364
▁quoi	-2365
▁action	-2366
gent	-2367
▁lo	-2368
fait	-2369
▁hau	-2370
▁quatre	-2371
▁créd	-2372
▁coordination	-2373
rou	-2374
▁pleinement	-2375
▁capacité	-2376
introdu	-2377
",	-2378
▁valeur	-2379
▁chac	-2380
immigration	-2381
êtes	-2382
contre	-2383
▁ven	-2384
▁présenté	-2385
tenti	-2386
▁multi	-2387
onnes	-2388
att	-2389
▁cru	-2390
▁én	-2391
cap	-2392
▁conser	-2393
bilités	-2394
hi	-2395
▁zones	-2396
▁lesquels	-2397
▁semaine	-2398
étaires	-2399
▁améric	-2400
▁britan	-2401
▁climatique	-2402
▁maladi	-2403
▁monétaire	-2404
oque	-2405
▁succès	-2406
atri	-2407
..	-2408
▁ta	-2409
alesti	-2410
▁entraî	-2411
orti	-2412
▁permettant	-2413
▁côté	-2414
▁statut	-2415
▁lecture	-2416
astroph	-2417
▁prép	-2418
rain	-2419
▁puissent	-2420
fié	-2421
▁procès	-2422
▁mondial	-2423
▁partenariat	-2424
▁rend	-2425
vres	-2426
voy	-2427
▁civi	-2428
ilà	-2429
▁venir	-2430
cé	-2431
▁vos	-2432
▁refus	-2433
▁consac	-2434
ortun	-2435
▁félicite	-2436
ros	-2437
▁risques	-2438
lusion	-2439
arations	-2440
cles	-2441
otion	-2442
erre	-2443
▁surve	-2444
▁besoins	-2445
▁Notre	-2446
▁catastroph	-2447
▁inqui	-2448
▁initiatives	-2449
▁considère	-2450
tences	-2451
euse	-2452
▁jouer	-2453
▁exigences	-2454
▁civ	-2455
attention	-2456
▁auxqu	-2457
▁indispens	-2458
venu	-2459
▁concep	-2460
asi	-2461
▁force	-2462
▁communauté	-2463
▁renforcement	-2464
▁compétences	-2465
aud	-2466
▁rur	-2467
▁pourraient	-2468
▁potenti	-2469
▁délég	-2470
▁vient	-2471
▁cro	-2472
▁devoir	-2473
ricul	-2474
▁troisième	-2475
vée	-2476
▁poursuivre	-2477
▁confir	-2478
▁travaux	-2479
idée	-2480
▁aider	-2481
▁ora	-2482
▁É	-2483
uel	-2484
oix	-2485
▁initiative	-2486
arder	-2487
frique	-2488
▁discussions	-2489
▁intéress	-2490
▁compétitivité	-2491
▁comprendre	-2492
ges	-2493
ennes	-2494
▁adéqu	-2495
▁coup	-2496
▁diri	-2497
▁adopter	-2498
▁réglementation	-2499
rées	-2500
▁Cer	-2501
▁Lors	-2502
▁Per	-2503
uropéens	-2504
istes	-2505
▁mand	-2506
▁conférence	-2507
▁alimentaire	-2508
▁jours	-2509
▁bl	-2510
▁chômage	-2511
▁possibilités	-2512
▁partis	-2513
ète	-2514
▁cinq	-2515
▁dossi	-2516
ueil	-2517
▁anal	-2518
▁déce	-2519
▁spécifiques	-2520
▁personnel	-2521
▁permis	-2522
▁parlementaire	-2523
ption	-2524
▁gen	-2525
▁libéralis	-2526
▁conclusion	-2527
der	-2528
blement	-2529
▁charg	-2530
sive	-2531
tirer	-2532
gan	-2533
▁direction	-2534
ouverture	-2535
▁avanc	-2536
▁éviter	-2537
éle	-2538
▁ministres	-2539
▁sau	-2540
▁ensuite	-2541
euro	-2542
rier	-2543
alistes	-2544
▁nature	-2545
▁malheureusement	-2546
▁évé	-2547
▁heures	-2548
▁longtemps	-2549
▁voy	-2550
▁Deuxièmement	-2551
▁reje	-2552
▁candidats	-2553
ède	-2554
▁indépend	-2555
▁Or	-2556
▁solutions	-2557
▁civile	-2558
▁hist	-2559
tribu	-2560
▁choix	-2561
ém	-2562
▁quelle	-2563
blique	-2564
ép	-2565
▁effets	-2566
▁assez	-2567
▁atta	-2568
iser	-2569
alités	-2570
▁peine	-2571
▁derniers	-2572
▁passe	-2573
▁hab	-2574
▁séance	-2575
▁loi	-2576
▁aides	-2577
usse	-2578
merais	-2579
▁quali	-2580
Am	-2581
▁empê	-2582
▁modèle	-2583
▁immédi	-2584
▁lutter	-2585
éditer	-2586
▁simple	-2587
ze	-2588
rlande	-2589
▁cal	-2590
▁élément	-2591
part	-2592
xe	-2593
▁gaz	-2594
▁donne	-2595
vés	-2596
▁souff	-2597
▁Convention	-2598
▁pression	-2599
esprit	-2600
▁promotion	-2601
▁responsables	-2602
▁ferme	-2603
▁spécifique	-2604
▁préf	-2605
▁défis	-2606
jus	-2607
éditerran	-2608
▁mauv	-2609
ess	-2610
augment	-2611
▁fonctionnement	-2612
▁ai	-2613
▁près	-2614
amen	-2615
lie	-2616
▁représentants	-2617
▁assur	-2618
▁révision	-2619
▁collaboration	-2620
entrepr	-2621
étés	-2622
▁mess	-2623
aimerais	-2624
Assemblée	-2625
▁voul	-2626
▁milliards	-2627
▁étroit	-2628
agements	-2629
▁anti	-2630
diction	-2631
▁minim	-2632
▁vont	-2633
assurer	-2634
▁chacun	-2635
).	-2636
▁décidé	-2637
ES	-2638
▁responsabil	-2639
▁soule	-2640
▁instrument	-2641
▁bure	-2642
▁décembre	-2643
ienne	-2644
acte	-2645
novation	-2646
▁dix	-2647
▁ayant	-2648
▁mêmes	-2649
▁complè	-2650
riculteurs	-2651
▁puisque	-2652
▁franç	-2653
▁colle	-2654
▁constituent	-2655
▁plupart	-2656
▁dépend	-2657
▁human	-2658
ert	-2659
▁décid	-2660
▁effectu	-2661
▁fig	-2662
rastruct	-2663
cemment	-2664
▁circulation	-2665
fications	-2666
érique	-2667
tionnelle	-2668
▁constater	-2669
▁lesquelles	-2670
appr	-2671
▁mentionn	-2672
▁investissements	-2673
▁renouv	-2674
▁camp	-2675
▁obs	-2676
▁In	-2677
▁conclusions	-2678
▁Vo	-2679
▁six	-2680
▁devra	-2681
▁réjouis	-2682
fiée	-2683
▁mandat	-2684
aliste	-2685
▁impliqu	-2686
▁euro	-2687
▁France	-2688
▁oct	-2689
▁déclaré	-2690
▁associ	-2691
mêmes	-2692
▁considéré	-2693
rak	-2694
ograph	-2695
▁Pa	-2696
cadre	-2697
lexi	-2698
rontali	-2699
▁occasion	-2700
▁rati	-2701
▁engag	-2702
▁conclure	-2703
▁yeux	-2704
étique	-2705
▁Traité	-2706
▁nationale	-2707
▁sol	-2708
▁continu	-2709
▁liste	-2710
agir	-2711
tenu	-2712
▁responsabilités	-2713
▁dim	-2714
▁emplois	-2715
▁conformément	-2716
▁Roy	-2717
▁changements	-2718
▁réfu	-2719
▁rele	-2720
▁man	-2721
▁soutiens	-2722
▁émissions	-2723
▁nucléaire	-2724
▁Br	-2725
ormais	-2726
▁conflit	-2727
vo	-2728
mité	-2729
aume	-2730
▁total	-2731
améliorer	-2732
lir	-2733
gnes	-2734
érience	-2735
▁démont	-2736
▁actuel	-2737
landais	-2738
▁suivi	-2739
▁Permettez	-2740
istan	-2741
▁agriculteurs	-2742
▁sug	-2743
▁mort	-2744
▁engagement	-2745
▁retra	-2746
▁reli	-2747
▁internationales	-2748
▁autoris	-2749
▁ouver	-2750
▁territoire	-2751
▁pensons	-2752
▁bre	-2753
▁extérieur	-2754
▁prépar	-2755
▁construction	-2756
▁facil	-2757
▁oubli	-2758
lég	-2759
épublique	-2760
▁certaine	-2761
▁arti	-2762
quet	-2763
réti	-2764
gar	-2765
êts	-2766
alestini	-2767
▁comptes	-2768
érité	-2769
▁ban	-2770
chets	-2771
▁Royaume	-2772
▁stri	-2773
▁structurels	-2774
▁inten	-2775
▁animaux	-2776
▁mener	-2777
▁vise	-2778
▁récemment	-2779
▁allons	-2780
▁revi	-2781
sra	-2782
▁favorable	-2783
▁effectivement	-2784
▁tradi	-2785
manie	-2786
▁parfait	-2787
▁Ma	-2788
itime	-2789
▁République	-2790
▁flexi	-2791
ivers	-2792
▁fournir	-2793
▁perspectives	-2794
▁producteurs	-2795
▁disponi	-2796
▁élab	-2797
▁requ	-2798
▁chiff	-2799
▁ép	-2800
▁chois	-2801
▁convainc	-2802
▁supplémentaires	-2803
aie	-2804
▁veux	-2805
▁caract	-2806
▁réfugi	-2807
èrent	-2808
▁désormais	-2809
▁responsable	-2810
yse	-2811
▁forte	-2812
▁montre	-2813
▁moder	-2814
▁forces	-2815
▁favoris	-2816
▁publiques	-2817
▁positif	-2818
▁souhaiterais	-2819
évaluation	-2820
former	-2821
▁Bal	-2822
▁sérieux	-2823
),	-2824
▁savez	-2825
ourg	-2826
▁circons	-2827
▁libertés	-2828
▁illég	-2829
ila	-2830
erc	-2831
rant	-2832
▁juridiques	-2833
▁indivi	-2834
▁déchets	-2835
▁positive	-2836
▁caractère	-2837
bal	-2838
▁touch	-2839
▁train	-2840
▁évent	-2841
réci	-2842
▁suivre	-2843
tient	-2844
aît	-2845
▁sociétés	-2846
AC	-2847
▁simpli	-2848
▁permettez	-2849
▁radi	-2850
lant	-2851
osés	-2852
▁juin	-2853
xim	-2854
▁adoptée	-2855
▁atteindre	-2856
PE	-2857
investisse	-2858
▁fl	-2859
urgence	-2860
inte	-2861
odes	-2862
▁grave	-2863
▁prévention	-2864
▁ligne	-2865
▁parfois	-2866
ton	-2867
▁engagements	-2868
rog	-2869
ilatéra	-2870
arte	-2871
▁maintenir	-2872
▁inaccep	-2873
▁conséquence	-2874
▁biais	-2875
▁dimin	-2876
eau	-2877
quent	-2878
net	-2879
▁Voilà	-2880
asile	-2881
▁appor	-2882
▁suffisamment	-2883
▁Constitution	-2884
échange	-2885
▁technique	-2886
tock	-2887
▁senti	-2888
mat	-2889
issements	-2890
resse	-2891
▁niveaux	-2892
▁technologies	-2893
▁rencont	-2894
▁étrangères	-2895
▁intervention	-2896
lin	-2897
▁déclarations	-2898
vec	-2899
▁consiste	-2900
del	-2901
▁complex	-2902
né	-2903
itation	-2904
▁libéralisation	-2905
▁souligné	-2906
▁pron	-2907
▁voix	-2908
▁présence	-2909
innovation	-2910
▁débats	-2911
▁malgré	-2912
sant	-2913
vier	-2914
▁partir	-2915
▁condition	-2916
▁techniques	-2917
ouvrir	-2918
uit	-2919
emb	-2920
lève	-2921
▁Sur	-2922
intention	-2923
visi	-2924
▁manifest	-2925
▁Su	-2926
▁mission	-2927
▁réaliser	-2928
▁disposition	-2929
▁parle	-2930
▁profit	-2931
osov	-2932
aujourd	-2933
▁relatif	-2934
▁perman	-2935
▁fourn	-2936
▁événements	-2937
▁étrangère	-2938
▁Nord	-2939
▁poser	-2940
▁Aujourd	-2941
▁intégré	-2942
nant	-2943
▁journ	-2944
▁renouvel	-2945
▁dimension	-2946
▁message	-2947
▁cruci	-2948
In	-2949
térieure	-2950
▁obtenir	-2951
▁défi	-2952
▁prévoit	-2953
off	-2954
▁haut	-2955
▁indispensable	-2956
▁convention	-2957
▁estim	-2958
▁intérêt	-2959
▁pollu	-2960
ore	-2961
▁jeu	-2962
▁liés	-2963
▁meilleur	-2964
orique	-2965
acer	-2966
llemagne	-2967
▁discrimination	-2968
▁combat	-2969
▁agricoles	-2970
▁genre	-2971
▁siè	-2972
▁Merci	-2973
▁participer	-2974
▁tard	-2975
onner	-2976
impact	-2977
▁agir	-2978
uxelles	-2979
amélioration	-2980
▁directement	-2981
▁surveill	-2982
▁veulent	-2983
▁conseil	-2984
▁Kosov	-2985
delà	-2986
▁importe	-2987
▁contenu	-2988
▁sanctions	-2989
ologique	-2990
loy	-2991
▁consult	-2992
tances	-2993
▁lignes	-2994
▁paquet	-2995
▁Banque	-2996
équili	-2997
▁sti	-2998
▁utile	-2999
▁pourrons	-3000
▁Sud	-3001
▁Présidence	-3002
▁Bruxelles	-3003
▁bonnes	-3004
▁peuples	-3005
resp	-3006
uelle	-3007
truction	-3008
▁accès	-3009
▁développ	-3010
▁Mar	-3011
agni	-3012
▁dég	-3013
▁établi	-3014
▁montrer	-3015
ige	-3016
▁réfugiés	-3017
▁opportun	-3018
▁clos	-3019
çons	-3020
▁observ	-3021
cessi	-3022
▁rempl	-3023
▁graves	-3024
▁faisant	-3025
forme	-3026
▁auquel	-3027
▁documents	-3028
▁norm	-3029
▁correc	-3030
▁opéra	-3031
▁élevé	-3032
▁évident	-3033
▁équit	-3034
▁définition	-3035
▁aller	-3036
ase	-3037
ice	-3038
après	-3039
▁offici	-3040
verbal	-3041
OMC	-3042
▁Kosovo	-3043
▁essay	-3044
▁préoccupations	-3045
lli	-3046
▁tend	-3047
▁mu	-3048
exist	-3049
issons	-3050
opinion	-3051
▁ceci	-3052
isser	-3053
▁reconnaissance	-3054
▁tirer	-3055
▁tâche	-3056
▁Premièrement	-3057
▁particulière	-3058
▁envers	-3059
▁devenir	-3060
▁comporte	-3061
▁prochain	-3062
tien	-3063
anges	-3064
ME	-3065
▁équilib	-3066
absence	-3067
▁mention	-3068
▁sait	-3069
▁reçu	-3070
▁faci	-3071
▁active	-3072
encontre	-3073
atoire	-3074
▁déch	-3075
▁continue	-3076
péri	-3077
▁dossier	-3078
▁réseaux	-3079
▁utiliser	-3080
▁Bel	-3081
▁communes	-3082
▁défendre	-3083
▁mai	-3084
armonisation	-3085
▁tradu	-3086
uration	-3087
▁budgétaires	-3088
▁surveillance	-3089
ach	-3090
▁trafic	-3091
reg	-3092
▁voit	-3093
▁perspective	-3094
▁pen	-3095
anvier	-3096
▁crédits	-3097
▁consommation	-3098
▁néanmoins	-3099
▁excellent	-3100
blissement	-3101
▁démocratiques	-3102
▁fondamental	-3103
▁adap	-3104
▁principaux	-3105
▁autom	-3106
▁rou	-3107
▁britannique	-3108
▁naturellement	-3109
ondi	-3110
▁élect	-3111
▁janvier	-3112
join	-3113
cul	-3114
▁reconnaître	-3115
emplois	-3116
▁semaines	-3117
▁exprimer	-3118
▁ambiti	-3119
▁garantie	-3120
▁encourager	-3121
▁charge	-3122
▁traiter	-3123
▁Pro	-3124
▁regret	-3125
ires	-3126
▁humains	-3127
▁contrôles	-3128
▁connaissance	-3129
▁Né	-3130
▁augmentation	-3131
▁Gr	-3132
arb	-3133
▁recev	-3134
▁laisser	-3135
▁directives	-3136
one	-3137
▁pauvres	-3138
▁crédi	-3139
écution	-3140
tionnelles	-3141
▁délégation	-3142
▁déli	-3143
▁espérons	-3144
▁univers	-3145
▁menace	-3146
▁pouvoirs	-3147
▁Certa	-3148
▁parta	-3149
▁budgets	-3150
anie	-3151
▁vé	-3152
▁erre	-3153
▁comité	-3154
▁militaire	-3155
introduction	-3156
▁monn	-3157
uff	-3158
▁référ	-3159
pl	-3160
réh	-3161
▁consens	-3162
server	-3163
gr	-3164
▁excep	-3165
▁direct	-3166
yn	-3167
▁prend	-3168
▁tex	-3169
▁économie	-3170
▁Selon	-3171
▁obsta	-3172
▁tourisme	-3173
▁télé	-3174
associ	-3175
▁date	-3176
han	-3177
▁us	-3178
▁discuter	-3179
euses	-3180
▁médias	-3181
ctif	-3182
▁détermin	-3183
ign	-3184
▁proposer	-3185
▁pose	-3186
cl	-3187
ché	-3188
▁Rou	-3189
▁réseau	-3190
▁parlé	-3191
iliation	-3192
enda	-3193
▁Ceci	-3194
guli	-3195
vision	-3196
▁économies	-3197
arri	-3198
▁pren	-3199
▁deven	-3200
▁conflits	-3201
xes	-3202
▁pourtant	-3203
▁alimentaires	-3204
yons	-3205
▁moyennes	-3206
cté	-3207
▁Conf	-3208
▁signific	-3209
▁humanitaire	-3210
▁compétence	-3211
▁salue	-3212
▁allem	-3213
▁sugg	-3214
▁aient	-3215
léch	-3216
▁efficaces	-3217
▁procéder	-3218
▁pacte	-3219
oph	-3220
▁retr	-3221
▁emploi	-3222
ha	-3223
tég	-3224
anci	-3225
▁actes	-3226
▁longue	-3227
▁inacceptable	-3228
▁is	-3229
orde	-3230
▁An	-3231
▁Néanmoins	-3232
▁affaire	-3233
▁pourront	-3234
▁largement	-3235
agers	-3236
▁restri	-3237
▁exploit	-3238
▁dén	-3239
▁heureux	-3240
▁réussi	-3241
▁mér	-3242
engagement	-3243
▁parlementaires	-3244
▁Elles	-3245
▁transfrontali	-3246
vité	-3247
tres	-3248
▁connaiss	-3249
▁consensus	-3250
▁exige	-3251
▁gé	-3252
▁corresp	-3253
▁nouvel	-3254
let	-3255
▁mars	-3256
▁dirige	-3257
uire	-3258
▁chez	-3259
▁catég	-3260
▁humaine	-3261
laud	-3262
rie	-3263
▁parfaitement	-3264
▁entend	-3265
▁PME	-3266
Afrique	-3267
▁député	-3268
rèce	-3269
lov	-3270
▁régionale	-3271
▁trouv	-3272
▁rapporteurs	-3273
investissement	-3274
▁proven	-3275
▁conscience	-3276
▁obligations	-3277
▁dispose	-3278
étro	-3279
▁Grèce	-3280
▁diver	-3281
▁soins	-3282
état	-3283
exploit	-3284
▁session	-3285
▁faits	-3286
uler	-3287
▁protoc	-3288
▁disposer	-3289
itant	-3290
▁maxim	-3291
▁définiti	-3292
▁distin	-3293
▁individu	-3294
▁compagni	-3295
▁réalisation	-3296
▁Rom	-3297
▁mondialisation	-3298
hicu	-3299
▁médica	-3300
actions	-3301
▁avenir	-3302
▁internationaux	-3303
ature	-3304
▁recours	-3305
▁cohér	-3306
▁durant	-3307
▁avaient	-3308
▁impossi	-3309
▁organ	-3310
▁â	-3311
▁vit	-3312
▁Ainsi	-3313
▁bénéficier	-3314
ycle	-3315
▁Après	-3316
▁do	-3317
▁tran	-3318
▁aspect	-3319
▁véhicu	-3320
IT	-3321
▁mécanisme	-3322
▁raisonn	-3323
▁recommandations	-3324
▁UE	-3325
quête	-3326
rient	-3327
ied	-3328
▁correspond	-3329
▁super	-3330
▁réflex	-3331
▁espagn	-3332
▁ul	-3333
crit	-3334
organisation	-3335
▁sembl	-3336
tembre	-3337
▁pléni	-3338
▁faudrait	-3339
▁inte	-3340
▁quanti	-3341
▁liées	-3342
▁prévu	-3343
ource	-3344
▁poss	-3345
évolution	-3346
▁uvre	-3347
▁exclu	-3348
▁faisons	-3349
▁Conférence	-3350
▁septembre	-3351
▁modification	-3352
ron	-3353
▁inquiétu	-3354
laudissements	-3355
▁stric	-3356
▁monnaie	-3357
til	-3358
▁définir	-3359
▁mutu	-3360
▁pétro	-3361
▁mot	-3362
talie	-3363
▁application	-3364
▁stock	-3365
▁Malheureusement	-3366
▁Européens	-3367
atte	-3368
▁souligne	-3369
▁réuss	-3370
oré	-3371
▁val	-3372
▁lanc	-3373
▁devront	-3374
▁PPE	-3375
▁populations	-3376
ON	-3377
▁étudi	-3378
ague	-3379
▁armes	-3380
▁matin	-3381
▁souhaitons	-3382
▁dérou	-3383
▁démar	-3384
sivement	-3385
th	-3386
euvre	-3387
▁méthode	-3388
▁avantages	-3389
▁évaluation	-3390
orée	-3391
▁Cet	-3392
itali	-3393
▁syn	-3394
▁employ	-3395
od	-3396
▁substances	-3397
▁négociation	-3398
rement	-3399
▁retour	-3400
▁identi	-3401
▁mérite	-3402
▁Roumanie	-3403
▁critique	-3404
▁quo	-3405
▁décider	-3406
sidi	-3407
AN	-3408
roître	-3409
▁discours	-3410
cepti	-3411
▁faciliter	-3412
▁avions	-3413
▁reprises	-3414
raine	-3415
rastructures	-3416
mil	-3417
lan	-3418
▁législatif	-3419
affir	-3420
▁seraient	-3421
▁gouvern	-3422
▁réfléch	-3423
▁chance	-3424
▁supplémentaire	-3425
élaboration	-3426
atique	-3427
adopter	-3428
leur	-3429
umer	-3430
appliquer	-3431
éti	-3432
viron	-3433
▁concernés	-3434
▁soir	-3435
▁maintien	-3436
con	-3437
▁anci	-3438
▁influ	-3439
usion	-3440
éviter	-3441
▁mécanismes	-3442
gouver	-3443
▁limiter	-3444
▁représentent	-3445
enf	-3446
hist	-3447
sie	-3448
vembre	-3449
érant	-3450
▁atteint	-3451
▁presque	-3452
▁limité	-3453
▁modifier	-3454
erb	-3455
ilier	-3456
▁fonctionn	-3457
▁populaire	-3458
▁coût	-3459
▁caracté	-3460
▁heure	-3461
▁trib	-3462
▁considérable	-3463
ates	-3464
▁parlons	-3465
▁sources	-3466
▁demandons	-3467
▁retard	-3468
▁globale	-3469
▁milliers	-3470
▁essentielle	-3471
ude	-3472
▁soutenu	-3473
▁principal	-3474
Orient	-3475
▁écou	-3476
▁novembre	-3477
uffis	-3478
▁estime	-3479
▁Ne	-3480
▁plénière	-3481
▁établis	-3482
exemp	-3483
▁impossible	-3484
fiés	-3485
existence	-3486
spagne	-3487
isent	-3488
▁route	-3489
▁concentrer	-3490
▁véri	-3491
▁stratégique	-3492
▁etc	-3493
mière	-3494
▁auxquels	-3495
bilisation	-3496
itants	-3497
▁énor	-3498
autés	-3499
kraine	-3500
▁futur	-3501
gouvernement	-3502
ell	-3503
▁vais	-3504
▁médicaments	-3505
gées	-3506
aucra	-3507
insta	-3508
▁constituer	-3509
ju	-3510
▁traités	-3511
▁coord	-3512
▁idée	-3513
matiques	-3514
▁thème	-3515
▁aborder	-3516
cta	-3517
itoyens	-3518
▁lang	-3519
cent	-3520
▁implique	-3521
este	-3522
▁protocole	-3523
▁fera	-3524
osent	-3525
ak	-3526
▁auprès	-3527
▁tur	-3528
▁minorités	-3529
▁principalement	-3530
informations	-3531
▁palestini	-3532
▁entièrement	-3533
espace	-3534
▁bureaucra	-3535
▁marchand	-3536
▁capital	-3537
inv	-3538
▁concrètes	-3539
augmentation	-3540
▁tab	-3541
▁famille	-3542
▁consommateur	-3543
▁porter	-3544
adap	-3545
exprimer	-3546
olid	-3547
▁court	-3548
illet	-3549
▁rural	-3550
▁itali	-3551
▁fondamentales	-3552
▁envoy	-3553
▁handi	-3554
▁Am	-3555
▁potentiel	-3556
▁cla	-3557
▁pied	-3558
▁opération	-3559
chement	-3560
▁subsidi	-3561
▁profiter	-3562
▁remarques	-3563
CP	-3564
▁mots	-3565
▁confrontés	-3566
ster	-3567
approche	-3568
▁exer	-3569
▁flexibilité	-3570
cheurs	-3571
obre	-3572
histoire	-3573
▁maladies	-3574
▁mas	-3575
▁dipl	-3576
accent	-3577
llè	-3578
▁départ	-3579
PL	-3580
▁réelle	-3581
▁prêts	-3582
amp	-3583
▁acteurs	-3584
▁demandes	-3585
▁statis	-3586
▁locales	-3587
▁handicap	-3588
▁considérer	-3589
▁consul	-3590
▁montant	-3591
▁examiner	-3592
▁acqu	-3593
▁contient	-3594
ctifs	-3595
fondi	-3596
▁probablement	-3597
▁hier	-3598
Irlande	-3599
▁presse	-3600
▁Port	-3601
endum	-3602
aluer	-3603
▁plans	-3604
▁second	-3605
▁dro	-3606
ologne	-3607
▁applic	-3608
▁faibles	-3609
▁souver	-3610
▁parlements	-3611
amb	-3612
▁hon	-3613
aliser	-3614
▁affec	-3615
▁français	-3616
▁délai	-3617
▁réguli	-3618
▁pi	-3619
tables	-3620
quée	-3621
examen	-3622
iennent	-3623
▁phase	-3624
▁prochaines	-3625
▁concitoyens	-3626
▁Isra	-3627
▁appliquer	-3628
tait	-3629
▁occident	-3630
▁gouvernance	-3631
▁décharge	-3632
entrée	-3633
▁recons	-3634
▁limites	-3635
vées	-3636
sé	-3637
ote	-3638
▁finalement	-3639
▁réalisé	-3640
▁Pourquoi	-3641
▁champ	-3642
▁lumière	-3643
▁altern	-3644
alisme	-3645
▁état	-3646
▁final	-3647
▁rac	-3648
▁progres	-3649
cée	-3650
▁petits	-3651
truire	-3652
▁occup	-3653
▁scientifiques	-3654
▁arrê	-3655
ctr	-3656
▁satisfait	-3657
dépend	-3658
▁parvi	-3659
▁commerciales	-3660
▁diversité	-3661
▁let	-3662
▁rédi	-3663
▁Premier	-3664
chè	-3665
aille	-3666
pplaudissements	-3667
enseig	-3668
▁judiciaire	-3669
▁Que	-3670
▁susc	-3671
▁convaincu	-3672
sterdam	-3673
▁accompli	-3674
▁lan	-3675
▁temp	-3676
▁équilibre	-3677
▁critiques	-3678
▁argu	-3679
atta	-3680
▁climat	-3681
▁faible	-3682
▁suivante	-3683
▁Ber	-3684
▁oublier	-3685
▁servir	-3686
indi	-3687
lée	-3688
▁riches	-3689
nie	-3690
▁lour	-3691
▁situations	-3692
ocrates	-3693
▁consultation	-3694
▁méthodes	-3695
bation	-3696
▁provo	-3697
▁faites	-3698
▁logique	-3699
▁Même	-3700
▁propri	-3701
ements	-3702
▁efficacement	-3703
NG	-3704
grer	-3705
amer	-3706
oblig	-3707
▁mora	-3708
ipe	-3709
▁formes	-3710
▁catégor	-3711
▁sujets	-3712
▁chances	-3713
▁accr	-3714
otas	-3715
oncé	-3716
▁criminalité	-3717
oct	-3718
▁pati	-3719
▁femme	-3720
▁mouve	-3721
▁continent	-3722
intervention	-3723
▁concept	-3724
▁exprimé	-3725
▁lois	-3726
orable	-3727
▁Comment	-3728
▁accorder	-3729
gés	-3730
▁carb	-3731
▁quotas	-3732
▁voisins	-3733
▁remarque	-3734
atement	-3735
af	-3736
▁soutient	-3737
▁rappro	-3738
oise	-3739
▁appara	-3740
▁subsidiarité	-3741
▁référendum	-3742
▁représentant	-3743
▁véhicules	-3744
uels	-3745
▁orientations	-3746
aste	-3747
▁garanties	-3748
▁électr	-3749
▁sinc	-3750
▁extra	-3751
▁Troisième	-3752
▁disposons	-3753
▁structures	-3754
▁Fin	-3755
▁équitable	-3756
lation	-3757
pit	-3758
▁minu	-3759
Est	-3760
▁bâ	-3761
▁Car	-3762
▁contraign	-3763
▁pertin	-3764
éditerranéen	-3765
chent	-3766
itent	-3767
ruption	-3768
ttes	-3769
énom	-3770
▁exac	-3771
▁penser	-3772
actu	-3773
▁sex	-3774
▁montré	-3775
▁nucléaires	-3776
▁recommandation	-3777
▁tient	-3778
▁intérieures	-3779
▁complément	-3780
▁extérieure	-3781
▁stade	-3782
SE	-3783
▁fab	-3784
▁k	-3785
▁légiti	-3786
▁attirer	-3787
▁phénom	-3788
▁changer	-3789
engen	-3790
▁deme	-3791
fg	-3792
avez	-3793
▁conver	-3794
▁règlements	-3795
▁profond	-3796
▁revenir	-3797
▁clari	-3798
▁scientifique	-3799
▁Portug	-3800
vie	-3801
visionnement	-3802
▁puiss	-3803
enci	-3804
▁voire	-3805
▁Schengen	-3806
utri	-3807
▁ign	-3808
▁idées	-3809
▁empêcher	-3810
▁passagers	-3811
▁Depuis	-3812
▁atten	-3813
▁réparti	-3814
rovi	-3815
▁faite	-3816
▁navires	-3817
▁oeuvre	-3818
▁distribu	-3819
▁police	-3820
▁approuv	-3821
▁mises	-3822
▁bais	-3823
tenus	-3824
▁mobilité	-3825
▁quelles	-3826
▁routi	-3827
ulgar	-3828
exécution	-3829
▁mé	-3830
▁consolid	-3831
oine	-3832
▁approuvé	-3833
▁échanges	-3834
▁fru	-3835
venue	-3836
▁juge	-3837
▁Alors	-3838
iner	-3839
▁défic	-3840
animité	-3841
expression	-3842
▁terroristes	-3843
▁uni	-3844
équilibre	-3845
activité	-3846
▁prim	-3847
▁totale	-3848
▁regre	-3849
▁maritime	-3850
▁extérieures	-3851
▁citoyen	-3852
▁votes	-3853
Le	-3854
▁ajouter	-3855
osées	-3856
▁terminer	-3857
▁compens	-3858
▁réserve	-3859
▁renouvelables	-3860
▁prét	-3861
▁chefs	-3862
▁établir	-3863
▁fins	-3864
▁supéri	-3865
▁relatifs	-3866
▁fraude	-3867
▁agences	-3868
▁Certains	-3869
▁électron	-3870
▁prosp	-3871
hors	-3872
▁subs	-3873
▁offre	-3874
▁caractéris	-3875
▁circonstances	-3876
exploitation	-3877
▁table	-3878
institu	-3879
▁abouti	-3880
▁délais	-3881
▁conduite	-3882
▁étape	-3883
▁réponses	-3884
ki	-3885
▁Balk	-3886
sb	-3887
▁conserv	-3888
▁justement	-3889
rais	-3890
▁essentiels	-3891
▁relever	-3892
ril	-3893
landaise	-3894
▁prison	-3895
▁II	-3896
▁encourage	-3897
▁chiffres	-3898
échelle	-3899
▁den	-3900
▁rendu	-3901
▁approfondi	-3902
▁bilatéra	-3903
qués	-3904
▁investi	-3905
▁évidence	-3906
▁commerciaux	-3907
▁dra	-3908
▁joue	-3909
▁suscepti	-3910
▁diminu	-3911
▁préparation	-3912
obtenir	-3913
ombe	-3914
▁explic	-3915
▁limite	-3916
▁concernées	-3917
▁éli	-3918
▁disponibles	-3919
▁véritablement	-3920
▁moindre	-3921
▁campagne	-3922
▁précédent	-3923
ologiques	-3924
▁infrastructures	-3925
▁contrôler	-3926
ception	-3927
missaires	-3928
▁attitude	-3929
▁modifications	-3930
andis	-3931
▁obtenu	-3932
examin	-3933
▁Portugal	-3934
▁Re	-3935
ture	-3936
▁insister	-3937
roy	-3938
▁estimons	-3939
▁structure	-3940
▁militaires	-3941
oll	-3942
▁bou	-3943
instru	-3944
▁favoriser	-3945
▁produire	-3946
▁calend	-3947
▁mauvais	-3948
▁progresser	-3949
administra	-3950
▁Chyp	-3951
▁reti	-3952
osée	-3953
entreprise	-3954
▁vision	-3955
établir	-3956
▁source	-3957
▁future	-3958
▁majeur	-3959
▁préal	-3960
▁appar	-3961
▁gu	-3962
auche	-3963
▁insuffis	-3964
éter	-3965
agner	-3966
▁ferrovi	-3967
▁technologie	-3968
chec	-3969
▁immédiatement	-3970
▁Balkans	-3971
be	-3972
êtres	-3973
▁dirigeants	-3974
▁législative	-3975
▁rappelle	-3976
▁durée	-3977
▁sûre	-3978
▁positions	-3979
ane	-3980
▁devait	-3981
rière	-3982
▁insta	-3983
▁pourrions	-3984
▁historique	-3985
identi	-3986
▁Lorsque	-3987
Applaudissements	-3988
agissant	-3989
▁courage	-3990
intes	-3991
▁attendre	-3992
▁juillet	-3993
exercice	-3994
ONU	-3995
▁premières	-3996
dépendance	-3997
établissement	-3998
utiliser	-3999
orai	-4000
isté	-4001
▁ha	-4002
fghan	-4003
▁breve	-4004
encour	-4005
▁vertu	-4006
ications	-4007
çant	-4008
rich	-4009
▁vite	-4010
▁sentiment	-4011
▁voisin	-4012
▁petit	-4013
▁langues	-4014
▁avancer	-4015
▁regrette	-4016
▁auront	-4017
▁analyse	-4018
▁terrain	-4019
▁relation	-4020
président	-4021
▁régional	-4022
mation	-4023
▁violations	-4024
èces	-4025
▁différences	-4026
administration	-4027
▁indiqué	-4028
▁Avec	-4029
▁collab	-4030
▁frapp	-4031
autant	-4032
▁neu	-4033
▁seuls	-4034
▁paci	-4035
déc	-4036
▁puissions	-4037
▁utilisés	-4038
og	-4039
▁compara	-4040
▁compagnies	-4041
▁dyn	-4042
▁aurons	-4043
▁puisqu	-4044
▁test	-4045
ids	-4046
opposition	-4047
gouvernementale	-4048
là	-4049
▁subventions	-4050
née	-4051
▁mentionné	-4052
▁Pologne	-4053
▁diverses	-4054
▁devrons	-4055
oyen	-4056
▁appréci	-4057
▁octobre	-4058
▁soutenons	-4059
▁catastrophe	-4060
▁note	-4061
▁multip	-4062
▁fiscale	-4063
dém	-4064
▁Dès	-4065
▁centre	-4066
▁ambitieux	-4067
▁inuti	-4068
▁suéd	-4069
itations	-4070
▁eaux	-4071
▁systé	-4072
▁statistiques	-4073
atie	-4074
▁grec	-4075
existe	-4076
▁arriver	-4077
▁déterminer	-4078
▁professionnelle	-4079
▁br	-4080
▁lancer	-4081
▁Troisièmement	-4082
▁euros	-4083
▁compréh	-4084
▁électora	-4085
▁revenus	-4086
Allemagne	-4087
enh	-4088
▁caus	-4089
▁ouverte	-4090
gner	-4091
oth	-4092
roi	-4093
▁marchandises	-4094
▁augmenter	-4095
▁familles	-4096
association	-4097
▁matéri	-4098
▁portant	-4099
▁conciliation	-4100
expérience	-4101
▁réflexion	-4102
▁sauve	-4103
▁fondamentale	-4104
▁Bulgar	-4105
▁Pays	-4106
tidi	-4107
▁irré	-4108
▁cou	-4109
▁outil	-4110
cidents	-4111
▁banques	-4112
▁suffit	-4113
▁correctement	-4114
▁Suède	-4115
édéra	-4116
▁poids	-4117
▁chemin	-4118
▁maladie	-4119
dit	-4120
▁témoi	-4121
cupe	-4122
▁combien	-4123
▁soli	-4124
▁exactement	-4125
roso	-4126
▁haute	-4127
▁socialiste	-4128
▁satisfais	-4129
▁Moyen	-4130
▁accepté	-4131
▁réalisés	-4132
olue	-4133
▁bel	-4134
▁adoptées	-4135
▁fasse	-4136
▁pat	-4137
▁essentiellement	-4138
▁enreg	-4139
▁cra	-4140
▁négli	-4141
hum	-4142
▁nan	-4143
▁financer	-4144
▁emb	-4145
▁vert	-4146
▁utilisé	-4147
anal	-4148
harmonisation	-4149
▁trouvent	-4150
itons	-4151
▁meilleures	-4152
▁entrer	-4153
▁réussite	-4154
Amérique	-4155
▁matières	-4156
anche	-4157
▁rejet	-4158
urant	-4159
obligation	-4160
▁lic	-4161
▁langue	-4162
▁Bulgarie	-4163
rets	-4164
▁Tous	-4165
ographique	-4166
▁parvenus	-4167
▁propor	-4168
gée	-4169
▁tol	-4170
▁quotidi	-4171
▁préserver	-4172
rét	-4173
ologie	-4174
▁religi	-4175
▁ACP	-4176
▁facile	-4177
▁ressorti	-4178
▁décou	-4179
TAN	-4180
▁adress	-4181
ouvre	-4182
ich	-4183
▁Barroso	-4184
▁obstacles	-4185
▁entier	-4186
fiées	-4187
œur	-4188
endrons	-4189
▁tandis	-4190
▁citer	-4191
▁commis	-4192
▁détail	-4193
▁impact	-4194
▁fermement	-4195
▁fortement	-4196
enseignement	-4197
Ukraine	-4198
▁tort	-4199
entiel	-4200
unanimité	-4201
▁global	-4202
Or	-4203
▁préparer	-4204
▁calendrier	-4205
▁viande	-4206
odi	-4207
▁Verts	-4208
▁positifs	-4209
▁diplom	-4210
▁restent	-4211
▁bâti	-4212
▁crédibilité	-4213
▁certes	-4214
▁entreprise	-4215
▁destinés	-4216
▁pous	-4217
▁fonde	-4218
▁difficiles	-4219
ganisation	-4220
▁comprends	-4221
▁réaction	-4222
▁idé	-4223
intérieur	-4224
▁profonde	-4225
ark	-4226
▁frais	-4227
▁interventions	-4228
▁actuelles	-4229
ka	-4230
examiner	-4231
▁êtes	-4232
ses	-4233
appel	-4234
acqu	-4235
époque	-4236
Agence	-4237
urent	-4238
▁famili	-4239
▁terre	-4240
▁viens	-4241
▁pollution	-4242
dem	-4243
▁étude	-4244
amique	-4245
ination	-4246
tié	-4247
Amsterdam	-4248
▁tabac	-4249
fric	-4250
▁règle	-4251
▁institution	-4252
▁signaler	-4253
iez	-4254
▁sort	-4255
do	-4256
▁récl	-4257
▁transi	-4258
▁complète	-4259
▁annuel	-4260
▁mauvaise	-4261
sbourg	-4262
▁combattre	-4263
▁accrue	-4264
assistance	-4265
▁ache	-4266
▁prot	-4267
▁Hong	-4268
ouvez	-4269
▁stim	-4270
lité	-4271
ingt	-4272
▁Stra	-4273
▁conjoin	-4274
▁commentaires	-4275
▁menac	-4276
▁considérables	-4277
▁simil	-4278
▁privil	-4279
▁plais	-4280
indépendance	-4281
▁exécu	-4282
▁commissions	-4283
▁principales	-4284
ènes	-4285
▁communautés	-4286
▁ang	-4287
▁complexe	-4288
...	-4289
▁cœur	-4290
▁opérationn	-4291
PT	-4292
▁dehors	-4293
▁transit	-4294
▁possibles	-4295
▁iss	-4296
▁siècle	-4297
entra	-4298
vons	-4299
▁cohérence	-4300
▁fas	-4301
▁attendons	-4302
▁Eur	-4303
orient	-4304
▁réserves	-4305
▁résolutions	-4306
tionnels	-4307
ade	-4308
▁proposée	-4309
▁raisonnable	-4310
aider	-4311
rices	-4312
▁préju	-4313
▁Chypre	-4314
▁réfléchir	-4315
▁instal	-4316
▁reflè	-4317
ére	-4318
▁payer	-4319
▁ouvert	-4320
▁souhaitent	-4321
ile	-4322
▁lettre	-4323
èvement	-4324
▁red	-4325
▁tôt	-4326
▁irlandais	-4327
▁catastrophes	-4328
▁portée	-4329
▁évoqué	-4330
▁revient	-4331
▁Cop	-4332
▁accueil	-4333
▁contribué	-4334
▁vice	-4335
▁vaste	-4336
▁harmon	-4337
▁présid	-4338
▁ordre	-4339
▁fonctionnaires	-4340
▁dist	-4341
▁proposés	-4342
décision	-4343
▁actuels	-4344
▁environ	-4345
▁plain	-4346
▁excell	-4347
interdiction	-4348
voi	-4349
▁sorti	-4350
▁effort	-4351
▁reprise	-4352
issait	-4353
▁préoccupation	-4354
▁commissaires	-4355
▁organisation	-4356
érés	-4357
▁permettent	-4358
OTAN	-4359
uxemb	-4360
▁tribun	-4361
▁capable	-4362
acités	-4363
▁vaut	-4364
▁prior	-4365
▁CO	-4366
enhague	-4367
exemple	-4368
▁connu	-4369
rétiens	-4370
▁garder	-4371
▁Dan	-4372
▁orig	-4373
▁souci	-4374
▁double	-4375
Organisation	-4376
▁auxquelles	-4377
tations	-4378
▁entendre	-4379
isant	-4380
▁paiement	-4381
▁élevés	-4382
▁commerciale	-4383
▁Livre	-4384
▁régionales	-4385
▁biens	-4386
ber	-4387
▁Copenhague	-4388
▁législatives	-4389
orations	-4390
▁violation	-4391
▁corruption	-4392
▁num	-4393
▁suppression	-4394
▁réta	-4395
▁évolution	-4396
atteindre	-4397
▁claires	-4398
▁opérations	-4399
▁sud	-4400
▁Charte	-4401
▁étroite	-4402
▁entraîner	-4403
▁aérien	-4404
▁transition	-4405
atrième	-4406
▁culturelle	-4407
▁acte	-4408
kistan	-4409
▁supprimer	-4410
▁précise	-4411
▁utilisation	-4412
▁interne	-4413
assur	-4414
▁radic	-4415
▁moitié	-4416
▁transform	-4417
▁déposé	-4418
aucun	-4419
▁poursuite	-4420
once	-4421
ah	-4422
▁Cro	-4423
▁Strasbourg	-4424
▁cesse	-4425
▁souveraine	-4426
▁Aussi	-4427
▁automob	-4428
▁erreur	-4429
▁nations	-4430
ériques	-4431
▁voulu	-4432
▁tendance	-4433
▁codécision	-4434
uis	-4435
ommun	-4436
▁relève	-4437
▁études	-4438
quant	-4439
▁espace	-4440
▁vouloir	-4441
▁ratification	-4442
▁pêcheurs	-4443
▁paraît	-4444
rite	-4445
para	-4446
▁déploy	-4447
▁vivent	-4448
▁adéquate	-4449
érance	-4450
▁fixer	-4451
▁minimum	-4452
▁capacités	-4453
eut	-4454
▁sérieusement	-4455
érop	-4456
▁Lib	-4457
▁tenter	-4458
▁communs	-4459
▁Som	-4460
▁Étant	-4461
▁débattre	-4462
▁modernis	-4463
▁constate	-4464
tront	-4465
▁fournit	-4466
▁envisage	-4467
gour	-4468
urement	-4469
▁end	-4470
▁ambi	-4471
▁vivre	-4472
empê	-4473
▁via	-4474
ortation	-4475
▁compter	-4476
▁imposer	-4477
aque	-4478
▁hausse	-4479
▁expérience	-4480
▁personnellement	-4481
Bas	-4482
éditerranée	-4483
iller	-4484
▁recevoir	-4485
▁Ob	-4486
▁lac	-4487
▁laisse	-4488
▁concernent	-4489
▁pétrole	-4490
▁allemand	-4491
▁immi	-4492
▁vul	-4493
▁tchè	-4494
▁surpr	-4495
▁facteurs	-4496
espoir	-4497
▁crucial	-4498
▁constitution	-4499
ath	-4500
tar	-4501
▁nour	-4502
▁somme	-4503
▁réunions	-4504
▁CE	-4505
▁Inter	-4506
▁connaître	-4507
▁bru	-4508
▁civil	-4509
▁équiv	-4510
▁obligatoire	-4511
▁destinées	-4512
▁activité	-4513
éder	-4514
impression	-4515
rime	-4516
▁démocrates	-4517
▁code	-4518
▁prud	-4519
▁perdu	-4520
▁aliments	-4521
▁thé	-4522
llèlement	-4523
avie	-4524
▁Slov	-4525
▁analys	-4526
▁différence	-4527
▁fédéra	-4528
▁énorme	-4529
▁Méditerranée	-4530
▁amélioration	-4531
▁préciser	-4532
▁centrales	-4533
▁quels	-4534
▁salari	-4535
▁scand	-4536
▁arm	-4537
apporter	-4538
▁acceptable	-4539
▁favorables	-4540
▁partout	-4541
élect	-4542
accomp	-4543
ût	-4544
▁péti	-4545
Al	-4546
▁souv	-4547
▁dign	-4548
▁blanc	-4549
▁garde	-4550
▁défend	-4551
▁chapit	-4552
▁mentionner	-4553
inqui	-4554
▁Quant	-4555
▁phénomène	-4556
▁mérit	-4557
▁paiements	-4558
▁Avant	-4559
▁dangereux	-4560
tension	-4561
▁trouvé	-4562
▁serons	-4563
▁avril	-4564
▁mili	-4565
lations	-4566
néra	-4567
▁soup	-4568
apport	-4569
▁naturelles	-4570
pect	-4571
▁lien	-4572
▁administratives	-4573
▁présentée	-4574
ars	-4575
conque	-4576
dent	-4577
▁fondée	-4578
▁problé	-4579
fghanistan	-4580
▁transfert	-4581
▁capables	-4582
▁fré	-4583
▁vulnéra	-4584
▁prol	-4585
▁esprit	-4586
▁eth	-4587
éro	-4588
▁envisag	-4589
atiques	-4590
▁dignité	-4591
ule	-4592
▁Serb	-4593
▁nul	-4594
▁textes	-4595
▁allou	-4596
chi	-4597
▁article	-4598
▁substanti	-4599
▁détaill	-4600
▁présidents	-4601
▁injus	-4602
usses	-4603
▁majeure	-4604
▁appropriée	-4605
▁complètement	-4606
▁relativement	-4607
lantique	-4608
▁dépit	-4609
▁conscients	-4610
▁réglementations	-4611
▁revêt	-4612
▁proposées	-4613
▁envisager	-4614
▁sépar	-4615
▁pilier	-4616
▁réel	-4617
▁clause	-4618
▁crimes	-4619
▁cens	-4620
▁permettrait	-4621
▁plein	-4622
▁prévue	-4623
érée	-4624
▁générales	-4625
▁industrielle	-4626
▁visi	-4627
▁Irlande	-4628
▁intervenir	-4629
▁petite	-4630
▁inquiétudes	-4631
▁privé	-4632
biliser	-4633
▁bal	-4634
▁offrir	-4635
▁organes	-4636
▁clé	-4637
latéra	-4638
▁candid	-4639
▁apporté	-4640
▁discrimin	-4641
▁fonctionne	-4642
▁PAC	-4643
évrier	-4644
▁afric	-4645
énie	-4646
▁origin	-4647
▁pouvait	-4648
arités	-4649
▁ressortiss	-4650
▁autour	-4651
tisation	-4652
▁restruct	-4653
▁Plus	-4654
▁formuler	-4655
utriche	-4656
▁territori	-4657
▁fil	-4658
mic	-4659
▁détermination	-4660
▁isra	-4661
▁restrictions	-4662
▁proc	-4663
Espagne	-4664
cription	-4665
▁orateurs	-4666
▁patients	-4667
▁chimi	-4668
▁crises	-4669
▁information	-4670
▁régimes	-4671
exclusion	-4672
▁février	-4673
▁principale	-4674
▁entière	-4675
quées	-4676
Italie	-4677
▁interpré	-4678
îne	-4679
▁villes	-4680
▁répéter	-4681
▁perdre	-4682
▁apparti	-4683
ordi	-4684
▁nette	-4685
▁dicta	-4686
▁reconstruction	-4687
lées	-4688
▁sév	-4689
▁orientale	-4690
cte	-4691
▁cohérente	-4692
▁Ensuite	-4693
▁systématique	-4694
▁connaît	-4695
mont	-4696
▁auraient	-4697
▁fonctionner	-4698
▁pouvez	-4699
▁prévenir	-4700
autoris	-4701
▁sport	-4702
▁urg	-4703
▁plaisir	-4704
▁rent	-4705
▁Ou	-4706
▁homme	-4707
hab	-4708
sif	-4709
▁organisée	-4710
fiant	-4711
▁portug	-4712
assurance	-4713
lés	-4714
▁taxe	-4715
he	-4716
▁bri	-4717
▁Sans	-4718
An	-4719
▁Concer	-4720
arme	-4721
engager	-4722
▁détails	-4723
▁présents	-4724
étude	-4725
▁tchèque	-4726
sus	-4727
▁expéri	-4728
▁remarquer	-4729
esse	-4730
▁vingt	-4731
▁susp	-4732
▁croire	-4733
▁phy	-4734
ortations	-4735
Iran	-4736
▁directrices	-4737
gos	-4738
▁adhésion	-4739
▁ONG	-4740
uni	-4741
▁feu	-4742
▁syndi	-4743
autorité	-4744
▁soumettre	-4745
endrait	-4746
▁recour	-4747
accepter	-4748
▁content	-4749
▁rapporte	-4750
▁ajoutée	-4751
▁capitaux	-4752
▁multilatéra	-4753
▁temporai	-4754
▁causes	-4755
▁humain	-4756
▁convergence	-4757
▁Concernant	-4758
▁répartition	-4759
▁futures	-4760
▁accus	-4761
sante	-4762
▁existantes	-4763
side	-4764
▁plac	-4765
sique	-4766
▁facteur	-4767
oubli	-4768
▁degré	-4769
hon	-4770
ège	-4771
▁aband	-4772
ève	-4773
ordinaire	-4774
▁évalu	-4775
▁Gu	-4776
▁tâches	-4777
oto	-4778
▁américain	-4779
▁commercial	-4780
▁respecte	-4781
▁voisinage	-4782
▁améliorations	-4783
▁suivant	-4784
arde	-4785
tic	-4786
▁hors	-4787
▁montrent	-4788
▁bases	-4789
▁habitu	-4790
▁meilleurs	-4791
▁créé	-4792
tel	-4793
▁organisé	-4794
▁importations	-4795
▁existent	-4796
inions	-4797
affaire	-4798
inze	-4799
exportation	-4800
chant	-4801
▁secrét	-4802
union	-4803
ientôt	-4804
▁revanche	-4805
▁exemples	-4806
apon	-4807
rage	-4808
▁Malgré	-4809
▁autrement	-4810
jouter	-4811
▁vérité	-4812
▁propriété	-4813
▁amen	-4814
vrer	-4815
▁symb	-4816
▁plani	-4817
Irak	-4818
▁prennent	-4819
▁interinstitu	-4820
▁lancé	-4821
▁Pourtant	-4822
▁ci	-4823
▁figure	-4824
▁construire	-4825
arus	-4826
▁Ky	-4827
▁prospérité	-4828
lez	-4829
▁différente	-4830
▁vari	-4831
▁proche	-4832
▁seconde	-4833
▁commencé	-4834
accueil	-4835
▁simplification	-4836
▁réagir	-4837
endi	-4838
▁expliquer	-4839
▁contribue	-4840
▁travaillé	-4841
▁constitutionnel	-4842
▁reconnu	-4843
▁gérer	-4844
▁regrettable	-4845
▁comprend	-4846
ps	-4847
▁privée	-4848
▁Prodi	-4849
▁bientôt	-4850
▁existants	-4851
▁française	-4852
▁continuent	-4853
▁ferroviaire	-4854
▁accomplis	-4855
▁êtres	-4856
ondu	-4857
ougos	-4858
▁%.	-4859
▁Est	-4860
▁corre	-4861
▁approprié	-4862
tine	-4863
▁organismes	-4864
ricité	-4865
▁essentielles	-4866
▁innov	-4867
▁viennent	-4868
▁stratégies	-4869
tivement	-4870
▁ressort	-4871
▁joué	-4872
▁Croatie	-4873
▁conven	-4874
atoires	-4875
▁visite	-4876
▁dette	-4877
▁arrive	-4878
▁régler	-4879
▁maximum	-4880
isions	-4881
▁appu	-4882
▁menées	-4883
▁publicité	-4884
▁ayons	-4885
▁coordonn	-4886
▁chef	-4887
▁néer	-4888
▁culturel	-4889
▁criti	-4890
▁stocks	-4891
▁urgent	-4892
▁semblent	-4893
ox	-4894
▁espoir	-4895
▁types	-4896
▁préalable	-4897
▁efficacité	-4898
▁décen	-4899
▁tentative	-4900
▁signé	-4901
▁paroles	-4902
▁médic	-4903
▁travaillent	-4904
ek	-4905
acts	-4906
uad	-4907
internet	-4908
▁aurions	-4909
unis	-4910
▁chang	-4911
▁mutuelle	-4912
▁conserver	-4913
▁touche	-4914
▁dét	-4915
▁premiers	-4916
▁sincèrement	-4917
èse	-4918
▁éventu	-4919
▁crime	-4920
▁humaines	-4921
▁capitale	-4922
▁chale	-4923
▁Afrique	-4924
▁souveraineté	-4925
▁baisse	-4926
▁crédit	-4927
inois	-4928
ajouter	-4929
▁cultures	-4930
exig	-4931
▁énergétiques	-4932
▁israéli	-4933
▁activement	-4934
▁satisfaction	-4935
▁introduit	-4936
▁énergies	-4937
onie	-4938
▁élargissement	-4939
toire	-4940
aliment	-4941
▁regard	-4942
ercus	-4943
▁répercus	-4944
▁méditerranéen	-4945
▁Mac	-4946
▁Dépu	-4947
▁pacifique	-4948
▁écologique	-4949
▁opinion	-4950
▁tari	-4951
▁marge	-4952
▁prévoir	-4953
▁assumer	-4954
▁sin	-4955
▁obli	-4956
▁menée	-4957
appelle	-4958
▁sortir	-4959
instrument	-4960
▁considérons	-4961
▁mouvement	-4962
▁sept	-4963
▁finances	-4964
▁sensible	-4965
▁influence	-4966
▁ressortissants	-4967
élérer	-4968
▁visas	-4969
▁cycle	-4970
▁arguments	-4971
atur	-4972
▁rece	-4973
NL	-4974
ssant	-4975
instant	-4976
▁intéressant	-4977
ores	-4978
▁Jus	-4979
▁indépendant	-4980
octroi	-4981
▁industrie	-4982
▁termin	-4983
▁déficit	-4984
▁Quel	-4985
▁liée	-4986
▁livre	-4987
▁mains	-4988
▁réduit	-4989
▁remarqu	-4990
▁vivement	-4991
▁,	-4992
▁audi	-4993
▁saluer	-4994
▁avancées	-4995
pro	-4996
▁socialistes	-4997
Inde	-4998
▁Tou	-4999
▁locaux	-5000
avait	-5001
unité	-5002
▁surmont	-5003
▁invite	-5004
urants	-5005
cht	-5006
▁bloc	-5007
▁débou	-5008
▁conventions	-5009
arrêt	-5010
▁obje	-5011
invite	-5012
▁fixé	-5013
▁élar	-5014
▁exportations	-5015
▁opti	-5016
▁comportement	-5017
erti	-5018
▁généralement	-5019
gement	-5020
▁visent	-5021
▁crain	-5022
▁incombe	-5023
▁britanniques	-5024
▁denrées	-5025
▁bout	-5026
▁ville	-5027
▁diminution	-5028
▁technologique	-5029
▁Non	-5030
▁adh	-5031
istique	-5032
▁répète	-5033
▁moyenne	-5034
ume	-5035
▁retraite	-5036
duc	-5037
▁prévues	-5038
tat	-5039
▁quit	-5040
▁renforcée	-5041
avais	-5042
▁abordé	-5043
▁centaines	-5044
▁citoyenne	-5045
▁Bos	-5046
▁nord	-5047
▁douani	-5048
▁équipe	-5049
servation	-5050
États	-5051
▁motion	-5052
▁rurales	-5053
encourager	-5054
▁banc	-5055
▁laiss	-5056
anes	-5057
ana	-5058
▁désign	-5059
▁passage	-5060
▁tomb	-5061
▁intelli	-5062
▁bat	-5063
accorder	-5064
▁récente	-5065
▁abus	-5066
▁alli	-5067
▁saur	-5068
▁Nos	-5069
asser	-5070
▁hong	-5071
▁intégrée	-5072
▁TV	-5073
▁volontaire	-5074
▁remis	-5075
▁bons	-5076
▁postes	-5077
niers	-5078
aborder	-5079
▁indépendants	-5080
▁perte	-5081
œu	-5082
▁primordi	-5083
▁accroître	-5084
▁utilisées	-5085
▁partenaire	-5086
▁lin	-5087
▁démarche	-5088
▁défini	-5089
arté	-5090
▁mode	-5091
augmenter	-5092
sons	-5093
▁disposent	-5094
▁répercussions	-5095
agissait	-5096
▁Peut	-5097
▁repose	-5098
▁solide	-5099
▁conduit	-5100
▁dérog	-5101
étr	-5102
▁Grande	-5103
▁reconnaît	-5104
▁apporte	-5105
RO	-5106
où	-5107
▁aérop	-5108
▁prête	-5109
▁clairs	-5110
▁concrets	-5111
▁bénéfices	-5112
orgie	-5113
▁concrète	-5114
çu	-5115
▁incl	-5116
▁monop	-5117
▁brièvement	-5118
▁st	-5119
oss	-5120
▁directe	-5121
▁frontière	-5122
La	-5123
▁tél	-5124
▁adoptés	-5125
appréci	-5126
▁adopte	-5127
▁urb	-5128
▁émis	-5129
▁spécial	-5130
▁énergie	-5131
introduire	-5132
approbation	-5133
paravant	-5134
▁approuver	-5135
▁modes	-5136
▁provenant	-5137
▁tellement	-5138
▁connaissons	-5139
tagne	-5140
▁présentation	-5141
léter	-5142
▁conforme	-5143
▁habitants	-5144
cés	-5145
▁taxes	-5146
▁espagnol	-5147
▁provenance	-5148
entendre	-5149
▁génétique	-5150
IS	-5151
nés	-5152
▁exercer	-5153
▁meur	-5154
AF	-5155
▁Roms	-5156
▁défav	-5157
▁électronique	-5158
IB	-5159
▁Gé	-5160
▁souha	-5161
démocrates	-5162
oud	-5163
▁électeurs	-5164
▁experts	-5165
▁Di	-5166
étiquetage	-5167
amendements	-5168
avec	-5169
mbler	-5170
ect	-5171
▁soyons	-5172
▁illégale	-5173
▁opinions	-5174
sification	-5175
▁basée	-5176
▁reprendre	-5177
▁imm	-5178
▁constructive	-5179
retagne	-5180
▁destruction	-5181
▁précon	-5182
▁dynamique	-5183
bit	-5184
▁TVA	-5185
▁Serbie	-5186
▁inféri	-5187
▁éché	-5188
▁civiles	-5189
▁tête	-5190
▁cinqu	-5191
▁significative	-5192
uré	-5193
▁Quand	-5194
▁devient	-5195
▁inscrit	-5196
▁pay	-5197
▁étroitement	-5198
▁connaissances	-5199
▁préci	-5200
▁essayer	-5201
▁accordée	-5202
▁attentes	-5203
▁médiateur	-5204
▁Se	-5205
▁donnée	-5206
▁informer	-5207
▁compati	-5208
▁distribution	-5209
▁incomp	-5210
▁introduire	-5211
▁hui	-5212
▁coûte	-5213
▁Comité	-5214
▁enregist	-5215
isé	-5216
applique	-5217
▁remettre	-5218
▁pratiquement	-5219
▁drogue	-5220
▁reprodu	-5221
▁corri	-5222
▁déposés	-5223
▁confirmer	-5224
▁Can	-5225
▁légitime	-5226
▁problématique	-5227
▁Mc	-5228
▁enquête	-5229
▁perp	-5230
ouer	-5231
▁rémun	-5232
▁prolong	-5233
érable	-5234
▁duquel	-5235
▁retirer	-5236
adresse	-5237
▁scandale	-5238
crire	-5239
▁débattu	-5240
▁honn	-5241
▁ports	-5242
▁choisir	-5243
enons	-5244
▁évaluer	-5245
écl	-5246
▁Pers	-5247
▁chercher	-5248
ration	-5249
▁prati	-5250
dessus	-5251
▁expliqu	-5252
enquête	-5253
▁version	-5254
misme	-5255
▁salu	-5256
attitude	-5257
▁derrière	-5258
▁merc	-5259
▁incont	-5260
▁strictes	-5261
électricité	-5262
chés	-5263
▁bil	-5264
▁liens	-5265
▁élaborer	-5266
istant	-5267
▁tenue	-5268
▁avancée	-5269
▁inclure	-5270
effor	-5271
▁fabri	-5272
▁reven	-5273
CO	-5274
▁Rapport	-5275
▁illus	-5276
▁fruits	-5277
▁définitive	-5278
toires	-5279
noc	-5280
▁CI	-5281
▁thèmes	-5282
endront	-5283
▁missions	-5284
yth	-5285
▁incap	-5286
▁privés	-5287
▁coopérer	-5288
▁lab	-5289
▁Luxemb	-5290
▁gagner	-5291
▁précédente	-5292
▁choisi	-5293
phériques	-5294
▁libéraux	-5295
▁internes	-5296
▁quantité	-5297
aurais	-5298
iens	-5299
ovine	-5300
▁taille	-5301
▁Géorgie	-5302
▁contrats	-5303
men	-5304
▁oui	-5305
▁encourag	-5306
▁reflète	-5307
oint	-5308
▁cland	-5309
▁opérateurs	-5310
▁amis	-5311
▁terres	-5312
aill	-5313
▁prêt	-5314
▁participé	-5315
▁Ceux	-5316
▁civils	-5317
lais	-5318
influ	-5319
llectu	-5320
▁régionaux	-5321
aucune	-5322
▁pleine	-5323
▁réside	-5324
▁catégorie	-5325
▁lié	-5326
▁Belarus	-5327
▁anciens	-5328
▁aériennes	-5329
▁supérieur	-5330
▁permettront	-5331
▁Allemagne	-5332
tiennent	-5333
honorable	-5334
▁Donc	-5335
▁salaires	-5336
▁turc	-5337
▁susceptibles	-5338
ocation	-5339
▁religie	-5340
▁don	-5341
érées	-5342
▁satisfaire	-5343
aj	-5344
▁révis	-5345
▁souhaité	-5346
lications	-5347
▁Qui	-5348
uropol	-5349
▁excellente	-5350
▁revenu	-5351
▁agit	-5352
▁télévision	-5353
▁profondément	-5354
▁blo	-5355
analyse	-5356
▁équilibré	-5357
▁demi	-5358
▁clarté	-5359
▁Finlande	-5360
lèvent	-5361
▁fixés	-5362
▁voitures	-5363
▁prononcer	-5364
ED	-5365
lise	-5366
Bretagne	-5367
urde	-5368
▁mené	-5369
▁russe	-5370
▁rapporteure	-5371
▁perd	-5372
▁Luxembourg	-5373
gnent	-5374
▁intentions	-5375
roc	-5376
▁cib	-5377
▁sac	-5378
instar	-5379
▁examen	-5380
▁téléc	-5381
▁institutionnel	-5382
abs	-5383
▁industries	-5384
mid	-5385
▁ravi	-5386
▁effor	-5387
▁excessi	-5388
onneur	-5389
▁jeudi	-5390
écus	-5391
▁contact	-5392
▁rej	-5393
verse	-5394
▁explicite	-5395
arc	-5396
▁rasse	-5397
▁gauche	-5398
▁trouvons	-5399
auff	-5400
▁Kyoto	-5401
▁détri	-5402
▁Tch	-5403
▁vendre	-5404
▁destiné	-5405
▁intellectu	-5406
▁flux	-5407
oul	-5408
entreprises	-5409
▁spéc	-5410
riques	-5411
empêcher	-5412
▁articles	-5413
▁remplacer	-5414
▁territoires	-5415
▁contribuera	-5416
▁chapitre	-5417
▁difficulté	-5418
▁équilibrée	-5419
▁rigour	-5420
▁chimiques	-5421
▁disant	-5422
▁prov	-5423
▁déclare	-5424
fe	-5425
▁local	-5426
▁vulnérables	-5427
▁trait	-5428
▁transmis	-5429
▁gros	-5430
▁tu	-5431
▁âgées	-5432
▁engend	-5433
▁mettent	-5434
▁dan	-5435
▁écl	-5436
▁polon	-5437
▁convenu	-5438
▁courant	-5439
▁amp	-5440
▁doll	-5441
▁évolu	-5442
▁Comp	-5443
▁asp	-5444
▁Irak	-5445
▁prépara	-5446
▁privilég	-5447
▁vérifier	-5448
▁contribuables	-5449
▁conduire	-5450
▁déclarer	-5451
▁autrich	-5452
inclusion	-5453
EL	-5454
▁erreurs	-5455
▁suppose	-5456
▁prévoy	-5457
▁compréhension	-5458
▁texti	-5459
Isra	-5460
▁Nice	-5461
micycle	-5462
▁transat	-5463
▁contacts	-5464
▁structurelles	-5465
oriz	-5466
▁représenter	-5467
offre	-5468
▁défaut	-5469
accroître	-5470
▁détriment	-5471
▁pétitions	-5472
▁Auc	-5473
▁législations	-5474
armes	-5475
▁pressions	-5476
▁fournisse	-5477
▁PIB	-5478
▁terri	-5479
▁crains	-5480
▁atti	-5481
▁voud	-5482
▁exclusivement	-5483
▁rejeter	-5484
ètres	-5485
érences	-5486
▁Bosnie	-5487
▁effectué	-5488
alisés	-5489
▁bureaucratie	-5490
▁saisir	-5491
▁perform	-5492
▁nécessite	-5493
▁patrim	-5494
amé	-5495
dec	-5496
▁impéra	-5497
▁premièrement	-5498
cats	-5499
midi	-5500
▁futurs	-5501
rastructure	-5502
▁automobile	-5503
▁Cor	-5504
tenue	-5505
▁complet	-5506
▁échange	-5507
▁installations	-5508
olé	-5509
▁discuté	-5510
importe	-5511
▁permanent	-5512
iné	-5513
▁signe	-5514
old	-5515
▁chiffre	-5516
lit	-5517
▁respectent	-5518
▁usage	-5519
▁minutes	-5520
▁vente	-5521
▁forêts	-5522
▁professionnels	-5523
elone	-5524
▁diverg	-5525
▁quinze	-5526
▁suffisant	-5527
approuve	-5528
garde	-5529
roupe	-5530
▁Barc	-5531
▁Japon	-5532
▁inég	-5533
▁levée	-5534
arition	-5535
▁persuad	-5536
▁négocier	-5537
onctions	-5538
▁attendent	-5539
Ag	-5540
osant	-5541
▁Barcelone	-5542
esses	-5543
▁lon	-5544
enfants	-5545
▁attribu	-5546
▁positives	-5547
▁véritables	-5548
▁appropriées	-5549
OL	-5550
oh	-5551
▁plaf	-5552
▁répondu	-5553
▁constaté	-5554
essentiel	-5555
▁î	-5556
▁régulièrement	-5557
▁sil	-5558
étaient	-5559
▁prisonniers	-5560
▁quasi	-5561
▁contributions	-5562
▁déri	-5563
▁lacunes	-5564
▁fal	-5565
▁supprim	-5566
▁dirais	-5567
cool	-5568
▁poste	-5569
▁motifs	-5570
▁relance	-5571
▁venu	-5572
▁interdiction	-5573
▁représentation	-5574
▁Corée	-5575
▁époque	-5576
▁mac	-5577
▁centres	-5578
▁intégration	-5579
▁soulevé	-5580
▁consenti	-5581
▁faute	-5582
tination	-5583
▁menaces	-5584
Eur	-5585
▁surmonter	-5586
▁Sommet	-5587
▁convaincre	-5588
étais	-5589
▁séle	-5590
▁demeure	-5591
effe	-5592
▁bénéficient	-5593
avère	-5594
mages	-5595
ellent	-5596
▁pertes	-5597
▁formulées	-5598
▁justifier	-5599
orise	-5600
agisse	-5601
▁latine	-5602
▁dommages	-5603
formes	-5604
▁intégrer	-5605
▁huit	-5606
▁chargé	-5607
▁discutons	-5608
▁pencher	-5609
▁unilatéra	-5610
gédi	-5611
▁flo	-5612
▁continuera	-5613
▁planète	-5614
▁handicapées	-5615
acement	-5616
imposer	-5617
▁réaffir	-5618
▁milieu	-5619
▁accessi	-5620
▁pes	-5621
▁rapid	-5622
▁dispara	-5623
▁appliquées	-5624
orientation	-5625
▁conception	-5626
▁fall	-5627
▁chinois	-5628
bes	-5629
âge	-5630
élé	-5631
▁apparaît	-5632
▁allemande	-5633
riez	-5634
▁débattons	-5635
▁obligation	-5636
▁hauteur	-5637
▁bilan	-5638
▁hyp	-5639
▁visa	-5640
▁méritent	-5641
▁suffisante	-5642
▁cy	-5643
▁racisme	-5644
▁présentés	-5645
agnes	-5646
▁tragédi	-5647
▁ouv	-5648
▁rédigé	-5649
▁exter	-5650
▁pénale	-5651
▁Pakistan	-5652
▁calcul	-5653
ache	-5654
▁pire	-5655
▁précé	-5656
▁télécommun	-5657
▁précédemment	-5658
▁purement	-5659
▁posé	-5660
▁désire	-5661
▁engagés	-5662
▁candidat	-5663
estement	-5664
▁pénal	-5665
▁Hongrie	-5666
▁remerciements	-5667
guer	-5668
▁prétend	-5669
▁facilement	-5670
▁indépendante	-5671
▁bois	-5672
occupe	-5673
▁contro	-5674
▁américaine	-5675
▁clés	-5676
▁revoir	-5677
▁légitimité	-5678
▁élu	-5679
▁environnemental	-5680
nexe	-5681
èlement	-5682
▁refuser	-5683
sh	-5684
▁spe	-5685
▁annoncé	-5686
▁preuves	-5687
▁patrimoine	-5688
▁tox	-5689
▁imag	-5690
▁utilisée	-5691
▁auparavant	-5692
COM	-5693
▁protest	-5694
▁conviction	-5695
▁Van	-5696
▁sert	-5697
▁autonom	-5698
▁élus	-5699
▁restre	-5700
▁tenant	-5701
▁rappelé	-5702
▁consacré	-5703
▁prê	-5704
▁remédi	-5705
▁fonctions	-5706
▁connaissent	-5707
▁Toutes	-5708
▁Cub	-5709
▁cul	-5710
▁tri	-5711
▁notion	-5712
opportun	-5713
▁appare	-5714
▁argent	-5715
▁stratégiques	-5716
LE	-5717
▁lingu	-5718
▁démontré	-5719
▁licenci	-5720
▁Belgique	-5721
▁%,	-5722
▁suivants	-5723
▁résolu	-5724
▁clarifier	-5725
▁mus	-5726
▁urgence	-5727
ureau	-5728
▁dossiers	-5729
▁formulation	-5730
▁scène	-5731
▁histoire	-5732
▁Bus	-5733
lier	-5734
▁PSE	-5735
▁distinction	-5736
▁enqu	-5737
▁intéri	-5738
▁savent	-5739
▁sensibles	-5740
▁rejeté	-5741
▁carbone	-5742
▁présentent	-5743
user	-5744
▁Objet	-5745
▁observations	-5746
▁exiger	-5747
ata	-5748
▁apport	-5749
▁minorité	-5750
tats	-5751
▁bate	-5752
▁navig	-5753
▁Traités	-5754
▁indique	-5755
excellent	-5756
▁adresser	-5757
agenda	-5758
▁médec	-5759
▁initiale	-5760
▁intérieure	-5761
élab	-5762
médiaire	-5763
▁affirmer	-5764
▁commence	-5765
astre	-5766
▁dites	-5767
▁chaleure	-5768
▁Col	-5769
▁fiscales	-5770
▁marque	-5771
▁génération	-5772
hom	-5773
▁modernisation	-5774
isée	-5775
éricains	-5776
▁intention	-5777
▁simplifier	-5778
▁gui	-5779
▁appartient	-5780
▁extraordinaire	-5781
▁existant	-5782
ban	-5783
▁destinée	-5784
▁demandent	-5785
▁harmonisation	-5786
istent	-5787
▁accidents	-5788
▁signature	-5789
▁ara	-5790
▁suivantes	-5791
▁nettement	-5792
▁tonnes	-5793
▁retrouver	-5794
▁dangereuses	-5795
▁substance	-5796
▁MM	-5797
ades	-5798
évit	-5799
▁écoles	-5800
▁asse	-5801
▁acquis	-5802
▁Certes	-5803
▁Cong	-5804
▁assistance	-5805
▁dépendance	-5806
human	-5807
▁tenus	-5808
▁diss	-5809
▁prenne	-5810
▁Be	-5811
▁peur	-5812
▁isl	-5813
▁progress	-5814
asp	-5815
rég	-5816
▁moderne	-5817
▁avantage	-5818
romp	-5819
▁engagée	-5820
▁remplir	-5821
imb	-5822
effet	-5823
nies	-5824
▁desqu	-5825
▁minute	-5826
érations	-5827
▁BCE	-5828
▁amélior	-5829
▁inutile	-5830
▁recettes	-5831
▁applicables	-5832
▁sexuelle	-5833
▁administrative	-5834
oz	-5835
▁interven	-5836
appu	-5837
▁normal	-5838
▁souhaitable	-5839
▁Baltique	-5840
évaluer	-5841
▁finale	-5842
astri	-5843
▁central	-5844
grants	-5845
▁dépass	-5846
▁croissante	-5847
▁forum	-5848
▁augmenté	-5849
▁serre	-5850
GM	-5851
▁lire	-5852
▁resta	-5853
▁parven	-5854
▁préjudi	-5855
▁recourir	-5856
▁disent	-5857
▁développements	-5858
▁tax	-5859
▁charges	-5860
▁drogues	-5861
▁mini	-5862
▁espagnole	-5863
ophob	-5864
▁crée	-5865
instauration	-5866
▁radio	-5867
▁rejoin	-5868
▁inad	-5869
▁naturel	-5870
aci	-5871
▁espérer	-5872
▁jeunesse	-5873
extérieur	-5874
▁impor	-5875
aison	-5876
▁atteinte	-5877
organ	-5878
▁volu	-5879
▁quelqu	-5880
Autriche	-5881
▁présentées	-5882
▁Gen	-5883
échec	-5884
▁infra	-5885
▁gro	-5886
▁van	-5887
élaborer	-5888
▁possède	-5889
tera	-5890
▁désastre	-5891
ssement	-5892
▁légale	-5893
▁bénéficiaires	-5894
otes	-5895
extension	-5896
▁prochains	-5897
▁Cuba	-5898
▁iden	-5899
▁prie	-5900
▁cesser	-5901
ombre	-5902
urrence	-5903
▁différent	-5904
▁remarquable	-5905
▁certi	-5906
èce	-5907
étendre	-5908
▁parents	-5909
▁considérations	-5910
cateurs	-5911
▁polici	-5912
intégrer	-5913
▁Italie	-5914
▁délib	-5915
▁leçons	-5916
▁devenu	-5917
économique	-5918
emark	-5919
▁engager	-5920
▁contradi	-5921
▁appliquée	-5922
▁considérée	-5923
▁multination	-5924
▁lourd	-5925
▁religion	-5926
AR	-5927
▁rende	-5928
▁Bureau	-5929
▁ultra	-5930
▁chaîne	-5931
▁exprimées	-5932
▁restructuration	-5933
▁lit	-5934
▁consacrer	-5935
▁concrètement	-5936
èles	-5937
▁indiquer	-5938
▁quatrième	-5939
oût	-5940
▁Danemark	-5941
ed	-5942
ensible	-5943
▁finance	-5944
sements	-5945
▁affirmé	-5946
▁voudrions	-5947
bres	-5948
tré	-5949
▁post	-5950
undi	-5951
mar	-5952
onnel	-5953
accords	-5954
▁rencontre	-5955
enant	-5956
▁remb	-5957
émission	-5958
▁temporaire	-5959
▁pensent	-5960
▁qualifiée	-5961
▁exerc	-5962
▁mettant	-5963
▁suédois	-5964
▁soumise	-5965
versité	-5966
astricht	-5967
▁pil	-5968
▁voies	-5969
▁inquiétude	-5970
instal	-5971
▁instamment	-5972
▁utiles	-5973
▁bienvenue	-5974
▁motiv	-5975
cession	-5976
▁pér	-5977
▁transe	-5978
▁prétexte	-5979
▁étrangers	-5980
▁doi	-5981
acquis	-5982
entiss	-5983
▁Maastricht	-5984
adapter	-5985
▁garantissant	-5986
onné	-5987
▁enj	-5988
▁concréti	-5989
▁pourcent	-5990
▁pluri	-5991
▁repris	-5992
▁limitée	-5993
▁expériences	-5994
hou	-5995
rin	-5996
ffaires	-5997
io	-5998
▁Quoi	-5999
sifier	-6000
▁élaboré	-6001
▁couver	-6002
tt	-6003
▁Bro	-6004
▁entraîne	-6005
▁octroy	-6006
▁chaleureusement	-6007
ia	-6008
tur	-6009
▁honte	-6010
humanité	-6011
autorisation	-6012
▁particuliers	-6013
▁merci	-6014
▁réaliste	-6015
▁catégories	-6016
▁durabilité	-6017
▁climatiques	-6018
▁libres	-6019
▁espèces	-6020
▁pouvant	-6021
▁ax	-6022
iert	-6023
pule	-6024
▁inévit	-6025
ctoire	-6026
lissement	-6027
▁ap	-6028
nier	-6029
▁siège	-6030
▁remédier	-6031
▁corps	-6032
▁échec	-6033
organiser	-6034
▁contribuent	-6035
▁clas	-6036
▁pensions	-6037
▁développés	-6038
chons	-6039
▁évoquer	-6040
alimentation	-6041
▁chu	-6042
▁sûreté	-6043
▁convaincue	-6044
▁judiciaires	-6045
avi	-6046
▁devi	-6047
▁Seu	-6048
▁bar	-6049
▁fermet	-6050
▁côtés	-6051
▁minimales	-6052
▁migra	-6053
▁accordé	-6054
appui	-6055
entissage	-6056
▁manifestement	-6057
▁Son	-6058
▁Etats	-6059
élimination	-6060
orateur	-6061
▁retrait	-6062
▁Slova	-6063
▁vra	-6064
▁vites	-6065
▁plai	-6066
▁prononc	-6067
envis	-6068
▁négatif	-6069
▁citoyenneté	-6070
▁Gaz	-6071
▁Macéd	-6072
▁fournis	-6073
housi	-6074
▁préven	-6075
▁voulais	-6076
encer	-6077
bat	-6078
rez	-6079
▁guère	-6080
▁sanction	-6081
aurait	-6082
▁Berlin	-6083
eusement	-6084
▁fallait	-6085
▁seuil	-6086
▁criminels	-6087
▁librement	-6088
ographiques	-6089
▁réductions	-6090
ulsion	-6091
▁permanente	-6092
enn	-6093
arrê	-6094
▁voyons	-6095
▁approfondie	-6096
▁trou	-6097
▁Mad	-6098
velop	-6099
▁réels	-6100
gil	-6101
▁Natur	-6102
▁actif	-6103
▁bref	-6104
▁partager	-6105
▁occidentaux	-6106
▁portent	-6107
mann	-6108
▁absolue	-6109
▁appliqué	-6110
▁inquiét	-6111
▁récip	-6112
▁alternatives	-6113
fici	-6114
▁franch	-6115
▁élevées	-6116
▁cruciale	-6117
▁aéroports	-6118
ampleur	-6119
▁quelconque	-6120
▁compos	-6121
▁Palestini	-6122
▁irlandaise	-6123
fient	-6124
▁unani	-6125
▁Députés	-6126
ôts	-6127
▁Chaque	-6128
▁obstacle	-6129
▁accorde	-6130
▁Ver	-6131
uelles	-6132
▁prendra	-6133
▁hé	-6134
▁renforcé	-6135
ça	-6136
▁Du	-6137
▁rapprocher	-6138
élas	-6139
▁Décl	-6140
issue	-6141
▁générations	-6142
géri	-6143
▁bord	-6144
▁promesses	-6145
▁Grâce	-6146
▁réglementaire	-6147
ESB	-6148
ajus	-6149
itée	-6150
entement	-6151
▁démontre	-6152
adaptation	-6153
▁territoriale	-6154
▁biodi	-6155
currence	-6156
▁autorité	-6157
voyer	-6158
▁campagnes	-6159
Asie	-6160
▁Bir	-6161
cteur	-6162
▁séjour	-6163
▁téléph	-6164
aller	-6165
sil	-6166
alisé	-6167
▁intégra	-6168
▁indispensables	-6169
▁provi	-6170
▁pan	-6171
imbab	-6172
missi	-6173
▁affai	-6174
▁tente	-6175
▁distor	-6176
▁décide	-6177
▁étions	-6178
▁confirmé	-6179
▁heureuse	-6180
BC	-6181
▁recommande	-6182
▁détru	-6183
énaire	-6184
▁affirme	-6185
▁Macédoine	-6186
▁changé	-6187
▁prenons	-6188
▁décennies	-6189
▁transpor	-6190
▁vital	-6191
attaquer	-6192
▁brevets	-6193
▁diminuer	-6194
▁simples	-6195
▁similaires	-6196
blit	-6197
▁Palestiniens	-6198
▁plur	-6199
▁sang	-6200
▁investir	-6201
▁stimuler	-6202
▁compliqu	-6203
▁impliqués	-6204
▁partageons	-6205
astes	-6206
▁tenté	-6207
inée	-6208
étch	-6209
▁inclu	-6210
interpré	-6211
▁transparente	-6212
▁éth	-6213
▁feront	-6214
aution	-6215
▁endroit	-6216
▁conservation	-6217
▁voyage	-6218
ougosl	-6219
▁inspe	-6220
▁macro	-6221
▁reconnaissant	-6222
▁Jusqu	-6223
▁constamment	-6224
▁transactions	-6225
▁Para	-6226
Agenda	-6227
▁appris	-6228
▁voient	-6229
hier	-6230
▁discip	-6231
▁droite	-6232
▁informé	-6233
▁collaborer	-6234
▁moteur	-6235
▁socio	-6236
▁travaille	-6237
▁associations	-6238
▁politiquement	-6239
▁flotte	-6240
▁Américains	-6241
▁journalistes	-6242
▁vacc	-6243
▁tests	-6244
▁appelé	-6245
▁engagé	-6246
grad	-6247
▁Puis	-6248
▁Slovaquie	-6249
▁Sol	-6250
endue	-6251
▁bles	-6252
▁posent	-6253
▁attentivement	-6254
▁suit	-6255
▁écrites	-6256
▁frontali	-6257
▁puissance	-6258
irait	-6259
▁posée	-6260
▁suédoise	-6261
▁doutes	-6262
▁salariés	-6263
▁coordonner	-6264
▁répression	-6265
▁progressivement	-6266
▁publié	-6267
▁critère	-6268
▁transformation	-6269
mets	-6270
mistes	-6271
▁prés	-6272
▁recti	-6273
▁Quelle	-6274
▁sauvegarde	-6275
▁cite	-6276
ercer	-6277
▁printemps	-6278
▁lead	-6279
▁élargie	-6280
▁biodiversité	-6281
non	-6282
cations	-6283
▁agence	-6284
▁électorale	-6285
▁Tel	-6286
▁pension	-6287
▁adéquat	-6288
▁effective	-6289
▁américains	-6290
énor	-6291
▁planification	-6292
▁cab	-6293
excell	-6294
▁Parti	-6295
▁considérant	-6296
roissement	-6297
quons	-6298
cées	-6299
▁cherche	-6300
anter	-6301
▁spécifiquement	-6302
îtr	-6303
▁mic	-6304
▁mig	-6305
▁slov	-6306
▁conj	-6307
▁belge	-6308
▁modalités	-6309
▁transmettre	-6310
▁matern	-6311
▁communications	-6312
▁jouent	-6313
▁opposés	-6314
▁applicable	-6315
èdent	-6316
▁montants	-6317
casions	-6318
▁ouvrir	-6319
▁retards	-6320
lions	-6321
▁fassent	-6322
▁instaurer	-6323
▁géographique	-6324
▁attaques	-6325
▁constructif	-6326
▁palestinien	-6327
▁oral	-6328
▁fiscalité	-6329
oquer	-6330
▁élarg	-6331
▁charte	-6332
alcool	-6333
▁obser	-6334
▁survi	-6335
▁Maroc	-6336
▁tiendra	-6337
ommage	-6338
▁concret	-6339
▁respectu	-6340
▁pluriann	-6341
rants	-6342
▁polonais	-6343
▁revendi	-6344
ougoslavie	-6345
run	-6346
usti	-6347
ayer	-6348
▁informés	-6349
▁impliquer	-6350
ctivité	-6351
▁prévus	-6352
▁généralis	-6353
assin	-6354
▁Parmi	-6355
▁symp	-6356
▁éloi	-6357
▁carte	-6358
▁italien	-6359
▁soulever	-6360
influence	-6361
▁libération	-6362
▁stable	-6363
▁garantit	-6364
attends	-6365
SV	-6366
▁affirm	-6367
▁conseils	-6368
mping	-6369
▁sûrs	-6370
▁correcte	-6371
▁sép	-6372
évent	-6373
▁couvrir	-6374
▁satisfaisante	-6375
▁morts	-6376
▁plaintes	-6377
grés	-6378
occurrence	-6379
▁précédents	-6380
▁demandeurs	-6381
▁contrairement	-6382
▁tragédie	-6383
▁opposition	-6384
ony	-6385
▁périodes	-6386
▁proposons	-6387
vage	-6388
▁Espagne	-6389
imag	-6390
▁diz	-6391
▁dirai	-6392
▁nuit	-6393
▁laiti	-6394
▁défavoris	-6395
lers	-6396
lets	-6397
▁Genève	-6398
▁détour	-6399
▁devienne	-6400
▁immédiate	-6401
▁recherches	-6402
▁ence	-6403
▁intellectuelle	-6404
hy	-6405
geant	-6406
▁condamner	-6407
ash	-6408
sives	-6409
▁éman	-6410
oublions	-6411
▁discriminations	-6412
investi	-6413
▁quotidien	-6414
son	-6415
▁Gali	-6416
▁Mont	-6417
▁lait	-6418
aspect	-6419
▁récents	-6420
ind	-6421
disant	-6422
▁Do	-6423
▁Gaza	-6424
auteur	-6425
▁récentes	-6426
▁révé	-6427
▁outils	-6428
▁législature	-6429
▁Afin	-6430
▁espère	-6431
▁contenter	-6432
anim	-6433
▁opportunités	-6434
ga	-6435
▁Autre	-6436
▁condamn	-6437
utorité	-6438
armement	-6439
▁aboutir	-6440
▁spor	-6441
▁décrit	-6442
▁collecte	-6443
▁culturels	-6444
▁donnent	-6445
▁préjudice	-6446
▁culturelles	-6447
istons	-6448
▁milliard	-6449
▁accompagn	-6450
▁vivant	-6451
affaires	-6452
▁bâtiments	-6453
▁finir	-6454
▁cancer	-6455
▁rétablir	-6456
âts	-6457
▁perç	-6458
▁îles	-6459
▁const	-6460
▁modifié	-6461
▁humanitaires	-6462
ino	-6463
▁esc	-6464
▁conscient	-6465
▁industriels	-6466
cevoir	-6467
dition	-6468
▁barri	-6469
▁compensation	-6470
▁précises	-6471
▁législatifs	-6472
▁transformer	-6473
▁mondiaux	-6474
▁résistance	-6475
orp	-6476
▁offer	-6477
versaire	-6478
▁deuxièmement	-6479
▁accepte	-6480
▁contradiction	-6481
if	-6482
adres	-6483
▁voilà	-6484
▁fermeture	-6485
▁Oui	-6486
▁dégâts	-6487
▁sérieuse	-6488
illage	-6489
▁divis	-6490
apprentissage	-6491
Alli	-6492
▁sucre	-6493
▁respecté	-6494
▁attent	-6495
▁fructu	-6496
oupes	-6497
ancien	-6498
▁promis	-6499
cter	-6500
isson	-6501
▁Rome	-6502
▁revê	-6503
▁insiste	-6504
▁souffrent	-6505
▁opportunité	-6506
▁Litu	-6507
▁indu	-6508
▁occasions	-6509
Alliance	-6510
▁permette	-6511
▁prioritaires	-6512
▁stabilisation	-6513
▁rub	-6514
▁Compte	-6515
▁échelle	-6516
▁néerlandais	-6517
▁BE	-6518
▁imposées	-6519
▁dollars	-6520
▁présidente	-6521
Ar	-6522
eb	-6523
▁vin	-6524
▁italienne	-6525
gen	-6526
mine	-6527
▁doter	-6528
▁mobil	-6529
équipe	-6530
cides	-6531
▁conclus	-6532
▁privées	-6533
endrai	-6534
impose	-6535
cidence	-6536
▁organiser	-6537
▁nais	-6538
▁modèles	-6539
▁Internet	-6540
▁consolidation	-6541
ls	-6542
▁disons	-6543
▁déplac	-6544
▁ferons	-6545
▁propag	-6546
▁million	-6547
iennes	-6548
oyale	-6549
▁sites	-6550
▁formule	-6551
▁tribunaux	-6552
▁bilatéraux	-6553
▁tribunal	-6554
lore	-6555
▁inond	-6556
▁recy	-6557
▁devenue	-6558
▁mouvements	-6559
▁inclus	-6560
▁croissant	-6561
▁routes	-6562
▁seules	-6563
étranger	-6564
▁consolider	-6565
tration	-6566
▁génétiquement	-6567
▁retire	-6568
▁impression	-6569
èges	-6570
▁programmation	-6571
▁silence	-6572
▁ru	-6573
▁compar	-6574
haus	-6575
▁aggra	-6576
▁venons	-6577
▁éventuellement	-6578
ck	-6579
trait	-6580
▁pourcentage	-6581
▁spécialement	-6582
▁Fis	-6583
armée	-6584
▁fiscaux	-6585
▁Sec	-6586
▁animale	-6587
▁auteurs	-6588
▁garantis	-6589
▁tentatives	-6590
▁déloc	-6591
▁confirme	-6592
▁félicitations	-6593
▁équi	-6594
▁lourde	-6595
▁impliquant	-6596
orables	-6597
▁compétentes	-6598
ye	-6599
obb	-6600
▁couv	-6601
▁pharm	-6602
▁contamin	-6603
▁démocratisation	-6604
financement	-6605
▁prioritaire	-6606
▁Fra	-6607
▁lou	-6608
▁Min	-6609
exercer	-6610
▁incendi	-6611
▁unanime	-6612
▁officielle	-6613
gyp	-6614
▁justifie	-6615
▁fu	-6616
istiques	-6617
▁diffusion	-6618
▁réd	-6619
oriste	-6620
aviation	-6621
▁mè	-6622
talité	-6623
▁allant	-6624
▁artis	-6625
▁Afghanistan	-6626
yst	-6627
▁convaincus	-6628
▁établissant	-6629
▁Canada	-6630
▁ça	-6631
▁étudiants	-6632
▁révolution	-6633
▁particulières	-6634
▁épr	-6635
▁dommage	-6636
▁alternative	-6637
▁personnelle	-6638
▁progressive	-6639
▁Sa	-6640
▁faux	-6641
ik	-6642
▁rang	-6643
ancienne	-6644
▁hommage	-6645
▁admettre	-6646
▁primordial	-6647
har	-6648
▁can	-6649
▁réconc	-6650
▁massive	-6651
▁exploitations	-6652
▁uns	-6653
▁rendent	-6654
▁rê	-6655
iliers	-6656
▁susceptible	-6657
▁intellig	-6658
▁soutiennent	-6659
▁Birmanie	-6660
▁soutenue	-6661
▁concentration	-6662
▁émer	-6663
▁employés	-6664
▁dégager	-6665
▁partant	-6666
▁devaient	-6667
▁x	-6668
▁envoyer	-6669
▁utilisateurs	-6670
▁transposition	-6671
▁sinon	-6672
▁touchés	-6673
effort	-6674
▁provis	-6675
▁bénéfice	-6676
▁résid	-6677
▁nécessairement	-6678
▁déployés	-6679
estre	-6680
▁Quelles	-6681
▁Parallèlement	-6682
▁Verh	-6683
▁locale	-6684
▁maintes	-6685
▁secrétaire	-6686
aceu	-6687
banie	-6688
▁résol	-6689
▁laissé	-6690
▁refuse	-6691
▁argument	-6692
▁rencontrer	-6693
▁complémentaire	-6694
tén	-6695
▁Sy	-6696
ilos	-6697
▁neuf	-6698
▁couvre	-6699
▁bureau	-6700
▁constatons	-6701
infrastructure	-6702
▁insisté	-6703
▁signalé	-6704
▁reçoivent	-6705
don	-6706
▁ment	-6707
▁chrétiens	-6708
▁contraintes	-6709
▁compléter	-6710
▁régul	-6711
▁généraux	-6712
OC	-6713
itimes	-6714
▁u	-6715
▁supr	-6716
▁concrétiser	-6717
▁Lituanie	-6718
▁surveiller	-6719
▁agi	-6720
▁jur	-6721
▁Mold	-6722
▁indem	-6723
▁enquêtes	-6724
▁soumises	-6725
tième	-6726
▁veille	-6727
olition	-6728
itées	-6729
▁gard	-6730
lif	-6731
▁volume	-6732
▁définis	-6733
▁insp	-6734
▁assisté	-6735
hol	-6736
▁enseig	-6737
exception	-6738
▁rejoindre	-6739
ley	-6740
▁contest	-6741
▁deviennent	-6742
▁lancement	-6743
▁fabric	-6744
▁occupe	-6745
▁tenons	-6746
▁communiste	-6747
main	-6748
▁ryth	-6749
▁maîtr	-6750
▁organe	-6751
▁parvenu	-6752
importation	-6753
énophob	-6754
▁pièces	-6755
▁examiné	-6756
▁mépr	-6757
▁inégalités	-6758
identité	-6759
▁manifeste	-6760
ack	-6761
chnolo	-6762
▁récent	-6763
▁éliminer	-6764
▁directeur	-6765
experts	-6766
▁accomplir	-6767
instaurer	-6768
▁disponible	-6769
▁fre	-6770
▁céré	-6771
▁compétitive	-6772
adresser	-6773
▁salaire	-6774
▁scru	-6775
▁impati	-6776
▁xénophob	-6777
▁vir	-6778
▁fondement	-6779
▁Plu	-6780
▁énormes	-6781
▁complexes	-6782
▁rass	-6783
▁profondeur	-6784
▁confusion	-6785
▁administration	-6786
ry	-6787
▁Fl	-6788
▁Pat	-6789
▁juger	-6790
▁durables	-6791
▁syndicats	-6792
▁automatique	-6793
ties	-6794
approuver	-6795
mée	-6796
▁Ex	-6797
▁impose	-6798
▁combler	-6799
▁rembour	-6800
ajustement	-6801
▁cinquième	-6802
▁monétaires	-6803
eront	-6804
▁sovi	-6805
enfant	-6806
▁imparti	-6807
▁injusti	-6808
▁figurent	-6809
▁électroniques	-6810
enreg	-6811
▁désir	-6812
▁longues	-6813
▁accélérer	-6814
▁ultrapéri	-6815
seur	-6816
appliqu	-6817
▁nourrit	-6818
▁troupes	-6819
▁adéquates	-6820
▁fou	-6821
▁join	-6822
▁brè	-6823
▁vieil	-6824
▁libéral	-6825
▁bénéficie	-6826
▁ral	-6827
isons	-6828
oriques	-6829
▁requiert	-6830
tures	-6831
▁intégr	-6832
▁journée	-6833
inflation	-6834
édération	-6835
▁fortes	-6836
▁routier	-6837
▁explo	-6838
▁risquent	-6839
▁répu	-6840
ronter	-6841
▁maritimes	-6842
▁sacri	-6843
▁indirec	-6844
gure	-6845
angers	-6846
▁Telle	-6847
▁voulez	-6848
▁physique	-6849
niversaire	-6850
▁utilisant	-6851
▁étique	-6852
opportunité	-6853
vid	-6854
osph	-6855
▁entamer	-6856
gypte	-6857
abouti	-6858
ALE	-6859
▁remplac	-6860
▁manifestations	-6861
▁majeurs	-6862
▁entraîné	-6863
▁relèvent	-6864
▁allusion	-6865
▁demandant	-6866
▁tradition	-6867
▁traditions	-6868
▁mén	-6869
insiste	-6870
▁parallèlement	-6871
▁cur	-6872
▁mém	-6873
▁conç	-6874
▁Tchétch	-6875
tionnalité	-6876
▁personnelles	-6877
▁tre	-6878
▁débu	-6879
titudes	-6880
▁options	-6881
▁multinationales	-6882
érir	-6883
▁ami	-6884
▁investisseurs	-6885
▁musul	-6886
housias	-6887
▁œu	-6888
▁liv	-6889
▁structurelle	-6890
argo	-6891
▁démontrer	-6892
▁sugges	-6893
▁recueil	-6894
▁dizaines	-6895
▁violences	-6896
bas	-6897
oué	-6898
▁multiples	-6899
intérêts	-6900
▁er	-6901
▁mass	-6902
▁éventuelle	-6903
▁suggère	-6904
OS	-6905
cule	-6906
▁sauf	-6907
▁entrepris	-6908
institution	-6909
▁Tchétchénie	-6910
▁indépendance	-6911
▁Plusieurs	-6912
▁conformité	-6913
▁obligatoires	-6914
▁migrants	-6915
▁ambitions	-6916
habitu	-6917
▁renvoi	-6918
umé	-6919
inscrit	-6920
attendre	-6921
OLAF	-6922
roît	-6923
▁jugement	-6924
▁négatifs	-6925
▁incontest	-6926
▁universel	-6927
▁individuels	-6928
▁hy	-6929
débat	-6930
▁obtenus	-6931
▁rythme	-6932
▁compétente	-6933
▁américaines	-6934
fond	-6935
cours	-6936
tance	-6937
▁chem	-6938
▁serais	-6939
▁ethniques	-6940
CEE	-6941
▁réac	-6942
otechnolo	-6943
▁suggestions	-6944
ison	-6945
▁vitesse	-6946
▁préoccupe	-6947
▁basé	-6948
▁orale	-6949
▁écrite	-6950
▁spéciale	-6951
▁fourniture	-6952
▁passant	-6953
▁CIG	-6954
istait	-6955
▁détention	-6956
▁respectés	-6957
avérer	-6958
▁banque	-6959
▁côti	-6960
honneur	-6961
▁controvers	-6962
▁participent	-6963
HU	-6964
tup	-6965
onte	-6966
▁appui	-6967
▁fondé	-6968
▁restera	-6969
▁addi	-6970
▁renoncer	-6971
▁foi	-6972
▁Lond	-6973
▁horiz	-6974
▁vigil	-6975
▁écologiques	-6976
▁complémentaires	-6977
▁Lam	-6978
▁irak	-6979
▁négative	-6980
▁relevant	-6981
▁Tr	-6982
▁Cel	-6983
▁isol	-6984
▁jeune	-6985
effectu	-6986
▁numérique	-6987
▁aborde	-6988
▁transatlantique	-6989
hér	-6990
▁assemblée	-6991
▁palestinienne	-6992
▁sélection	-6993
▁ordin	-6994
▁détéri	-6995
▁torture	-6996
▁produisent	-6997
▁GUE	-6998
nisme	-6999
interprétation	-7000
▁recon	-7001
▁rencontré	-7002
▁légitimes	-7003
▁événement	-7004
▁écouté	-7005
ormément	-7006
▁vues	-7007
veloppe	-7008
▁tiennent	-7009
▁comprennent	-7010
ulaire	-7011
▁.-	-7012
▁refusé	-7013
▁bateaux	-7014
▁poisson	-7015
▁employeurs	-7016
▁communiquer	-7017
tex	-7018
respons	-7019
▁prenant	-7020
▁équival	-7021
▁poissons	-7022
lifération	-7023
▁matériel	-7024
EM	-7025
liste	-7026
▁rigueur	-7027
▁opposé	-7028
▁recycl	-7029
▁portugaise	-7030
FI	-7031
▁mène	-7032
▁fréqu	-7033
UEM	-7034
▁gagn	-7035
▁porté	-7036
▁exprimée	-7037
intervenir	-7038
▁fournisseurs	-7039
ardi	-7040
▁lobb	-7041
▁norme	-7042
▁sauver	-7043
erz	-7044
ski	-7045
alisée	-7046
efforts	-7047
inclure	-7048
▁utilisent	-7049
feu	-7050
expliquer	-7051
▁précaution	-7052
▁consultations	-7053
▁Bo	-7054
▁due	-7055
amine	-7056
▁pier	-7057
▁essayé	-7058
▁devions	-7059
inten	-7060
▁amend	-7061
▁devez	-7062
▁hautement	-7063
▁similaire	-7064
▁Tib	-7065
▁ratifié	-7066
▁hémicycle	-7067
▁transeuropéens	-7068
▁proches	-7069
▁privilégi	-7070
ma	-7071
▁rom	-7072
▁vies	-7073
▁craintes	-7074
▁pros	-7075
insister	-7076
▁aériens	-7077
▁portugais	-7078
▁délic	-7079
▁oppos	-7080
▁tolérance	-7081
yant	-7082
▁dissi	-7083
isées	-7084
tionnaires	-7085
▁énormément	-7086
▁bless	-7087
ilosoph	-7088
entralis	-7089
▁ps	-7090
enez	-7091
usage	-7092
▁signat	-7093
▁définies	-7094
Afghanistan	-7095
extra	-7096
tribuer	-7097
▁genres	-7098
▁décisif	-7099
▁division	-7100
▁viv	-7101
animaux	-7102
▁exception	-7103
apprécie	-7104
▁manquer	-7105
▁allég	-7106
▁interd	-7107
▁victime	-7108
▁concerné	-7109
▁détaillée	-7110
▁indépendamment	-7111
arbon	-7112
▁danois	-7113
▁uniforme	-7114
▁éduc	-7115
▁Tunis	-7116
▁navigation	-7117
▁régulation	-7118
▁stup	-7119
▁augmente	-7120
▁philosoph	-7121
orté	-7122
alestine	-7123
▁respectant	-7124
▁fermer	-7125
idé	-7126
▁envoyé	-7127
▁encourageant	-7128
émin	-7129
erait	-7130
▁révél	-7131
▁interdit	-7132
▁clôt	-7133
▁russes	-7134
▁combusti	-7135
▁consistant	-7136
▁limitation	-7137
▁décentralis	-7138
▁rares	-7139
▁croyons	-7140
▁déplore	-7141
▁rejette	-7142
▁divergences	-7143
▁Bl	-7144
▁dangers	-7145
▁privatis	-7146
▁voterons	-7147
▁significatif	-7148
élor	-7149
▁incon	-7150
▁Londres	-7151
▁Li	-7152
▁Dub	-7153
▁pap	-7154
▁Doha	-7155
urg	-7156
▁lieux	-7157
CS	-7158
▁OGM	-7159
▁intervi	-7160
▁cam	-7161
▁Celui	-7162
▁clauses	-7163
▁inviter	-7164
▁Palestine	-7165
Autorité	-7166
FR	-7167
résil	-7168
échelon	-7169
actualité	-7170
▁Fer	-7171
▁faim	-7172
▁réformer	-7173
▁prévoi	-7174
▁destination	-7175
▁démographique	-7176
▁incer	-7177
arisation	-7178
▁individus	-7179
▁coordonnée	-7180
▁ferait	-7181
▁expliqué	-7182
▁dépendent	-7183
▁qualifications	-7184
▁confrontée	-7185
▁précédentes	-7186
MI	-7187
▁travaillons	-7188
line	-7189
▁taxation	-7190
▁délégations	-7191
▁mobilisation	-7192
▁publication	-7193
imposition	-7194
▁nomination	-7195
▁VI	-7196
▁asi	-7197
offrir	-7198
▁textile	-7199
▁condamnation	-7200
NGL	-7201
Inter	-7202
▁marche	-7203
▁adhérer	-7204
▁aérienne	-7205
DA	-7206
▁collective	-7207
org	-7208
dité	-7209
▁PES	-7210
aband	-7211
▁Fran	-7212
▁Stock	-7213
▁arrivé	-7214
▁Affaires	-7215
▁prudence	-7216
▁participants	-7217
redi	-7218
▁remet	-7219
▁réduite	-7220
▁prouver	-7221
▁négatives	-7222
dev	-7223
▁considérés	-7224
atrice	-7225
▁lever	-7226
▁posées	-7227
▁intérim	-7228
▁parallè	-7229
énég	-7230
▁bioc	-7231
▁sent	-7232
▁immigrants	-7233
▁gasp	-7234
▁signifier	-7235
ctori	-7236
miser	-7237
▁Outre	-7238
▁règne	-7239
image	-7240
gin	-7241
▁brut	-7242
▁entrée	-7243
▁anniversaire	-7244
▁AL	-7245
▁agriculture	-7246
roise	-7247
▁prends	-7248
▁exprimés	-7249
▁suffisantes	-7250
oui	-7251
▁PE	-7252
▁assurément	-7253
▁favorablement	-7254
com	-7255
▁contraignant	-7256
ere	-7257
▁englob	-7258
économiques	-7259
▁échapp	-7260
▁prouve	-7261
▁pétroli	-7262
▁crédible	-7263
▁ethnique	-7264
▁rechercher	-7265
▁établies	-7266
▁composition	-7267
▁prochainement	-7268
nel	-7269
▁Main	-7270
▁choc	-7271
▁chôme	-7272
▁profite	-7273
▁inondations	-7274
▁Bi	-7275
▁étapes	-7276
istrement	-7277
▁touchées	-7278
▁circonscription	-7279
▁placer	-7280
▁réclam	-7281
▁Dublin	-7282
▁considèrent	-7283
pul	-7284
▁noter	-7285
▁absurde	-7286
▁Certaines	-7287
▁barrières	-7288
▁fixe	-7289
▁réjouir	-7290
housiasme	-7291
▁interromp	-7292
▁commentaire	-7293
gné	-7294
▁liqu	-7295
ariats	-7296
▁cellu	-7297
▁hélas	-7298
▁légif	-7299
▁élabor	-7300
▁mineurs	-7301
envisager	-7302
▁Malte	-7303
▁affect	-7304
heur	-7305
▁site	-7306
▁instant	-7307
▁plafond	-7308
▁immigrés	-7309
▁chemins	-7310
▁dumping	-7311
▁atteints	-7312
▁rapprochement	-7313
▁fo	-7314
oudan	-7315
▁incendies	-7316
▁passée	-7317
▁directs	-7318
▁clandesti	-7319
▁sim	-7320
▁centralis	-7321
▁conjointement	-7322
▁Tant	-7323
▁prag	-7324
▁réag	-7325
▁actifs	-7326
▁valable	-7327
▁inférieur	-7328
▁judicieux	-7329
▁ultérieure	-7330
▁implications	-7331
▁impu	-7332
intégr	-7333
▁Celle	-7334
▁mines	-7335
▁Pendant	-7336
▁piliers	-7337
▁soviétique	-7338
▁eau	-7339
▁modifiant	-7340
ms	-7341
royer	-7342
▁scol	-7343
▁nordi	-7344
▁specta	-7345
▁réussir	-7346
▁approuvée	-7347
))	-7348
▁express	-7349
doné	-7350
▁bomb	-7351
▁chute	-7352
imposent	-7353
▁arrêter	-7354
entielles	-7355
▁partisans	-7356
▁ach	-7357
exprime	-7358
▁exposé	-7359
▁Europol	-7360
▁constante	-7361
▁Ash	-7362
▁appeler	-7363
▁débar	-7364
▁indicateurs	-7365
▁préservation	-7366
to	-7367
▁anticip	-7368
▁chargée	-7369
▁établit	-7370
▁stockage	-7371
▁tensions	-7372
▁migration	-7373
▁explicitement	-7374
▁repro	-7375
▁dépasse	-7376
▁feuille	-7377
▁na	-7378
▁pesti	-7379
▁Brésil	-7380
▁biocarb	-7381
▁poursuit	-7382
▁exhaus	-7383
▁routière	-7384
ano	-7385
angi	-7386
agent	-7387
▁appels	-7388
▁emprun	-7389
▁contenues	-7390
▁intervenants	-7391
cin	-7392
▁BEI	-7393
▁écar	-7394
▁fallu	-7395
▁volet	-7396
▁échéant	-7397
▁effectuer	-7398
▁pharmaceu	-7399
rom	-7400
▁mag	-7401
▁provoquer	-7402
onction	-7403
▁universités	-7404
lame	-7405
▁For	-7406
▁soin	-7407
▁Personne	-7408
▁appelons	-7409
▁entreprendre	-7410
oppose	-7411
▁arbit	-7412
▁erron	-7413
▁ouverture	-7414
▁Rien	-7415
tabilité	-7416
▁grandement	-7417
▁religieuses	-7418
▁réconciliation	-7419
▁Liban	-7420
▁charbon	-7421
▁Ministre	-7422
onique	-7423
cessive	-7424
▁pertur	-7425
▁ignorer	-7426
▁totalité	-7427
▁hongroise	-7428
ini	-7429
ych	-7430
habil	-7431
▁donnera	-7432
occupation	-7433
▁ignor	-7434
▁vague	-7435
▁richesse	-7436
▁Patten	-7437
▁chômeurs	-7438
activ	-7439
▁égalité	-7440
▁accident	-7441
▁Mil	-7442
▁Tunisie	-7443
obs	-7444
▁Ré	-7445
ôtre	-7446
▁bancaire	-7447
▁exigence	-7448
▁observer	-7449
▁globalement	-7450
dt	-7451
tell	-7452
émie	-7453
▁vain	-7454
endues	-7455
▁estimé	-7456
▁gravité	-7457
▁soulève	-7458
ko	-7459
▁objet	-7460
▁réité	-7461
▁tromp	-7462
▁rubrique	-7463
▁potentiels	-7464
▁explications	-7465
utation	-7466
▁dégrad	-7467
élevage	-7468
▁diox	-7469
tenues	-7470
▁camps	-7471
▁stricte	-7472
▁impliquées	-7473
▁juridiquement	-7474
▁mor	-7475
▁satell	-7476
▁fictifs	-7477
▁urgente	-7478
▁modifiés	-7479
▁expressément	-7480
▁signer	-7481
▁syndic	-7482
▁poursuivi	-7483
▁Parce	-7484
▁masse	-7485
▁mette	-7486
▁égards	-7487
▁arrière	-7488
▁réjouissons	-7489
▁résulte	-7490
ultan	-7491
▁Pas	-7492
▁Entre	-7493
▁Heure	-7494
▁avancé	-7495
▁nourriture	-7496
achat	-7497
▁saluons	-7498
▁apportée	-7499
▁préférable	-7500
▁douze	-7501
▁issus	-7502
▁présentant	-7503
holm	-7504
stitu	-7505
▁union	-7506
▁excessive	-7507
ographie	-7508
▁provisoire	-7509
▁historiques	-7510
▁pou	-7511
▁ambigu	-7512
▁figurer	-7513
▁instances	-7514
▁financements	-7515
onnés	-7516
▁dess	-7517
▁regarder	-7518
rid	-7519
chée	-7520
mique	-7521
▁fier	-7522
▁agents	-7523
▁voudrait	-7524
▁rédaction	-7525
▁pesticides	-7526
▁sages	-7527
▁correct	-7528
▁étendre	-7529
▁apportées	-7530
▁traduire	-7531
▁satisfaits	-7532
évid	-7533
▁saurait	-7534
▁Quatrième	-7535
▁présentes	-7536
ovis	-7537
parti	-7538
olique	-7539
▁quantités	-7540
▁décisionnel	-7541
arriver	-7542
tionnellement	-7543
▁domin	-7544
▁ferai	-7545
▁perpét	-7546
▁déficits	-7547
▁partiellement	-7548
ossé	-7549
roger	-7550
▁conne	-7551
alisées	-7552
ettre	-7553
▁comités	-7554
▁flexible	-7555
▁compagnie	-7556
▁Ni	-7557
arrêter	-7558
▁dictature	-7559
▁conservateurs	-7560
munité	-7561
uaires	-7562
▁honnête	-7563
▁provoqué	-7564
▁attentats	-7565
ling	-7566
mosph	-7567
▁gratu	-7568
▁vivons	-7569
IC	-7570
béra	-7571
▁adoptant	-7572
▁décisive	-7573
▁mercredi	-7574
ypri	-7575
▁gel	-7576
annexe	-7577
▁réunir	-7578
▁technologiques	-7579
vic	-7580
endus	-7581
▁assi	-7582
▁pair	-7583
opéra	-7584
oritaire	-7585
▁absence	-7586
▁approuve	-7587
▁concl	-7588
présent	-7589
▁servent	-7590
▁registre	-7591
▁biocarburants	-7592
ork	-7593
▁invité	-7594
▁répété	-7595
▁secret	-7596
▁foresti	-7597
▁étudier	-7598
▁tragique	-7599
▁administrations	-7600
agé	-7601
onomie	-7602
▁terroriste	-7603
cum	-7604
▁Solana	-7605
▁ambitieuse	-7606
▁complexité	-7607
ami	-7608
auto	-7609
▁géné	-7610
engage	-7611
▁Maintenant	-7612
▁ro	-7613
rire	-7614
avancer	-7615
▁combin	-7616
▁faisait	-7617
▁désaccord	-7618
▁biologique	-7619
osse	-7620
▁Syrie	-7621
▁démant	-7622
▁dérogation	-7623
▁clandestine	-7624
▁quotidienne	-7625
▁Roth	-7626
▁sollic	-7627
▁corriger	-7628
endent	-7629
entends	-7630
▁Ar	-7631
▁Fisch	-7632
▁disait	-7633
▁sérieuses	-7634
▁rémunération	-7635
▁poursuiv	-7636
▁fabricants	-7637
▁néf	-7638
▁science	-7639
▁recyclage	-7640
."	-7641
▁cop	-7642
innoc	-7643
▁procédé	-7644
argu	-7645
aura	-7646
▁ALDE	-7647
▁massac	-7648
▁partenariats	-7649
▁saine	-7650
▁résolus	-7651
▁adoption	-7652
▁familiale	-7653
lisme	-7654
tatif	-7655
▁déliv	-7656
▁continuerons	-7657
▁digne	-7658
▁report	-7659
itologie	-7660
objectifs	-7661
▁réglementer	-7662
val	-7663
▁option	-7664
▁chercheurs	-7665
fa	-7666
tice	-7667
▁équitables	-7668
amas	-7669
▁Bush	-7670
▁chréti	-7671
▁vendredi	-7672
vote	-7673
▁viable	-7674
▁soumet	-7675
missible	-7676
ularités	-7677
▁dépasser	-7678
▁pourrais	-7679
▁développé	-7680
▁occidentale	-7681
▁concertation	-7682
aides	-7683
▁croy	-7684
▁unie	-7685
▁recul	-7686
▁stipule	-7687
▁associés	-7688
gle	-7689
autom	-7690
range	-7691
ensité	-7692
▁chanti	-7693
▁disposé	-7694
▁enceinte	-7695
▁mentionne	-7696
▁supervision	-7697
▁autrichienne	-7698
tige	-7699
▁fiscal	-7700
▁élevée	-7701
▁réelles	-7702
▁définitif	-7703
▁productivité	-7704
Ie	-7705
intégrité	-7706
▁Moldavie	-7707
▁Th	-7708
▁Tim	-7709
▁muni	-7710
▁morale	-7711
▁ration	-7712
▁contrat	-7713
▁diplomatique	-7714
▁égal	-7715
▁actives	-7716
▁Beaucoup	-7717
▁distance	-7718
▁micro	-7719
▁oriental	-7720
▁traitements	-7721
▁Ab	-7722
▁brevet	-7723
▁modernes	-7724
▁paragraphes	-7725
étudi	-7726
▁inciter	-7727
▁contenant	-7728
▁disposés	-7729
▁évaluations	-7730
SA	-7731
▁entrepren	-7732
):	-7733
krain	-7734
▁réalisées	-7735
▁strictement	-7736
yl	-7737
més	-7738
▁vali	-7739
▁fiables	-7740
▁souvenir	-7741
indem	-7742
▁lundi	-7743
abolition	-7744
▁ratifier	-7745
▁examinons	-7746
instruments	-7747
▁interprétation	-7748
isés	-7749
iration	-7750
▁absent	-7751
trer	-7752
erzég	-7753
▁entour	-7754
▁amélioré	-7755
▁mobiliser	-7756
▁pertinentes	-7757
entrer	-7758
▁entamé	-7759
ambition	-7760
▁externes	-7761
▁précision	-7762
▁disparités	-7763
lèvement	-7764
▁victoire	-7765
erzégovine	-7766
▁hor	-7767
▁réuni	-7768
▁classe	-7769
▁Fischler	-7770
▁logement	-7771
▁améliorée	-7772
▁certitude	-7773
▁comitologie	-7774
▁assister	-7775
implication	-7776
▁Iran	-7777
▁soldats	-7778
▁serai	-7779
chrétiens	-7780
▁modifiée	-7781
▁péril	-7782
▁prouvé	-7783
▁rapides	-7784
▁sévères	-7785
▁traduit	-7786
▁Votre	-7787
▁intégrante	-7788
▁Ashton	-7789
▁donnant	-7790
▁prévisions	-7791
infra	-7792
trice	-7793
▁nomin	-7794
exigence	-7795
évidence	-7796
▁joindre	-7797
▁témoigne	-7798
▁mentionnés	-7799
ball	-7800
▁impôts	-7801
▁survie	-7802
▁exister	-7803
▁sympath	-7804
▁explication	-7805
ET	-7806
▁fossé	-7807
▁sembler	-7808
▁impératif	-7809
▁équipements	-7810
OSCE	-7811
▁flot	-7812
▁foot	-7813
eugen	-7814
▁Médi	-7815
▁autorisés	-7816
▁constitué	-7817
▁cong	-7818
▁Stockholm	-7819
▁présentera	-7820
ina	-7821
ones	-7822
urée	-7823
▁traitées	-7824
▁respectées	-7825
▁démantèlement	-7826
orie	-7827
▁crai	-7828
▁identité	-7829
▁déséquili	-7830
ulz	-7831
llez	-7832
time	-7833
▁concré	-7834
▁détenus	-7835
▁Verheugen	-7836
▁No	-7837
▁bata	-7838
▁expl	-7839
▁plate	-7840
osc	-7841
iers	-7842
▁vols	-7843
▁rédiger	-7844
▁explique	-7845
▁sanitaires	-7846
bler	-7847
▁conces	-7848
▁suscite	-7849
▁utilise	-7850
▁dramatique	-7851
▁Aucun	-7852
▁rempli	-7853
▁spécul	-7854
▁parcour	-7855
Herzégovine	-7856
alit	-7857
▁Brok	-7858
▁Suisse	-7859
▁exprime	-7860
ortie	-7861
▁Chers	-7862
tateurs	-7863
intermédiaire	-7864
▁PN	-7865
▁subi	-7866
▁Schulz	-7867
▁livres	-7868
▁sauveg	-7869
▁écouter	-7870
▁sauv	-7871
▁hongrois	-7872
▁précieux	-7873
▁viabilité	-7874
omin	-7875
▁turque	-7876
▁Communautés	-7877
udes	-7878
▁insul	-7879
environ	-7880
▁transparent	-7881
onnée	-7882
▁interdire	-7883
ohn	-7884
▁Vu	-7885
▁Tamp	-7886
▁subir	-7887
▁sectori	-7888
▁terrible	-7889
▁Gra	-7890
▁fémin	-7891
▁évidente	-7892
faire	-7893
▁soud	-7894
▁décès	-7895
▁pal	-7896
▁marquer	-7897
Ou	-7898
crip	-7899
siques	-7900
▁ouvre	-7901
▁marqué	-7902
▁condamné	-7903
▁évolutions	-7904
▁Vi	-7905
▁Leur	-7906
istéri	-7907
ueille	-7908
▁lourds	-7909
▁Tampere	-7910
▁grecque	-7911
▁conformer	-7912
▁vété	-7913
▁Libye	-7914
▁annuelle	-7915
▁touchent	-7916
▁appropriés	-7917
▁Bre	-7918
attribu	-7919
élection	-7920
▁mille	-7921
▁souples	-7922
▁assure	-7923
▁suivie	-7924
actuelle	-7925
▁formulé	-7926
▁promesse	-7927
▁ventes	-7928
▁adapter	-7929
▁résident	-7930
▁naissance	-7931
▁discipline	-7932
▁voici	-7933
▁soulevées	-7934
▁observateurs	-7935
▁mari	-7936
ymp	-7937
▁Po	-7938
▁prô	-7939
miste	-7940
▁Face	-7941
▁exigent	-7942
▁biotechnolo	-7943
▁pluriannuel	-7944
irer	-7945
▁expor	-7946
▁examine	-7947
▁hés	-7948
▁vide	-7949
▁protégés	-7950
▁linguistique	-7951
▁Naturellement	-7952
inqu	-7953
▁réclame	-7954
formément	-7955
▁inutiles	-7956
▁Déclarations	-7957
▁tourner	-7958
démocra	-7959
▁illégaux	-7960
▁suspension	-7961
▁sensibilisation	-7962
▁margin	-7963
▁profits	-7964
▁horizont	-7965
▁relancer	-7966
▁semestre	-7967
▁Médiateur	-7968
▁Slovénie	-7969
▁satisfaisant	-7970
▁commet	-7971
oritaires	-7972
appliquent	-7973
▁quitter	-7974
▁spécific	-7975
tification	-7976
leo	-7977
produ	-7978
▁iran	-7979
▁enver	-7980
énormes	-7981
▁parviendrons	-7982
▁Congo	-7983
▁averti	-7984
▁cohérent	-7985
▁prononcé	-7986
▁aim	-7987
▁empêche	-7988
IF	-7989
sifs	-7990
▁créant	-7991
▁maximale	-7992
▁gravement	-7993
▁différenci	-7994
▁fabrication	-7995
▁ém	-7996
▁bruit	-7997
▁sensiblement	-7998
▁péd	-7999
▁class	-8000
▁déterminée	-8001
▁pénales	-8002
▁surpris	-8003
identification	-8004
▁Esp	-8005
▁ferroviaires	-8006
hyp	-8007
aggra	-8008
▁liquid	-8009
▁participe	-8010
▁consciente	-8011
▁infractions	-8012
ètes	-8013
onale	-8014
▁industriel	-8015
▁sentir	-8016
▁Galileo	-8017
▁directes	-8018
importantes	-8019
enregistrement	-8020
▁cofinancement	-8021
▁biom	-8022
avance	-8023
▁commises	-8024
▁réalisée	-8025
▁simultan	-8026
▁kil	-8027
mblement	-8028
▁préparé	-8029
▁comparaison	-8030
▁issue	-8031
▁lobby	-8032
parlers	-8033
inki	-8034
▁Mich	-8035
elsinki	-8036
▁bananes	-8037
▁pourparlers	-8038
▁substantielle	-8039
SK	-8040
▁Tibet	-8041
▁Santer	-8042
▁auteur	-8043
▁enjeux	-8044
▁pensée	-8045
▁néglige	-8046
uc	-8047
veurs	-8048
▁fruit	-8049
ressions	-8050
▁établie	-8051
▁traduction	-8052
rase	-8053
▁Nig	-8054
chauff	-8055
▁courte	-8056
▁réform	-8057
▁avancés	-8058
tlantique	-8059
▁exploiter	-8060
▁approbation	-8061
▁om	-8062
▁censure	-8063
▁suscité	-8064
▁vétérin	-8065
▁effectués	-8066
▁constituera	-8067
▁accru	-8068
▁verte	-8069
▁triste	-8070
appropri	-8071
▁requête	-8072
▁africains	-8073
▁séparation	-8074
▁officiellement	-8075
LT	-8076
▁image	-8077
▁mémoire	-8078
▁Autrement	-8079
▁résolument	-8080
aler	-8081
ourge	-8082
écart	-8083
▁solides	-8084
▁exceptions	-8085
agence	-8086
▁assuré	-8087
▁déploi	-8088
investir	-8089
▁réduits	-8090
▁définitivement	-8091
▁récol	-8092
avaient	-8093
asion	-8094
▁verts	-8095
▁mépris	-8096
▁conviendrait	-8097
▁signes	-8098
▁remplis	-8099
▁formulée	-8100
▁consister	-8101
▁transnation	-8102
▁adul	-8103
évoquer	-8104
▁annonc	-8105
▁intitu	-8106
▁orientation	-8107
▁remise	-8108
▁trente	-8109
chet	-8110
▁Cont	-8111
▁jeux	-8112
▁pouvaient	-8113
▁dangereuse	-8114
▁dispositif	-8115
▁Quatrièmement	-8116
▁cellules	-8117
▁transitoire	-8118
▁représentante	-8119
rables	-8120
▁illégal	-8121
▁dénoncer	-8122
▁civilisation	-8123
alise	-8124
▁ajus	-8125
▁ord	-8126
▁dévas	-8127
▁génére	-8128
affirmer	-8129
▁front	-8130
▁contenus	-8131
▁facilité	-8132
▁réflexions	-8133
▁apparemment	-8134
▁MED	-8135
autonomie	-8136
émissions	-8137
▁maison	-8138
▁papier	-8139
ctuellement	-8140
▁puissances	-8141
▁Bon	-8142
▁mur	-8143
▁génoci	-8144
▁fixation	-8145
▁majeures	-8146
▁transferts	-8147
atrices	-8148
énagement	-8149
▁préférence	-8150
▁faill	-8151
▁bovine	-8152
▁irrespons	-8153
▁flag	-8154
▁sexe	-8155
▁ministéri	-8156
lau	-8157
ouvons	-8158
▁vraie	-8159
informer	-8160
▁affronter	-8161
▁réactions	-8162
isible	-8163
▁autorisé	-8164
▁ministère	-8165
▁investissement	-8166
kin	-8167
▁fro	-8168
▁optim	-8169
observation	-8170
▁bureaucratique	-8171
▁Let	-8172
andes	-8173
▁strict	-8174
▁tendances	-8175
attribution	-8176
▁leaders	-8177
▁existante	-8178
▁légiférer	-8179
▁éducation	-8180
▁disparition	-8181
lam	-8182
▁redev	-8183
entamer	-8184
▁éclair	-8185
▁tableau	-8186
▁apprendre	-8187
▁EU	-8188
éradi	-8189
▁définit	-8190
▁découlant	-8191
▁félicitons	-8192
▁impéri	-8193
▁espoirs	-8194
▁dérogations	-8195
▁opérationnel	-8196
île	-8197
cosse	-8198
▁fili	-8199
ontiers	-8200
▁Lorsqu	-8201
▁desquels	-8202
▁remplacement	-8203
investissements	-8204
▁alloués	-8205
▁Mex	-8206
▁div	-8207
inquiétude	-8208
▁volontiers	-8209
▁exploitation	-8210
AS	-8211
▁rendue	-8212
▁Ukraine	-8213
ola	-8214
▁Paris	-8215
ensions	-8216
▁agenda	-8217
▁chypri	-8218
▁Actuellement	-8219
▁aj	-8220
▁reposer	-8221
▁permanence	-8222
▁football	-8223
▁conjointe	-8224
▁partagent	-8225
va	-8226
▁Sad	-8227
▁récup	-8228
émocrates	-8229
▁mondiales	-8230
▁xénophobie	-8231
hère	-8232
▁has	-8233
▁interc	-8234
▁appuyer	-8235
éb	-8236
▁vieux	-8237
▁jouets	-8238
▁montagne	-8239
▁probable	-8240
▁transmission	-8241
cs	-8242
écou	-8243
▁sui	-8244
▁âge	-8245
▁réalités	-8246
▁intéressante	-8247
▁flé	-8248
▁arabe	-8249
▁estiment	-8250
▁démarches	-8251
▁administratifs	-8252
▁cre	-8253
école	-8254
▁enfant	-8255
▁disposée	-8256
▁requises	-8257
▁concilier	-8258
andu	-8259
▁ralenti	-8260
▁naturelle	-8261
illon	-8262
▁scén	-8263
▁ravie	-8264
aboutir	-8265
▁deviendra	-8266
clav	-8267
▁tangi	-8268
extrême	-8269
▁déposer	-8270
▁prévoyant	-8271
▁vieillissement	-8272
▁allait	-8273
▁chauff	-8274
▁scénari	-8275
▁heureusement	-8276
▁disponibilité	-8277
▁PESC	-8278
▁offrent	-8279
▁repos	-8280
▁crainte	-8281
▁déboucher	-8282
▁supporter	-8283
NS	-8284
lave	-8285
▁ampleur	-8286
▁inacceptables	-8287
radi	-8288
appar	-8289
▁fixées	-8290
TE	-8291
▁innoc	-8292
Albanie	-8293
▁far	-8294
▁pun	-8295
▁rendus	-8296
▁admis	-8297
▁dérég	-8298
attirer	-8299
occuper	-8300
▁déclen	-8301
▁phrase	-8302
▁suspend	-8303
▁bénéficié	-8304
▁accessibles	-8305
▁défavorisées	-8306
aye	-8307
mans	-8308
▁hos	-8309
▁jeter	-8310
▁réchauff	-8311
▁africaine	-8312
▁clon	-8313
▁motif	-8314
▁amener	-8315
▁attaque	-8316
▁possèdent	-8317
▁carburants	-8318
▁forts	-8319
▁stand	-8320
▁syner	-8321
▁requis	-8322
effectuer	-8323
▁bénéfique	-8324
▁consulter	-8325
olk	-8326
▁Co	-8327
▁McC	-8328
▁congé	-8329
entielle	-8330
▁arbitrai	-8331
envoyer	-8332
▁Biélor	-8333
▁Saddam	-8334
▁tomber	-8335
▁Ha	-8336
▁arme	-8337
▁ridi	-8338
▁légal	-8339
▁psych	-8340
ailles	-8341
▁morte	-8342
▁sécur	-8343
▁Vienne	-8344
▁inclut	-8345
▁pierre	-8346
accélérer	-8347
▁vac	-8348
▁Timor	-8349
opposer	-8350
▁bureaux	-8351
▁obligés	-8352
▁notation	-8353
▁douanière	-8354
▁industrielles	-8355
yde	-8356
▁Hamas	-8357
▁traditionnelles	-8358
▁stimul	-8359
olitique	-8360
▁négocié	-8361
▁soutiendra	-8362
▁déterminant	-8363
▁travaillant	-8364
▁hô	-8365
ciens	-8366
▁vérification	-8367
▁mach	-8368
▁passep	-8369
▁éloign	-8370
▁Colomb	-8371
▁nullement	-8372
itue	-8373
observ	-8374
▁venez	-8375
▁souffre	-8376
▁analyses	-8377
présidente	-8378
ste	-8379
élarg	-8380
▁dispar	-8381
▁arrivés	-8382
▁raisonnables	-8383
▁minuti	-8384
▁Pr	-8385
▁ambition	-8386
▁religieux	-8387
▁franchement	-8388
▁intérimaire	-8389
tants	-8390
▁mill	-8391
ansion	-8392
▁valoir	-8393
▁donateurs	-8394
▁extré	-8395
▁affectés	-8396
▁transporteurs	-8397
▁voulait	-8398
▁concessions	-8399
▁avance	-8400
nisation	-8401
▁protectionnisme	-8402
tonie	-8403
▁ressenti	-8404
importants	-8405
▁parvenons	-8406
▁Hier	-8407
▁fondées	-8408
uve	-8409
anda	-8410
inspe	-8411
inquiète	-8412
aul	-8413
discri	-8414
▁résumé	-8415
▁serions	-8416
dez	-8417
▁chacune	-8418
▁entendons	-8419
▁subvention	-8420
ares	-8421
éléb	-8422
ropor	-8423
▁illic	-8424
▁recru	-8425
▁sanitaire	-8426
cc	-8427
ala	-8428
▁flu	-8429
▁abordés	-8430
▁émanant	-8431
▁moratoire	-8432
▁Biélorussie	-8433
▁pav	-8434
▁franc	-8435
érément	-8436
▁Soudan	-8437
ette	-8438
▁tardi	-8439
▁prévoient	-8440
rise	-8441
laire	-8442
▁Asie	-8443
élément	-8444
▁prêter	-8445
▁attaquer	-8446
▁extension	-8447
▁répondent	-8448
▁référendums	-8449
▁mél	-8450
▁libérer	-8451
▁légales	-8452
▁parallèle	-8453
élè	-8454
gérie	-8455
tisme	-8456
▁pensez	-8457
opération	-8458
▁Lettonie	-8459
▁préconise	-8460
▁secrétariat	-8461
▁traç	-8462
▁toxic	-8463
capacité	-8464
▁couverts	-8465
▁fragment	-8466
▁immédiat	-8467
▁Pe	-8468
abus	-8469
▁surf	-8470
▁anglais	-8471
▁ouverts	-8472
elson	-8473
▁créée	-8474
▁céléb	-8475
▁établissements	-8476
▁allez	-8477
▁colon	-8478
▁récipro	-8479
▁douane	-8480
▁tienne	-8481
▁prestations	-8482
incer	-8483
aisons	-8484
▁révélé	-8485
▁fermeté	-8486
▁guerres	-8487
activités	-8488
▁Amérique	-8489
▁consacrée	-8490
▁ouvertement	-8491
▁Jo	-8492
cofin	-8493
ington	-8494
▁avéré	-8495
▁causés	-8496
▁dûment	-8497
▁messages	-8498
▁retraités	-8499
▁démocraties	-8500
▁RE	-8501
▁zéro	-8502
▁leçon	-8503
▁injuste	-8504
Européens	-8505
obtention	-8506
▁conducteurs	-8507
▁électriques	-8508
aus	-8509
sen	-8510
▁irrég	-8511
▁suspens	-8512
▁consacrés	-8513
eutiques	-8514
▁artifici	-8515
▁fournies	-8516
▁israélien	-8517
▁récession	-8518
ke	-8519
▁impré	-8520
▁cherchent	-8521
▁suggestion	-8522
▁disparaître	-8523
actes	-8524
▁Aucune	-8525
▁connue	-8526
initiatives	-8527
▁honorables	-8528
▁phénomènes	-8529
estin	-8530
illets	-8531
▁listes	-8532
▁échoué	-8533
▁coupables	-8534
▁impatience	-8535
▁compréhensible	-8536
Is	-8537
▁reb	-8538
▁difficilement	-8539
▁août	-8540
ativité	-8541
▁contrefa	-8542
▁préval	-8543
accident	-8544
▁tentent	-8545
accroissement	-8546
▁gross	-8547
▁faille	-8548
admission	-8549
osex	-8550
▁qualit	-8551
▁Conformément	-8552
▁bo	-8553
▁lance	-8554
▁découle	-8555
onnements	-8556
▁audiovis	-8557
▁parvenue	-8558
▁faiblesse	-8559
aucase	-8560
▁confid	-8561
▁résultant	-8562
lera	-8563
ètre	-8564
▁surc	-8565
▁billets	-8566
▁ouvertes	-8567
▁reporter	-8568
▁dispropor	-8569
▁qualifiés	-8570
▁insuffisante	-8571
▁affi	-8572
habitude	-8573
▁annuels	-8574
criptions	-8575
▁concentre	-8576
▁mauvaises	-8577
▁privatisation	-8578
four	-8579
▁intol	-8580
▁inquie	-8581
▁portes	-8582
▁bataille	-8583
identifier	-8584
▁régissant	-8585
îner	-8586
▁imposé	-8587
▁vitale	-8588
▁persécu	-8589
▁tolérer	-8590
▁acceptée	-8591
▁abandonner	-8592
▁intéressés	-8593
▁restriction	-8594
actuel	-8595
éliminer	-8596
▁défenseurs	-8597
▁enseign	-8598
▁souhaits	-8599
ctique	-8600
▁attra	-8601
essayer	-8602
▁proportion	-8603
▁accent	-8604
▁continuons	-8605
rira	-8606
▁agré	-8607
▁arrêt	-8608
▁domes	-8609
▁carburant	-8610
▁ressource	-8611
▁néerlandaise	-8612
▁déç	-8613
harmon	-8614
▁enfre	-8615
▁ramen	-8616
▁désarmement	-8617
méditerranéen	-8618
terr	-8619
▁anc	-8620
ortent	-8621
quemment	-8622
▁procl	-8623
▁unité	-8624
▁plainte	-8625
▁estimations	-8626
èvre	-8627
stitut	-8628
▁côtes	-8629
Internet	-8630
▁favorise	-8631
▁frappé	-8632
▁susciter	-8633
▁souffrance	-8634
▁géographiques	-8635
tini	-8636
seurs	-8637
▁infli	-8638
▁riche	-8639
▁origine	-8640
▁traitée	-8641
▁imaginer	-8642
▁monopole	-8643
Atlantique	-8644
▁soutenant	-8645
▁détaillées	-8646
▁fonctionnent	-8647
▁Trans	-8648
▁renforçant	-8649
immunité	-8650
▁publier	-8651
▁résolue	-8652
▁supérieure	-8653
▁réglementaires	-8654
tering	-8655
▁couverture	-8656
▁distorsions	-8657
)).	-8658
osyst	-8659
▁lende	-8660
▁ancien	-8661
▁incorp	-8662
stan	-8663
▁cho	-8664
enses	-8665
imm	-8666
innock	-8667
▁placé	-8668
▁Eh	-8669
yser	-8670
▁hasard	-8671
apprendre	-8672
▁aidera	-8673
AT	-8674
CR	-8675
▁déblo	-8676
▁préco	-8677
▁voyag	-8678
▁brève	-8679
▁Madrid	-8680
▁Kinnock	-8681
▁Mexique	-8682
▁optique	-8683
▁identifier	-8684
▁migratoires	-8685
▁réchauffement	-8686
mon	-8687
▁gri	-8688
▁considérées	-8689
ourn	-8690
urdes	-8691
▁guise	-8692
argument	-8693
installation	-8694
chite	-8695
ultur	-8696
▁rétic	-8697
ortement	-8698
▁exposés	-8699
▁clandestin	-8700
▁blan	-8701
▁noir	-8702
▁identiques	-8703
▁religieuse	-8704
▁Hau	-8705
gnant	-8706
▁hypoth	-8707
▁concert	-8708
▁proposant	-8709
▁sols	-8710
▁Monti	-8711
▁diplô	-8712
arrivée	-8713
▁voiture	-8714
▁septième	-8715
ffice	-8716
▁alarm	-8717
▁délits	-8718
▁réservé	-8719
▁valoris	-8720
▁justifiée	-8721
▁expression	-8722
▁traçabilité	-8723
assade	-8724
ténuer	-8725
▁conformes	-8726
urie	-8727
▁soulevée	-8728
▁équivoque	-8729
▁fréquemment	-8730
▁Là	-8731
ancel	-8732
▁mettra	-8733
▁attendant	-8734
▁Vice	-8735
▁Autriche	-8736
▁identique	-8737
▁apparaître	-8738
▁compatible	-8739
▁modé	-8740
énégro	-8741
▁sexes	-8742
▁clients	-8743
▁assassin	-8744
▁justifié	-8745
▁inadmissible	-8746
▁contraignante	-8747
▁économiquement	-8748
lem	-8749
▁rigi	-8750
▁former	-8751
▁tarifs	-8752
▁apportera	-8753
▁finlandaise	-8754
▁rétablissement	-8755
rances	-8756
▁doive	-8757
irations	-8758
▁Caucase	-8759
ompe	-8760
▁proxim	-8761
▁fame	-8762
▁excéd	-8763
associer	-8764
▁accéder	-8765
▁moments	-8766
▁islamique	-8767
gents	-8768
▁aimer	-8769
tionnée	-8770
▁préparatifs	-8771
▁spéculation	-8772
▁diplomatiques	-8773
▁avoc	-8774
Europol	-8775
▁sixième	-8776
▁autonome	-8777
▁insuffisant	-8778
ertion	-8779
▁resse	-8780
▁commenter	-8781
▁consentis	-8782
▁lendemain	-8783
▁proximité	-8784
étant	-8785
▁hypoc	-8786
▁millénaire	-8787
discrimination	-8788
▁élan	-8789
▁occuper	-8790
▁céréales	-8791
▁génocide	-8792
▁monopoles	-8793
▁renouvelable	-8794
pel	-8795
▁dil	-8796
▁sida	-8797
▁délicat	-8798
▁continuité	-8799
ij	-8800
▁And	-8801
▁Trib	-8802
▁situe	-8803
▁discré	-8804
▁contraints	-8805
ostat	-8806
efforcer	-8807
▁initial	-8808
impliquer	-8809
▁endroits	-8810
COD	-8811
années	-8812
▁ukrain	-8813
▁radioac	-8814
▁rejoins	-8815
▁sachant	-8816
▁limitées	-8817
▁barb	-8818
embargo	-8819
▁prémat	-8820
▁bilatérales	-8821
▁Jean	-8822
▁mens	-8823
effond	-8824
▁politi	-8825
▁parlent	-8826
▁rassembler	-8827
▁brefs	-8828
▁nôtre	-8829
tements	-8830
▁essayons	-8831
▁demanderai	-8832
▁manifestation	-8833
▁opérationnelle	-8834
obo	-8835
▁exag	-8836
onnant	-8837
▁prérog	-8838
▁suggéré	-8839
▁détruire	-8840
▁Pol	-8841
▁évoluer	-8842
▁acceptés	-8843
▁préoccupés	-8844
amo	-8845
▁catal	-8846
▁bu	-8847
oyer	-8848
▁Mill	-8849
▁Blair	-8850
▁numéro	-8851
▁fédérale	-8852
▁policière	-8853
▁progressé	-8854
ignent	-8855
▁bruta	-8856
▁réexamen	-8857
▁concernée	-8858
▁reconnaissons	-8859
insp	-8860
▁Pap	-8861
▁Val	-8862
éléments	-8863
▁immense	-8864
▁prépare	-8865
▁acceptables	-8866
employ	-8867
▁langage	-8868
▁expériment	-8869
▁nationalité	-8870
▁Chac	-8871
▁Haye	-8872
▁pluralisme	-8873
▁Dar	-8874
▁Sak	-8875
▁Sal	-8876
▁nommé	-8877
annonce	-8878
inscrire	-8879
▁pousser	-8880
▁fondements	-8881
.,	-8882
▁doig	-8883
▁misère	-8884
▁indiquent	-8885
▁enregistré	-8886
▁manifester	-8887
▁remboursement	-8888
▁Dav	-8889
ageux	-8890
anais	-8891
iront	-8892
trons	-8893
▁Flor	-8894
anation	-8895
▁fièvre	-8896
▁reflètent	-8897
▁journaux	-8898
▁palestiniens	-8899
▁professionnel	-8900
osevic	-8901
agnos	-8902
▁élimin	-8903
▁couvert	-8904
▁ineffic	-8905
▁adressée	-8906
▁préjudici	-8907
▁incapables	-8908
▁proprement	-8909
▁biologiques	-8910
▁justes	-8911
▁suffisants	-8912
▁parviennent	-8913
▁philosophie	-8914
▁unilatérale	-8915
▁dure	-8916
▁Colombie	-8917
▁irrégularités	-8918
▁marqu	-8919
▁défendu	-8920
▁mettons	-8921
▁critiquer	-8922
▁Milosevic	-8923
▁aspirations	-8924
▁observation	-8925
omètres	-8926
▁superf	-8927
▁dépenser	-8928
▁préférences	-8929
▁anne	-8930
▁empre	-8931
▁entam	-8932
attente	-8933
▁armées	-8934
▁condamne	-8935
véni	-8936
▁forêt	-8937
▁réalistes	-8938
cate	-8939
▁cub	-8940
▁Noire	-8941
▁lancée	-8942
▁malent	-8943
▁définie	-8944
▁faillite	-8945
uxembourge	-8946
▁Soy	-8947
▁frus	-8948
▁révèle	-8949
avancement	-8950
▁accueillir	-8951
▁App	-8952
banais	-8953
rontex	-8954
infraction	-8955
▁dyna	-8956
tienne	-8957
parcours	-8958
▁luxembourge	-8959
na	-8960
▁Aux	-8961
▁Her	-8962
▁retrouve	-8963
▁concevoir	-8964
▁officielles	-8965
ja	-8966
avions	-8967
▁fusion	-8968
▁surcroît	-8969
▁adressées	-8970
▁administratif	-8971
jac	-8972
voir	-8973
▁redou	-8974
aucuns	-8975
▁teneur	-8976
▁voulions	-8977
▁intégrées	-8978
▁volontaires	-8979
unal	-8980
urez	-8981
▁réagi	-8982
▁compli	-8983
▁étendue	-8984
▁médecins	-8985
▁restaurer	-8986
▁respectifs	-8987
enz	-8988
▁cité	-8989
▁juris	-8990
▁postaux	-8991
▁apprécié	-8992
▁contraignantes	-8993
▁DG	-8994
▁tun	-8995
▁approuvés	-8996
▁Fédération	-8997
▁juridiction	-8998
abat	-8999
▁émet	-9000
verser	-9001
▁envoi	-9002
▁passent	-9003
▁approches	-9004
sme	-9005
oduc	-9006
▁incroy	-9007
▁diagnos	-9008
▁durement	-9009
▁sortes	-9010
ougoslave	-9011
▁officiel	-9012
▁soulevés	-9013
tér	-9014
érap	-9015
▁...	-9016
▁fid	-9017
▁Guer	-9018
▁Haut	-9019
▁exact	-9020
▁opposer	-9021
▁partagée	-9022
▁atteintes	-9023
▁ultérieur	-9024
▁développées	-9025
▁von	-9026
▁quar	-9027
▁coali	-9028
▁dépas	-9029
▁pêcher	-9030
▁municip	-9031
▁délicate	-9032
▁intégrés	-9033
▁prétendre	-9034
▁accessible	-9035
tenons	-9036
▁réfère	-9037
▁abordée	-9038
▁déposée	-9039
▁profondes	-9040
▁références	-9041
ouff	-9042
▁rat	-9043
▁coeur	-9044
▁mesurer	-9045
▁retraites	-9046
▁normalisation	-9047
▁automatiquement	-9048
ASE	-9049
▁Cot	-9050
▁thon	-9051
univers	-9052
▁adultes	-9053
▁assurant	-9054
▁assistons	-9055
▁contiennent	-9056
▁méditerranéenne	-9057
▁FMI	-9058
▁joi	-9059
▁beau	-9060
▁éthique	-9061
▁analyser	-9062
xion	-9063
▁Pal	-9064
▁log	-9065
▁persuadé	-9066
▁nécessitent	-9067
chées	-9068
▁Euro	-9069
▁hali	-9070
▁fiable	-9071
▁adaptée	-9072
▁émettre	-9073
▁déloyale	-9074
▁faiblesses	-9075
▁ordinaires	-9076
▁individuelles	-9077
urions	-9078
gnation	-9079
▁précoce	-9080
▁indiquant	-9081
▁bul	-9082
▁vég	-9083
ficatif	-9084
▁Tribunal	-9085
▁résidence	-9086
▁relâ	-9087
▁propriétaires	-9088
riers	-9089
▁tiss	-9090
▁label	-9091
▁peser	-9092
▁touché	-9093
▁maternité	-9094
▁souffrances	-9095
▁publiquement	-9096
▁licenciements	-9097
cir	-9098
inn	-9099
prud	-9100
gènes	-9101
▁sain	-9102
▁adressé	-9103
▁bâtiment	-9104
▁mob	-9105
▁pira	-9106
▁oblige	-9107
▁impliqué	-9108
▁éleveurs	-9109
CH	-9110
▁Frontex	-9111
▁fraudes	-9112
▁étrange	-9113
▁rapidité	-9114
▁TAC	-9115
▁revêtent	-9116
▁sympathie	-9117
▁moral	-9118
utilité	-9119
▁dissim	-9120
▁posséd	-9121
▁individuelle	-9122
▁équip	-9123
▁soigne	-9124
▁risquer	-9125
▁réclamer	-9126
▁légalement	-9127
▁normalement	-9128
▁facul	-9129
avortement	-9130
▁incapable	-9131
onnellement	-9132
▁initialement	-9133
▁entrepreneurs	-9134
respect	-9135
▁déposées	-9136
▁desquelles	-9137
▁contrefaçon	-9138
tiez	-9139
▁sache	-9140
OCDE	-9141
▁gré	-9142
▁tril	-9143
▁évoque	-9144
▁offrant	-9145
▁évoquée	-9146
lementation	-9147
▁yougoslave	-9148
cisme	-9149
▁close	-9150
▁préféré	-9151
▁concepts	-9152
▁démission	-9153
▁Personnellement	-9154
oue	-9155
▁signale	-9156
▁manières	-9157
▁unitaire	-9158
▁indubit	-9159
▁rejetée	-9160
▁prolonger	-9161
ands	-9162
▁jugé	-9163
▁désesp	-9164
▁précip	-9165
▁nordique	-9166
▁soutenus	-9167
▁suspendue	-9168
▁symbolique	-9169
▁supranation	-9170
▁mutuellement	-9171
uns	-9172
▁chargés	-9173
▁exergue	-9174
▁maintenu	-9175
▁autoriser	-9176
▁chypriote	-9177
▁traditionnels	-9178
▁Ko	-9179
▁Sta	-9180
▁bras	-9181
▁vécu	-9182
expéri	-9183
▁aveug	-9184
▁incompréh	-9185
incertitude	-9186
▁exh	-9187
risie	-9188
▁tarif	-9189
▁créent	-9190
▁dépassé	-9191
▁Ta	-9192
▁épar	-9193
▁Husse	-9194
organes	-9195
éritage	-9196
▁déroule	-9197
▁apportent	-9198
▁confronté	-9199
▁demeurent	-9200
▁comparables	-9201
▁fournissent	-9202
zo	-9203
▁Cas	-9204
▁Sou	-9205
▁plaide	-9206
▁simultanément	-9207
▁transparentes	-9208
▁Michel	-9209
▁affecte	-9210
▁mercure	-9211
ker	-9212
immi	-9213
▁gardi	-9214
▁liaison	-9215
exemption	-9216
▁troubles	-9217
▁appliqués	-9218
ctoires	-9219
▁Martin	-9220
▁parent	-9221
ashington	-9222
▁refléter	-9223
▁comprenons	-9224
▁transférer	-9225
▁Nombre	-9226
▁empris	-9227
▁engage	-9228
▁Hussein	-9229
▁malades	-9230
▁constant	-9231
audit	-9232
▁créés	-9233
▁introduites	-9234
ube	-9235
▁spati	-9236
▁provin	-9237
interdire	-9238
▁Amsterdam	-9239
arie	-9240
▁ton	-9241
▁Chacun	-9242
▁reconnue	-9243
▁éventail	-9244
▁voyageurs	-9245
▁Me	-9246
uites	-9247
▁causé	-9248
▁fléau	-9249
▁Proche	-9250
▁filles	-9251
▁transmet	-9252
▁jurisprud	-9253
▁extérieurs	-9254
▁justification	-9255
▁laitiers	-9256
alisations	-9257
appuyer	-9258
▁vigour	-9259
▁laissent	-9260
▁médicaux	-9261
▁souplesse	-9262
▁spéciales	-9263
eken	-9264
▁étendu	-9265
▁députée	-9266
▁évoqués	-9267
▁envisagé	-9268
▁déterminé	-9269
▁sensibilité	-9270
▁déséquilibres	-9271
▁exclus	-9272
▁effectuées	-9273
▁scandaleux	-9274
arra	-9275
rice	-9276
▁préser	-9277
▁dépensé	-9278
▁terminé	-9279
▁réduisant	-9280
▁électoral	-9281
▁multilatéral	-9282
▁troisièmement	-9283
DR	-9284
émer	-9285
▁Merc	-9286
efforce	-9287
orateurs	-9288
▁adéquats	-9289
▁financés	-9290
aménagement	-9291
ppe	-9292
drait	-9293
▁harc	-9294
élargir	-9295
▁cadres	-9296
▁compenser	-9297
▁intéressées	-9298
▁Voi	-9299
▁dite	-9300
▁liti	-9301
▁noci	-9302
gation	-9303
▁carrière	-9304
▁intensifier	-9305
▁Où	-9306
commun	-9307
▁Laeken	-9308
▁comptent	-9309
▁quiconque	-9310
olat	-9311
▁SIS	-9312
▁découlent	-9313
▁présidences	-9314
olymp	-9315
▁flottes	-9316
▁proposent	-9317
▁pertinente	-9318
▁indications	-9319
▁signification	-9320
ho	-9321
orons	-9322
option	-9323
▁Guerre	-9324
▁radicale	-9325
▁harmoniser	-9326
▁occidental	-9327
▁recommander	-9328
organisations	-9329
borg	-9330
▁noms	-9331
▁fiers	-9332
▁rouge	-9333
▁diffus	-9334
▁clonage	-9335
▁solidaire	-9336
▁garantissent	-9337
inverse	-9338
CNS	-9339
îtra	-9340
▁légu	-9341
donésie	-9342
▁parado	-9343
▁précisé	-9344
▁examinée	-9345
enko	-9346
▁enc	-9347
listes	-9348
▁permets	-9349
▁offertes	-9350
▁satellite	-9351
▁désignation	-9352
▁progression	-9353
▁intelligente	-9354
▁vet	-9355
ccident	-9356
▁exclure	-9357
▁voterai	-9358
▁spéciaux	-9359
instabilité	-9360
▁constituerait	-9361
quement	-9362
▁livrer	-9363
▁coalition	-9364
abe	-9365
▁ciel	-9366
▁normale	-9367
▁engendrer	-9368
▁quasiment	-9369
▁cessé	-9370
attaque	-9371
▁belles	-9372
▁incompati	-9373
▁ble	-9374
tenance	-9375
▁fonder	-9376
▁symbole	-9377
opérabilité	-9378
▁mentionnées	-9379
▁renouvellement	-9380
ato	-9381
▁abu	-9382
▁olymp	-9383
▁connus	-9384
▁navire	-9385
▁partiel	-9386
▁différends	-9387
▁linguistiques	-9388
hr	-9389
fer	-9390
oboda	-9391
▁redé	-9392
▁basées	-9393
▁énergique	-9394
▁diplomatie	-9395
▁favorisant	-9396
▁mentionnée	-9397
▁prestation	-9398
▁proviennent	-9399
oscou	-9400
▁profession	-9401
ékin	-9402
▁Nor	-9403
enser	-9404
▁Dieu	-9405
▁Darfour	-9406
▁suspendre	-9407
▁universelle	-9408
▁institutionnels	-9409
▁paral	-9410
▁éthiques	-9411
▁organisme	-9412
▁fructueuse	-9413
▁continueront	-9414
ago	-9415
▁Lou	-9416
ajoute	-9417
exiger	-9418
orteur	-9419
▁désta	-9420
accéder	-9421
▁compétents	-9422
▁sauvegarder	-9423
ba	-9424
▁dus	-9425
▁Bolk	-9426
éthique	-9427
▁acteur	-9428
▁acheter	-9429
▁minimale	-9430
▁compétitif	-9431
estein	-9432
chiment	-9433
▁Moscou	-9434
accompag	-9435
▁Millénaire	-9436
▁combustibles	-9437
▁intermédiaire	-9438
illages	-9439
▁fermes	-9440
insertion	-9441
enj	-9442
urés	-9443
appara	-9444
européen	-9445
▁générer	-9446
▁invitons	-9447
▁commencent	-9448
ACH	-9449
ama	-9450
▁Ici	-9451
opoul	-9452
élève	-9453
▁illégales	-9454
▁assurances	-9455
▁entraînera	-9456
tir	-9457
▁admet	-9458
▁press	-9459
▁renvoy	-9460
▁abstenu	-9461
▁requise	-9462
▁résumer	-9463
termination	-9464
▁dégradation	-9465
▁enregistrés	-9466
▁poursuivent	-9467
▁transfrontalier	-9468
orn	-9469
▁hyd	-9470
▁répres	-9471
▁constat	-9472
▁illustre	-9473
▁anciennes	-9474
▁croit	-9475
▁plaît	-9476
infrastructures	-9477
▁handicapés	-9478
▁soigneusement	-9479
▁inévitablement	-9480
▁Ang	-9481
▁III	-9482
▁Sain	-9483
▁béta	-9484
▁tiré	-9485
version	-9486
▁alliés	-9487
▁restitu	-9488
▁concurrents	-9489
▁contraignants	-9490
▁Voici	-9491
▁dioxyde	-9492
▁disparu	-9493
▁instance	-9494
▁réaffirmer	-9495
▁automobiles	-9496
ccord	-9497
accepte	-9498
▁toxicom	-9499
lantiques	-9500
▁textiles	-9501
▁indépendantes	-9502
▁jurisprudence	-9503
IN	-9504
jan	-9505
ttini	-9506
▁Pékin	-9507
▁venue	-9508
▁subissent	-9509
▁poursuites	-9510
teborg	-9511
olement	-9512
▁formid	-9513
▁protège	-9514
▁Frattini	-9515
▁musulmans	-9516
▁détérioration	-9517
▁intéressantes	-9518
▁bureaucratiques	-9519
▁dos	-9520
▁param	-9521
▁bétail	-9522
▁reprend	-9523
▁légalité	-9524
▁précieuse	-9525
Ouest	-9526
ertise	-9527
▁thérap	-9528
▁dépense	-9529
▁fédéral	-9530
▁prisons	-9531
▁survenus	-9532
ald	-9533
▁veto	-9534
ayant	-9535
▁pare	-9536
olibéra	-9537
▁Danube	-9538
▁attiré	-9539
▁déclin	-9540
▁oublié	-9541
▁Bolkestein	-9542
▁performances	-9543
▁méditerranéens	-9544
CHO	-9545
hne	-9546
▁Ph	-9547
vation	-9548
▁licences	-9549
▁reconnus	-9550
▁distorsion	-9551
▁contamination	-9552
nées	-9553
rocité	-9554
▁inhum	-9555
▁kurde	-9556
▁animal	-9557
▁perturb	-9558
▁visible	-9559
▁élargir	-9560
sée	-9561
▁bande	-9562
abandon	-9563
istants	-9564
itement	-9565
▁arrêté	-9566
▁peines	-9567
▁néfastes	-9568
▁produite	-9569
▁antérieur	-9570
▁structurel	-9571
alie	-9572
▁dot	-9573
▁Guant	-9574
▁Barnier	-9575
servatoire	-9576
▁jouissent	-9577
▁dispositifs	-9578
▁propagande	-9579
▁hi	-9580
ètent	-9581
ignore	-9582
▁attendu	-9583
▁efforcer	-9584
▁déplacées	-9585
▁blanchiment	-9586
▁décour	-9587
▁vastes	-9588
▁regroupe	-9589
▁touchant	-9590
eria	-9591
gici	-9592
mons	-9593
mées	-9594
tiens	-9595
▁invo	-9596
▁haine	-9597
▁trompe	-9598
▁rassurer	-9599
▁bancaires	-9600
▁Red	-9601
▁club	-9602
▁lent	-9603
▁pensé	-9604
gnement	-9605
▁reçoit	-9606
▁trouvée	-9607
▁craindre	-9608
attend	-9609
ettering	-9610
▁rendant	-9611
▁adaptées	-9612
▁concours	-9613
▁routiers	-9614
alli	-9615
▁REACH	-9616
▁venant	-9617
▁animales	-9618
▁décennie	-9619
▁néolibéra	-9620
▁Poettering	-9621
▁toucher	-9622
▁sentiments	-9623
acio	-9624
arisme	-9625
▁bénév	-9626
▁neutra	-9627
▁détaillé	-9628
▁sincères	-9629
▁pont	-9630
Ob	-9631
erba	-9632
▁pure	-9633
emblée	-9634
▁mèner	-9635
issance	-9636
▁diriger	-9637
acceptation	-9638
▁introduite	-9639
▁magni	-9640
▁prédé	-9641
▁pointe	-9642
cidences	-9643
▁moderniser	-9644
estes	-9645
▁fixée	-9646
▁Encore	-9647
▁Congrès	-9648
▁consulté	-9649
▁inspections	-9650
▁introduction	-9651
eek	-9652
▁Gro	-9653
▁forc	-9654
Office	-9655
Estonie	-9656
▁observe	-9657
▁Go	-9658
▁assurée	-9659
▁danoise	-9660
▁offerte	-9661
▁réviser	-9662
videmment	-9663
▁rail	-9664
▁logici	-9665
▁modeste	-9666
▁parvient	-9667
'"	-9668
illi	-9669
érents	-9670
▁répandu	-9671
▁qualifier	-9672
▁compétitifs	-9673
▁ind	-9674
▁armée	-9675
▁chapitres	-9676
▁Monténégro	-9677
▁conférences	-9678
onyme	-9679
▁doté	-9680
Égypte	-9681
▁usagers	-9682
▁surp	-9683
▁énum	-9684
▁Franç	-9685
▁farde	-9686
▁accordées	-9687
▁objections	-9688
▁halieutiques	-9689
yr	-9690
Institut	-9691
▁associé	-9692
▁blocage	-9693
▁meurent	-9694
▁secours	-9695
▁tremblement	-9696
▁doc	-9697
▁chasse	-9698
▁passés	-9699
▁côtières	-9700
▁dépendra	-9701
▁inscrits	-9702
▁manifesté	-9703
▁réparation	-9704
▁catégorique	-9705
▁extrémistes	-9706
▁interrompue	-9707
▁significatifs	-9708
▁EL	-9709
▁Mer	-9710
▁complé	-9711
▁passons	-9712
▁témoins	-9713
▁figurant	-9714
▁monsieur	-9715
harmoniser	-9716
insécurité	-9717
▁matériaux	-9718
▁productions	-9719
▁diversification	-9720
▁Dé	-9721
akis	-9722
cole	-9723
▁Mand	-9724
érants	-9725
▁milit	-9726
▁verrons	-9727
▁habitant	-9728
▁exécution	-9729
▁superfici	-9730
▁performance	-9731
▁éventuelles	-9732
mus	-9733
auront	-9734
ouvant	-9735
▁flagr	-9736
▁rejets	-9737
▁inadéqu	-9738
▁chantiers	-9739
▁compétent	-9740
osur	-9741
iteurs	-9742
▁geste	-9743
assumer	-9744
étudier	-9745
▁battre	-9746
▁entités	-9747
▁collectives	-9748
▁El	-9749
▁contour	-9750
▁irresponsable	-9751
▁cig	-9752
reuve	-9753
▁devenus	-9754
▁déroulement	-9755
▁rencontrent	-9756
▁IN	-9757
▁Centre	-9758
▁baisser	-9759
▁financé	-9760
▁richesses	-9761
▁tragiques	-9762
▁clarification	-9763
▁VIH	-9764
▁Mart	-9765
▁bran	-9766
▁belle	-9767
auraient	-9768
▁légumes	-9769
▁formelle	-9770
▁cinquante	-9771
▁prenantes	-9772
▁satisfaite	-9773
teuse	-9774
▁stipul	-9775
▁opposée	-9776
achèvement	-9777
▁dimensions	-9778
▁réputation	-9779
▁expul	-9780
▁souffert	-9781
▁comporter	-9782
▁déception	-9783
▁impulsion	-9784
▁terminerai	-9785
lue	-9786
régi	-9787
orent	-9788
ressent	-9789
▁pourriez	-9790
▁subsiste	-9791
▁implication	-9792
▁pragmatique	-9793
▁aph	-9794
▁nulle	-9795
▁viser	-9796
▁absolu	-9797
▁honneur	-9798
▁passées	-9799
▁convictions	-9800
▁recouv	-9801
▁récomp	-9802
mosphère	-9803
▁familial	-9804
▁laissant	-9805
▁confrontées	-9806
OP	-9807
▁nov	-9808
▁bass	-9809
▁collège	-9810
▁indirectement	-9811
▁mat	-9812
isibles	-9813
▁apparu	-9814
▁rendra	-9815
▁découver	-9816
▁engagées	-9817
▁démontrent	-9818
▁infraction	-9819
▁minoritaires	-9820
▁ultérieurement	-9821
ctées	-9822
ugabe	-9823
▁inspi	-9824
▁Palacio	-9825
▁externe	-9826
▁sagesse	-9827
▁Européen	-9828
▁applique	-9829
▁autorise	-9830
▁instituant	-9831
▁constructeurs	-9832
atom	-9833
ualité	-9834
▁éligi	-9835
▁exercée	-9836
▁rejoint	-9837
▁suggérer	-9838
▁développée	-9839
dor	-9840
▁naval	-9841
essence	-9842
▁cartes	-9843
▁cessez	-9844
éremment	-9845
▁occupés	-9846
▁aphteuse	-9847
▁forcément	-9848
▁réexaminer	-9849
▁loy	-9850
▁chaî	-9851
▁codi	-9852
▁dise	-9853
▁déser	-9854
isition	-9855
minaire	-9856
▁dérivés	-9857
▁qualifié	-9858
▁substitu	-9859
▁toxiques	-9860
incapacité	-9861
▁envisagée	-9862
▁financièrement	-9863
pid	-9864
▁hoc	-9865
▁Kara	-9866
▁céder	-9867
▁turcs	-9868
▁marins	-9869
▁circuler	-9870
▁sortie	-9871
▁slovaque	-9872
rob	-9873
▁Ad	-9874
ices	-9875
▁éradi	-9876
▁prestat	-9877
▁déployer	-9878
▁surprise	-9879
▁encouragé	-9880
chie	-9881
onou	-9882
ution	-9883
▁Mugabe	-9884
▁réunis	-9885
▁certification	-9886
▁Quels	-9887
▁aboli	-9888
▁indéni	-9889
▁imposée	-9890
▁approuvons	-9891
▁représenté	-9892
ost	-9893
▁ralli	-9894
▁Cotonou	-9895
▁homosex	-9896
▁UEN	-9897
▁Pres	-9898
▁rigoureux	-9899
▁regrettons	-9900
▁rencontrés	-9901
▁soulignant	-9902
▁consultatif	-9903
impôt	-9904
tiver	-9905
▁drame	-9906
▁épuis	-9907
inspection	-9908
▁capitales	-9909
▁familiales	-9910
▁inévitable	-9911
indivi	-9912
veille	-9913
▁doigt	-9914
▁sûres	-9915
▁sécher	-9916
▁regarde	-9917
▁voyages	-9918
▁gratitude	-9919
Ch	-9920
pt	-9921
ourv	-9922
émergence	-9923
▁arrivent	-9924
éradication	-9925
▁déplacement	-9926
AP	-9927
auf	-9928
▁tac	-9929
▁agissant	-9930
▁coexistence	-9931
▁exceptionnelle	-9932
études	-9933
▁juges	-9934
▁arrange	-9935
▁multipli	-9936
▁opposants	-9937
▁créativité	-9938
iment	-9939
▁rêve	-9940
▁Guinée	-9941
▁incomb	-9942
▁dépourv	-9943
EA	-9944
▁mers	-9945
▁larges	-9946
▁invités	-9947
▁cible	-9948
▁virus	-9949
▁votons	-9950
▁menacés	-9951
▁inconvéni	-9952
cal	-9953
rika	-9954
▁baf	-9955
▁obligé	-9956
▁Puisque	-9957
▁fournie	-9958
▁sûrement	-9959
▁existence	-9960
▁professions	-9961
▁respectueux	-9962
prolifération	-9963
no	-9964
elt	-9965
istrib	-9966
▁désigné	-9967
▁allemands	-9968
enseignements	-9969
erse	-9970
indique	-9971
ordanie	-9972
▁retenu	-9973
▁émises	-9974
igu	-9975
autor	-9976
▁soul	-9977
intervi	-9978
▁votera	-9979
▁bloquer	-9980
▁restant	-9981
▁retenue	-9982
▁refusent	-9983
exécu	-9984
▁préalables	-9985
▁candidature	-9986
zerba	-9987
illaud	-9988
outons	-9989
locu	-9990
▁Del	-9991
harov	-9992
automne	-9993
impasse	-9994
▁délégu	-9995
▁cabillaud	-9996
▁définitions	-9997
▁enseignements	-9998
▁traditionnelle	-9999
▁contradictoires	-10000
▁nier	-10001
▁annoncer	-10002
▁condamnés	-10003
▁accusations	-10004
▁autorisation	-10005
▁ELDR	-10006
▁amené	-10007
▁dialo	-10008
▁afghan	-10009
▁irakien	-10010
▁Ir	-10011
grédi	-10012
▁espèce	-10013
▁contractu	-10014
▁pertinent	-10015
▁réacteurs	-10016
▁influencer	-10017
▁portuaires	-10018
▁Camb	-10019
tionné	-10020
▁incidents	-10021
▁allégations	-10022
▁différemment	-10023
sch	-10024
▁Da	-10025
agira	-10026
▁roum	-10027
▁course	-10028
▁contribuable	-10029
▁réalisations	-10030
élo	-10031
▁Sah	-10032
droit	-10033
▁arrivée	-10034
▁moteurs	-10035
▁Espérons	-10036
▁Sakharov	-10037
présentant	-10038
▁formations	-10039
▁organisées	-10040
▁Heureusement	-10041
▁bov	-10042
▁armés	-10043
▁conçu	-10044
▁enrich	-10045
▁connues	-10046
autoriser	-10047
▁véhicule	-10048
apparition	-10049
▁retourner	-10050
▁composante	-10051
hip	-10052
olfe	-10053
▁Sous	-10054
▁boule	-10055
▁dresser	-10056
▁sommets	-10057
▁ridicule	-10058
▁réciprocité	-10059
▁dettes	-10060
▁mutuel	-10061
ocations	-10062
▁gazoduc	-10063
▁pénurie	-10064
▁exemplaire	-10065
▁incidences	-10066
pers	-10067
▁devoirs	-10068
▁messieurs	-10069
nob	-10070
▁PH	-10071
▁Norv	-10072
▁négliger	-10073
▁accueilli	-10074
▁appartenant	-10075
▁formellement	-10076
ctes	-10077
terre	-10078
▁rare	-10079
▁mardi	-10080
amiques	-10081
▁procur	-10082
▁Mercosur	-10083
▁inappropri	-10084
▁criminelles	-10085
kh	-10086
angle	-10087
aques	-10088
gnons	-10089
▁bour	-10090
▁dotée	-10091
▁prime	-10092
▁escomp	-10093
▁obliger	-10094
▁surface	-10095
▁informel	-10096
▁renforcera	-10097
▁rentabilité	-10098
▁appuy	-10099
▁chaînes	-10100
▁malheur	-10101
hémicycle	-10102
rairement	-10103
▁terribles	-10104
ARE	-10105
str	-10106
aret	-10107
cieux	-10108
▁fret	-10109
▁homolo	-10110
▁louable	-10111
▁suivent	-10112
▁autorisée	-10113
▁périphériques	-10114
▁axée	-10115
▁tire	-10116
outine	-10117
▁hauts	-10118
▁nuire	-10119
lantation	-10120
▁pouvions	-10121
▁immigration	-10122
▁Dem	-10123
▁Nap	-10124
▁inhér	-10125
▁sièges	-10126
▁signaux	-10127
▁siècles	-10128
▁appliquent	-10129
▁sensibiliser	-10130
▁accroissement	-10131
ession	-10132
idémie	-10133
organe	-10134
apparti	-10135
▁diagnostic	-10136
▁nécessiter	-10137
▁prérogatives	-10138
âte	-10139
▁cond	-10140
▁frag	-10141
entiels	-10142
▁excessif	-10143
▁urbaines	-10144
itor	-10145
omen	-10146
▁dues	-10147
▁fini	-10148
oeuvre	-10149
▁délit	-10150
▁enthousiasme	-10151
raf	-10152
hommes	-10153
▁Celles	-10154
▁invent	-10155
▁citerai	-10156
▁diminué	-10157
▁plantes	-10158
▁rappeller	-10159
▁comportements	-10160
ayons	-10161
▁canc	-10162
inscri	-10163
▁fuite	-10164
▁immob	-10165
▁affich	-10166
▁frappe	-10167
▁chancel	-10168
▁minimal	-10169
▁objective	-10170
▁Finalement	-10171
▁potentiellement	-10172
▁énonc	-10173
▁indemn	-10174
exploiter	-10175
▁retarder	-10176
▁étiquetage	-10177
▁commencerai	-10178
▁Contrairement	-10179
ett	-10180
▁midi	-10181
▁baser	-10182
accidents	-10183
▁désavant	-10184
▁reconnues	-10185
▁redevances	-10186
omé	-10187
opie	-10188
échapp	-10189
éliens	-10190
▁fossi	-10191
▁solenn	-10192
▁Poutine	-10193
▁redistrib	-10194
gile	-10195
otage	-10196
▁Canc	-10197
▁côte	-10198
térité	-10199
▁loyale	-10200
▁conviens	-10201
▁scénario	-10202
▁représentés	-10203
▁positivement	-10204
éma	-10205
▁SP	-10206
▁marin	-10207
explique	-10208
▁fardeau	-10209
▁interpr	-10210
▁stupéfi	-10211
▁rarement	-10212
▁renvoyer	-10213
▁flexibles	-10214
▁incidence	-10215
▁correspondant	-10216
▁pèse	-10217
rasser	-10218
visions	-10219
▁limités	-10220
habitants	-10221
▁polluants	-10222
▁pacifiques	-10223
▁préventive	-10224
▁Rob	-10225
affect	-10226
isembl	-10227
▁états	-10228
▁subord	-10229
ociation	-10230
▁réhabil	-10231
▁visibilité	-10232
▁compatibles	-10233
▁prostitution	-10234
isément	-10235
▁affectées	-10236
▁compliqué	-10237
▁contraires	-10238
▁rigoureuse	-10239
▁USA	-10240
enjeu	-10241
octobre	-10242
▁acquise	-10243
▁décidée	-10244
▁conférer	-10245
▁remarqué	-10246
▁profitent	-10247
▁reconnaissent	-10248
nez	-10249
▁cos	-10250
Année	-10251
umeurs	-10252
▁lourdes	-10253
▁naturels	-10254
▁correspondent	-10255
ao	-10256
ctre	-10257
▁MEDA	-10258
altern	-10259
accessi	-10260
▁exerce	-10261
▁coopéra	-10262
▁fondations	-10263
orre	-10264
▁rét	-10265
ensive	-10266
▁comparer	-10267
▁manquent	-10268
▁statistique	-10269
▁déséquilibre	-10270
aria	-10271
nobyl	-10272
empêche	-10273
▁exigeant	-10274
▁quantita	-10275
▁formidable	-10276
▁renseignements	-10277
RE	-10278
▁essais	-10279
▁opport	-10280
ondation	-10281
▁kilomètres	-10282
▁pertinents	-10283
igue	-10284
quac	-10285
tentri	-10286
▁essaie	-10287
▁partisan	-10288
appuie	-10289
▁écras	-10290
oléances	-10291
▁primaire	-10292
▁prédéces	-10293
▁concrétisation	-10294
▁Lais	-10295
▁Johan	-10296
assemblée	-10297
▁conteste	-10298
▁septentri	-10299
▁renforcées	-10300
▁Évidemment	-10301
▁contribueront	-10302
lah	-10303
anen	-10304
▁revue	-10305
▁adapté	-10306
▁alloué	-10307
▁bilatéral	-10308
▁exhaustive	-10309
▁inquiétant	-10310
cris	-10311
▁sour	-10312
gramme	-10313
▁conjon	-10314
▁théorie	-10315
élections	-10316
▁marquage	-10317
▁retrouvent	-10318
détermination	-10319
▁discriminatoire	-10320
▁Ag	-10321
lour	-10322
ulent	-10323
▁ench	-10324
▁page	-10325
erreur	-10326
▁agissent	-10327
▁disposant	-10328
▁produites	-10329
▁semblerait	-10330
▁tro	-10331
▁méfi	-10332
istrer	-10333
▁sphère	-10334
tionnées	-10335
▁spectre	-10336
▁trilogue	-10337
▁déploiement	-10338
eg	-10339
▁Vel	-10340
faits	-10341
horiz	-10342
▁âgés	-10343
gleterre	-10344
▁parlant	-10345
▁turques	-10346
▁vacances	-10347
▁physiques	-10348
▁PHARE	-10349
issions	-10350
▁successi	-10351
▁témoigner	-10352
▁ministérielle	-10353
▁industrialisés	-10354
roup	-10355
▁brû	-10356
ument	-10357
▁Tcher	-10358
▁accélé	-10359
▁pilotes	-10360
▁traverse	-10361
▁valables	-10362
▁éventuel	-10363
interopérabilité	-10364
▁rh	-10365
ouest	-10366
▁auto	-10367
projet	-10368
▁gagné	-10369
▁légère	-10370
▁souple	-10371
quièrent	-10372
▁incondi	-10373
▁mobiles	-10374
▁préoccuper	-10375
▁gê	-10376
▁Poss	-10377
▁dédu	-10378
inviter	-10379
▁Norvège	-10380
▁lettres	-10381
▁conjoint	-10382
▁évoquées	-10383
▁chinoises	-10384
▁envergure	-10385
bio	-10386
vait	-10387
onnées	-10388
▁ajouté	-10389
▁titres	-10390
Je	-10391
▁accum	-10392
▁Ferrer	-10393
▁relevé	-10394
abattage	-10395
▁potable	-10396
▁spectacul	-10397
▁personnels	-10398
important	-10399
accompagner	-10400
▁aucunement	-10401
▁impliquent	-10402
▁innovations	-10403
▁préadhésion	-10404
car	-10405
opti	-10406
ôles	-10407
▁Posselt	-10408
▁confère	-10409
▁garantira	-10410
▁intégralement	-10411
ynn	-10412
lage	-10413
atson	-10414
rations	-10415
▁cercle	-10416
▁douter	-10417
▁primes	-10418
▁importés	-10419
ky	-10420
sants	-10421
▁intr	-10422
ev	-10423
riment	-10424
équité	-10425
▁effectif	-10426
▁réitérer	-10427
▁standard	-10428
▁élection	-10429
▁Tchernobyl	-10430
fondissement	-10431
▁classification	-10432
gnée	-10433
▁inco	-10434
▁prote	-10435
▁éclai	-10436
urations	-10437
▁déplacer	-10438
▁distribué	-10439
▁caractérise	-10440
▁personnalité	-10441
▁soutiendrons	-10442
djan	-10443
▁déd	-10444
▁foc	-10445
huile	-10446
▁paramètres	-10447
entreprendre	-10448
▁Jac	-10449
▁and	-10450
quants	-10451
▁préfère	-10452
▁réjouit	-10453
▁gouverne	-10454
▁provoque	-10455
▁rendement	-10456
▁augmentent	-10457
▁légèrement	-10458
▁opérationnels	-10459
▁fragile	-10460
▁menacée	-10461
▁terreur	-10462
▁affectent	-10463
▁insistons	-10464
▁respectée	-10465
▁contrainte	-10466
▁combinaison	-10467
êter	-10468
▁PCP	-10469
▁San	-10470
grade	-10471
pects	-10472
▁Viêt	-10473
▁serbe	-10474
▁égale	-10475
▁doulour	-10476
▁décrire	-10477
excellence	-10478
▁effectuée	-10479
▁répondant	-10480
▁magnifique	-10481
ize	-10482
▁Dim	-10483
▁déte	-10484
cateur	-10485
▁entré	-10486
▁cacher	-10487
▁république	-10488
œux	-10489
ercul	-10490
assassin	-10491
▁attentifs	-10492
▁contraint	-10493
▁comprenant	-10494
Euro	-10495
▁aper	-10496
▁vœux	-10497
▁Agence	-10498
▁mènent	-10499
▁slovène	-10500
▁consentement	-10501
agh	-10502
▁Ses	-10503
idées	-10504
▁fant	-10505
licité	-10506
rasmus	-10507
▁noire	-10508
▁préli	-10509
équilib	-10510
▁retiré	-10511
▁séances	-10512
▁tribune	-10513
▁octroyer	-10514
▁acceptons	-10515
▁collectif	-10516
▁mortalité	-10517
akh	-10518
▁Ah	-10519
▁seuils	-10520
▁démante	-10521
▁passera	-10522
▁déroulent	-10523
▁compromettre	-10524
▁revendications	-10525
▁achè	-10526
▁salle	-10527
▁massif	-10528
▁végéta	-10529
▁justifiées	-10530
▁prolifération	-10531
▁fixant	-10532
intéresse	-10533
▁complais	-10534
▁réciproque	-10535
▁idéologique	-10536
pa	-10537
▁Bref	-10538
alerte	-10539
▁mécont	-10540
▁entrent	-10541
▁iranien	-10542
▁abordées	-10543
▁exclusive	-10544
▁mère	-10545
▁coûteux	-10546
▁indubitablement	-10547
peau	-10548
▁bir	-10549
▁obti	-10550
espèce	-10551
▁unités	-10552
restation	-10553
▁recevront	-10554
▁suffisent	-10555
▁leadership	-10556
▁célè	-10557
estimer	-10558
▁scrutin	-10559
▁Johannes	-10560
▁éventuels	-10561
▁autorisées	-10562
▁perception	-10563
▁association	-10564
▁radicalement	-10565
▁présidentielles	-10566
upp	-10567
▁retomb	-10568
▁détruit	-10569
▁section	-10570
▁sentent	-10571
▁rationnelle	-10572
ôtres	-10573
▁vins	-10574
▁dépôt	-10575
▁manip	-10576
▁Natura	-10577
▁élargi	-10578
▁affaibli	-10579
hen	-10580
▁éb	-10581
lait	-10582
▁Bur	-10583
argne	-10584
▁Groupe	-10585
élération	-10586
▁reposant	-10587
▁dynamisme	-10588
▁parcourir	-10589
▁harcèlement	-10590
▁intolérable	-10591
▁restreindre	-10592
▁spécialistes	-10593
ll	-10594
▁gig	-10595
▁mères	-10596
accorde	-10597
▁banane	-10598
▁confier	-10599
▁maisons	-10600
▁secrets	-10601
▁honnêtes	-10602
▁douanières	-10603
▁biotechnologie	-10604
▁délocalisations	-10605
lut	-10606
cinq	-10607
▁noté	-10608
▁empêché	-10609
▁partagé	-10610
▁critiqué	-10611
▁promette	-10612
▁recrutement	-10613
encouragement	-10614
éché	-10615
exposé	-10616
national	-10617
▁libérale	-10618
▁subsistent	-10619
▁exceptionnel	-10620
bé	-10621
ulé	-10622
assi	-10623
élar	-10624
envoi	-10625
▁Sark	-10626
▁abat	-10627
apporte	-10628
horizon	-10629
▁dérouler	-10630
▁affirment	-10631
▁empêchent	-10632
▁soutienne	-10633
▁tarifaires	-10634
affai	-10635
▁patri	-10636
▁baltes	-10637
analyser	-10638
▁servira	-10639
apporteur	-10640
▁souscris	-10641
▁primordiale	-10642
▁collaborateurs	-10643
▁contradictions	-10644
ctés	-10645
▁mien	-10646
ubercul	-10647
▁envoie	-10648
▁litiges	-10649
▁exposées	-10650
▁vocation	-10651
unification	-10652
▁disposions	-10653
▁introduits	-10654
▁législateur	-10655
▁pharmaceutiques	-10656
▁jouir	-10657
▁Cambod	-10658
▁arabes	-10659
abstenir	-10660
▁contente	-10661
▁menacent	-10662
▁comparable	-10663
▁conseiller	-10664
effondrement	-10665
▁condoléances	-10666
▁luxembourgeoise	-10667
onge	-10668
▁riv	-10669
aérop	-10670
dions	-10671
▁onze	-10672
outent	-10673
▁Trois	-10674
▁confor	-10675
indiquer	-10676
▁améliore	-10677
▁chargées	-10678
▁couvrant	-10679
▁prononcée	-10680
adh	-10681
▁The	-10682
▁affecter	-10683
▁attribuer	-10684
▁maintient	-10685
▁maternelle	-10686
▁apparaissent	-10687
▁transitoires	-10688
▁Ge	-10689
agés	-10690
▁édi	-10691
▁Très	-10692
sation	-10693
▁nutri	-10694
▁tenues	-10695
▁milieux	-10696
▁manœuvre	-10697
▁stabiliser	-10698
kov	-10699
allstr	-10700
impossi	-10701
▁Député	-10702
▁façons	-10703
aliments	-10704
▁croient	-10705
▁observé	-10706
▁voyager	-10707
▁menacées	-10708
▁musulman	-10709
▁financées	-10710
▁paritaire	-10711
▁dramatiques	-10712
amme	-10713
berg	-10714
oirs	-10715
ambre	-10716
ender	-10717
▁françaises	-10718
▁longuement	-10719
▁originaires	-10720
ozy	-10721
dits	-10722
osta	-10723
èque	-10724
érez	-10725
▁Nam	-10726
▁joie	-10727
écoute	-10728
▁horai	-10729
▁consacre	-10730
▁engendre	-10731
▁franchir	-10732
▁préoccupé	-10733
▁resteront	-10734
▁frontaliers	-10735
▁Uni	-10736
▁fausse	-10737
▁précédé	-10738
▁souches	-10739
▁préférer	-10740
extradition	-10741
▁Israéliens	-10742
▁contribuant	-10743
alem	-10744
arer	-10745
▁Jar	-10746
vants	-10747
grédients	-10748
▁contrôlée	-10749
intensifier	-10750
▁intervenus	-10751
▁préoccupante	-10752
▁sch	-10753
▁découp	-10754
▁démons	-10755
▁exercé	-10756
▁donnons	-10757
▁déplace	-10758
▁médical	-10759
▁réponde	-10760
▁optimale	-10761
▁souter	-10762
▁Helsinki	-10763
▁modifiées	-10764
▁séparément	-10765
▁préparatoires	-10766
oun	-10767
giène	-10768
quait	-10769
▁frein	-10770
▁rendez	-10771
▁tarder	-10772
▁confond	-10773
▁demeurer	-10774
▁puissant	-10775
▁découvert	-10776
▁Déclaration	-10777
▁clandestins	-10778
reb	-10779
▁OM	-10780
hard	-10781
▁dégagé	-10782
▁profil	-10783
▁Sarkozy	-10784
▁perpétu	-10785
▁écosyst	-10786
▁insulaires	-10787
just	-10788
▁pès	-10789
▁scep	-10790
▁bâtir	-10791
▁venus	-10792
▁viole	-10793
▁froide	-10794
▁leader	-10795
▁italiens	-10796
uberculose	-10797
▁espagnols	-10798
▁fiabilité	-10799
▁restreint	-10800
▁témoignent	-10801
▁souhaiterions	-10802
▁démographiques	-10803
▁Sh	-10804
▁Med	-10805
▁Sin	-10806
thèse	-10807
▁pror	-10808
▁écoss	-10809
▁Secrét	-10810
▁exposer	-10811
▁journal	-10812
▁ramener	-10813
▁associer	-10814
▁pharmaceutique	-10815
ary	-10816
érar	-10817
▁péni	-10818
▁cultiv	-10819
▁devise	-10820
▁repous	-10821
▁orateur	-10822
▁paradis	-10823
▁souviens	-10824
▁interlocu	-10825
▁préventives	-10826
▁travailliste	-10827
ung	-10828
▁Kar	-10829
affec	-10830
terie	-10831
entend	-10832
▁forcé	-10833
▁sévère	-10834
▁douanes	-10835
▁vieille	-10836
▁aisément	-10837
▁urgentes	-10838
▁tuberculose	-10839
ink	-10840
▁the	-10841
▁aurez	-10842
▁coutu	-10843
étriques	-10844
▁regroup	-10845
▁logiciels	-10846
▁producteur	-10847
▁enseignement	-10848
▁rav	-10849
unique	-10850
usalem	-10851
▁agres	-10852
▁posés	-10853
▁marges	-10854
ombrables	-10855
▁décisionn	-10856
obligations	-10857
▁illégalement	-10858
oure	-10859
▁Jour	-10860
▁déçu	-10861
▁rhét	-10862
exister	-10863
▁opérer	-10864
misation	-10865
▁forment	-10866
▁rentrer	-10867
biotiques	-10868
▁résister	-10869
chitecture	-10870
exposition	-10871
mant	-10872
▁desc	-10873
écouter	-10874
▁vivants	-10875
▁Français	-10876
▁passionn	-10877
▁appareils	-10878
▁privilège	-10879
▁participant	-10880
rot	-10881
▁manqué	-10882
opposent	-10883
▁influen	-10884
▁Cambodge	-10885
▁officiels	-10886
▁déterminés	-10887
ules	-10888
▁ing	-10889
▁hôpit	-10890
▁menés	-10891
appeler	-10892
Occident	-10893
▁stricts	-10894
▁fassions	-10895
▁intitulé	-10896
▁communistes	-10897
▁applications	-10898
▁Jér	-10899
▁fol	-10900
▁proje	-10901
▁appauv	-10902
▁pilote	-10903
▁Nigeria	-10904
▁appelée	-10905
▁provient	-10906
▁vaccination	-10907
mbo	-10908
▁Kh	-10909
▁fût	-10910
▁serez	-10911
▁désirer	-10912
▁intense	-10913
▁comptons	-10914
accueillir	-10915
▁Jérusalem	-10916
▁multilatérale	-10917
▁chimique	-10918
▁traitons	-10919
▁pétroliers	-10920
indemnisation	-10921
accompagnement	-10922
uf	-10923
▁fictif	-10924
▁colonies	-10925
▁fossiles	-10926
▁réduites	-10927
▁Johannesb	-10928
▁acceptées	-10929
▁assurance	-10930
▁souscrire	-10931
▁approuvées	-10932
▁communiqué	-10933
▁alternatifs	-10934
▁prestataires	-10935
▁délibérations	-10936
ym	-10937
OIT	-10938
yez	-10939
▁Der	-10940
▁annonce	-10941
▁moyennant	-10942
▁signataires	-10943
▁problématiques	-10944
▁mixte	-10945
aurions	-10946
▁légaux	-10947
▁navale	-10948
▁composé	-10949
▁courrier	-10950
▁permettraient	-10951
EE	-10952
▁images	-10953
▁Égypte	-10954
▁Eurostat	-10955
honn	-10956
crite	-10957
▁rurale	-10958
▁réalise	-10959
incidence	-10960
▁gigantes	-10961
▁majoritaire	-10962
sés	-10963
auer	-10964
▁EUR	-10965
▁Cara	-10966
itales	-10967
▁cache	-10968
▁quota	-10969
▁indiff	-10970
▁urbain	-10971
ositions	-10972
▁adaptés	-10973
▁command	-10974
▁termine	-10975
▁désigner	-10976
▁montrant	-10977
▁décideurs	-10978
▁originale	-10979
▁semblables	-10980
hn	-10981
tag	-10982
▁ray	-10983
▁aspir	-10984
▁horri	-10985
▁pratiquer	-10986
▁réguliers	-10987
▁améliorant	-10988
▁prolongation	-10989
orgi	-10990
▁Blo	-10991
▁bor	-10992
▁rues	-10993
▁audition	-10994
▁rejetons	-10995
▁inspecteurs	-10996
UC	-10997
▁bai	-10998
▁Chambre	-10999
▁accordés	-11000
▁aéroport	-11001
Islande	-11002
▁procède	-11003
▁veuille	-11004
ajouterai	-11005
▁élaborée	-11006
▁sportives	-11007
▁demanderais	-11008
▁propagation	-11009
itt	-11010
▁Lang	-11011
▁Lomé	-11012
laires	-11013
zembo	-11014
▁Reding	-11015
▁situés	-11016
▁cigaret	-11017
▁classes	-11018
▁territoriales	-11019
anium	-11020
incitation	-11021
▁aimerions	-11022
ji	-11023
ester	-11024
▁Leon	-11025
▁payé	-11026
▁égaux	-11027
▁paient	-11028
▁perdent	-11029
▁suprême	-11030
▁Jarzembo	-11031
▁exigeons	-11032
quaculture	-11033
▁examinées	-11034
▁informelle	-11035
▁pertinence	-11036
▁bénéficiant	-11037
▁compatibilité	-11038
▁corp	-11039
▁titu	-11040
▁tourne	-11041
▁renforcent	-11042
▁restauration	-11043
anou	-11044
onci	-11045
▁sond	-11046
▁Oomen	-11047
▁repor	-11048
issante	-11049
▁grippe	-11050
octroyer	-11051
▁incluant	-11052
▁médicale	-11053
▁pétition	-11054
▁adaptation	-11055
▁rectificatif	-11056
▁allé	-11057
▁armé	-11058
▁extr	-11059
▁calme	-11060
▁équipes	-11061
▁harmonie	-11062
▁prospère	-11063
▁regretter	-11064
▁voulaient	-11065
▁professeur	-11066
ases	-11067
▁faç	-11068
▁tal	-11069
èlent	-11070
▁Corb	-11071
▁cités	-11072
▁intég	-11073
▁filets	-11074
▁offert	-11075
▁usines	-11076
▁entrave	-11077
▁affirmant	-11078
▁découvrir	-11079
▁spécificités	-11080
cra	-11081
illé	-11082
▁Ben	-11083
▁Man	-11084
agisme	-11085
améric	-11086
anisme	-11087
▁Soyons	-11088
▁interrog	-11089
▁uniformes	-11090
▁vraisembl	-11091
▁connaissez	-11092
enthousiasme	-11093
hei	-11094
▁bris	-11095
▁mour	-11096
miques	-11097
▁Saint	-11098
▁intèg	-11099
▁avocats	-11100
▁occupent	-11101
▁pavillon	-11102
▁accordons	-11103
▁déplorable	-11104
▁Mit	-11105
▁exigé	-11106
êtement	-11107
▁sexuel	-11108
▁littéra	-11109
▁inquiets	-11110
Observatoire	-11111
institutions	-11112
▁ges	-11113
orienter	-11114
allocation	-11115
▁organisés	-11116
nistes	-11117
▁idéal	-11118
▁tourn	-11119
▁assass	-11120
▁arrêtés	-11121
▁devriez	-11122
▁contenir	-11123
▁synthèse	-11124
▁distances	-11125
▁autrichien	-11126
▁cigarettes	-11127
▁secondaire	-11128
▁respectives	-11129
ôte	-11130
▁grecs	-11131
isations	-11132
▁blessés	-11133
▁sacrifi	-11134
austérité	-11135
▁enseignants	-11136
bus	-11137
▁pâ	-11138
aves	-11139
rompu	-11140
▁Corbett	-11141
▁racines	-11142
versement	-11143
▁extrêmes	-11144
▁illicite	-11145
affectation	-11146
▁réhabilitation	-11147
▁dog	-11148
▁TACIS	-11149
▁nominal	-11150
acquisition	-11151
▁persécution	-11152
▁reconstitution	-11153
pol	-11154
rad	-11155
rol	-11156
▁FED	-11157
▁jal	-11158
esclav	-11159
ortant	-11160
▁pieds	-11161
▁pires	-11162
▁crédibles	-11163
▁directeurs	-11164
CA	-11165
▁Tri	-11166
timid	-11167
▁affecté	-11168
médiaires	-11169
▁entraver	-11170
▁réserver	-11171
▁éligibles	-11172
évé	-11173
▁da	-11174
ègent	-11175
▁géop	-11176
▁grève	-11177
▁quart	-11178
cevable	-11179
▁attire	-11180
▁camions	-11181
▁réalisme	-11182
▁scrupule	-11183
▁auditions	-11184
▁gaspillage	-11185
▁Hel	-11186
▁lier	-11187
Écosse	-11188
▁chant	-11189
▁reflé	-11190
▁ignore	-11191
▁retenir	-11192
▁atténuer	-11193
▁exercent	-11194
▁scolaire	-11195
▁supprimé	-11196
▁survivre	-11197
▁individuel	-11198
▁alimentation	-11199
▁infrastructure	-11200
▁opérationnelles	-11201
ren	-11202
▁FEM	-11203
acier	-11204
aurons	-11205
parole	-11206
▁commém	-11207
▁attache	-11208
▁excuses	-11209
▁éclairc	-11210
▁déplorer	-11211
▁appellent	-11212
▁débarrasser	-11213
▁journaliste	-11214
▁législateurs	-11215
cor	-11216
hés	-11217
siez	-11218
nière	-11219
▁saisi	-11220
▁birman	-11221
▁persév	-11222
▁échéance	-11223
Démocrates	-11224
▁entraînent	-11225
▁appartiennent	-11226
coni	-11227
▁Ser	-11228
▁méri	-11229
tateur	-11230
▁absor	-11231
▁appelés	-11232
▁signatures	-11233
▁réadmission	-11234
▁significatives	-11235
PI	-11236
▁Pl	-11237
rages	-11238
▁inex	-11239
istres	-11240
▁placés	-11241
ongement	-11242
▁chaleur	-11243
▁marquée	-11244
▁débouché	-11245
uij	-11246
œil	-11247
▁FE	-11248
▁rattra	-11249
ièmement	-11250
▁parfaite	-11251
▁risquons	-11252
▁ordinaire	-11253
raq	-11254
▁hu	-11255
umée	-11256
▁pane	-11257
offres	-11258
hygiène	-11259
▁Sahara	-11260
▁renfer	-11261
▁englobe	-11262
▁apportés	-11263
excellente	-11264
▁médiation	-11265
▁planétaire	-11266
▁surprenant	-11267
▁fournissant	-11268
▁vétérinaire	-11269
bo	-11270
▁Liik	-11271
▁chev	-11272
▁onére	-11273
▁votant	-11274
▁urbaine	-11275
entraîner	-11276
▁existait	-11277
▁recommandé	-11278
▁frontalières	-11279
▁Exp	-11280
enrich	-11281
uijten	-11282
énorme	-11283
▁Pacte	-11284
▁tombe	-11285
▁coloni	-11286
communaut	-11287
▁Liikanen	-11288
▁incident	-11289
▁reposent	-11290
▁synonyme	-11291
▁correction	-11292
béta	-11293
attus	-11294
▁Pack	-11295
▁adhé	-11296
illent	-11297
▁Vitor	-11298
▁autor	-11299
▁proac	-11300
▁Journée	-11301
▁rapatri	-11302
▁urgents	-11303
tionnaire	-11304
▁longueur	-11305
▁permanents	-11306
▁délibérément	-11307
▁exceptionnelles	-11308
ustra	-11309
▁aviez	-11310
endroit	-11311
uffisance	-11312
▁Vitorino	-11313
▁autonomie	-11314
▁merveille	-11315
▁réclament	-11316
▁fonctionné	-11317
▁préoccupant	-11318
▁assume	-11319
finiment	-11320
▁Jacques	-11321
▁portefeu	-11322
▁délivrance	-11323
▁poursuivra	-11324
auts	-11325
icile	-11326
▁Forum	-11327
▁pages	-11328
▁ciblée	-11329
▁méridi	-11330
▁imposent	-11331
▁protégées	-11332
▁fondateurs	-11333
▁entraînerait	-11334
▁regroupement	-11335
▁aimé	-11336
▁assis	-11337
▁assurés	-11338
▁meurtre	-11339
▁dépensés	-11340
▁validité	-11341
▁controverse	-11342
▁élémentaires	-11343
PA	-11344
▁pur	-11345
▁élo	-11346
▁évitant	-11347
▁dépassent	-11348
▁condamnons	-11349
▁socialement	-11350
▁constructives	-11351
endrez	-11352
▁voyez	-11353
Ruijten	-11354
étendue	-11355
▁guider	-11356
▁navals	-11357
▁tunnel	-11358
▁œuvrer	-11359
▁investis	-11360
▁patience	-11361
▁reconsid	-11362
▁rentable	-11363
▁optimiste	-11364
▁souverain	-11365
▁prescriptions	-11366
rô	-11367
▁dig	-11368
aries	-11369
assister	-11370
▁faciles	-11371
▁tension	-11372
assassinat	-11373
▁envisagées	-11374
▁stupéfiants	-11375
ova	-11376
dite	-11377
endit	-11378
▁Inde	-11379
▁Seule	-11380
▁hiérar	-11381
estation	-11382
▁conclur	-11383
▁utilité	-11384
▁directions	-11385
ctiv	-11386
ting	-11387
▁Jeux	-11388
▁Lehne	-11389
▁soyez	-11390
▁ultime	-11391
▁coupable	-11392
▁approvisi	-11393
▁effectifs	-11394
▁lentement	-11395
▁incroyable	-11396
▁innovantes	-11397
▁rhétorique	-11398
ensé	-11399
▁admi	-11400
aniens	-11401
▁codes	-11402
▁longs	-11403
▁Ferrero	-11404
▁arrêtée	-11405
▁balance	-11406
▁négligeable	-11407
xi	-11408
ator	-11409
outs	-11410
éloi	-11411
▁Paci	-11412
▁dissu	-11413
▁coupes	-11414
▁priver	-11415
▁tibéta	-11416
▁révisée	-11417
▁maîtrise	-11418
▁original	-11419
▁sportifs	-11420
▁manifestants	-11421
▁insuffisantes	-11422
▁gl	-11423
deau	-11424
▁Cohn	-11425
▁cosmé	-11426
▁labora	-11427
▁défaill	-11428
▁entraves	-11429
▁comptables	-11430
▁confidenti	-11431
gén	-11432
abri	-11433
atre	-11434
▁typ	-11435
▁pond	-11436
▁cessent	-11437
▁méfiance	-11438
▁vigilance	-11439
▁distinguer	-11440
▁notification	-11441
▁préparatoire	-11442
ries	-11443
▁rue	-11444
trent	-11445
▁dollar	-11446
▁assorti	-11447
▁filière	-11448
▁sauvetage	-11449
▁ambitieuses	-11450
▁israélienne	-11451
ouse	-11452
Algérie	-11453
▁tardive	-11454
▁prétendu	-11455
aquaculture	-11456
▁contreparti	-11457
GA	-11458
aises	-11459
Bendit	-11460
▁Quinze	-11461
gibilité	-11462
▁tromper	-11463
▁souscrit	-11464
▁flagrante	-11465
▁raisonnement	-11466
tan	-11467
▁Fe	-11468
atti	-11469
▁intra	-11470
▁consom	-11471
▁méthod	-11472
▁Somalie	-11473
▁violent	-11474
inégalité	-11475
▁ancienne	-11476
▁dépendant	-11477
▁insistance	-11478
▁soupç	-11479
allages	-11480
ouvelle	-11481
▁menacer	-11482
expansion	-11483
▁particul	-11484
▁accordant	-11485
▁construit	-11486
▁passeport	-11487
▁soutenues	-11488
▁innovation	-11489
▁intéressants	-11490
▁confidentialité	-11491
LAF	-11492
▁aér	-11493
▁cad	-11494
▁net	-11495
▁Russes	-11496
▁Quelques	-11497
▁Irlandais	-11498
▁puissants	-11499
▁souffrant	-11500
▁SI	-11501
▁Kir	-11502
ménie	-11503
▁jouit	-11504
lusconi	-11505
▁bassin	-11506
implique	-11507
▁licence	-11508
▁multilin	-11509
▁courageux	-11510
▁compensations	-11511
cité	-11512
▁Kal	-11513
sibles	-11514
▁réglé	-11515
▁bateau	-11516
ensibles	-11517
▁adoptons	-11518
oppression	-11519
▁progresse	-11520
▁capitalisme	-11521
▁comptabilité	-11522
▁progressiste	-11523
▁vag	-11524
aldner	-11525
uation	-11526
▁préfér	-11527
▁Erasmus	-11528
▁procédur	-11529
▁souhaitez	-11530
▁paraissent	-11531
yan	-11532
alib	-11533
roge	-11534
▁Conc	-11535
▁verra	-11536
▁avouer	-11537
▁montée	-11538
▁rassembl	-11539
▁sciences	-11540
▁compromet	-11541
▁protéines	-11542
▁augmentant	-11543
▁neutralité	-11544
▁israéliennes	-11545
onf	-11546
▁IV	-11547
chose	-11548
▁trafi	-11549
▁ajoute	-11550
▁cherché	-11551
▁révéler	-11552
▁médecine	-11553
▁défendent	-11554
▁Berlusconi	-11555
▁originaire	-11556
▁reviendrai	-11557
▁insuffisants	-11558
thi	-11559
▁enle	-11560
▁Phili	-11561
▁bovins	-11562
▁famine	-11563
▁adresse	-11564
▁maîtriser	-11565
▁reviendrait	-11566
nelle	-11567
osons	-11568
veill	-11569
▁Sinon	-11570
▁brill	-11571
▁enjeu	-11572
espérer	-11573
▁Serbes	-11574
▁jouera	-11575
▁associée	-11576
▁remercions	-11577
▁constituait	-11578
▁ingrédients	-11579
▁travailleur	-11580
▁substitution	-11581
éné	-11582
▁Cinqu	-11583
▁dirigée	-11584
▁gardant	-11585
▁honteux	-11586
▁témoign	-11587
▁imposant	-11588
▁semblait	-11589
▁spatiale	-11590
▁procureur	-11591
▁régulière	-11592
âle	-11593
▁dop	-11594
hypoc	-11595
èques	-11596
▁Costa	-11597
▁cabine	-11598
▁stables	-11599
▁exécutif	-11600
▁produise	-11601
▁tournant	-11602
km	-11603
pri	-11604
kach	-11605
onctu	-11606
tages	-11607
▁basés	-11608
tionnés	-11609
▁ponctu	-11610
▁visage	-11611
▁entrera	-11612
ambassade	-11613
▁fructueux	-11614
▁sécheresse	-11615
▁complaisance	-11616
▁Gi	-11617
▁jun	-11618
▁tuer	-11619
onnage	-11620
▁Chili	-11621
▁durer	-11622
▁vaccins	-11623
▁Canaries	-11624
▁internet	-11625
▁terminée	-11626
▁traitent	-11627
▁intervenu	-11628
▁tabagisme	-11629
▁tangibles	-11630
▁voudraient	-11631
agré	-11632
▁Mann	-11633
▁intensi	-11634
▁persuader	-11635
▁préoccupent	-11636
ryons	-11637
▁penche	-11638
▁publiée	-11639
▁approfondir	-11640
▁dor	-11641
avion	-11642
affirme	-11643
▁forcer	-11644
impunité	-11645
▁nourrir	-11646
▁consacrées	-11647
▁combustible	-11648
▁Sp	-11649
▁of	-11650
sivité	-11651
▁japon	-11652
▁arrêts	-11653
ustralie	-11654
▁ciblées	-11655
▁désireux	-11656
▁recueillir	-11657
▁transposer	-11658
▁Pie	-11659
▁agro	-11660
▁muti	-11661
▁méti	-11662
adhérer	-11663
aggraver	-11664
▁attentif	-11665
▁insatisf	-11666
▁régulier	-11667
▁évidentes	-11668
▁accompagné	-11669
▁indemnités	-11670
▁soulignent	-11671
▁proportions	-11672
▁rencontrées	-11673
accessibilité	-11674
▁concurrentiel	-11675
▁protestations	-11676
édé	-11677
épr	-11678
▁Ann	-11679
▁oeu	-11680
▁John	-11681
▁vagues	-11682
▁modifie	-11683
▁cruciaux	-11684
▁homosexuels	-11685
▁politiciens	-11686
ué	-11687
mblé	-11688
nité	-11689
▁ira	-11690
gements	-11691
optique	-11692
▁menacé	-11693
▁préserv	-11694
▁combiner	-11695
▁composée	-11696
▁utilisons	-11697
▁privilégié	-11698
▁touristique	-11699
%.	-11700
itz	-11701
▁Harb	-11702
▁avion	-11703
▁pistes	-11704
▁traîne	-11705
dictions	-11706
▁télévis	-11707
▁visites	-11708
▁défendons	-11709
▁prendront	-11710
▁rencontres	-11711
▁électorales	-11712
▁compétitives	-11713
ds	-11714
OGM	-11715
▁Mus	-11716
▁Camp	-11717
▁prier	-11718
▁authen	-11719
▁dessous	-11720
▁patient	-11721
▁maintenue	-11722
▁inefficace	-11723
▁inférieure	-11724
▁signifierait	-11725
▁démonstration	-11726
bien	-11727
▁enne	-11728
taient	-11729
▁obsol	-11730
▁plaid	-11731
▁nôtres	-11732
▁diffuser	-11733
▁intéresse	-11734
▁objection	-11735
▁réalisable	-11736
▁Jun	-11737
▁Mor	-11738
agées	-11739
▁curi	-11740
▁sage	-11741
▁dépis	-11742
▁interf	-11743
▁criminel	-11744
▁quarante	-11745
▁supposer	-11746
▁intensive	-11747
▁résidents	-11748
▁communisme	-11749
▁temporaires	-11750
▁écosystèmes	-11751
▁intermédiaires	-11752
▁Cl	-11753
obus	-11754
▁Gre	-11755
▁ayez	-11756
▁écarts	-11757
fonction	-11758
▁choisie	-11759
▁opposons	-11760
▁étonnant	-11761
▁respectueuse	-11762
urées	-11763
égide	-11764
▁Maur	-11765
aéroport	-11766
▁retrouv	-11767
▁réclamé	-11768
▁laissons	-11769
▁synergies	-11770
▁équivalent	-11771
▁Leurs	-11772
▁Durant	-11773
▁avérée	-11774
▁naître	-11775
▁séparé	-11776
kachenko	-11777
▁maximal	-11778
▁adoptent	-11779
▁convenir	-11780
▁renation	-11781
▁bilatérale	-11782
▁concernait	-11783
▁motivation	-11784
▁intercultur	-11785
▁Lan	-11786
▁axes	-11787
▁nett	-11788
▁défici	-11789
▁rejetés	-11790
▁dominante	-11791
▁matériels	-11792
▁olympiques	-11793
▁septentrionale	-11794
aval	-11795
igne	-11796
▁boî	-11797
éanti	-11798
agnent	-11799
▁payés	-11800
▁pousse	-11801
▁Harbour	-11802
isolement	-11803
▁sauvages	-11804
▁renforcés	-11805
▁nationalisme	-11806
▁personnalités	-11807
▁bio	-11808
avril	-11809
sible	-11810
lusions	-11811
▁Schmid	-11812
▁viendra	-11813
▁recueilli	-11814
▁assistants	-11815
▁requièrent	-11816
▁dys	-11817
▁Shar	-11818
ection	-11819
▁gradu	-11820
▁offres	-11821
▁phases	-11822
▁révisé	-11823
engagent	-11824
▁boissons	-11825
▁habitudes	-11826
▁indirecte	-11827
▁malentendu	-11828
kel	-11829
▁SPG	-11830
essal	-11831
▁ECHO	-11832
▁aisé	-11833
▁vache	-11834
imaginer	-11835
éligibilité	-11836
cide	-11837
▁Moi	-11838
▁douce	-11839
▁Chypri	-11840
vabilité	-11841
▁protester	-11842
▁garantisse	-11843
▁potentielle	-11844
▁restitutions	-11845
gh	-11846
diff	-11847
naire	-11848
▁aidé	-11849
▁chère	-11850
▁suivra	-11851
▁égales	-11852
▁diminue	-11853
▁débattue	-11854
▁prononce	-11855
▁innocents	-11856
essalonique	-11857
ya	-11858
mod	-11859
▁Bu	-11860
▁Kaz	-11861
▁slo	-11862
▁dits	-11863
cadres	-11864
▁vives	-11865
ttement	-11866
énavant	-11867
▁mobile	-11868
▁tentons	-11869
▁dotation	-11870
▁province	-11871
hypocrisie	-11872
▁Pacifique	-11873
▁débloquer	-11874
▁collectifs	-11875
▁justifient	-11876
trices	-11877
▁Bange	-11878
▁eurom	-11879
▁champs	-11880
▁pèsent	-11881
élarussi	-11882
▁sexuels	-11883
▁incluent	-11884
▁inquiète	-11885
▁plafonds	-11886
▁redoubler	-11887
▁identifiés	-11888
impossibilité	-11889
▁déplacements	-11890
▁impérativement	-11891
obsta	-11892
▁cath	-11893
▁préle	-11894
échanges	-11895
▁laissez	-11896
lèvements	-11897
cepticisme	-11898
▁consentir	-11899
▁dictateur	-11900
▁multitude	-11901
▁Mun	-11902
uranium	-11903
▁basque	-11904
▁placée	-11905
▁proclam	-11906
▁remplit	-11907
▁renvoie	-11908
▁artistes	-11909
▁bombarde	-11910
▁remplacé	-11911
▁Bangemann	-11912
▁religions	-11913
EC	-11914
▁immin	-11915
▁menons	-11916
▁amendes	-11917
▁attentive	-11918
▁faisaient	-11919
veloppement	-11920
▁précisions	-11921
▁actionnaires	-11922
▁transparents	-11923
▁Thessalonique	-11924
zen	-11925
inson	-11926
▁virtu	-11927
▁fameux	-11928
▁orales	-11929
▁semblable	-11930
▁judicieuse	-11931
▁ajustements	-11932
▁Is	-11933
▁Lul	-11934
▁Bour	-11935
▁Dire	-11936
▁Font	-11937
▁Lamy	-11938
▁atom	-11939
▁porc	-11940
▁débuté	-11941
▁acceptent	-11942
▁touristes	-11943
▁remerciant	-11944
▁limitations	-11945
UN	-11946
âtre	-11947
èses	-11948
ensen	-11949
▁succ	-11950
▁vent	-11951
▁chaos	-11952
▁Sharon	-11953
ctivités	-11954
▁inscrire	-11955
▁refusons	-11956
▁symboles	-11957
▁exploitants	-11958
▁augmentations	-11959
▁incontestable	-11960
▁spectaculaire	-11961
▁multilatérales	-11962
cy	-11963
▁cerve	-11964
▁inscrite	-11965
▁racistes	-11966
▁dépistage	-11967
▁compétition	-11968
▁bénéficieront	-11969
▁qualification	-11970
▁délocalisation	-11971
ssé	-11972
▁Rehn	-11973
observer	-11974
▁célèbre	-11975
▁courante	-11976
▁massacre	-11977
▁identifié	-11978
▁spécificité	-11979
▁préjudiciable	-11980
gre	-11981
onz	-11982
hardt	-11983
▁Bâle	-11984
▁folle	-11985
▁perfe	-11986
▁pères	-11987
▁client	-11988
▁situées	-11989
▁acquérir	-11990
▁additifs	-11991
▁franchise	-11992
▁téléphone	-11993
▁confrontation	-11994
II	-11995
▁Ev	-11996
uela	-11997
▁tués	-11998
▁poussé	-11999
▁résult	-12000
▁attente	-12001
▁radical	-12002
▁refonte	-12003
▁réparer	-12004
▁souterra	-12005
▁éducatifs	-12006
affirmation	-12007
▁populaires	-12008
▁José	-12009
hypoth	-12010
▁salué	-12011
excuser	-12012
imagine	-12013
▁trains	-12014
▁Justice	-12015
▁erronée	-12016
▁manipul	-12017
▁marques	-12018
▁viables	-12019
installer	-12020
▁parcours	-12021
annulation	-12022
▁souhaitait	-12023
▁inutilement	-12024
▁reconstruire	-12025
aies	-12026
▁Nic	-12027
▁PNR	-12028
épargne	-12029
▁redéfin	-12030
restations	-12031
▁commettre	-12032
▁conjoints	-12033
▁opportune	-12034
▁possession	-12035
▁prétendent	-12036
▁supérieurs	-12037
▁transmises	-12038
développement	-12039
▁vétérinaires	-12040
ival	-12041
▁excuse	-12042
énergies	-12043
▁prévaloir	-12044
▁contrepartie	-12045
▁reproduction	-12046
▁inconvénients	-12047
ock	-12048
yle	-12049
Azerba	-12050
▁tranqu	-12051
▁contrer	-12052
▁excédent	-12053
▁sexuelles	-12054
▁compliquée	-12055
▁radioactifs	-12056
▁International	-12057
▁fragmentation	-12058
▁réunification	-12059
gnés	-12060
▁rup	-12061
▁phyt	-12062
▁Venez	-12063
▁agisse	-12064
▁dirigé	-12065
▁signée	-12066
▁évolué	-12067
▁africain	-12068
▁décident	-12069
▁qualités	-12070
▁forestière	-12071
▁poursuivis	-12072
▁Loukachenko	-12073
▁naz	-12074
étape	-12075
▁amenés	-12076
▁fluctu	-12077
▁lacune	-12078
Affaires	-12079
▁secondes	-12080
▁comprendra	-12081
▁logistique	-12082
▁excessivement	-12083
tez	-12084
unesse	-12085
▁gagne	-12086
▁hosti	-12087
▁votée	-12088
▁nommer	-12089
▁instauré	-12090
▁modestes	-12091
▁veillant	-12092
▁autrefois	-12093
▁dirigeant	-12094
▁examinera	-12095
▁exécutions	-12096
▁indication	-12097
▁parviendra	-12098
lux	-12099
tain	-12100
itter	-12101
indres	-12102
omètre	-12103
▁angle	-12104
minaires	-12105
▁ressent	-12106
▁couvrent	-12107
▁moindres	-12108
accompagne	-12109
arrestation	-12110
▁confirmation	-12111
Ex	-12112
▁bouc	-12113
▁géré	-12114
▁noti	-12115
▁vive	-12116
▁déloy	-12117
▁assoup	-12118
▁décharg	-12119
▁suivies	-12120
▁grecques	-12121
▁armateurs	-12122
▁excessifs	-12123
▁invitation	-12124
▁km	-12125
▁exacer	-12126
▁quarti	-12127
▁volati	-12128
accueille	-12129
équipement	-12130
▁craignent	-12131
▁Chypriotes	-12132
▁harmonisées	-12133
DEM	-12134
▁mê	-12135
▁Daph	-12136
▁dras	-12137
▁père	-12138
▁Peter	-12139
▁achar	-12140
▁reçues	-12141
entiment	-12142
accomplir	-12143
▁prudents	-12144
▁trouvera	-12145
▁végétales	-12146
▁arbitraire	-12147
▁entraînant	-12148
);	-12149
Pl	-12150
ercu	-12151
odiff	-12152
▁embargo	-12153
▁associées	-12154
▁divisions	-12155
▁substantiel	-12156
enqu	-12157
erons	-12158
extré	-12159
▁saison	-12160
▁diplômes	-12161
▁facilite	-12162
▁progressif	-12163
▁introduisant	-12164
▁catégoriquement	-12165
ush	-12166
▁facto	-12167
▁homog	-12168
acheter	-12169
▁Madère	-12170
▁annexe	-12171
▁laitier	-12172
▁résulter	-12173
▁sessions	-12174
▁description	-12175
▁horizontale	-12176
▁privilégier	-12177
▁reconversion	-12178
OMS	-12179
▁PNB	-12180
▁Sil	-12181
▁tch	-12182
▁Gonz	-12183
▁Accord	-12184
▁jusque	-12185
▁défauts	-12186
▁répercu	-12187
▁Finances	-12188
▁adoptera	-12189
▁captures	-12190
▁irréguli	-12191
▁Fondation	-12192
▁demandait	-12193
▁licenciés	-12194
▁inférieurs	-12195
▁rappellerai	-12196
SL	-12197
▁IND	-12198
▁David	-12199
▁promet	-12200
▁verser	-12201
oratrice	-12202
▁traitant	-12203
▁vieilles	-12204
▁Venezuela	-12205
▁intensité	-12206
▁trafiquants	-12207
▁conservateur	-12208
Iv	-12209
otti	-12210
▁Tit	-12211
ander	-12212
▁asile	-12213
▁conna	-12214
▁occupé	-12215
▁saisis	-12216
▁biomasse	-12217
▁étranger	-12218
▁radiodiff	-12219
▁éradiquer	-12220
▁appliquant	-12221
▁criminelle	-12222
▁substantielles	-12223
cre	-12224
▁bibli	-12225
▁luttent	-12226
▁déclarée	-12227
▁horaires	-12228
▁révèlent	-12229
▁villages	-12230
▁cohérentes	-12231
▁comportent	-12232
▁domestique	-12233
▁antidémocra	-12234
▁caractéristique	-12235
▁He	-12236
▁Sri	-12237
▁dates	-12238
▁diman	-12239
▁suici	-12240
▁espaces	-12241
▁couvertes	-12242
▁interdite	-12243
▁prononcés	-12244
▁contribuerait	-12245
▁catastrophique	-12246
▁contradictoire	-12247
▁bus	-12248
▁Bang	-12249
▁romp	-12250
▁chron	-12251
▁pourrez	-12252
▁précaire	-12253
▁éducatif	-12254
▁interprètes	-12255
▁souterraines	-12256
genti	-12257
onnent	-12258
▁issues	-12259
ressement	-12260
▁compatri	-12261
▁classique	-12262
▁comptable	-12263
▁partielle	-12264
▁composantes	-12265
▁remplissent	-12266
▁Ol	-12267
▁Ass	-12268
alors	-12269
ollah	-12270
ronti	-12271
▁vrais	-12272
▁bombes	-12273
▁conçue	-12274
expertise	-12275
▁limitent	-12276
▁Secrétaire	-12277
▁généralisée	-12278
▁Commissaires	-12279
▁coordinateur	-12280
TA	-12281
exige	-12282
▁paie	-12283
▁foyer	-12284
▁désolé	-12285
▁lancés	-12286
▁étudié	-12287
▁Chinois	-12288
▁brutale	-12289
▁albanais	-12290
▁alliance	-12291
▁sanctionner	-12292
▁Az	-12293
opérer	-12294
▁tendre	-12295
▁lenteur	-12296
▁mentale	-12297
▁agréable	-12298
▁souffrir	-12299
▁défenseur	-12300
▁substantiels	-12301
bul	-12302
▁Gal	-12303
▁Sév	-12304
▁méta	-12305
audrait	-12306
▁Barrot	-12307
▁forums	-12308
▁sépare	-12309
▁Euratom	-12310
enveloppe	-12311
▁contract	-12312
▁préparés	-12313
▁insistant	-12314
▁théorique	-12315
▁dysfonction	-12316
▁paneuropéen	-12317
dul	-12318
▁Ren	-12319
▁bra	-12320
▁Ligue	-12321
▁lucra	-12322
honnête	-12323
justice	-12324
▁forcée	-12325
▁contenue	-12326
▁octroyée	-12327
▁angulaire	-12328
▁restrictive	-12329
olit	-12330
▁Soci	-12331
▁coups	-12332
▁perçu	-12333
astique	-12334
▁tempéra	-12335
▁visibles	-12336
immigrants	-12337
université	-12338
▁souverains	-12339
▁encouragent	-12340
▁ralentissement	-12341
▁reconnaissante	-12342
dom	-12343
▁Nob	-12344
▁Ste	-12345
▁enra	-12346
alliance	-12347
olérance	-12348
▁Séville	-12349
▁carences	-12350
▁dépendre	-12351
atz	-12352
pay	-12353
▁avi	-12354
vions	-12355
▁Côte	-12356
▁phot	-12357
▁audit	-12358
▁barre	-12359
▁créées	-12360
▁exacte	-12361
▁neutre	-12362
▁ménages	-12363
▁paradox	-12364
▁fournira	-12365
▁résolues	-12366
▁superflu	-12367
▁perpétrés	-12368
▁améliorent	-12369
▁contourner	-12370
▁facilitera	-12371
▁terrestres	-12372
çà	-12373
rable	-12374
vices	-12375
▁jugés	-12376
▁plong	-12377
▁chauss	-12378
▁semences	-12379
▁tangible	-12380
▁polonaise	-12381
▁espagnoles	-12382
▁privilèges	-12383
▁valorisation	-12384
▁consi	-12385
▁rejoi	-12386
▁achevé	-12387
▁commer	-12388
▁menant	-12389
▁subven	-12390
▁Prenons	-12391
approfondi	-12392
▁intervient	-12393
▁condamnations	-12394
▁psychologique	-12395
za	-12396
ene	-12397
▁Es	-12398
absor	-12399
▁chin	-12400
▁pièce	-12401
▁signés	-12402
▁Laissez	-12403
▁dimanche	-12404
▁apportant	-12405
▁répondrai	-12406
▁préoccupée	-12407
appréciation	-12408
▁disposerons	-12409
▁quotidiennement	-12410
Ab	-12411
tn	-12412
ella	-12413
▁Pra	-12414
explo	-12415
respo	-12416
▁isla	-12417
▁quer	-12418
▁Lanka	-12419
▁fermé	-12420
▁révol	-12421
▁devenues	-12422
▁cherchons	-12423
▁inquiétante	-12424
▁collectivités	-12425
▁redistribution	-12426
%,	-12427
cons	-12428
ford	-12429
mire	-12430
▁censé	-12431
ulaires	-12432
▁Britan	-12433
▁répéti	-12434
▁dénomin	-12435
▁Florence	-12436
▁Fontaine	-12437
▁hôpitaux	-12438
▁migrations	-12439
evy	-12440
ral	-12441
ellé	-12442
çait	-12443
▁Mul	-12444
reevy	-12445
▁mira	-12446
▁Annan	-12447
▁Crespo	-12448
▁Albanie	-12449
▁assiste	-12450
esclavage	-12451
▁McCreevy	-12452
▁Prestige	-12453
▁chocolat	-12454
▁cruciales	-12455
▁massacres	-12456
équipements	-12457
▁domination	-12458
▁constatation	-12459
bie	-12460
▁-.	-12461
enver	-12462
lades	-12463
▁nauf	-12464
▁excès	-12465
aniques	-12466
▁Delors	-12467
▁Kurdes	-12468
▁mélange	-12469
▁abstenus	-12470
OR	-12471
▁cf	-12472
▁fan	-12473
▁horm	-12474
▁envie	-12475
immense	-12476
▁entité	-12477
▁référer	-12478
▁Conseils	-12479
▁limitant	-12480
▁bénéfiques	-12481
▁potentielles	-12482
éger	-12483
çores	-12484
▁créera	-12485
▁inexist	-12486
▁financée	-12487
▁incitations	-12488
▁antibiotiques	-12489
▁autoc	-12490
▁Bonino	-12491
▁croître	-12492
▁examinés	-12493
▁prouvent	-12494
▁vigilants	-12495
▁écrasante	-12496
alternative	-12497
▁interdisant	-12498
obli	-12499
outes	-12500
▁sois	-12501
▁écho	-12502
▁écla	-12503
▁Allem	-12504
▁clôture	-12505
▁discute	-12506
encourage	-12507
▁Socrates	-12508
▁allouées	-12509
▁radicaux	-12510
▁synergie	-12511
▁reconnaisse	-12512
En	-12513
uge	-12514
▁sté	-12515
▁tas	-12516
appare	-12517
▁Açores	-12518
▁lament	-12519
▁quitté	-12520
▁restés	-12521
▁portera	-12522
▁présidé	-12523
▁unanimité	-12524
▁modulation	-12525
▁manipulation	-12526
▁Nul	-12527
▁jui	-12528
apprê	-12529
▁Lamb	-12530
▁soix	-12531
guisme	-12532
▁prévaut	-12533
▁soustra	-12534
▁incluses	-12535
▁militants	-12536
▁visiteurs	-12537
▁exportateurs	-12538
méditerranéenne	-12539
▁Kre	-12540
rafat	-12541
▁oppose	-12542
▁fusions	-12543
inération	-12544
▁échapper	-12545
▁prévoyait	-12546
▁excessives	-12547
▁accompagner	-12548
▁domestiques	-12549
▁faisabilité	-12550
▁restrictives	-12551
▁autorisations	-12552
mstr	-12553
▁huis	-12554
▁spir	-12555
allons	-12556
▁Seuls	-12557
▁Tchad	-12558
▁accrues	-12559
▁convers	-12560
▁roumain	-12561
▁abordons	-12562
▁ressemble	-12563
ainissement	-12564
BG	-12565
audi	-12566
chang	-12567
▁doub	-12568
atorze	-12569
avèrent	-12570
▁aperçu	-12571
▁tentation	-12572
▁Démocrates	-12573
▁finlandais	-12574
▁allocations	-12575
▁fournisseur	-12576
eth	-12577
tadt	-12578
▁noy	-12579
▁nuis	-12580
Ivoire	-12581
Russie	-12582
▁surch	-12583
▁bienvenu	-12584
▁informée	-12585
▁supervis	-12586
▁jugements	-12587
▁résultent	-12588
▁entretenir	-12589
▁homologues	-12590
▁accompagnée	-12591
▁envisageons	-12592
▁protestation	-12593
▁continuellement	-12594
trai	-12595
▁ère	-12596
laudi	-12597
taine	-12598
▁gamme	-12599
▁limit	-12600
▁tissu	-12601
▁ladite	-12602
▁pêches	-12603
appelons	-12604
▁attribué	-12605
▁remplies	-12606
Angleterre	-12607
▁douaniers	-12608
▁récupérer	-12609
▁incapacité	-12610
EU	-12611
▁bafou	-12612
▁déçus	-12613
▁rôles	-12614
▁génère	-12615
Arctique	-12616
onnexion	-12617
▁inchang	-12618
▁biblioth	-12619
▁gardienne	-12620
approfondir	-12621
▁cosmétiques	-12622
▁appréciation	-12623
▁transeuropéen	-12624
andz	-12625
étend	-12626
rogène	-12627
▁Velzen	-12628
▁fondés	-12629
▁évolue	-12630
Helsinki	-12631
▁comprise	-12632
▁fréquent	-12633
▁complètes	-12634
▁inflation	-12635
▁empreintes	-12636
erg	-12637
fre	-12638
enste	-12639
▁Kong	-12640
▁litu	-12641
heimer	-12642
▁algéri	-12643
▁indési	-12644
▁sensée	-12645
▁susmen	-12646
▁Malmstr	-12647
▁réunies	-12648
ingérence	-12649
▁immédiates	-12650
▁coordonnées	-12651
▁Johannesburg	-12652
meu	-12653
▁Lu	-12654
▁Ro	-12655
ogau	-12656
orés	-12657
▁Roc	-12658
▁env	-12659
▁œuv	-12660
ancée	-12661
▁diab	-12662
zheimer	-12663
▁causer	-12664
▁censés	-12665
▁dignes	-12666
▁vaccin	-12667
▁annexes	-12668
▁dorénavant	-12669
▁négligence	-12670
▁régulières	-12671
Be	-12672
hô	-12673
OCM	-12674
endt	-12675
sept	-12676
tend	-12677
équi	-12678
▁Cox	-12679
▁élè	-12680
ineux	-12681
▁débit	-12682
exclure	-12683
espérons	-12684
▁mérites	-12685
▁rupture	-12686
▁formulés	-12687
▁persiste	-12688
atmosphère	-12689
habillement	-12690
▁thématique	-12691
eld	-12692
▁mû	-12693
cott	-12694
huit	-12695
vice	-12696
▁Kla	-12697
amène	-12698
tagon	-12699
donési	-12700
▁amène	-12701
▁inconn	-12702
▁répand	-12703
▁charger	-12704
▁propice	-12705
▁restons	-12706
▁Belgrade	-12707
▁chantage	-12708
▁confédéra	-12709
▁rationalisation	-12710
van	-12711
tisé	-12712
▁saper	-12713
▁Kazakh	-12714
▁suppor	-12715
▁tirent	-12716
▁conserve	-12717
▁continents	-12718
▁intégralité	-12719
▁massivement	-12720
▁traditionnel	-12721
▁techniquement	-12722
▁multiplication	-12723
▁pé	-12724
orth	-12725
ladesh	-12726
▁décri	-12727
Arménie	-12728
▁Medina	-12729
▁sincère	-12730
▁engendré	-12731
intolérance	-12732
▁conviendra	-12733
▁malheureux	-12734
▁passeports	-12735
▁reconsidérer	-12736
▁Rio	-12737
iness	-12738
▁sine	-12739
▁secrè	-12740
tissent	-12741
▁forcés	-12742
▁Seconde	-12743
Indonésie	-12744
▁prévisible	-12745
▁Oost	-12746
▁dons	-12747
▁abond	-12748
▁Galice	-12749
▁écoute	-12750
▁incluse	-12751
▁renouveler	-12752
▁manquements	-12753
▁négociateurs	-12754
AI	-12755
ardo	-12756
▁Byr	-12757
ANASE	-12758
▁surg	-12759
▁Combien	-12760
▁incontrô	-12761
▁autorisant	-12762
arbit	-12763
lante	-12764
▁unis	-12765
onçant	-12766
▁maroc	-12767
étiques	-12768
▁Robert	-12769
▁imagin	-12770
▁sports	-12771
▁Lulling	-12772
▁résidus	-12773
▁arrêtées	-12774
▁globales	-12775
▁blessures	-12776
▁composent	-12777
▁retombées	-12778
▁italiennes	-12779
▁défavorisés	-12780
▁détachement	-12781
neaux	-12782
lander	-12783
▁parts	-12784
▁contrôlé	-12785
abandonner	-12786
▁expansion	-12787
▁perfection	-12788
DC	-12789
ER	-12790
gs	-12791
ols	-12792
orce	-12793
vera	-12794
▁OMC	-12795
▁empi	-12796
▁Byrne	-12797
individu	-12798
▁fausses	-12799
▁imposés	-12800
▁poussée	-12801
▁conclurai	-12802
▁déplorons	-12803
▁Oostlander	-12804
observateurs	-12805
INI	-12806
iseaux	-12807
ignorer	-12808
▁Gauche	-12809
admettre	-12810
▁accusés	-12811
▁étroits	-12812
▁recouvrement	-12813
▁respectivement	-12814
▁illi	-12815
personnel	-12816
▁connexes	-12817
▁abandonné	-12818
▁suscitent	-12819
âche	-12820
▁émo	-12821
▁pand	-12822
▁conte	-12823
▁sains	-12824
▁songe	-12825
▁ignoré	-12826
▁mètres	-12827
▁machine	-12828
▁suivons	-12829
▁fragiles	-12830
▁reproduire	-12831
▁représentée	-12832
▁ov	-12833
orge	-12834
▁char	-12835
érions	-12836
thiopie	-12837
échéance	-12838
▁farines	-12839
▁désirent	-12840
▁finalité	-12841
▁donnerait	-12842
▁honorable	-12843
▁Kazakhstan	-12844
▁augmentera	-12845
▁indéniable	-12846
appartenance	-12847
▁régulateurs	-12848
▁gestionnaires	-12849
▁Diam	-12850
▁angl	-12851
rocités	-12852
▁Mulder	-12853
▁perdus	-12854
▁visait	-12855
▁élèves	-12856
▁Cologne	-12857
▁Nielson	-12858
▁portait	-12859
▁profité	-12860
▁achètent	-12861
▁annoncée	-12862
▁rappelons	-12863
▁comprendrez	-12864
▁unilatéralement	-12865
rang	-12866
▁Air	-12867
▁Aut	-12868
outre	-12869
▁Collè	-12870
▁nourris	-12871
▁plaider	-12872
▁réussie	-12873
▁violents	-12874
inscription	-12875
▁apprécions	-12876
ld	-12877
can	-12878
gare	-12879
rapp	-12880
urait	-12881
▁Force	-12882
▁effra	-12883
▁plomb	-12884
▁évalué	-12885
▁impliquée	-12886
▁initiales	-12887
▁rectifier	-12888
▁favorisent	-12889
▁secondaires	-12890
▁incertitudes	-12891
olie	-12892
tori	-12893
▁Hol	-12894
afric	-12895
▁promo	-12896
▁feraient	-12897
▁instants	-12898
▁monnaies	-12899
▁définissant	-12900
▁raisonnablement	-12901
PS	-12902
tz	-12903
tue	-12904
nels	-12905
accum	-12906
▁nets	-12907
▁Golfe	-12908
▁Nobel	-12909
▁cohab	-12910
▁indire	-12911
▁médioc	-12912
▁atmosph	-12913
▁protégé	-12914
hypothèse	-12915
▁domicile	-12916
▁prudente	-12917
invitation	-12918
▁efforçons	-12919
▁enceintes	-12920
▁minimiser	-12921
▁confirment	-12922
▁développent	-12923
▁libéraliser	-12924
▁tarification	-12925
▁convenablement	-12926
AL	-12927
exh	-12928
▁goût	-12929
▁parc	-12930
▁curieux	-12931
▁explosi	-12932
▁paysage	-12933
▁citoyennes	-12934
écar	-12935
▁cents	-12936
opoulos	-12937
▁intègre	-12938
▁mariage	-12939
▁demandée	-12940
▁Mandelson	-12941
▁incitants	-12942
TS	-12943
▁Pri	-12944
▁évè	-12945
érait	-12946
▁indic	-12947
émettre	-12948
▁achats	-12949
▁automne	-12950
▁protocoles	-12951
▁réglementée	-12952
izo	-12953
opt	-12954
tig	-12955
étaux	-12956
▁aigu	-12957
▁resté	-12958
▁sympt	-12959
▁visés	-12960
envisage	-12961
▁opèrent	-12962
▁contrôlés	-12963
▁idéologiques	-12964
dans	-12965
▁Bri	-12966
▁Carl	-12967
▁Simp	-12968
chions	-12969
▁blocs	-12970
autorég	-12971
oublier	-12972
▁démago	-12973
▁perçue	-12974
▁conclut	-12975
▁remonte	-12976
▁délégués	-12977
▁électrique	-12978
jug	-12979
dule	-12980
tels	-12981
▁axé	-12982
▁mix	-12983
essai	-12984
uaire	-12985
▁Coll	-12986
▁mafi	-12987
▁polé	-12988
hrendt	-12989
▁coton	-12990
▁dérive	-12991
▁Rothley	-12992
▁lancées	-12993
▁rallier	-12994
▁Nouvelle	-12995
▁convenus	-12996
▁éprouvent	-12997
▁israéliens	-12998
▁frustration	-12999
▁spécialisés	-13000
▁intelligents	-13001
▁fonctionnaire	-13002
accus	-13003
idémi	-13004
oyers	-13005
gentes	-13006
▁bulgare	-13007
▁médecin	-13008
▁décidées	-13009
▁encontre	-13010
▁habilité	-13011
▁indonési	-13012
organismes	-13013
▁autonomes	-13014
▁innovants	-13015
▁antérieure	-13016
▁affirmation	-13017
▁sectorielles	-13018
▁concentrations	-13019
eni	-13020
cker	-13021
▁CIA	-13022
▁fir	-13023
quier	-13024
▁porn	-13025
fiable	-13026
▁clubs	-13027
▁cofin	-13028
▁maill	-13029
▁Merkel	-13030
▁confis	-13031
▁record	-13032
▁vienne	-13033
ssements	-13034
tentions	-13035
▁Algérie	-13036
▁quoique	-13037
impulsion	-13038
▁assurent	-13039
▁exporter	-13040
▁pakistan	-13041
extrémisme	-13042
▁affectant	-13043
▁asiatiques	-13044
▁chrétienne	-13045
▁protégeant	-13046
▁élaboration	-13047
▁volontairement	-13048
bi	-13049
inen	-13050
xions	-13051
èglement	-13052
▁diversi	-13053
commission	-13054
▁réception	-13055
▁Im	-13056
▁ts	-13057
êche	-13058
▁maît	-13059
empris	-13060
▁ébran	-13061
épreuve	-13062
▁marine	-13063
apparaît	-13064
existent	-13065
▁atomique	-13066
▁formules	-13067
▁avertissement	-13068
▁interculturel	-13069
DER	-13070
ench	-13071
onais	-13072
▁Evans	-13073
▁Obama	-13074
▁style	-13075
ouement	-13076
▁décent	-13077
▁madame	-13078
▁réglée	-13079
▁Cardiff	-13080
Alzheimer	-13081
▁conduira	-13082
▁généreux	-13083
▁procurer	-13084
▁rebelles	-13085
▁équivaut	-13086
▁nordiques	-13087
expériences	-13088
▁multiplier	-13089
▁atmosphérique	-13090
intensification	-13091
▁fondamentalisme	-13092
irs	-13093
und	-13094
▁Hélas	-13095
▁octro	-13096
▁ravis	-13097
▁mensong	-13098
▁recevra	-13099
▁entendus	-13100
▁meurtres	-13101
▁hypocrite	-13102
▁reviennent	-13103
alue	-13104
kara	-13105
medi	-13106
niste	-13107
▁destru	-13108
▁erroné	-13109
▁tropic	-13110
audition	-13111
équation	-13112
▁rendues	-13113
▁consultés	-13114
▁persistent	-13115
▁désertification	-13116
nest	-13117
vail	-13118
▁Kyi	-13119
ariser	-13120
interc	-13121
oliques	-13122
▁courir	-13123
Behrendt	-13124
▁héritage	-13125
▁pollueur	-13126
▁Rappelons	-13127
▁logements	-13128
▁chancelier	-13129
▁harmonisée	-13130
▁prédécesseur	-13131
▁vigoureusement	-13132
éan	-13133
onau	-13134
page	-13135
▁visé	-13136
langes	-13137
îtront	-13138
▁Unies	-13139
▁pessi	-13140
▁Maurit	-13141
▁belges	-13142
épidémie	-13143
▁attitudes	-13144
▁indigènes	-13145
▁lourdement	-13146
▁profitable	-13147
▁caractérisé	-13148
▁Explications	-13149
zbé	-13150
pour	-13151
▁Six	-13152
▁vif	-13153
▁obsc	-13154
itable	-13155
▁office	-13156
▁ordres	-13157
▁remont	-13158
▁Écofin	-13159
parlement	-13160
zbékistan	-13161
▁chinoise	-13162
▁préparée	-13163
interroger	-13164
roposition	-13165
▁intitulée	-13166
▁Bangladesh	-13167
▁caractérisée	-13168
▁touristiques	-13169
gouvernemental	-13170
▁interdictions	-13171
mpe	-13172
Nous	-13173
izoo	-13174
ressé	-13175
▁coûté	-13176
▁pédop	-13177
alibans	-13178
ataires	-13179
ternité	-13180
▁drapeau	-13181
▁chantier	-13182
▁remplace	-13183
▁cohérents	-13184
▁pénaliser	-13185
▁réussites	-13186
▁modération	-13187
▁bénéficiera	-13188
▁capitaliste	-13189
▁contraindre	-13190
▁universitaires	-13191
▁complémentarité	-13192
Plath	-13193
▁égyp	-13194
arrive	-13195
ission	-13196
▁mineur	-13197
▁artisan	-13198
▁consécu	-13199
uellement	-13200
expériment	-13201
▁Récemment	-13202
▁salariale	-13203
▁scolaires	-13204
▁amè	-13205
▁nit	-13206
olesc	-13207
▁auda	-13208
▁clin	-13209
▁viti	-13210
andzio	-13211
payeur	-13212
rosité	-13213
▁copie	-13214
▁doctr	-13215
▁punir	-13216
équival	-13217
▁bouche	-13218
traction	-13219
▁réfugié	-13220
▁donneurs	-13221
▁écossais	-13222
▁correctes	-13223
▁détourner	-13224
▁intégrant	-13225
endettement	-13226
▁Bourlanges	-13227
▁confédéral	-13228
▁conversion	-13229
▁dictatures	-13230
▁conseillers	-13231
▁examinerons	-13232
▁considérants	-13233
▁préalablement	-13234
.)	-13235
▁Ho	-13236
▁PV	-13237
▁Suu	-13238
▁bleu	-13239
▁Mitch	-13240
▁désol	-13241
▁serve	-13242
▁subit	-13243
▁appréh	-13244
▁dessus	-13245
▁mourir	-13246
▁visité	-13247
héritage	-13248
▁Randzio	-13249
▁meurtri	-13250
▁exercées	-13251
▁accordent	-13252
▁formalités	-13253
▁générosité	-13254
▁titulaires	-13255
représentant	-13256
▁Britanniques	-13257
▁mécontentement	-13258
kop	-13259
▁pion	-13260
▁affér	-13261
▁colère	-13262
▁capture	-13263
expulsion	-13264
▁enchères	-13265
▁machines	-13266
▁mesdames	-13267
▁empêchant	-13268
▁rentables	-13269
▁améliorées	-13270
▁provoquent	-13271
amm	-13272
▁Ban	-13273
▁Peu	-13274
▁île	-13275
▁rech	-13276
amener	-13277
incorp	-13278
libéra	-13279
▁cibles	-13280
▁parlez	-13281
robation	-13282
▁irréver	-13283
▁publiés	-13284
▁normales	-13285
▁renferme	-13286
▁soixante	-13287
▁passation	-13288
▁authentique	-13289
▁biométriques	-13290
ei	-13291
eler	-13292
écho	-13293
éros	-13294
▁boy	-13295
▁fui	-13296
▁pne	-13297
▁opté	-13298
▁dilem	-13299
▁foyers	-13300
▁préjug	-13301
▁saisie	-13302
▁volets	-13303
▁invitée	-13304
▁déclarant	-13305
▁améliorera	-13306
▁prononcées	-13307
▁supérieures	-13308
açant	-13309
onnais	-13310
▁Langen	-13311
▁formel	-13312
▁idéaux	-13313
▁support	-13314
▁illimité	-13315
▁produira	-13316
▁bélarussi	-13317
▁profitera	-13318
tus	-13319
▁Rec	-13320
prits	-13321
illons	-13322
▁dépar	-13323
▁promp	-13324
▁tristes	-13325
▁épouvant	-13326
▁échéances	-13327
▁conceptions	-13328
'?	-13329
Les	-13330
elli	-13331
erra	-13332
émen	-13333
▁censée	-13334
▁confié	-13335
▁dédomm	-13336
▁manger	-13337
▁servant	-13338
▁typique	-13339
▁varient	-13340
Chrétiens	-13341
▁clôturer	-13342
▁liaisons	-13343
▁traversons	-13344
▁controversé	-13345
▁arrestations	-13346
Esp	-13347
▁Gar	-13348
lises	-13349
▁Ordre	-13350
▁bombe	-13351
▁culte	-13352
alisent	-13353
▁assimil	-13354
▁autobus	-13355
avantages	-13356
▁orientée	-13357
▁partagées	-13358
▁réduisent	-13359
▁défavorable	-13360
▁désastreuses	-13361
▁énergiquement	-13362
▁gouvernementale	-13363
hyd	-13364
Kong	-13365
oral	-13366
▁Garc	-13367
▁Trop	-13368
▁admin	-13369
▁dilig	-13370
agirait	-13371
▁refuge	-13372
▁vendus	-13373
▁Écosse	-13374
▁étouff	-13375
▁Programme	-13376
▁promouvant	-13377
▁visiblement	-13378
▁affirmations	-13379
▁déterminante	-13380
▁persécutions	-13381
big	-13382
▁Er	-13383
olive	-13384
ozone	-13385
▁pain	-13386
▁magas	-13387
entente	-13388
▁appuyé	-13389
▁réunit	-13390
▁débuter	-13391
▁préside	-13392
▁distribuer	-13393
▁hiérarchie	-13394
ica	-13395
elho	-13396
▁Nab	-13397
eilles	-13398
venues	-13399
▁Andre	-13400
offrent	-13401
▁Coelho	-13402
▁antiterr	-13403
▁attendue	-13404
▁enfreint	-13405
▁élaborés	-13406
▁concertée	-13407
▁Mauritanie	-13408
▁découplage	-13409
clés	-13410
▁fur	-13411
bilis	-13412
cient	-13413
▁timi	-13414
attire	-13415
▁bloqué	-13416
▁néfaste	-13417
envergure	-13418
▁octroyés	-13419
▁quatorze	-13420
▁reproche	-13421
ordinaires	-13422
▁atrocités	-13423
▁objectives	-13424
▁simplifiée	-13425
▁souhaitant	-13426
accélération	-13427
▁informatique	-13428
▁radiodiffusion	-13429
▁'	-13430
âch	-13431
ucco	-13432
▁guid	-13433
▁hâte	-13434
▁accusé	-13435
▁rigide	-13436
▁accises	-13437
▁impasse	-13438
▁demandez	-13439
▁paraître	-13440
▁apprécier	-13441
▁démocrate	-13442
▁policiers	-13443
▁désastreux	-13444
▁respectons	-13445
▁honnêtement	-13446
▁subsistance	-13447
▁arrangements	-13448
▁consisterait	-13449
▁Cinquièmement	-13450
AO	-13451
▁cais	-13452
invent	-13453
thènes	-13454
▁Pense	-13455
▁succes	-13456
jacentes	-13457
▁commande	-13458
▁publiées	-13459
▁refusant	-13460
▁dissident	-13461
▁enregistre	-13462
▁interprétations	-13463
▁issu	-13464
alarme	-13465
attent	-13466
▁adhéré	-13467
▁restée	-13468
▁distingu	-13469
▁employer	-13470
▁massives	-13471
▁procédés	-13472
▁violente	-13473
▁affaiblir	-13474
▁armements	-13475
▁chauffage	-13476
▁déloyales	-13477
▁fréquence	-13478
▁inscrites	-13479
▁incertitude	-13480
▁intelligent	-13481
▁importateurs	-13482
▁incompatible	-13483
▁interlocuteurs	-13484
▁multilinguisme	-13485
orat	-13486
rières	-13487
tiendra	-13488
▁nettoy	-13489
▁souhai	-13490
▁tribut	-13491
▁grosses	-13492
▁Polonais	-13493
▁Pourriez	-13494
intéresser	-13495
timidation	-13496
▁accueille	-13497
▁handicaps	-13498
▁prématuré	-13499
▁encouragée	-13500
▁inventions	-13501
pé	-13502
avoc	-13503
▁Sing	-13504
▁coul	-13505
▁clore	-13506
▁Arafat	-13507
▁aident	-13508
▁grandi	-13509
rètement	-13510
▁morales	-13511
▁versions	-13512
▁excellents	-13513
épal	-13514
▁Ford	-13515
▁ardu	-13516
onçons	-13517
industri	-13518
▁Burundi	-13519
▁libérés	-13520
Australie	-13521
▁préjugés	-13522
extraction	-13523
▁conjointes	-13524
Ass	-13525
igo	-13526
dorf	-13527
UCLAF	-13528
anamo	-13529
▁Soit	-13530
▁réit	-13531
▁tsun	-13532
▁écri	-13533
▁falsi	-13534
▁résume	-13535
▁esprits	-13536
▁octroyé	-13537
▁souscri	-13538
▁attachés	-13539
▁comprenne	-13540
▁désespoir	-13541
▁poursuive	-13542
▁interdites	-13543
▁médicament	-13544
emprisonnement	-13545
▁globalisation	-13546
▁habituellement	-13547
santes	-13548
▁Chira	-13549
érables	-13550
▁calculs	-13551
▁notable	-13552
▁oiseaux	-13553
▁assument	-13554
▁condamnée	-13555
▁prendrons	-13556
▁conjoncture	-13557
▁poursuivons	-13558
▁circonstance	-13559
▁reconnaissants	-13560
▁transnationale	-13561
ourses	-13562
▁Schre	-13563
▁atout	-13564
▁fière	-13565
▁isolé	-13566
▁basant	-13567
▁effond	-13568
▁mènera	-13569
▁resser	-13570
▁saines	-13571
▁chambre	-13572
▁divisée	-13573
▁essaient	-13574
▁réclamons	-13575
▁Guantanamo	-13576
inéa	-13577
énat	-13578
▁avan	-13579
▁Népal	-13580
▁tenais	-13581
▁Nabucco	-13582
▁combiné	-13583
▁montrée	-13584
riculteur	-13585
▁Schreyer	-13586
▁digitales	-13587
▁soudanais	-13588
▁divergence	-13589
▁démanteler	-13590
▁lobbyistes	-13591
▁occidentales	-13592
▁nationalistes	-13593
▁extraordinaires	-13594
▁éri	-13595
▁coque	-13596
▁rends	-13597
cipation	-13598
▁pensais	-13599
▁reporté	-13600
idéologie	-13601
▁ingérence	-13602
▁provoquée	-13603
▁rapproche	-13604
▁chrétiennes	-13605
▁professeurs	-13606
▁inconditionnel	-13607
▁aus	-13608
monie	-13609
udule	-13610
▁cotis	-13611
▁dotés	-13612
▁Sierra	-13613
▁envoyée	-13614
▁ferions	-13615
▁livrais	-13616
▁fraudule	-13617
▁indemnis	-13618
▁asiatique	-13619
▁rigoureuses	-13620
▁approfondies	-13621
tali	-13622
▁APE	-13623
▁Tom	-13624
astro	-13625
▁Karas	-13626
▁piège	-13627
▁inadap	-13628
▁venait	-13629
▁Juncker	-13630
▁obtenues	-13631
▁exprimant	-13632
▁commençant	-13633
▁commençons	-13634
▁divergentes	-13635
▁unanimement	-13636
▁réorganisation	-13637
MA	-13638
expl	-13639
ômes	-13640
▁envir	-13641
▁rétro	-13642
erreurs	-13643
▁Chirac	-13644
▁contreb	-13645
▁négligé	-13646
▁proposez	-13647
▁bonnement	-13648
▁puissante	-13649
▁liquidités	-13650
▁pétrolières	-13651
▁impérialistes	-13652
▁informatiques	-13653
dy	-13654
adis	-13655
▁bis	-13656
▁race	-13657
▁boîte	-13658
▁impôt	-13659
▁alcool	-13660
▁envoyés	-13661
▁anglaise	-13662
▁évidents	-13663
absorption	-13664
▁cherchant	-13665
▁médicales	-13666
▁traverser	-13667
▁sévèrement	-13668
▁fonctionnera	-13669
po	-13670
élu	-13671
ater	-13672
▁glis	-13673
▁pesant	-13674
▁récurr	-13675
itarisme	-13676
▁Collège	-13677
▁dixième	-13678
▁prépond	-13679
▁périodi	-13680
▁Allemands	-13681
▁rétention	-13682
▁emballages	-13683
▁soumission	-13684
cis	-13685
fal	-13686
▁Hab	-13687
▁rab	-13688
attle	-13689
aurai	-13690
▁mets	-13691
▁roms	-13692
▁monter	-13693
▁côtière	-13694
▁opérant	-13695
▁statuts	-13696
▁trouvant	-13697
▁diffèrent	-13698
▁percevoir	-13699
▁éloignées	-13700
▁incontourn	-13701
▁thématiques	-13702
▁méthodologie	-13703
hm	-13704
mise	-13705
érie	-13706
▁Ari	-13707
▁Dou	-13708
glise	-13709
évalu	-13710
▁resp	-13711
▁trim	-13712
▁util	-13713
▁Liste	-13714
▁annul	-13715
▁canaux	-13716
▁dopage	-13717
▁idéale	-13718
▁globaux	-13719
▁indiscu	-13720
▁uniques	-13721
▁requêtes	-13722
▁observons	-13723
▁recherché	-13724
▁réaffirmé	-13725
explication	-13726
éventuelles	-13727
▁interroger	-13728
nesty	-13729
▁aval	-13730
associe	-13731
▁bourses	-13732
▁situent	-13733
▁appelant	-13734
▁orienter	-13735
▁étroites	-13736
▁exhaustif	-13737
▁nuisibles	-13738
▁géopolitique	-13739
▁souhaiterait	-13740
▁palestiniennes	-13741
AV	-13742
zar	-13743
namo	-13744
▁mol	-13745
urité	-13746
étons	-13747
gentine	-13748
▁Herman	-13749
▁monopol	-13750
▁persist	-13751
onciation	-13752
▁désirons	-13753
▁naufrage	-13754
DH	-13755
COS	-13756
undo	-13757
▁feux	-13758
▁raci	-13759
▁enfer	-13760
▁épuisé	-13761
▁déroulé	-13762
▁spiritu	-13763
▁collaboré	-13764
▁illicites	-13765
▁versement	-13766
▁décourager	-13767
▁élargissements	-13768
estim	-13769
roits	-13770
▁Blok	-13771
▁amont	-13772
▁étiez	-13773
ocution	-13774
▁patron	-13775
ceptions	-13776
▁prudent	-13777
▁séparer	-13778
inscrivent	-13779
▁élaborées	-13780
▁arbitraires	-13781
▁gigantesque	-13782
▁antipersonnel	-13783
aug	-13784
uée	-13785
▁blâ	-13786
▁tén	-13787
uiten	-13788
▁Fern	-13789
▁asym	-13790
▁délim	-13791
▁immun	-13792
▁joins	-13793
▁coloss	-13794
▁croyez	-13795
▁freiner	-13796
▁inverse	-13797
▁mandats	-13798
▁prenions	-13799
▁acceptant	-13800
▁différend	-13801
▁persuadée	-13802
▁encouragera	-13803
▁systématiques	-13804
judi	-13805
tais	-13806
▁sid	-13807
▁Bert	-13808
région	-13809
ystème	-13810
▁colég	-13811
▁films	-13812
fiables	-13813
▁périph	-13814
tratégie	-13815
▁répartir	-13816
▁confirmée	-13817
▁transmise	-13818
▁cotisations	-13819
▁portefeuille	-13820
▁réformateurs	-13821
atu	-13822
ity	-13823
ader	-13824
▁Cis	-13825
▁Rés	-13826
▁duré	-13827
rocarb	-13828
▁Erika	-13829
éprouve	-13830
▁Florenz	-13831
▁Seattle	-13832
▁aveugle	-13833
▁relâche	-13834
▁réitère	-13835
▁touchée	-13836
▁décevant	-13837
▁rembours	-13838
▁enveloppe	-13839
▁rattraper	-13840
▁supprimée	-13841
▁médiatique	-13842
▁sacrifices	-13843
▁traversent	-13844
architecture	-13845
▁conditionnalité	-13846
go	-13847
▁Mo	-13848
lants	-13849
éndez	-13850
▁Bali	-13851
▁CECA	-13852
▁élue	-13853
▁Green	-13854
amiante	-13855
▁Buiten	-13856
▁causée	-13857
▁contemp	-13858
▁rendons	-13859
▁retenus	-13860
obstacles	-13861
▁vitesses	-13862
▁particules	-13863
▁née	-13864
usine	-13865
▁exon	-13866
ication	-13867
ocratie	-13868
▁notions	-13869
▁consulta	-13870
▁magistra	-13871
▁primauté	-13872
▁délicates	-13873
▁contrôlées	-13874
▁génériques	-13875
▁antérieures	-13876
▁deviendront	-13877
olog	-13878
tête	-13879
▁béb	-13880
chage	-13881
orant	-13882
textes	-13883
▁proie	-13884
▁Demain	-13885
▁anéanti	-13886
▁obtenue	-13887
▁tsunami	-13888
▁changent	-13889
▁détresse	-13890
▁supprime	-13891
interviens	-13892
▁adoptions	-13893
▁entendues	-13894
▁préliminaire	-13895
▁dat	-13896
ortis	-13897
▁Dell	-13898
▁Mari	-13899
▁plant	-13900
▁Pouvez	-13901
▁pédoph	-13902
jordanie	-13903
▁station	-13904
▁théâtre	-13905
démocrate	-13906
économies	-13907
▁redonner	-13908
▁piraterie	-13909
▁précarité	-13910
▁composants	-13911
▁consistait	-13912
▁évènements	-13913
IP	-13914
oil	-13915
tter	-13916
▁Cal	-13917
▁Fab	-13918
▁lés	-13919
▁Ster	-13920
▁irre	-13921
▁baign	-13922
▁habit	-13923
▁Rocard	-13924
orteresse	-13925
▁Eurojust	-13926
▁divergent	-13927
▁interdits	-13928
▁réticence	-13929
▁tragédies	-13930
▁chauffeurs	-13931
incinération	-13932
▁rapatriement	-13933
▁macroéconomique	-13934
esel	-13935
itié	-13936
obil	-13937
raude	-13938
▁varie	-13939
▁Castro	-13940
▁coûteuse	-13941
▁passages	-13942
▁disciplin	-13943
▁entravent	-13944
▁octroyées	-13945
▁rappelant	-13946
▁Cisjordanie	-13947
[...]
