<pad>	0
<s>	0
</s>	0
<unk>	0
▁p	-0
es	-1
ou	-2
ai	-3
▁t	-4
▁d	-5
en	-6
▁c	-7
▁j	-8
▁l	-9
▁s	-10
▁v	-11
on	-12
re	-13
▁n	-14
▁a	-15
▁m	-16
qu	-17
▁je	-18
er	-19
ous	-20
▁qu	-21
▁pa	-22
▁de	-23
oi	-24
il	-25
est	-26
▁f	-27
om	-28
▁pas	-29
ent	-30
an	-31
eu	-32
▁vous	-33
ais	-34
▁que	-35
un	-36
le	-37
is	-38
▁ce	-39
▁il	-40
▁ne	-41
▁un	-42
te	-43
▁tu	-44
▁le	-45
▁b	-46
our	-47
▁à	-48
ez	-49
▁est	-50
▁la	-51
▁tom	-52
▁r	-53
ait	-54
▁su	-55
el	-56
▁en	-57
it	-58
in	-59
▁tr	-60
ét	-61
ar	-62
▁nous	-63
▁pr	-64
or	-65
▁ch	-66
se	-67
au	-68
ment	-69
tre	-70
▁av	-71
eux	-72
ons	-73
us	-74
▁pour	-75
▁me	-76
ont	-77
▁suis	-78
me	-79
▁par	-80
ien	-81
av	-82
elle	-83
onn	-84
▁une	-85
ant	-86
▁com	-87
▁pl	-88
▁tou	-89
end	-90
ch	-91
ci	-92
ti	-93
▁ét	-94
aire	-95
tes	-96
▁les	-97
▁au	-98
ouv	-99
▁g	-100
ri	-101
▁ê	-102
ain	-103
ça	-104
▁ça	-105
▁te	-106
ée	-107
▁re	-108
de	-109
▁h	-110
mp	-111
▁dé	-112
▁elle	-113
▁faire	-114
▁mon	-115
oir	-116
ll	-117
▁moi	-118
as	-119
▁se	-120
▁i	-121
eur	-122
ois	-123
ère	-124
ie	-125
ag	-126
os	-127
▁quel	-128
pp	-129
▁e	-130
ans	-131
que	-132
▁ma	-133
▁ai	-134
▁fait	-135
ce	-136
▁pen	-137
ir	-138
▁as	-139
les	-140
▁tout	-141
am	-142
▁o	-143
la	-144
▁veux	-145
ui	-146
ès	-147
▁es	-148
▁des	-149
▁qui	-150
▁si	-151
▁vo	-152
▁êtes	-153
▁dans	-154
▁plus	-155
ec	-156
rai	-157
▁dev	-158
tte	-159
ble	-160
res	-161
ang	-162
▁per	-163
▁é	-164
mes	-165
▁du	-166
▁di	-167
onne	-168
▁pro	-169
oit	-170
and	-171
eau	-172
▁sont	-173
▁ré	-174
si	-175
at	-176
▁peu	-177
oin	-178
▁y	-179
▁très	-180
lé	-181
té	-182
▁in	-183
▁mar	-184
▁all	-185
▁cela	-186
al	-187
che	-188
ac	-189
▁avec	-190
ier	-191
▁être	-192
iv	-193
ort	-194
quoi	-195
▁ils	-196
▁pourquoi	-197
▁peux	-198
▁ar	-199
▁vou	-200
▁sais	-201
▁sur	-202
ff	-203
▁avez	-204
▁con	-205
▁dit	-206
▁votre	-207
▁cette	-208
▁vrai	-209
li	-210
endre	-211
sé	-212
oup	-213
jour	-214
ure	-215
▁ici	-216
ard	-217
ille	-218
rais	-219
ux	-220
ré	-221
elles	-222
▁toi	-223
mps	-224
cu	-225
▁comment	-226
eure	-227
▁trav	-228
ter	-229
▁am	-230
▁été	-231
ose	-232
▁son	-233
ion	-234
▁pense	-235
ore	-236
uis	-237
pr	-238
▁dem	-239
ommes	-240
ra	-241
▁était	-242
▁pouv	-243
▁où	-244
▁dis	-245
▁app	-246
▁pers	-247
ati	-248
ler	-249
▁travai	-250
gn	-251
▁bien	-252
▁jam	-253
▁vraiment	-254
op	-255
▁ser	-256
▁lui	-257
ve	-258
▁gr	-259
▁bes	-260
▁ton	-261
▁besoin	-262
di	-263
▁temps	-264
ut	-265
▁jamais	-266
▁sommes	-267
és	-268
▁sav	-269
▁fr	-270
sez	-271
ot	-272
orte	-273
mer	-274
▁beau	-275
ue	-276
aison	-277
▁elles	-278
▁tous	-279
age	-280
▁là	-281
tt	-282
▁personne	-283
▁main	-284
ur	-285
▁lais	-286
aut	-287
ête	-288
oy	-289
ol	-290
app	-291
▁ex	-292
▁cr	-293
able	-294
une	-295
▁chose	-296
▁sa	-297
▁on	-298
▁ent	-299
▁et	-300
lez	-301
▁peut	-302
▁dire	-303
ens	-304
▁trouv	-305
ér	-306
▁avons	-307
▁fais	-308
aime	-309
▁aller	-310
ten	-311
coup	-312
▁beaucoup	-313
▁rest	-314
uit	-315
▁seu	-316
▁pré	-317
▁pens	-318
ité	-319
▁jour	-320
iez	-321
▁mes	-322
▁quelque	-323
▁heure	-324
▁fer	-325
▁va	-326
et	-327
▁att	-328
était	-329
ière	-330
▁jus	-331
▁rien	-332
▁parti	-333
▁bon	-334
bre	-335
▁trop	-336
▁train	-337
▁vi	-338
ap	-339
▁travail	-340
▁ont	-341
gent	-342
▁mang	-343
air	-344
▁ven	-345
der	-346
▁déj	-347
ser	-348
▁sem	-349
lement	-350
▁voul	-351
iens	-352
▁faut	-353
▁maison	-354
aî	-355
▁parler	-356
sa	-357
▁enc	-358
▁cont	-359
▁vais	-360
▁voit	-361
▁ta	-362
▁quoi	-363
ne	-364
jours	-365
▁toujours	-366
▁monde	-367
ance	-368
bl	-369
ends	-370
▁reg	-371
▁dois	-372
▁quelqu	-373
ivre	-374
▁ceci	-375
▁encore	-376
ge	-377
enc	-378
▁comme	-379
ab	-380
▁voir	-381
▁mainten	-382
ner	-383
▁maintenant	-384
▁deux	-385
éc	-386
▁an	-387
▁mê	-388
▁puis	-389
▁conn	-390
▁éc	-391
oire	-392
▁voiture	-393
▁mi	-394
ord	-395
▁nouv	-396
orm	-397
rer	-398
ées	-399
▁veu	-400
esp	-401
riv	-402
▁comp	-403
étais	-404
aît	-405
ile	-406
▁même	-407
▁vu	-408
cher	-409
jourd	-410
▁mary	-411
ussi	-412
hui	-413
▁cour	-414
ante	-415
▁dés	-416
ôt	-417
▁aujourd	-418
▁comm	-419
say	-420
▁mal	-421
cup	-422
em	-423
ill	-424
▁enf	-425
▁donn	-426
ine	-427
▁ces	-428
ccup	-429
▁jou	-430
ic	-431
merais	-432
rait	-433
▁soit	-434
▁rép	-435
endu	-436
▁avoir	-437
▁ret	-438
▁quelle	-439
▁juste	-440
▁sou	-441
▁pouvez	-442
ole	-443
ert	-444
ions	-445
▁sû	-446
ign	-447
▁porte	-448
erre	-449
▁comb	-450
▁demand	-451
▁arr	-452
ants	-453
aine	-454
ire	-455
tement	-456
être	-457
ande	-458
riez	-459
▁no	-460
aimerais	-461
ad	-462
ors	-463
▁toutes	-464
▁imp	-465
dre	-466
▁combien	-467
▁pensais	-468
gu	-469
▁chez	-470
▁ac	-471
▁ou	-472
▁quand	-473
▁aussi	-474
▁dét	-475
▁arriv	-476
ation	-477
omme	-478
um	-479
▁eu	-480
argent	-481
▁pris	-482
▁ca	-483
▁livre	-484
▁plaît	-485
▁der	-486
▁pos	-487
ème	-488
▁vie	-489
▁nom	-490
▁fran	-491
▁bonne	-492
ras	-493
▁occup	-494
▁bou	-495
bli	-496
▁déjà	-497
êtes	-498
ess	-499
▁probl	-500
▁voulez	-501
êt	-502
çais	-503
▁connais	-504
all	-505
▁auc	-506
▁man	-507
use	-508
▁mieux	-509
▁ses	-510
ique	-511
▁français	-512
▁regard	-513
▁té	-514
▁fil	-515
▁seul	-516
ente	-517
aient	-518
▁diff	-519
mé	-520
▁compr	-521
▁ache	-522
att	-523
avez	-524
▁part	-525
du	-526
pos	-527
▁essay	-528
▁simp	-529
▁prendre	-530
ise	-531
▁fin	-532
▁assez	-533
▁père	-534
▁souv	-535
éri	-536
▁télé	-537
▁chien	-538
▁sens	-539
▁grand	-540
▁pi	-541
▁avait	-542
oyez	-543
tr	-544
▁hier	-545
▁al	-546
▁fois	-547
▁demain	-548
▁gar	-549
▁devrais	-550
ong	-551
ence	-552
▁partir	-553
▁soir	-554
ents	-555
▁travaill	-556
ud	-557
▁tes	-558
▁sent	-559
auv	-560
ers	-561
rive	-562
dée	-563
▁manger	-564
réci	-565
▁env	-566
▁rev	-567
ient	-568
▁problème	-569
▁renc	-570
née	-571
▁conf	-572
par	-573
▁pe	-574
▁dern	-575
ide	-576
ttre	-577
▁heureux	-578
▁fut	-579
▁aut	-580
con	-581
▁notre	-582
▁br	-583
▁vos	-584
asse	-585
cti	-586
▁simplement	-587
euse	-588
▁mé	-589
▁nuit	-590
dé	-591
▁toute	-592
oc	-593
anc	-594
eurs	-595
avais	-596
inu	-597
▁peur	-598
rez	-599
▁supp	-600
▁chau	-601
rit	-602
▁déc	-603
▁dû	-604
eures	-605
int	-606
▁pay	-607
▁sûr	-608
anger	-609
œur	-610
▁coup	-611
▁faites	-612
▁ami	-613
ton	-614
▁fati	-615
▁répon	-616
▁co	-617
ellement	-618
acc	-619
are	-620
ange	-621
▁soyez	-622
▁quest	-623
▁nouveau	-624
tu	-625
▁fatigu	-626
▁appr	-627
fé	-628
ph	-629
▁mère	-630
autre	-631
▁trois	-632
▁mer	-633
aux	-634
iste	-635
▁long	-636
espère	-637
▁veut	-638
▁ter	-639
▁fort	-640
▁rester	-641
▁ment	-642
▁cond	-643
▁voulais	-644
ex	-645
▁ab	-646
▁idée	-647
lo	-648
près	-649
▁sois	-650
▁voy	-651
▁dou	-652
▁savoir	-653
▁rend	-654
▁heures	-655
etit	-656
aider	-657
▁petit	-658
▁sor	-659
▁aider	-660
▁dép	-661
▁cher	-662
rent	-663
▁montre	-664
▁sait	-665
itu	-666
ager	-667
▁vis	-668
▁semble	-669
én	-670
▁ad	-671
im	-672
avant	-673
ses	-674
arrive	-675
▁passé	-676
▁pouvons	-677
lle	-678
▁voud	-679
▁laisse	-680
▁mom	-681
▁cham	-682
▁sans	-683
▁ouv	-684
ché	-685
▁cet	-686
école	-687
▁venir	-688
▁moment	-689
▁ph	-690
▁enfants	-691
▁pres	-692
▁prom	-693
▁prie	-694
▁sorti	-695
▁marie	-696
enir	-697
▁aux	-698
▁ense	-699
▁cons	-700
▁pu	-701
▁rapp	-702
▁parle	-703
▁entendu	-704
ins	-705
▁mat	-706
▁raison	-707
▁mauv	-708
ist	-709
▁bos	-710
▁savais	-711
▁mauvais	-712
▁boston	-713
▁chambre	-714
ts	-715
▁che	-716
▁tomb	-717
mb	-718
▁cou	-719
qué	-720
▁détest	-721
ite	-722
▁déjeu	-723
▁emp	-724
ob	-725
pe	-726
jet	-727
▁pourrais	-728
▁voi	-729
▁fac	-730
▁hab	-731
▁ci	-732
enez	-733
oses	-734
▁bl	-735
iend	-736
▁fem	-737
▁aime	-738
▁prêt	-739
enu	-740
çon	-741
ils	-742
▁ass	-743
▁crois	-744
▁end	-745
▁après	-746
▁fille	-747
èrent	-748
olé	-749
▁ri	-750
▁bles	-751
▁quelques	-752
▁perdu	-753
▁acheté	-754
erai	-755
▁rec	-756
▁viens	-757
udi	-758
▁cert	-759
▁appel	-760
▁tôt	-761
▁jours	-762
qui	-763
ul	-764
▁non	-765
▁meill	-766
▁demandé	-767
▁dorm	-768
▁exc	-769
▁gag	-770
ver	-771
téres	-772
▁diffic	-773
▁mort	-774
▁autre	-775
iné	-776
▁lit	-777
▁chat	-778
uire	-779
rions	-780
ention	-781
erreur	-782
▁sé	-783
▁vér	-784
▁mari	-785
▁étiez	-786
▁vois	-787
▁souvent	-788
avoir	-789
ace	-790
▁cl	-791
▁rou	-792
▁trouver	-793
▁gros	-794
▁li	-795
▁aucun	-796
▁retour	-797
▁commenc	-798
▁homme	-799
▁dernière	-800
oid	-801
omp	-802
▁chev	-803
▁mot	-804
▁im	-805
roit	-806
▁choses	-807
teau	-808
▁tard	-809
▁chant	-810
▁seule	-811
phon	-812
▁amis	-813
▁prof	-814
accord	-815
▁surpr	-816
▁semaine	-817
▁difficile	-818
▁désolé	-819
▁fi	-820
▁vé	-821
appréci	-822
▁déjeuner	-823
▁ans	-824
heure	-825
▁rent	-826
▁laissez	-827
▁passe	-828
▁arrivé	-829
▁demande	-830
▁rencont	-831
adore	-832
if	-833
êter	-834
▁gens	-835
▁travailler	-836
gé	-837
onné	-838
▁piè	-839
▁dites	-840
▁étais	-841
▁étudi	-842
▁trouve	-843
▁trouvé	-844
▁téléphon	-845
▁fai	-846
temps	-847
▁arrête	-848
▁presque	-849
né	-850
▁po	-851
illé	-852
tion	-853
illez	-854
▁col	-855
avons	-856
▁rendre	-857
▁question	-858
▁croire	-859
▁retard	-860
▁pourrait	-861
sée	-862
▁ép	-863
mble	-864
▁sœur	-865
▁aff	-866
▁exp	-867
▁pre	-868
▁conse	-869
▁savez	-870
▁erreur	-871
▁th	-872
▁phot	-873
lè	-874
tez	-875
▁occupé	-876
cre	-877
aurais	-878
▁merci	-879
▁jouer	-880
ienne	-881
▁sera	-882
aie	-883
uses	-884
▁chem	-885
▁devons	-886
▁parf	-887
▁confi	-888
imp	-889
▁eff	-890
▁for	-891
▁femme	-892
▁devez	-893
▁cha	-894
▁amus	-895
▁lire	-896
▁prés	-897
▁fam	-898
▁â	-899
ttes	-900
vé	-901
▁ins	-902
▁mis	-903
▁poin	-904
▁term	-905
▁reste	-906
▁déteste	-907
▁intéres	-908
▁mont	-909
▁allez	-910
▁aucune	-911
▁journée	-912
mis	-913
▁ref	-914
▁allé	-915
▁table	-916
▁aide	-917
▁prends	-918
▁heureuse	-919
▁facile	-920
▁vérité	-921
▁cuis	-922
▁doit	-923
▁minu	-924
ision	-925
▁ob	-926
▁mala	-927
▁jusqu	-928
▁cor	-929
▁dess	-930
▁chance	-931
▁emb	-932
▁vas	-933
▁leur	-934
▁frère	-935
▁étaient	-936
util	-937
sible	-938
▁resp	-939
arde	-940
▁venu	-941
▁tellement	-942
ques	-943
▁dur	-944
▁gard	-945
quer	-946
▁allons	-947
alement	-948
aide	-949
▁disp	-950
▁oubli	-951
▁longtemps	-952
▁mus	-953
▁laissé	-954
▁dér	-955
▁fon	-956
▁inv	-957
▁café	-958
istoire	-959
▁fatigué	-960
ches	-961
▁bas	-962
▁avant	-963
▁contr	-964
▁grande	-965
▁gent	-966
▁matin	-967
▁pièce	-968
▁veuillez	-969
sant	-970
▁prév	-971
▁nager	-972
▁car	-973
aires	-974
ments	-975
▁fini	-976
▁penses	-977
esse	-978
lais	-979
sion	-980
▁vol	-981
orter	-982
ignore	-983
ale	-984
▁bi	-985
▁déb	-986
▁liv	-987
▁déci	-988
▁exac	-989
▁tour	-990
out	-991
▁plais	-992
▁voudrais	-993
▁donné	-994
▁vieux	-995
cep	-996
isé	-997
ures	-998
▁acc	-999
▁bus	-1000
▁confiance	-1001
▁cas	-1002
onner	-1003
▁serai	-1004
▁viv	-1005
ition	-1006
▁prem	-1007
▁téléphone	-1008
ères	-1009
▁clé	-1010
▁vite	-1011
▁livres	-1012
▁fu	-1013
▁vit	-1014
▁sortir	-1015
▁nouvelle	-1016
ger	-1017
▁sujet	-1018
ici	-1019
▁inc	-1020
▁nour	-1021
▁conduire	-1022
dent	-1023
conque	-1024
▁regarde	-1025
arr	-1026
▁parv	-1027
▁serv	-1028
▁donne	-1029
▁photo	-1030
onnes	-1031
endant	-1032
▁devriez	-1033
▁famille	-1034
reux	-1035
▁tête	-1036
▁colère	-1037
▁partie	-1038
pé	-1039
▁sign	-1040
▁blessé	-1041
▁moin	-1042
▁st	-1043
▁fête	-1044
▁pensez	-1045
enn	-1046
▁rés	-1047
▁bois	-1048
▁mais	-1049
▁laisser	-1050
▁aim	-1051
▁ver	-1052
▁point	-1053
▁parents	-1054
▁bure	-1055
▁pensé	-1056
apprécie	-1057
▁devrions	-1058
▁yeux	-1059
▁bureau	-1060
ct	-1061
iner	-1062
▁ain	-1063
▁souh	-1064
▁rê	-1065
▁éch	-1066
entre	-1067
▁enfant	-1068
▁reconn	-1069
▁rencontré	-1070
▁dir	-1071
oix	-1072
▁feu	-1073
▁ville	-1074
▁garçon	-1075
iser	-1076
▁thé	-1077
▁conv	-1078
▁prop	-1079
▁ainsi	-1080
▁attend	-1081
▁lettre	-1082
▁content	-1083
▁travaille	-1084
cur	-1085
lot	-1086
▁sûre	-1087
avantage	-1088
▁sau	-1089
▁essayé	-1090
uie	-1091
▁froid	-1092
per	-1093
illes	-1094
▁film	-1095
▁proch	-1096
▁davantage	-1097
▁exactement	-1098
▁plan	-1099
▁envie	-1100
essay	-1101
▁sour	-1102
▁jeune	-1103
▁malade	-1104
▁certain	-1105
▁rem	-1106
▁sous	-1107
aite	-1108
vent	-1109
cle	-1110
▁mour	-1111
ientôt	-1112
▁ferais	-1113
▁propos	-1114
▁bientôt	-1115
puis	-1116
▁fau	-1117
▁fils	-1118
▁préf	-1119
▁souci	-1120
son	-1121
▁rap	-1122
▁vin	-1123
▁oublié	-1124
▁présent	-1125
emp	-1126
ied	-1127
▁dî	-1128
▁chaus	-1129
▁dispos	-1130
▁donner	-1131
▁mangé	-1132
▁nombre	-1133
▁dr	-1134
▁depuis	-1135
▁devoir	-1136
▁ensemble	-1137
▁boulot	-1138
▁différ	-1139
tite	-1140
▁conc	-1141
▁util	-1142
▁rapide	-1143
▁ba	-1144
▁mo	-1145
olée	-1146
▁mag	-1147
▁dont	-1148
▁petite	-1149
▁pendant	-1150
ray	-1151
lles	-1152
▁sol	-1153
ié	-1154
hab	-1155
iers	-1156
▁amie	-1157
▁boire	-1158
▁mange	-1159
▁quiconque	-1160
rir	-1161
▁ag	-1162
▁ég	-1163
rire	-1164
▁ple	-1165
▁choix	-1166
ontre	-1167
▁écrit	-1168
cin	-1169
lui	-1170
▁cô	-1171
arer	-1172
▁dix	-1173
▁fou	-1174
▁comprends	-1175
▁fen	-1176
▁appréci	-1177
▁désolée	-1178
▁réponse	-1179
lent	-1180
▁cap	-1181
▁méde	-1182
▁vélo	-1183
▁dormir	-1184
▁prend	-1185
▁verre	-1186
rière	-1187
▁écou	-1188
▁parlé	-1189
▁vivre	-1190
▁attendre	-1191
▁demander	-1192
▁passer	-1193
▁rencontre	-1194
▁coû	-1195
ience	-1196
▁prod	-1197
▁séri	-1198
curité	-1199
▁dessus	-1200
▁chanter	-1201
▁cheveux	-1202
▁can	-1203
▁pleu	-1204
▁prud	-1205
▁celui	-1206
▁continu	-1207
▁regarder	-1208
çu	-1209
▁faim	-1210
attend	-1211
▁place	-1212
▁vient	-1213
▁foncti	-1214
▁secre	-1215
lli	-1216
loi	-1217
▁fl	-1218
▁suff	-1219
atis	-1220
▁vue	-1221
▁loin	-1222
▁plait	-1223
ablement	-1224
▁enseign	-1225
▁gén	-1226
▁ord	-1227
▁poli	-1228
▁quit	-1229
man	-1230
▁gâ	-1231
aise	-1232
▁nos	-1233
▁sac	-1234
▁côté	-1235
▁import	-1236
▁musique	-1237
bé	-1238
ète	-1239
apon	-1240
▁réve	-1241
▁japon	-1242
▁senti	-1243
▁prenez	-1244
uy	-1245
êté	-1246
▁pri	-1247
▁préfé	-1248
èg	-1249
▁bo	-1250
iller	-1251
▁devrait	-1252
ég	-1253
▁joue	-1254
▁chaque	-1255
▁pouvoir	-1256
▁pourriez	-1257
cé	-1258
hors	-1259
▁attra	-1260
▁dehors	-1261
▁meilleur	-1262
lic	-1263
▁prob	-1264
▁suppose	-1265
ass	-1266
ves	-1267
▁étr	-1268
▁plut	-1269
▁étud	-1270
▁chaud	-1271
▁dîner	-1272
▁viend	-1273
▁chemin	-1274
▁attention	-1275
id	-1276
▁aimes	-1277
▁voulait	-1278
▁sécurité	-1279
oû	-1280
ate	-1281
▁nourrit	-1282
ond	-1283
▁bé	-1284
▁esp	-1285
▁tort	-1286
▁belle	-1287
▁gu	-1288
▁prête	-1289
▁histoire	-1290
▁seulement	-1291
▁ra	-1292
ateur	-1293
▁pied	-1294
▁pleure	-1295
paravant	-1296
▁médecin	-1297
▁inf	-1298
▁occupée	-1299
▁perd	-1300
▁chois	-1301
▁chauss	-1302
▁compte	-1303
▁auparavant	-1304
▁boî	-1305
▁rep	-1306
▁plutôt	-1307
▁nourriture	-1308
▁âge	-1309
▁près	-1310
▁chans	-1311
▁discu	-1312
▁voulons	-1313
fs	-1314
vre	-1315
▁sal	-1316
▁port	-1317
▁prix	-1318
▁payer	-1319
▁faisons	-1320
▁connaiss	-1321
ôle	-1322
▁appris	-1323
▁acheter	-1324
▁surpris	-1325
bles	-1326
ienn	-1327
▁ann	-1328
▁secret	-1329
▁endroit	-1330
be	-1331
jou	-1332
chez	-1333
▁fra	-1334
▁bière	-1335
▁terminé	-1336
agit	-1337
oyer	-1338
▁cal	-1339
▁aimé	-1340
▁contre	-1341
▁lu	-1342
rons	-1343
▁ferm	-1344
▁argent	-1345
▁habitu	-1346
▁premier	-1347
▁bu	-1348
orté	-1349
▁cri	-1350
▁lis	-1351
▁chap	-1352
▁suiv	-1353
▁serait	-1354
ro	-1355
ume	-1356
tant	-1357
▁cin	-1358
▁off	-1359
▁règ	-1360
▁bébé	-1361
▁entre	-1362
▁complè	-1363
▁étions	-1364
▁fenêtre	-1365
▁œ	-1366
rou	-1367
angé	-1368
▁ess	-1369
▁lun	-1370
▁stu	-1371
amment	-1372
▁riche	-1373
▁marcher	-1374
▁gagner	-1375
▁dispose	-1376
▁fier	-1377
▁boîte	-1378
▁sorte	-1379
▁perdre	-1380
▁chapeau	-1381
rée	-1382
▁idi	-1383
▁nei	-1384
atisf	-1385
▁lors	-1386
▁appar	-1387
▁chercher	-1388
été	-1389
anté	-1390
leur	-1391
médi	-1392
▁pois	-1393
▁réun	-1394
▁possible	-1395
▁rencontrer	-1396
ages	-1397
téri	-1398
▁ris	-1399
▁moins	-1400
▁voyage	-1401
▁arriver	-1402
▁satisf	-1403
▁serais	-1404
▁décision	-1405
▁entendre	-1406
▁chaussures	-1407
▁complètement	-1408
telli	-1409
▁tant	-1410
▁journ	-1411
▁donnez	-1412
▁immédi	-1413
▁tomber	-1414
▁essayer	-1415
▁pouvais	-1416
▁derrière	-1417
▁rappelle	-1418
▁cé	-1419
▁cœur	-1420
▁arrêté	-1421
iss	-1422
çons	-1423
▁réf	-1424
eler	-1425
aille	-1426
▁amou	-1427
▁assis	-1428
▁intelli	-1429
▁ferai	-1430
▁frapp	-1431
▁mettre	-1432
▁peuvent	-1433
▁réunion	-1434
zar	-1435
▁gen	-1436
▁pap	-1437
▁rob	-1438
▁profess	-1439
▁commencer	-1440
enue	-1441
quipe	-1442
▁char	-1443
▁stup	-1444
▁fumer	-1445
▁mains	-1446
▁do	-1447
▁alors	-1448
atement	-1449
▁changer	-1450
pit	-1451
▁ty	-1452
aller	-1453
▁midi	-1454
importe	-1455
▁appelé	-1456
▁autres	-1457
▁embras	-1458
▁conseil	-1459
▁dernier	-1460
▁commence	-1461
▁intelligent	-1462
ttez	-1463
▁pan	-1464
▁suffis	-1465
▁nouvelles	-1466
▁rapidement	-1467
▁immédiatement	-1468
▁soin	-1469
éro	-1470
irai	-1471
▁avais	-1472
▁lundi	-1473
▁menti	-1474
▁reconnais	-1475
▁probablement	-1476
ances	-1477
ressi	-1478
▁fall	-1479
▁mourir	-1480
▁sy	-1481
▁tent	-1482
▁vont	-1483
▁voici	-1484
exp	-1485
▁sp	-1486
▁néc	-1487
▁plein	-1488
▁manière	-1489
▁cop	-1490
▁fas	-1491
▁lang	-1492
▁accep	-1493
▁revoir	-1494
▁certaine	-1495
agé	-1496
ies	-1497
yez	-1498
ague	-1499
ivers	-1500
occup	-1501
▁minute	-1502
▁pleurer	-1503
▁op	-1504
▁mois	-1505
ations	-1506
▁aimez	-1507
▁nécess	-1508
▁minutes	-1509
▁souviens	-1510
ecti	-1511
▁lune	-1512
▁surv	-1513
▁bizar	-1514
▁télév	-1515
▁venez	-1516
▁questions	-1517
oise	-1518
▁abs	-1519
▁enn	-1520
antes	-1521
êcher	-1522
▁cade	-1523
▁parc	-1524
▁garde	-1525
▁décidé	-1526
▁arrêtez	-1527
▁commencé	-1528
▁professeur	-1529
étr	-1530
▁or	-1531
▁fit	-1532
▁ren	-1533
▁soi	-1534
arras	-1535
irent	-1536
▁obli	-1537
▁préfère	-1538
▁prochaine	-1539
og	-1540
ats	-1541
alie	-1542
▁val	-1543
tient	-1544
▁sauv	-1545
cident	-1546
▁parlez	-1547
▁mauvaise	-1548
▁répondre	-1549
▁apprendre	-1550
ache	-1551
▁lait	-1552
▁somme	-1553
térieur	-1554
▁chanson	-1555
▁produit	-1556
▁év	-1557
▁rire	-1558
▁autant	-1559
▁restez	-1560
▁plaisir	-1561
▁rentrer	-1562
▁arrêter	-1563
cc	-1564
ing	-1565
âmes	-1566
▁cinq	-1567
▁pays	-1568
▁propre	-1569
▁stupide	-1570
▁comprendre	-1571
▁nécessaire	-1572
oyé	-1573
bres	-1574
ours	-1575
▁déf	-1576
▁lum	-1577
ennis	-1578
▁mets	-1579
▁ress	-1580
▁repos	-1581
▁rouge	-1582
▁tennis	-1583
ail	-1584
omm	-1585
▁fa	-1586
ensé	-1587
▁ang	-1588
▁ner	-1589
homme	-1590
▁court	-1591
dit	-1592
onc	-1593
▁font	-1594
▁rendu	-1595
▁gentil	-1596
▁écrire	-1597
▁étudier	-1598
▁rac	-1599
▁aband	-1600
▁bizarre	-1601
ect	-1602
ris	-1603
oubl	-1604
user	-1605
èmes	-1606
avait	-1607
▁avoc	-1608
▁robe	-1609
▁carte	-1610
▁cours	-1611
▁resse	-1612
▁entrer	-1613
▁police	-1614
▁connaît	-1615
▁vieille	-1616
▁utiliser	-1617
▁nu	-1618
▁peine	-1619
▁change	-1620
▁gâteau	-1621
▁convain	-1622
▁hor	-1623
illée	-1624
▁vête	-1625
▁amies	-1626
▁mante	-1627
▁commen	-1628
▁savait	-1629
▁veulent	-1630
▁personnes	-1631
rant	-1632
siez	-1633
▁ign	-1634
▁num	-1635
resse	-1636
▁véri	-1637
▁changé	-1638
▁filles	-1639
▁garder	-1640
▁numéro	-1641
▁devoirs	-1642
▁regardez	-1643
hô	-1644
xi	-1645
ains	-1646
léch	-1647
▁ban	-1648
▁dég	-1649
▁sty	-1650
rible	-1651
▁reçu	-1652
▁faute	-1653
▁libre	-1654
▁santé	-1655
▁secon	-1656
▁sembl	-1657
▁effray	-1658
▁journal	-1659
▁manteau	-1660
ets	-1661
cieux	-1662
▁ordin	-1663
▁montrer	-1664
▁affaires	-1665
▁important	-1666
inc	-1667
iré	-1668
ues	-1669
amen	-1670
écou	-1671
▁rav	-1672
▁bras	-1673
▁gare	-1674
▁type	-1675
ormais	-1676
▁autor	-1677
▁réfléch	-1678
▁w	-1679
teur	-1680
▁bat	-1681
▁fus	-1682
ortes	-1683
▁ceux	-1684
▁honn	-1685
▁pous	-1686
▁reti	-1687
▁celle	-1688
▁vérif	-1689
anglais	-1690
▁cuisine	-1691
▁poisson	-1692
▁désormais	-1693
▁télévision	-1694
agn	-1695
aim	-1696
cul	-1697
▁cu	-1698
▁nerv	-1699
▁nett	-1700
tralie	-1701
▁neige	-1702
▁tasse	-1703
▁danser	-1704
▁devenu	-1705
▁ouvert	-1706
▁penser	-1707
▁règles	-1708
entendre	-1709
▁excuses	-1710
▁fatiguée	-1711
ép	-1712
▁lè	-1713
▁sil	-1714
▁rêve	-1715
▁bruit	-1716
▁droit	-1717
▁réjou	-1718
▁marché	-1719
▁vêtements	-1720
iter	-1721
uite	-1722
▁goû	-1723
urent	-1724
habitu	-1725
mettre	-1726
▁dormi	-1727
▁regre	-1728
▁souff	-1729
▁super	-1730
arrêter	-1731
▁arrive	-1732
▁chiens	-1733
euses	-1734
▁four	-1735
▁réal	-1736
▁sort	-1737
▁diman	-1738
▁magas	-1739
ano	-1740
usé	-1741
umeur	-1742
▁aimer	-1743
▁remar	-1744
▁danger	-1745
▁prépar	-1746
▁trente	-1747
intention	-1748
▁impressi	-1749
▁problèmes	-1750
▁k	-1751
tel	-1752
agne	-1753
ront	-1754
▁cau	-1755
▁plu	-1756
ction	-1757
▁desc	-1758
▁dist	-1759
▁vaut	-1760
▁gagné	-1761
▁plage	-1762
▁signif	-1763
▁lorsque	-1764
rés	-1765
ement	-1766
merci	-1767
▁imag	-1768
▁parl	-1769
▁repr	-1770
▁genre	-1771
▁voulu	-1772
▁parfait	-1773
▁respons	-1774
▁réparer	-1775
▁sérieux	-1776
▁surprise	-1777
ène	-1778
▁ju	-1779
▁neu	-1780
▁tru	-1781
▁vac	-1782
aître	-1783
▁haut	-1784
▁noir	-1785
▁patr	-1786
▁payé	-1787
▁situ	-1788
▁peint	-1789
attendre	-1790
▁dimanche	-1791
ités	-1792
▁fav	-1793
▁remp	-1794
onnaire	-1795
▁cadeau	-1796
▁réussi	-1797
▁anglais	-1798
▁voudriez	-1799
gée	-1800
▁fo	-1801
appr	-1802
oupe	-1803
reuse	-1804
▁lieu	-1805
▁tran	-1806
▁tuer	-1807
▁dange	-1808
▁idiot	-1809
▁inter	-1810
▁tromp	-1811
▁triste	-1812
▁souhait	-1813
▁discuter	-1814
▁meilleure	-1815
▁fonctionne	-1816
▁intéressant	-1817
onte	-1818
érer	-1819
▁clés	-1820
▁vers	-1821
▁façon	-1822
▁ferme	-1823
attends	-1824
▁savons	-1825
▁seriez	-1826
▁suppos	-1827
▁vacances	-1828
▁satisfait	-1829
emb	-1830
voir	-1831
oleil	-1832
pital	-1833
tenir	-1834
▁mess	-1835
▁soleil	-1836
▁regardé	-1837
▁parviens	-1838
▁mens	-1839
▁truc	-1840
▁volé	-1841
▁chanc	-1842
▁expli	-1843
▁route	-1844
▁devenir	-1845
▁souhaite	-1846
ta	-1847
ade	-1848
uss	-1849
dans	-1850
▁jeu	-1851
▁moy	-1852
année	-1853
▁repas	-1854
▁cheval	-1855
▁endorm	-1856
▁invité	-1857
▁chemise	-1858
▁réjouis	-1859
▁jal	-1860
▁liste	-1861
▁classe	-1862
▁projet	-1863
▁équipe	-1864
▁prudent	-1865
▁également	-1866
où	-1867
ces	-1868
▁né	-1869
oids	-1870
quel	-1871
▁six	-1872
arriv	-1873
▁symp	-1874
▁drôle	-1875
▁piano	-1876
entends	-1877
▁dedans	-1878
▁emploi	-1879
▁grosse	-1880
▁guerre	-1881
▁promen	-1882
▁magasin	-1883
▁préféré	-1884
▁seconde	-1885
▁contente	-1886
▁situation	-1887
ok	-1888
des	-1889
enf	-1890
▁tim	-1891
▁éte	-1892
▁servi	-1893
▁manque	-1894
▁compris	-1895
▁lumière	-1896
év	-1897
raî	-1898
éra	-1899
ball	-1900
▁rom	-1901
▁hors	-1902
▁cassé	-1903
▁appare	-1904
▁bateau	-1905
▁nombreux	-1906
ig	-1907
olie	-1908
▁eux	-1909
ables	-1910
▁bais	-1911
▁temp	-1912
▁courir	-1913
▁pommes	-1914
▁amusant	-1915
▁sommeil	-1916
▁suffisamment	-1917
▁bal	-1918
▁riv	-1919
amour	-1920
▁asse	-1921
▁prép	-1922
▁suite	-1923
▁venue	-1924
▁épous	-1925
▁appeler	-1926
▁honnête	-1927
▁travers	-1928
oue	-1929
ède	-1930
▁we	-1931
ense	-1932
▁cru	-1933
▁sel	-1934
mment	-1935
utile	-1936
▁mots	-1937
▁chats	-1938
▁parap	-1939
▁pluie	-1940
▁rends	-1941
▁tiens	-1942
▁avocat	-1943
▁bonnes	-1944
▁devant	-1945
▁fleurs	-1946
▁inform	-1947
▁langue	-1948
▁lunettes	-1949
prit	-1950
▁cré	-1951
▁lar	-1952
▁anim	-1953
▁pard	-1954
ouvert	-1955
▁allée	-1956
▁feriez	-1957
▁lequel	-1958
▁remerci	-1959
▁différent	-1960
▁ordinateur	-1961
▁at	-1962
▁lâ	-1963
▁sc	-1964
ises	-1965
étud	-1966
▁rej	-1967
ature	-1968
▁disc	-1969
▁jard	-1970
▁médi	-1971
▁prin	-1972
▁sors	-1973
▁aurait	-1974
▁fermer	-1975
▁permis	-1976
▁faisait	-1977
▁convaincu	-1978
sons	-1979
▁dicti	-1980
▁fasse	-1981
▁pleur	-1982
▁stylo	-1983
▁aurais	-1984
▁tranqu	-1985
histoire	-1986
▁message	-1987
▁personn	-1988
▁pouvait	-1989
▁intéressé	-1990
ira	-1991
oux	-1992
run	-1993
tit	-1994
elez	-1995
▁dém	-1996
▁sug	-1997
▁éle	-1998
enons	-1999
▁coûte	-2000
▁donna	-2001
acheter	-2002
▁essaie	-2003
▁visite	-2004
▁affaire	-2005
▁contrar	-2006
▁courant	-2007
▁dangereux	-2008
▁finalement	-2009
lu	-2010
là	-2011
art	-2012
▁cam	-2013
▁mou	-2014
▁pai	-2015
▁taxi	-2016
iennes	-2017
▁calme	-2018
▁terre	-2019
▁entend	-2020
▁puisse	-2021
▁traver	-2022
habitude	-2023
étranger	-2024
▁dictionnaire	-2025
gne	-2026
vén	-2027
▁bar	-2028
ouver	-2029
▁aidé	-2030
▁oise	-2031
▁préc	-2032
convén	-2033
▁adore	-2034
▁démis	-2035
▁plain	-2036
▁jardin	-2037
▁porter	-2038
▁semblez	-2039
▁voyager	-2040
▁amoureux	-2041
oli	-2042
olu	-2043
rice	-2044
érée	-2045
ignor	-2046
sante	-2047
▁ador	-2048
▁form	-2049
▁succ	-2050
▁canad	-2051
▁poser	-2052
▁resté	-2053
▁école	-2054
appelle	-2055
▁marche	-2056
▁simple	-2057
convénient	-2058
env	-2059
oth	-2060
llar	-2061
▁mec	-2062
▁min	-2063
oyons	-2064
tique	-2065
▁rare	-2066
▁voix	-2067
▁médic	-2068
▁poste	-2069
▁réuss	-2070
▁tombé	-2071
▁dollar	-2072
▁rendez	-2073
▁succès	-2074
▁étrange	-2075
▁prochain	-2076
da	-2077
cha	-2078
roy	-2079
este	-2080
▁doi	-2081
▁int	-2082
▁rég	-2083
▁sus	-2084
▁coin	-2085
▁norm	-2086
▁poids	-2087
▁blague	-2088
▁chante	-2089
▁manqué	-2090
▁prison	-2091
oci	-2092
▁œu	-2093
luie	-2094
▁laqu	-2095
▁radi	-2096
▁leurs	-2097
essayer	-2098
aitement	-2099
▁dérange	-2100
▁rivière	-2101
▁laquelle	-2102
▁parapluie	-2103
▁ressemble	-2104
ek	-2105
▁hô	-2106
▁ni	-2107
inée	-2108
othè	-2109
tenu	-2110
▁nég	-2111
alent	-2112
▁fera	-2113
▁week	-2114
raient	-2115
▁inqui	-2116
▁marié	-2117
▁voilà	-2118
▁incroy	-2119
▁mentir	-2120
▁respec	-2121
▁taille	-2122
▁attends	-2123
▁étudiants	-2124
ël	-2125
ote	-2126
ult	-2127
▁mit	-2128
▁sec	-2129
veill	-2130
▁bleu	-2131
▁forc	-2132
▁noël	-2133
▁patron	-2134
▁appelle	-2135
▁attendu	-2136
▁capable	-2137
▁moindre	-2138
▁foot	-2139
▁mign	-2140
▁prit	-2141
▁corre	-2142
▁ennuy	-2143
▁lever	-2144
▁tenir	-2145
▁voyez	-2146
▁hommes	-2147
▁parole	-2148
▁verrou	-2149
▁viande	-2150
▁douleur	-2151
▁démissi	-2152
▁étudiant	-2153
▁supporter	-2154
▁inconvénient	-2155
az	-2156
aï	-2157
▁gau	-2158
▁rat	-2159
▁tué	-2160
oudre	-2161
▁choc	-2162
▁neuf	-2163
▁pars	-2164
▁doute	-2165
▁ignor	-2166
iennent	-2167
▁chaise	-2168
▁papier	-2169
▁recher	-2170
▁risque	-2171
▁command	-2172
▁dollars	-2173
▁viendra	-2174
▁première	-2175
oie	-2176
éch	-2177
▁rh	-2178
lace	-2179
issez	-2180
▁actu	-2181
▁extr	-2182
▁mien	-2183
▁consc	-2184
▁pieds	-2185
▁douche	-2186
▁furent	-2187
▁montré	-2188
▁suivre	-2189
▁essayez	-2190
▁garçons	-2191
▁appareil	-2192
▁apprécié	-2193
▁continuer	-2194
▁connaissez	-2195
isée	-2196
éter	-2197
▁aus	-2198
▁gri	-2199
▁rue	-2200
▁œil	-2201
tions	-2202
titut	-2203
▁vend	-2204
▁dents	-2205
▁impos	-2206
▁publi	-2207
▁sucre	-2208
▁emprun	-2209
▁impati	-2210
▁mettez	-2211
▁ouvrir	-2212
▁vendre	-2213
▁cherche	-2214
▁rarement	-2215
part	-2216
▁div	-2217
▁dos	-2218
▁men	-2219
▁mur	-2220
▁spé	-2221
inqui	-2222
▁bons	-2223
▁faveur	-2224
▁volont	-2225
▁attrapé	-2226
▁demanda	-2227
▁parfois	-2228
▁tableau	-2229
▁résoudre	-2230
▁signifie	-2231
▁connaître	-2232
▁proposition	-2233
apé	-2234
iti	-2235
vez	-2236
irer	-2237
quis	-2238
▁crav	-2239
▁poss	-2240
oindre	-2241
▁allés	-2242
▁année	-2243
▁pleut	-2244
▁prêts	-2245
▁radio	-2246
▁serez	-2247
▁spéci	-2248
▁battre	-2249
▁portes	-2250
▁vouloir	-2251
▁conseils	-2252
▁débarras	-2253
▁japonais	-2254
▁merveill	-2255
▁retourner	-2256
▁tranquille	-2257
▁responsable	-2258
ges	-2259
▁sk	-2260
ôtre	-2261
▁pou	-2262
inion	-2263
▁goût	-2264
▁note	-2265
▁pire	-2266
esprit	-2267
oublie	-2268
▁aviez	-2269
▁bienv	-2270
▁finir	-2271
▁pause	-2272
▁silen	-2273
instant	-2274
ression	-2275
érience	-2276
▁erreurs	-2277
intérieur	-2278
▁attendez	-2279
▁comprend	-2280
ze	-2281
dez	-2282
onge	-2283
quée	-2284
indre	-2285
onnée	-2286
▁méri	-2287
▁morte	-2288
▁oncle	-2289
▁ouver	-2290
▁repro	-2291
▁femmes	-2292
▁parles	-2293
▁coucher	-2294
▁cravate	-2295
▁promets	-2296
▁rapport	-2297
▁accident	-2298
▁cuisiner	-2299
▁malheure	-2300
▁australie	-2301
ma	-2302
lat	-2303
oué	-2304
aign	-2305
chée	-2306
ible	-2307
▁oui	-2308
▁curi	-2309
▁lève	-2310
▁mord	-2311
▁honte	-2312
▁pomme	-2313
▁constr	-2314
▁contac	-2315
▁mesure	-2316
▁reviend	-2317
▁embrassé	-2318
gt	-2319
ites	-2320
▁mor	-2321
▁coll	-2322
▁empl	-2323
▁sugg	-2324
▁bille	-2325
▁fermé	-2326
▁fruit	-2327
▁rhume	-2328
appeler	-2329
▁rentré	-2330
▁apporte	-2331
▁conduis	-2332
▁couleur	-2333
▁pleuvoir	-2334
▁heureuses	-2335
▁impossible	-2336
▁parfaitement	-2337
ah	-2338
aff	-2339
tir	-2340
dées	-2341
ines	-2342
▁ait	-2343
▁cer	-2344
▁arme	-2345
▁atta	-2346
▁ciel	-2347
▁cray	-2348
▁dieu	-2349
▁censé	-2350
▁jolie	-2351
▁manqu	-2352
▁salle	-2353
▁mienne	-2354
▁prêtes	-2355
▁racont	-2356
▁animaux	-2357
▁propres	-2358
▁réveillé	-2359
▁reconnaissant	-2360
mi	-2361
exc	-2362
bout	-2363
oque	-2364
unes	-2365
▁lac	-2366
▁cent	-2367
▁vécu	-2368
itable	-2369
▁allum	-2370
▁arbre	-2371
▁blanc	-2372
▁enfin	-2373
▁proté	-2374
▁quels	-2375
▁copine	-2376
▁debout	-2377
▁mariée	-2378
▁passée	-2379
▁sentir	-2380
▁parlons	-2381
attendais	-2382
iversaire	-2383
▁confecti	-2384
▁enseignant	-2385
▁nombreuses	-2386
urg	-2387
▁em	-2388
▁brû	-2389
▁loi	-2390
▁tre	-2391
appel	-2392
sions	-2393
▁bain	-2394
ouvrir	-2395
▁fiche	-2396
▁crains	-2397
▁médica	-2398
ignorais	-2399
▁plaisant	-2400
▁terrible	-2401
▁présenter	-2402
gr	-2403
opp	-2404
imag	-2405
▁clo	-2406
▁esc	-2407
▁pau	-2408
lerai	-2409
▁batt	-2410
▁bord	-2411
▁bout	-2412
▁rais	-2413
▁viol	-2414
ouette	-2415
▁arrêt	-2416
▁bibli	-2417
▁dirai	-2418
▁envir	-2419
▁seras	-2420
▁seuls	-2421
▁échec	-2422
▁dirait	-2423
▁obtenu	-2424
▁sortez	-2425
▁vivent	-2426
eusement	-2427
▁apporté	-2428
▁compter	-2429
▁sembles	-2430
▁pourrions	-2431
iée	-2432
ême	-2433
igne	-2434
oite	-2435
avion	-2436
ingue	-2437
▁dort	-2438
▁indi	-2439
▁susp	-2440
▁vent	-2441
lettes	-2442
rerais	-2443
▁gérer	-2444
▁sport	-2445
hôpital	-2446
ination	-2447
▁autour	-2448
▁banque	-2449
▁canapé	-2450
▁photos	-2451
▁nerveux	-2452
▁occupés	-2453
▁opinion	-2454
▁partout	-2455
▁sourire	-2456
na	-2457
ick	-2458
mén	-2459
atre	-2460
cule	-2461
iver	-2462
▁amb	-2463
▁sep	-2464
expli	-2465
ières	-2466
oubli	-2467
▁face	-2468
▁fant	-2469
▁géni	-2470
▁pain	-2471
▁fière	-2472
▁réser	-2473
▁trait	-2474
▁gauche	-2475
▁habite	-2476
▁couteau	-2477
▁possède	-2478
▁service	-2479
▁bibliothè	-2480
▁réfléchir	-2481
▁facilement	-2482
ave	-2483
mée	-2484
vée	-2485
▁bâ	-2486
▁bis	-2487
▁cli	-2488
▁hum	-2489
▁nez	-2490
▁éve	-2491
▁sang	-2492
▁saou	-2493
▁dépri	-2494
▁lente	-2495
▁trans	-2496
▁écriv	-2497
▁celles	-2498
▁quatre	-2499
▁résult	-2500
▁soirée	-2501
▁soyons	-2502
▁compagn	-2503
▁manquer	-2504
▁quitter	-2505
▁réussir	-2506
▁commença	-2507
▁travaillé	-2508
asp	-2509
gan	-2510
its	-2511
let	-2512
men	-2513
enus	-2514
oign	-2515
tres	-2516
ution	-2517
▁dure	-2518
▁soup	-2519
embras	-2520
▁amusé	-2521
▁fallu	-2522
▁détail	-2523
▁prêter	-2524
▁talent	-2525
▁avaient	-2526
▁extrême	-2527
▁regrette	-2528
▁bibliothèque	-2529
st	-2530
▁lé	-2531
alité	-2532
ombre	-2533
▁dépê	-2534
▁dési	-2535
▁huit	-2536
▁vide	-2537
▁début	-2538
▁sympa	-2539
▁utile	-2540
▁envoyé	-2541
▁groupe	-2542
▁adresse	-2543
▁blessée	-2544
▁endormi	-2545
▁fallait	-2546
▁tempête	-2547
▁chouette	-2548
▁football	-2549
▁conscience	-2550
lég	-2551
mets	-2552
ourv	-2553
quie	-2554
îmes	-2555
▁mér	-2556
▁tri	-2557
arbre	-2558
▁déçu	-2559
▁guit	-2560
▁boute	-2561
▁laver	-2562
▁tenez	-2563
arriver	-2564
▁auriez	-2565
▁courses	-2566
▁dépourv	-2567
▁aimerais	-2568
▁chanceux	-2569
▁certainement	-2570
los	-2571
tés	-2572
acle	-2573
enti	-2574
isse	-2575
▁but	-2576
▁mém	-2577
▁pat	-2578
aines	-2579
liqué	-2580
▁base	-2581
▁chal	-2582
▁donc	-2583
▁pass	-2584
▁preu	-2585
▁ravi	-2586
atique	-2587
▁dispu	-2588
▁forte	-2589
▁avions	-2590
▁dirais	-2591
▁espoir	-2592
▁promis	-2593
▁visage	-2594
▁patient	-2595
▁préférée	-2596
▁z	-2597
die	-2598
gez	-2599
▁eh	-2600
▁ve	-2601
▁lim	-2602
▁ten	-2603
ancer	-2604
▁atte	-2605
▁célè	-2606
▁priv	-2607
▁œufs	-2608
▁appro	-2609
▁clair	-2610
▁forcé	-2611
▁forme	-2612
▁accord	-2613
▁savent	-2614
lication	-2615
▁conduit	-2616
▁décider	-2617
▁préparé	-2618
▁supposé	-2619
▁promesse	-2620
▁protéger	-2621
▁vérifier	-2622
▁silencieux	-2623
tif	-2624
▁ém	-2625
enne	-2626
espé	-2627
obre	-2628
ycle	-2629
▁cho	-2630
▁doc	-2631
▁ens	-2632
▁obj	-2633
aimes	-2634
cient	-2635
gment	-2636
▁ayez	-2637
▁math	-2638
▁cesse	-2639
▁excel	-2640
▁glace	-2641
intéres	-2642
▁frères	-2643
▁inquie	-2644
▁pleine	-2645
▁proche	-2646
▁public	-2647
▁quitté	-2648
▁séjour	-2649
▁timide	-2650
▁guitare	-2651
▁menteur	-2652
▁ouverte	-2653
▁portait	-2654
▁rappeler	-2655
▁solution	-2656
▁lentement	-2657
zz	-2658
ach	-2659
aus	-2660
tée	-2661
omas	-2662
▁fol	-2663
aurai	-2664
ilité	-2665
▁paix	-2666
▁sept	-2667
▁tick	-2668
examen	-2669
▁champ	-2670
▁refus	-2671
asseoir	-2672
▁cuisin	-2673
▁longue	-2674
▁thomas	-2675
▁tombée	-2676
▁étrang	-2677
▁entière	-2678
▁quelles	-2679
▁regarda	-2680
▁revenir	-2681
▁comporte	-2682
▁embarras	-2683
▁gentille	-2684
▁prudente	-2685
▁permettre	-2686
▁préférerais	-2687
▁actuellement	-2688
yo	-2689
gés	-2690
ège	-2691
amis	-2692
okyo	-2693
onna	-2694
tons	-2695
▁cos	-2696
▁dév	-2697
▁mil	-2698
chons	-2699
▁chac	-2700
▁déli	-2701
▁sauf	-2702
réable	-2703
▁congé	-2704
▁idées	-2705
▁tient	-2706
▁vraie	-2707
▁vôtre	-2708
▁épuis	-2709
écouter	-2710
▁dispar	-2711
▁nature	-2712
▁refuse	-2713
▁montrez	-2714
▁certains	-2715
▁commandé	-2716
▁nettoyer	-2717
▁préparer	-2718
impression	-2719
▁sentiment	-2720
▁plaisanter	-2721
▁rencontrés	-2722
▁extrêmement	-2723
amb	-2724
ath	-2725
bes	-2726
inf	-2727
noc	-2728
ope	-2729
tié	-2730
ayez	-2731
olat	-2732
tume	-2733
▁bic	-2734
▁eng	-2735
▁eut	-2736
▁mét	-2737
asion	-2738
raite	-2739
▁aies	-2740
▁ball	-2741
▁pier	-2742
▁soud	-2743
essaye	-2744
écrire	-2745
▁cause	-2746
▁démén	-2747
▁nulle	-2748
▁rêves	-2749
▁tokyo	-2750
▁attent	-2751
▁moitié	-2752
▁mérite	-2753
▁soucie	-2754
▁augment	-2755
▁aimeriez	-2756
▁coupable	-2757
▁semblait	-2758
cid	-2759
ime	-2760
lem	-2761
rif	-2762
tal	-2763
œil	-2764
▁fâ	-2765
▁én	-2766
avis	-2767
itée	-2768
liez	-2769
oles	-2770
ture	-2771
▁art	-2772
▁tel	-2773
▁tir	-2774
erais	-2775
hôtel	-2776
▁bâti	-2777
▁chef	-2778
▁faux	-2779
▁mach	-2780
▁meur	-2781
▁tien	-2782
▁trah	-2783
▁démar	-2784
▁organ	-2785
▁pours	-2786
▁telle	-2787
yclette	-2788
▁accomp	-2789
▁années	-2790
▁frappé	-2791
▁jeunes	-2792
▁marier	-2793
▁obligé	-2794
▁revenu	-2795
▁seules	-2796
▁étudié	-2797
▁célèbre	-2798
extérieur	-2799
▁occupées	-2800
▁amoureuse	-2801
▁bouteille	-2802
▁emprunter	-2803
▁bicyclette	-2804
ps	-2805
gie	-2806
lex	-2807
▁hâ	-2808
▁bag	-2809
▁gol	-2810
▁pol	-2811
▁pun	-2812
▁tot	-2813
ieurs	-2814
ordin	-2815
▁dent	-2816
▁flic	-2817
▁joué	-2818
▁sûrs	-2819
▁tire	-2820
▁biscu	-2821
▁espér	-2822
▁frais	-2823
▁gagne	-2824
▁grimp	-2825
▁innoc	-2826
▁sûres	-2827
▁cloche	-2828
▁crayon	-2829
▁larmes	-2830
▁recomm	-2831
▁concert	-2832
▁docteur	-2833
▁habitué	-2834
▁instant	-2835
▁mariage	-2836
▁marrant	-2837
▁déranger	-2838
▁certaines	-2839
▁compagnie	-2840
▁promenade	-2841
cer	-2842
lib	-2843
éli	-2844
▁ru	-2845
aies	-2846
▁naï	-2847
▁âgé	-2848
▁camp	-2849
▁golf	-2850
▁tiré	-2851
▁éner	-2852
autres	-2853
cieuse	-2854
ifique	-2855
lation	-2856
▁croit	-2857
▁faits	-2858
▁signe	-2859
ctement	-2860
oubliez	-2861
▁commis	-2862
▁jaloux	-2863
▁pauvre	-2864
▁profon	-2865
accident	-2866
▁accepté	-2867
▁plupart	-2868
▁répondu	-2869
▁horrible	-2870
▁mensonge	-2871
▁plusieurs	-2872
oh	-2873
cée	-2874
eus	-2875
onom	-2876
rier	-2877
▁fix	-2878
▁hur	-2879
▁ira	-2880
▁mai	-2881
▁née	-2882
▁réc	-2883
arrêt	-2884
cteur	-2885
▁dest	-2886
▁gasp	-2887
▁levé	-2888
▁oubl	-2889
▁pizz	-2890
essaie	-2891
itique	-2892
▁capit	-2893
▁folle	-2894
▁lâche	-2895
▁morts	-2896
▁offre	-2897
▁prévu	-2898
atiques	-2899
▁cacher	-2900
▁chacun	-2901
▁disent	-2902
▁entraî	-2903
▁costume	-2904
▁ensuite	-2905
▁prenons	-2906
▁prisonn	-2907
▁reviens	-2908
▁contrôle	-2909
▁préoccup	-2910
▁remercier	-2911
▁différence	-2912
co	-2913
cip	-2914
dis	-2915
eug	-2916
qua	-2917
▁pâ	-2918
ouse	-2919
raph	-2920
yons	-2921
▁lou	-2922
anche	-2923
ences	-2924
inéma	-2925
▁gars	-2926
▁loup	-2927
▁magn	-2928
▁nage	-2929
▁raté	-2930
▁tend	-2931
entend	-2932
▁avion	-2933
▁balle	-2934
▁crain	-2935
▁répar	-2936
isément	-2937
ivement	-2938
▁avance	-2939
▁billet	-2940
▁cinéma	-2941
▁dingue	-2942
▁grossi	-2943
▁serons	-2944
▁écoute	-2945
▁écouté	-2946
▁concent	-2947
▁machine	-2948
▁toucher	-2949
expliquer	-2950
▁autorisé	-2951
▁discours	-2952
▁remarqué	-2953
▁incroyable	-2954
▁précisément	-2955
▁anniversaire	-2956
cuse	-2957
icul	-2958
orme	-2959
▁fré	-2960
▁nav	-2961
▁oct	-2962
accep	-2963
▁méch	-2964
▁sand	-2965
▁trad	-2966
équipe	-2967
▁colle	-2968
▁roman	-2969
▁sœurs	-2970
▁trucs	-2971
▁voler	-2972
étudier	-2973
▁claire	-2974
▁croyez	-2975
▁ferait	-2976
▁fruits	-2977
▁moyens	-2978
▁oiseau	-2979
▁paraît	-2980
▁sauver	-2981
▁servie	-2982
▁échapp	-2983
▁boisson	-2984
▁choisir	-2985
▁éveillé	-2986
▁chocolat	-2987
▁demandez	-2988
▁printemps	-2989
▁abandonner	-2990
▁entièrement	-2991
ru	-2992
ich	-2993
nes	-2994
tim	-2995
iles	-2996
ième	-2997
▁cle	-2998
▁hér	-2999
▁obé	-3000
istes	-3001
▁bour	-3002
▁diri	-3003
ulaire	-3004
▁aveug	-3005
▁corde	-3006
▁corri	-3007
▁progr	-3008
▁rempl	-3009
▁aiment	-3010
▁choisi	-3011
▁contrô	-3012
▁fasses	-3013
▁idiote	-3014
▁paress	-3015
▁sentez	-3016
▁surviv	-3017
▁arrivée	-3018
▁descend	-3019
▁effrayé	-3020
▁octobre	-3021
▁voisins	-3022
▁agréable	-3023
▁attraper	-3024
▁retraite	-3025
▁laisserai	-3026
▁débarrasser	-3027
▁confectionné	-3028
lin	-3029
oti	-3030
▁hy	-3031
▁ir	-3032
rées	-3033
▁cir	-3034
▁eur	-3035
iques	-3036
▁avis	-3037
▁date	-3038
▁monn	-3039
▁romp	-3040
▁sold	-3041
▁vert	-3042
illage	-3043
▁aille	-3044
▁améri	-3045
▁dérou	-3046
▁hôtel	-3047
▁mêmes	-3048
occuper	-3049
▁cartes	-3050
▁chaude	-3051
▁dépend	-3052
▁restau	-3053
▁tienne	-3054
▁voyons	-3055
▁échecs	-3056
▁étudie	-3057
▁chaleur	-3058
▁inquiet	-3059
▁monnaie	-3060
▁mémoire	-3061
▁suggère	-3062
▁institut	-3063
▁nouveaux	-3064
▁prendrai	-3065
▁voitures	-3066
▁conseillé	-3067
▁impatient	-3068
▁merveilleux	-3069
ann	-3070
▁hé	-3071
ffre	-3072
port	-3073
▁fum	-3074
attra	-3075
libat	-3076
▁annu	-3077
▁fume	-3078
▁lour	-3079
▁posé	-3080
▁tenu	-3081
▁exemp	-3082
▁force	-3083
▁jambe	-3084
▁perte	-3085
▁sandw	-3086
▁suivi	-3087
urgence	-3088
▁arbres	-3089
▁bouton	-3090
▁cessez	-3091
▁ennuis	-3092
▁gardez	-3093
▁grands	-3094
▁pêcher	-3095
▁rendit	-3096
▁appelez	-3097
▁couvert	-3098
▁célibat	-3099
▁détails	-3100
▁objecti	-3101
quisition	-3102
▁peinture	-3103
▁retourne	-3104
▁terminer	-3105
▁comprenez	-3106
▁connaissance	-3107
▁démissionner	-3108
assé	-3109
itié	-3110
quez	-3111
▁lev	-3112
▁met	-3113
▁pén	-3114
aband	-3115
inter	-3116
▁cous	-3117
▁croy	-3118
▁grat	-3119
▁mecs	-3120
▁soci	-3121
▁soif	-3122
ection	-3123
iendra	-3124
▁saoul	-3125
▁veste	-3126
enseign	-3127
oublier	-3128
èrement	-3129
▁débrou	-3130
▁génial	-3131
▁normal	-3132
▁refusé	-3133
▁restée	-3134
▁sortie	-3135
▁tourne	-3136
▁valise	-3137
▁joindre	-3138
▁prévois	-3139
▁spécial	-3140
▁biscuits	-3141
▁recherche	-3142
▁toilettes	-3143
▁véritable	-3144
▁réellement	-3145
aque	-3146
gues	-3147
olog	-3148
usez	-3149
vres	-3150
ûmes	-3151
▁fis	-3152
▁mir	-3153
▁vus	-3154
▁chin	-3155
▁décé	-3156
▁lave	-3157
▁mise	-3158
▁pare	-3159
▁sale	-3160
▁éloi	-3161
▁brill	-3162
▁cache	-3163
▁corps	-3164
▁moyen	-3165
▁ouvre	-3166
▁siège	-3167
▁songé	-3168
▁soupe	-3169
▁vaiss	-3170
astique	-3171
excuser	-3172
univers	-3173
▁camion	-3174
▁fermez	-3175
▁sombre	-3176
▁unique	-3177
▁bagages	-3178
▁refaire	-3179
▁reposer	-3180
embrasser	-3181
▁fatigués	-3182
▁abandonné	-3183
▁construit	-3184
▁disposons	-3185
▁découvert	-3186
▁mauvaises	-3187
▁passeport	-3188
▁restaurant	-3189
▁impressionn	-3190
œu	-3191
nez	-3192
ohn	-3193
omb	-3194
aill	-3195
essi	-3196
idée	-3197
▁occ	-3198
▁tap	-3199
▁élè	-3200
aisse	-3201
ident	-3202
ouvre	-3203
prise	-3204
▁coop	-3205
▁john	-3206
▁pont	-3207
▁quar	-3208
▁trac	-3209
emploi	-3210
urance	-3211
▁caché	-3212
▁connu	-3213
▁famil	-3214
▁march	-3215
▁pizza	-3216
affaire	-3217
▁allait	-3218
▁durant	-3219
▁fermée	-3220
▁grandi	-3221
▁rentre	-3222
▁verrai	-3223
▁asseoir	-3224
▁contact	-3225
▁devenue	-3226
▁fassiez	-3227
▁matinée	-3228
▁écouter	-3229
australie	-3230
▁disposez	-3231
▁sandwich	-3232
▁semaines	-3233
▁meilleurs	-3234
▁vaisselle	-3235
▁sentiments	-3236
▁imagination	-3237
▁attentivement	-3238
inv	-3239
ock	-3240
sib	-3241
aiss	-3242
ectu	-3243
erci	-3244
isez	-3245
lise	-3246
romp	-3247
▁ore	-3248
▁pop	-3249
▁ras	-3250
aimer	-3251
ative	-3252
esses	-3253
▁enne	-3254
▁exam	-3255
▁semb	-3256
▁vint	-3257
échapp	-3258
▁jeter	-3259
▁lisez	-3260
▁parie	-3261
▁règle	-3262
▁vieil	-3263
▁vingt	-3264
itation	-3265
▁absolu	-3266
▁attrap	-3267
▁cassée	-3268
▁commun	-3269
▁envers	-3270
▁généra	-3271
▁pantal	-3272
▁pleuré	-3273
▁pressé	-3274
▁sentis	-3275
▁traite	-3276
▁échoué	-3277
inquiète	-3278
▁poursui	-3279
▁apprécie	-3280
▁bâtiment	-3281
▁continué	-3282
▁difficul	-3283
▁espérons	-3284
▁essayons	-3285
▁médicament	-3286
od	-3287
adm	-3288
eff	-3289
els	-3290
rib	-3291
tru	-3292
▁tâ	-3293
ales	-3294
cine	-3295
hier	-3296
reur	-3297
èvre	-3298
▁has	-3299
▁imm	-3300
▁riz	-3301
elopp	-3302
épous	-3303
▁coût	-3304
▁lond	-3305
▁plac	-3306
▁requ	-3307
▁révé	-3308
▁sert	-3309
allons	-3310
lément	-3311
▁divor	-3312
▁joues	-3313
▁ligne	-3314
▁morce	-3315
▁prise	-3316
▁spect	-3317
▁tenté	-3318
imagine	-3319
▁accusé	-3320
▁ailles	-3321
▁courag	-3322
▁devais	-3323
▁ignore	-3324
▁pierre	-3325
▁résolu	-3326
▁ticket	-3327
▁touche	-3328
▁environ	-3329
▁londres	-3330
▁oiseaux	-3331
apprendre	-3332
▁chansons	-3333
▁plaindre	-3334
▁souvenir	-3335
▁sérieuse	-3336
▁terminée	-3337
▁trouvait	-3338
▁viendrai	-3339
▁viennent	-3340
▁quelconque	-3341
▁appartement	-3342
▁intelligente	-3343
ack	-3344
ber	-3345
gné	-3346
obé	-3347
rig	-3348
uer	-3349
▁us	-3350
cier	-3351
ides	-3352
quet	-3353
rase	-3354
▁ach	-3355
▁adm	-3356
▁cul	-3357
raign	-3358
êtres	-3359
▁dise	-3360
▁hâte	-3361
▁ivre	-3362
▁mett	-3363
▁ridi	-3364
▁vidé	-3365
arrête	-3366
import	-3367
mettez	-3368
étudie	-3369
▁condu	-3370
▁habit	-3371
▁maman	-3372
▁marre	-3373
▁musée	-3374
ensible	-3375
▁absent	-3376
▁bouche	-3377
▁droite	-3378
▁jambes	-3379
▁mangez	-3380
▁nouvel	-3381
▁phrase	-3382
▁possib	-3383
▁preuve	-3384
▁rumeur	-3385
▁sauter	-3386
▁artiste	-3387
▁disparu	-3388
▁prévenu	-3389
▁réalité	-3390
▁vitesse	-3391
intéresse	-3392
▁accepter	-3393
▁fenêtres	-3394
▁portable	-3395
▁pratique	-3396
▁expliquer	-3397
▁serviette	-3398
▁absolument	-3399
▁intéressée	-3400
▁magnifique	-3401
▁totalement	-3402
▁travailles	-3403
▁malheureuse	-3404
▁généralement	-3405
ué	-3406
ém	-3407
irm	-3408
lus	-3409
oya	-3410
ric	-3411
▁ly	-3412
▁pn	-3413
ieux	-3414
inue	-3415
urer	-3416
▁chi	-3417
▁dom	-3418
▁maî	-3419
▁pla	-3420
▁ram	-3421
▁tar	-3422
appar	-3423
prouv	-3424
tière	-3425
▁ajou	-3426
▁bros	-3427
▁déce	-3428
▁papa	-3429
▁poup	-3430
▁retr	-3431
▁sain	-3432
▁sinc	-3433
▁trom	-3434
▁trou	-3435
▁élég	-3436
▁fourn	-3437
▁fréqu	-3438
▁jouez	-3439
▁monte	-3440
▁privé	-3441
▁selon	-3442
▁sépar	-3443
▁tirer	-3444
▁venus	-3445
▁écris	-3446
▁allées	-3447
▁amusée	-3448
▁assise	-3449
▁couper	-3450
▁devint	-3451
▁essaya	-3452
▁hasard	-3453
▁chausse	-3454
▁grandes	-3455
▁invités	-3456
▁profond	-3457
▁reconnu	-3458
▁donnerai	-3459
▁probable	-3460
▁produire	-3461
▁présente	-3462
▁resterai	-3463
▁supporte	-3464
expérience	-3465
▁conseilla	-3466
▁contrôler	-3467
▁appartient	-3468
▁commençons	-3469
▁différente	-3470
▁connaissait	-3471
▁célibataire	-3472
ds	-3473
hi	-3474
auc	-3475
gén	-3476
idé	-3477
▁zo	-3478
aule	-3479
lade	-3480
obli	-3481
érir	-3482
▁eau	-3483
▁inj	-3484
▁sub	-3485
aimez	-3486
allez	-3487
▁domm	-3488
▁fich	-3489
▁fous	-3490
▁paie	-3491
▁soul	-3492
▁sout	-3493
accomp	-3494
ercice	-3495
vement	-3496
▁buvez	-3497
▁couru	-3498
▁gardé	-3499
▁grave	-3500
▁héros	-3501
▁porté	-3502
▁soule	-3503
▁chauff	-3504
▁effort	-3505
▁laissa	-3506
▁partis	-3507
▁portef	-3508
▁soient	-3509
▁suffit	-3510
empêcher	-3511
▁bonjour	-3512
▁faisais	-3513
▁ferions	-3514
▁maladie	-3515
▁respect	-3516
▁détendre	-3517
▁ennuyeux	-3518
▁pantalon	-3519
▁raconter	-3520
▁rappelez	-3521
▁semblant	-3522
▁expérience	-3523
era	-3524
mar	-3525
mbre	-3526
mett	-3527
▁déç	-3528
▁exi	-3529
▁pis	-3530
assit	-3531
étage	-3532
▁prét	-3533
allais	-3534
dition	-3535
euille	-3536
itions	-3537
▁banan	-3538
▁const	-3539
▁coupe	-3540
▁crime	-3541
▁dégoû	-3542
▁entré	-3543
▁notes	-3544
▁prési	-3545
▁pénét	-3546
▁quant	-3547
▁skier	-3548
▁suici	-3549
▁surve	-3550
adresse	-3551
▁cercle	-3552
▁coûter	-3553
▁faible	-3554
▁mariés	-3555
▁portez	-3556
▁vienne	-3557
▁épouse	-3558
▁arrivés	-3559
▁atteint	-3560
▁blessés	-3561
▁curieux	-3562
▁déjeuné	-3563
▁effectu	-3564
▁excusez	-3565
▁laissée	-3566
▁prouver	-3567
▁ressent	-3568
▁risques	-3569
▁silence	-3570
▁tourner	-3571
▁continue	-3572
▁bienvenue	-3573
▁embrasser	-3574
▁excellent	-3575
▁gentilles	-3576
▁importante	-3577
▁travaillez	-3578
▁fonctionner	-3579
▁portefeuille	-3580
pl	-3581
dra	-3582
oph	-3583
pes	-3584
▁pê	-3585
heur	-3586
ieur	-3587
isés	-3588
éner	-3589
▁cre	-3590
▁opp	-3591
▁zoo	-3592
endie	-3593
ément	-3594
▁atti	-3595
▁pati	-3596
▁proc	-3597
▁vues	-3598
▁écla	-3599
habite	-3600
écoute	-3601
▁beaux	-3602
▁brisé	-3603
▁fantô	-3604
▁incap	-3605
▁longs	-3606
▁malch	-3607
▁match	-3608
▁paire	-3609
▁paris	-3610
▁théor	-3611
iendrai	-3612
onnable	-3613
épouser	-3614
▁allong	-3615
▁ambiti	-3616
▁cherch	-3617
▁combat	-3618
▁crédit	-3619
▁instru	-3620
▁négoci	-3621
▁poupée	-3622
▁regret	-3623
▁rejoin	-3624
▁sortit	-3625
▁trompe	-3626
▁trompé	-3627
▁aveugle	-3628
▁obligée	-3629
▁piscine	-3630
▁prendra	-3631
▁vouliez	-3632
▁écrivez	-3633
▁promesses	-3634
▁spectacle	-3635
▁suffisant	-3636
▁impressionné	-3637
▁intéressante	-3638
ïn	-3639
hor	-3640
mbl	-3641
ron	-3642
arme	-3643
▁adv	-3644
▁anc	-3645
▁cit	-3646
▁dan	-3647
▁dès	-3648
▁lég	-3649
▁roi	-3650
▁vir	-3651
aitez	-3652
▁amen	-3653
▁boit	-3654
▁pron	-3655
aimait	-3656
aliers	-3657
ctions	-3658
▁fiers	-3659
▁flics	-3660
▁guère	-3661
▁magaz	-3662
▁ravie	-3663
endroit	-3664
iration	-3665
▁assist	-3666
▁cesser	-3667
▁chatte	-3668
▁fièvre	-3669
▁humeur	-3670
▁matins	-3671
▁mignon	-3672
▁monter	-3673
▁ouvrez	-3674
▁rendue	-3675
▁régime	-3676
▁seront	-3677
▁vivant	-3678
▁vivons	-3679
▁éteint	-3680
▁pousser	-3681
▁princip	-3682
▁baseball	-3683
▁canadien	-3684
▁discussi	-3685
appellerai	-3686
▁contrarié	-3687
▁devraient	-3688
▁escaliers	-3689
▁fatiguées	-3690
▁incapable	-3691
▁réveiller	-3692
acquisition	-3693
▁changement	-3694
▁fonctionné	-3695
▁supplément	-3696
▁explication	-3697
▁informations	-3698
▁habituellement	-3699
cte	-3700
oré	-3701
tin	-3702
▁gl	-3703
gées	-3704
lair	-3705
rage	-3706
sert	-3707
érop	-3708
abord	-3709
iment	-3710
onses	-3711
▁doté	-3712
▁jack	-3713
▁maig	-3714
▁pose	-3715
▁remb	-3716
▁sage	-3717
▁étoi	-3718
amuser	-3719
ateurs	-3720
humeur	-3721
▁améli	-3722
▁films	-3723
▁garer	-3724
▁loyer	-3725
▁mille	-3726
▁poème	-3727
▁souri	-3728
▁écout	-3729
irmière	-3730
éroport	-3731
▁allume	-3732
▁excuse	-3733
▁lorsqu	-3734
▁remont	-3735
▁sentie	-3736
▁touché	-3737
▁blesser	-3738
▁exemple	-3739
▁partage	-3740
▁répéter	-3741
▁sentais	-3742
▁apportez	-3743
▁convient	-3744
▁enseigne	-3745
▁expliqué	-3746
▁innocent	-3747
▁journaux	-3748
▁nerveuse	-3749
▁réponses	-3750
▁résultat	-3751
▁étranger	-3752
▁conscient	-3753
▁direction	-3754
▁permission	-3755
ub	-3756
gué	-3757
lée	-3758
oll	-3759
réh	-3760
▁gê	-3761
erti	-3762
inte	-3763
qués	-3764
sent	-3765
tier	-3766
uyer	-3767
èter	-3768
▁hyp	-3769
▁new	-3770
▁rig	-3771
▁ski	-3772
appro	-3773
après	-3774
cipit	-3775
ignit	-3776
oires	-3777
ottes	-3778
ticle	-3779
ïncid	-3780
▁amic	-3781
▁club	-3782
▁coul	-3783
▁insp	-3784
▁manu	-3785
▁renv	-3786
▁test	-3787
▁état	-3788
avance	-3789
entraî	-3790
église	-3791
▁auras	-3792
▁cessé	-3793
▁chine	-3794
▁circu	-3795
▁emmen	-3796
▁léger	-3797
▁perds	-3798
▁procé	-3799
▁rêver	-3800
▁tombe	-3801
enfants	-3802
▁bouger	-3803
▁concer	-3804
▁décida	-3805
▁détend	-3806
▁examen	-3807
▁excité	-3808
▁navire	-3809
▁neiger	-3810
▁refusa	-3811
▁terrif	-3812
▁veniez	-3813
▁violon	-3814
▁voleur	-3815
institut	-3816
▁choisis	-3817
▁coïncid	-3818
▁dommage	-3819
▁déprimé	-3820
▁facture	-3821
▁inutile	-3822
▁jackson	-3823
▁jalouse	-3824
▁partons	-3825
▁peindre	-3826
▁projets	-3827
▁rembour	-3828
▁ressens	-3829
▁théorie	-3830
▁trouves	-3831
attendrai	-3832
▁blessées	-3833
▁chanteur	-3834
▁disputer	-3835
▁démarrer	-3836
▁dépourvu	-3837
▁entendue	-3838
▁menteuse	-3839
▁occasion	-3840
▁parfaite	-3841
▁précipit	-3842
▁traversé	-3843
importance	-3844
▁chanceuse	-3845
▁résultats	-3846
▁réveillée	-3847
▁traverser	-3848
▁malheureux	-3849
▁connaissais	-3850
ak	-3851
ari	-3852
hum	-3853
min	-3854
èle	-3855
▁aî	-3856
▁câ	-3857
▁gé	-3858
atif	-3859
oiff	-3860
tiez	-3861
▁cra	-3862
▁dél	-3863
▁fab	-3864
▁pot	-3865
▁uns	-3866
enser	-3867
onctu	-3868
▁dipl	-3869
▁dors	-3870
▁décl	-3871
▁lett	-3872
▁viré	-3873
avenir	-3874
issons	-3875
quette	-3876
▁aidez	-3877
▁coupé	-3878
▁crier	-3879
▁doigt	-3880
▁favor	-3881
▁foule	-3882
▁ingén	-3883
▁monté	-3884
▁négli	-3885
▁plans	-3886
▁pleuv	-3887
▁rende	-3888
▁vidéo	-3889
▁élevé	-3890
essence	-3891
session	-3892
▁cancer	-3893
▁coffre	-3894
▁dirige	-3895
▁désire	-3896
▁failli	-3897
▁france	-3898
▁mathém	-3899
▁minuit	-3900
▁moteur	-3901
▁passez	-3902
▁ponctu	-3903
▁riches	-3904
▁souris	-3905
▁dessous	-3906
▁habillé	-3907
▁langues	-3908
▁meurtre	-3909
▁occuper	-3910
▁souffle	-3911
▁malchanc	-3912
▁montagne	-3913
▁présenté	-3914
université	-3915
▁intention	-3916
▁japonaise	-3917
▁paresseux	-3918
▁discussion	-3919
▁rencontrée	-3920
▁volontaire	-3921
▁travaillons	-3922
▁mathématiques	-3923
▁reconnaissante	-3924
act	-3925
ame	-3926
dés	-3927
erm	-3928
mon	-3929
ork	-3930
▁my	-3931
aler	-3932
cool	-3933
drai	-3934
otid	-3935
uste	-3936
ètes	-3937
▁har	-3938
▁lap	-3939
▁lon	-3940
▁nag	-3941
▁poi	-3942
▁réd	-3943
agère	-3944
allem	-3945
hiver	-3946
icien	-3947
lique	-3948
quées	-3949
rique	-3950
table	-3951
▁déch	-3952
▁jeux	-3953
▁pren	-3954
▁voté	-3955
aurait	-3956
enfant	-3957
entrée	-3958
itaire	-3959
▁alent	-3960
▁amour	-3961
▁aurez	-3962
▁charm	-3963
▁danse	-3964
▁hiver	-3965
▁panne	-3966
▁sauvé	-3967
▁vendu	-3968
▁caisse	-3969
▁copain	-3970
▁essaye	-3971
▁limite	-3972
▁quotid	-3973
▁sentit	-3974
▁venues	-3975
▁épousé	-3976
exercice	-3977
▁arrière	-3978
▁courage	-3979
▁discuté	-3980
▁doivent	-3981
▁lettres	-3982
▁morceau	-3983
▁prépare	-3984
▁sympath	-3985
ordinaire	-3986
▁cherchez	-3987
▁distance	-3988
▁dépêcher	-3989
▁familier	-3990
▁habituée	-3991
▁patience	-3992
▁poursuiv	-3993
▁promener	-3994
▁prudents	-3995
▁personnel	-3996
▁politique	-3997
▁regretter	-3998
▁couramment	-3999
▁possession	-4000
▁chaussettes	-4001
▁coïncidence	-4002
her	-4003
rim	-4004
tér	-4005
amme	-4006
itue	-4007
loge	-4008
oide	-4009
resp	-4010
tern	-4011
▁bén	-4012
▁dor	-4013
▁pil	-4014
agner	-4015
gique	-4016
graph	-4017
istre	-4018
écart	-4019
ôtres	-4020
▁blag	-4021
▁détr	-4022
▁géné	-4023
▁joli	-4024
▁lavé	-4025
▁page	-4026
▁phar	-4027
▁same	-4028
▁york	-4029
inform	-4030
issait	-4031
issent	-4032
▁accro	-4033
▁chand	-4034
▁désir	-4035
▁jette	-4036
▁leçon	-4037
▁loupé	-4038
▁malin	-4039
▁remis	-4040
▁tâche	-4041
▁vivez	-4042
▁froide	-4043
▁hurler	-4044
▁mortes	-4045
▁partit	-4046
▁renver	-4047
▁souper	-4048
▁énorme	-4049
aéroport	-4050
▁chinois	-4051
▁confort	-4052
▁fortune	-4053
▁imaginé	-4054
▁soldats	-4055
▁talentu	-4056
▁trouvez	-4057
▁visiter	-4058
▁disposes	-4059
▁impliqué	-4060
▁mignonne	-4061
▁ridicule	-4062
▁tableaux	-4063
▁assurance	-4064
▁étudiante	-4065
▁contrariée	-4066
▁quotidienne	-4067
▁correctement	-4068
ïs	-4069
eue	-4070
gét	-4071
ize	-4072
nom	-4073
oto	-4074
ule	-4075
▁ky	-4076
▁ur	-4077
chés	-4078
ieds	-4079
rure	-4080
▁bri	-4081
▁gui	-4082
▁put	-4083
▁rit	-4084
▁rét	-4085
onnel	-4086
écris	-4087
▁adop	-4088
▁alla	-4089
▁bête	-4090
▁clef	-4091
▁enle	-4092
▁noms	-4093
▁prov	-4094
▁racc	-4095
▁rece	-4096
▁réce	-4097
▁secr	-4098
▁surp	-4099
▁toit	-4100
▁voie	-4101
dément	-4102
ilités	-4103
étique	-4104
▁attir	-4105
▁bague	-4106
▁bleue	-4107
▁bouge	-4108
▁casse	-4109
▁excit	-4110
▁fleur	-4111
▁génie	-4112
▁miens	-4113
▁milli	-4114
▁parla	-4115
▁produ	-4116
▁rompu	-4117
▁saign	-4118
▁amusés	-4119
▁arriva	-4120
▁chanté	-4121
▁compli	-4122
▁courut	-4123
▁explos	-4124
▁forcée	-4125
▁frappa	-4126
▁invent	-4127
▁joueur	-4128
▁jouons	-4129
▁perdue	-4130
▁salade	-4131
▁samedi	-4132
▁servir	-4133
▁tenait	-4134
▁énervé	-4135
▁épuisé	-4136
espérais	-4137
incendie	-4138
échapper	-4139
▁hôpital	-4140
▁oublier	-4141
▁parvenu	-4142
▁pensait	-4143
▁village	-4144
oublierai	-4145
▁arrivera	-4146
▁derniers	-4147
▁environs	-4148
▁objectif	-4149
▁remettre	-4150
▁respecte	-4151
▁vieilles	-4152
appartient	-4153
▁cuisinier	-4154
▁président	-4155
▁rappelles	-4156
▁rejoindre	-4157
▁récemment	-4158
▁clairement	-4159
▁embarrassé	-4160
▁médicaments	-4161
▁profondément	-4162
ib	-4163
dul	-4164
esc	-4165
ode	-4166
one	-4167
ots	-4168
éte	-4169
▁he	-4170
▁sh	-4171
drez	-4172
guer	-4173
inge	-4174
ouve	-4175
▁blâ	-4176
▁emm	-4177
▁gor	-4178
▁nat	-4179
idées	-4180
sique	-4181
teaux	-4182
terie	-4183
▁banc	-4184
▁doué	-4185
▁faus	-4186
▁liqu	-4187
▁mons	-4188
▁puni	-4189
▁reli	-4190
▁serp	-4191
▁vain	-4192
nement	-4193
▁coûté	-4194
▁front	-4195
▁passa	-4196
▁possé	-4197
▁resta	-4198
▁sache	-4199
▁verti	-4200
abilité	-4201
aujourd	-4202
▁aimons	-4203
▁alliez	-4204
▁améric	-4205
▁course	-4206
▁impuis	-4207
▁ordres	-4208
▁restes	-4209
▁saviez	-4210
▁tiroir	-4211
▁voisin	-4212
▁élèves	-4213
accepter	-4214
addition	-4215
emporter	-4216
onnèrent	-4217
▁asseyez	-4218
▁charger	-4219
▁croyais	-4220
▁gentils	-4221
▁horreur	-4222
▁méchant	-4223
▁parlent	-4224
▁proches	-4225
▁raconte	-4226
▁rentrée	-4227
▁société	-4228
▁soudain	-4229
▁superbe	-4230
▁trouvée	-4231
▁échappé	-4232
inquiéter	-4233
▁capitale	-4234
▁descends	-4235
▁poissons	-4236
▁répondit	-4237
▁voudrait	-4238
▁compliqué	-4239
▁continuez	-4240
▁plaisante	-4241
▁prudentes	-4242
▁respecter	-4243
▁convaincue	-4244
▁satisfaite	-4245
▁différentes	-4246
▁rencontrées	-4247
▁merveilleuse	-4248
▁sérieusement	-4249
ive	-4250
lou	-4251
lés	-4252
occ	-4253
oïs	-4254
reg	-4255
ude	-4256
auff	-4257
honn	-4258
lexe	-4259
▁din	-4260
▁gaz	-4261
▁gos	-4262
▁por	-4263
▁suc	-4264
▁tat	-4265
▁tém	-4266
ensée	-4267
herbe	-4268
onges	-4269
rimer	-4270
érant	-4271
▁bruy	-4272
▁furi	-4273
▁inti	-4274
▁lent	-4275
▁naïf	-4276
▁paye	-4277
▁plat	-4278
▁reje	-4279
▁rela	-4280
▁yens	-4281
▁âgée	-4282
achète	-4283
admire	-4284
espoir	-4285
▁coiff	-4286
▁coups	-4287
▁exige	-4288
▁ferma	-4289
▁fumée	-4290
▁génér	-4291
▁impli	-4292
▁louer	-4293
▁lourd	-4294
▁menac	-4295
▁moque	-4296
▁parte	-4297
▁persu	-4298
▁roses	-4299
▁végét	-4300
▁égoïs	-4301
chement	-4302
énergie	-4303
▁allumé	-4304
▁belles	-4305
▁devait	-4306
▁dispon	-4307
▁membre	-4308
▁partez	-4309
▁pièces	-4310
▁propri	-4311
▁réserv	-4312
▁saison	-4313
▁sieste	-4314
▁sourit	-4315
▁valeur	-4316
istoires	-4317
▁allions	-4318
▁compréh	-4319
▁correct	-4320
▁demeure	-4321
▁devient	-4322
▁deviner	-4323
▁dépêche	-4324
▁examens	-4325
▁injuste	-4326
▁liquide	-4327
▁offensé	-4328
▁parlais	-4329
▁rendrai	-4330
▁retourn	-4331
▁souffre	-4332
▁survenu	-4333
▁urgence	-4334
▁évident	-4335
▁bienvenu	-4336
▁cherches	-4337
▁oreilles	-4338
▁patronne	-4339
▁sensible	-4340
entretenir	-4341
▁détestent	-4342
▁mentionné	-4343
▁populaire	-4344
▁canadienne	-4345
▁invitation	-4346
▁photograph	-4347
▁reviendrai	-4348
▁connaissons	-4349
▁enseignante	-4350
▁instituteur	-4351
▁raisonnable	-4352
▁pratiquement	-4353
▁terriblement	-4354
▁impressionnée	-4355
▁incroyablement	-4356
ita	-4357
▁fe	-4358
▁oh	-4359
▁os	-4360
▁sè	-4361
ancé	-4362
ards	-4363
ensi	-4364
▁rus	-4365
armée	-4366
ister	-4367
leter	-4368
omage	-4369
onnez	-4370
stème	-4371
▁beur	-4372
▁heur	-4373
▁juge	-4374
▁jume	-4375
▁perp	-4376
▁pneu	-4377
▁péri	-4378
▁véhi	-4379
alcool	-4380
arrêta	-4381
estion	-4382
idence	-4383
reuses	-4384
tiques	-4385
▁armes	-4386
▁barbe	-4387
▁ceint	-4388
▁chang	-4389
▁désor	-4390
▁kyoto	-4391
▁mordu	-4392
▁piège	-4393
▁queue	-4394
▁tarte	-4395
▁tenue	-4396
▁terme	-4397
▁vache	-4398
achèter	-4399
ception	-4400
leterre	-4401
▁congés	-4402
▁dessin	-4403
▁doulou	-4404
▁départ	-4405
▁europe	-4406
▁expert	-4407
▁faudra	-4408
▁paquet	-4409
▁petits	-4410
▁poulet	-4411
▁rappel	-4412
▁treize	-4413
▁éloign	-4414
apprends	-4415
▁assieds	-4416
▁blanche	-4417
▁convers	-4418
▁dérangé	-4419
▁fromage	-4420
▁invitée	-4421
▁mangent	-4422
▁naturel	-4423
▁nourris	-4424
▁obtenir	-4425
▁options	-4426
▁paroles	-4427
▁produis	-4428
▁réalisé	-4429
▁secrets	-4430
▁suspect	-4431
▁système	-4432
▁timbres	-4433
▁viennes	-4434
▁végétar	-4435
▁écoutez	-4436
enseigner	-4437
▁collecti	-4438
▁effrayée	-4439
▁empêcher	-4440
▁habitude	-4441
▁inquiète	-4442
▁lumières	-4443
▁parvenir	-4444
▁pleurait	-4445
▁profonde	-4446
▁regardes	-4447
▁semblent	-4448
▁trouvent	-4449
▁connaisse	-4450
▁délicieux	-4451
▁reviendra	-4452
▁souhaitez	-4453
▁impatiente	-4454
▁satisfaits	-4455
▁circulation	-4456
▁connaissent	-4457
▁possibilité	-4458
▁quotidiennement	-4459
ami	-4460
bon	-4461
cue	-4462
gts	-4463
iés	-4464
uré	-4465
▁ps	-4466
alif	-4467
omac	-4468
éant	-4469
▁châ	-4470
▁chè	-4471
▁dén	-4472
▁foi	-4473
▁gel	-4474
▁hau	-4475
▁rel	-4476
▁reç	-4477
▁sim	-4478
améri	-4479
gueur	-4480
ourdi	-4481
étudi	-4482
▁adul	-4483
▁aill	-4484
▁aura	-4485
▁boug	-4486
▁chic	-4487
▁dame	-4488
▁fond	-4489
▁indé	-4490
▁légu	-4491
▁moti	-4492
▁prot	-4493
▁roug	-4494
admets	-4495
aiment	-4496
auriez	-4497
occupe	-4498
▁causé	-4499
▁diplô	-4500
▁décev	-4501
▁envoy	-4502
▁gants	-4503
▁illég	-4504
▁lycée	-4505
▁obser	-4506
▁pique	-4507
▁prenn	-4508
▁ramen	-4509
▁relig	-4510
▁voter	-4511
▁échou	-4512
▁étage	-4513
aiderai	-4514
essayez	-4515
utilise	-4516
▁beauté	-4517
▁crimin	-4518
▁dérang	-4519
▁fermés	-4520
▁montra	-4521
▁oublie	-4522
▁planté	-4523
▁quitte	-4524
▁restés	-4525
▁sembla	-4526
▁sortes	-4527
▁visité	-4528
▁économ	-4529
attraper	-4530
essayais	-4531
▁bonheur	-4532
▁chevaux	-4533
▁conclus	-4534
▁désespé	-4535
▁hauteur	-4536
▁informé	-4537
▁matière	-4538
▁plantes	-4539
▁vérifié	-4540
lications	-4541
▁adorable	-4542
▁courrier	-4543
▁enseigné	-4544
▁pouvions	-4545
▁puissiez	-4546
▁pénétrer	-4547
▁remercie	-4548
▁remonter	-4549
▁reproche	-4550
▁ressenti	-4551
▁retourné	-4552
ordinateur	-4553
▁autorisée	-4554
▁capitaine	-4555
▁découvrir	-4556
▁mensonges	-4557
▁montrerai	-4558
▁réfléchis	-4559
▁voulaient	-4560
information	-4561
▁différents	-4562
▁difficultés	-4563
▁fantastique	-4564
▁travaillent	-4565
▁conversation	-4566
▁malheureusement	-4567
aid	-4568
bum	-4569
cie	-4570
cis	-4571
off	-4572
rie	-4573
âge	-4574
èce	-4575
èse	-4576
▁af	-4577
▁ja	-4578
chon	-4579
rite	-4580
tées	-4581
▁aie	-4582
▁ali	-4583
▁dra	-4584
▁dro	-4585
▁fig	-4586
▁log	-4587
▁méc	-4588
▁nan	-4589
autor	-4590
itude	-4591
oient	-4592
écrit	-4593
étiez	-4594
▁astu	-4595
▁crié	-4596
▁demi	-4597
▁douz	-4598
▁dres	-4599
▁ench	-4600
▁frus	-4601
▁impr	-4602
▁leva	-4603
▁mode	-4604
▁posa	-4605
▁rose	-4606
▁vase	-4607
ennuie	-4608
issant	-4609
ourage	-4610
ration	-4611
▁ayons	-4612
▁copie	-4613
▁croir	-4614
▁dépla	-4615
▁déçue	-4616
▁mérit	-4617
▁passi	-4618
▁pêche	-4619
▁serré	-4620
▁tante	-4621
▁acteur	-4622
▁auprès	-4623
▁avenir	-4624
▁beurre	-4625
▁choqué	-4626
▁compét	-4627
▁courte	-4628
▁craign	-4629
▁destin	-4630
▁devine	-4631
▁engagé	-4632
▁fiable	-4633
▁firent	-4634
▁folles	-4635
▁libres	-4636
▁perdit	-4637
▁remise	-4638
▁risqué	-4639
▁tenter	-4640
▁termin	-4641
▁transp	-4642
▁urgent	-4643
▁éclair	-4644
▁éprouv	-4645
occasion	-4646
▁apprend	-4647
▁cadeaux	-4648
▁considé	-4649
▁contrat	-4650
▁détendu	-4651
▁efforts	-4652
▁frapper	-4653
▁gratuit	-4654
▁légumes	-4655
▁maisons	-4656
▁nourrir	-4657
▁pensent	-4658
▁plainte	-4659
▁pourrai	-4660
▁progrès	-4661
▁retirer	-4662
▁sortons	-4663
▁touchez	-4664
▁univers	-4665
▁veuille	-4666
▁égoïste	-4667
▁approche	-4668
▁assister	-4669
▁campagne	-4670
▁confiant	-4671
▁contents	-4672
▁continua	-4673
▁dentiste	-4674
▁disposer	-4675
▁excitant	-4676
▁fassions	-4677
▁inhabitu	-4678
▁organisé	-4679
▁policier	-4680
▁professi	-4681
▁prévenir	-4682
▁écrivain	-4683
▁alentours	-4684
▁ambitieux	-4685
▁attendons	-4686
▁commettre	-4687
▁courageux	-4688
▁fréquence	-4689
▁grossière	-4690
▁pardonner	-4691
▁recommand	-4692
▁étrangers	-4693
▁rembourser	-4694
hu	-4695
ala	-4696
aré	-4697
lau	-4698
oté	-4699
tro	-4700
uff	-4701
xim	-4702
ève	-4703
éle	-4704
▁mè	-4705
ador	-4706
ardi	-4707
ctes	-4708
deur	-4709
gare	-4710
icen	-4711
itez	-4712
neur	-4713
âtre	-4714
▁ais	-4715
▁bœu	-4716
▁kil	-4717
▁maj	-4718
▁mod	-4719
▁nue	-4720
berté	-4721
chait	-4722
iseur	-4723
quête	-4724
térêt	-4725
ulter	-4726
▁agit	-4727
▁défi	-4728
▁dîné	-4729
▁gren	-4730
▁nana	-4731
▁pani	-4732
▁pull	-4733
▁pâle	-4734
▁rang	-4735
▁ride	-4736
▁rési	-4737
▁terr	-4738
▁traî	-4739
▁unes	-4740
aimais	-4741
avions	-4742
chauff	-4743
envers	-4744
ouille	-4745
▁amené	-4746
▁baign	-4747
▁crème	-4748
▁cuill	-4749
▁câlin	-4750
▁dépos	-4751
▁déton	-4752
▁fâché	-4753
▁licen	-4754
▁obéir	-4755
▁parce	-4756
▁récup	-4757
▁sauve	-4758
▁sonne	-4759
▁tendu	-4760
▁tomba	-4761
▁usage	-4762
▁états	-4763
oreille	-4764
ouverte	-4765
étagère	-4766
▁animal	-4767
▁applau	-4768
▁confir	-4769
▁conser	-4770
▁diriez	-4771
▁double	-4772
▁décédé	-4773
▁entier	-4774
▁fascin	-4775
▁ferons	-4776
▁garage	-4777
▁ignoré	-4778
▁lâchez	-4779
▁manges	-4780
▁montez	-4781
▁offert	-4782
▁remets	-4783
▁retire	-4784
▁réparé	-4785
▁servez	-4786
▁suivez	-4787
▁voyagé	-4788
ainement	-4789
▁amusées	-4790
▁arrêtée	-4791
▁colline	-4792
▁complet	-4793
▁dessert	-4794
▁déroulé	-4795
▁effront	-4796
▁emporté	-4797
▁faisiez	-4798
▁marteau	-4799
▁ouvrage	-4800
▁preuves	-4801
▁raisons	-4802
▁ressemb	-4803
▁salaire	-4804
▁ailleurs	-4805
▁boissons	-4806
▁ceinture	-4807
▁critique	-4808
▁déménagé	-4809
▁habillée	-4810
▁monsieur	-4811
▁pression	-4812
▁préfères	-4813
▁renversé	-4814
▁serpents	-4815
▁éteindre	-4816
▁apprécier	-4817
▁chauffeur	-4818
▁contacter	-4819
▁déménager	-4820
▁désaccord	-4821
▁surprises	-4822
▁trouverai	-4823
▁choisissez	-4824
▁concentrer	-4825
▁infirmière	-4826
▁meilleures	-4827
▁trouverais	-4828
▁franchement	-4829
▁comportement	-4830
mpe	-4831
net	-4832
uir	-4833
équ	-4834
ôts	-4835
▁ap	-4836
agée	-4837
cins	-4838
fond	-4839
lève	-4840
oler	-4841
otée	-4842
quin	-4843
udes	-4844
umer	-4845
étez	-4846
▁abe	-4847
▁air	-4848
▁blo	-4849
▁fan	-4850
▁meu	-4851
▁mic	-4852
▁ron	-4853
▁tex	-4854
accor	-4855
accus	-4856
asser	-4857
chiez	-4858
choir	-4859
ctric	-4860
enait	-4861
enant	-4862
lente	-4863
olesc	-4864
écout	-4865
▁agir	-4866
▁docu	-4867
▁hein	-4868
▁join	-4869
▁lace	-4870
▁mous	-4871
▁myst	-4872
▁rues	-4873
▁sure	-4874
action	-4875
aleine	-4876
oiseau	-4877
ologie	-4878
onique	-4879
ources	-4880
époque	-4881
▁accus	-4882
▁album	-4883
▁allem	-4884
▁cents	-4885
▁clefs	-4886
▁culti	-4887
▁devin	-4888
▁défin	-4889
▁délic	-4890
▁entra	-4891
▁exact	-4892
▁fûmes	-4893
▁large	-4894
▁oppos	-4895
▁parmi	-4896
▁pitié	-4897
▁posez	-4898
▁prêté	-4899
▁sauté	-4900
▁sucré	-4901
▁taire	-4902
▁toile	-4903
▁vague	-4904
▁virer	-4905
▁écras	-4906
estomac	-4907
issante	-4908
▁dettes	-4909
▁diable	-4910
▁déterm	-4911
▁entrée	-4912
▁exprès	-4913
▁incomp	-4914
▁jouait	-4915
▁manche	-4916
▁plaign	-4917
▁poussé	-4918
▁rempla	-4919
▁rouges	-4920
▁régler	-4921
▁saches	-4922
▁vaches	-4923
▁épaule	-4924
agissait	-4925
amérique	-4926
habiller	-4927
idemment	-4928
utiliser	-4929
▁ajouter	-4930
▁allongé	-4931
▁blagues	-4932
▁dispute	-4933
▁distrib	-4934
▁général	-4935
▁manques	-4936
▁mission	-4937
▁partici	-4938
▁pensiez	-4939
▁pleuvra	-4940
▁puisses	-4941
▁refuser	-4942
▁rendent	-4943
▁retrouv	-4944
▁secours	-4945
▁suivant	-4946
interromp	-4947
▁actuelle	-4948
▁amérique	-4949
▁arrivées	-4950
▁chandail	-4951
▁endormie	-4952
▁feuilles	-4953
▁garderai	-4954
▁magazine	-4955
▁mouchoir	-4956
▁médecins	-4957
▁particul	-4958
▁prévenue	-4959
▁prévoyez	-4960
▁remettez	-4961
▁réveille	-4962
▁souvenez	-4963
▁apparence	-4964
▁attirante	-4965
▁chanteuse	-4966
▁conseille	-4967
▁désorient	-4968
▁emplettes	-4969
▁française	-4970
▁histoires	-4971
▁préoccupe	-4972
▁troisième	-4973
▁téléphoné	-4974
▁allergique	-4975
▁cuisinière	-4976
▁excellente	-4977
▁ressources	-4978
anniversaire	-4979
▁commentaire	-4980
▁débrouiller	-4981
▁gentillesse	-4982
▁malchanceux	-4983
▁personnelle	-4984
▁prisonniers	-4985
▁explications	-4986
▁instructions	-4987
▁personnellement	-4988
ym	-4989
ama	-4990
ias	-4991
isa	-4992
nés	-4993
obe	-4994
ych	-4995
agir	-4996
arez	-4997
eule	-4998
hous	-4999
orer	-5000
▁buv	-5001
▁cla	-5002
▁gla	-5003
▁gro	-5004
▁joy	-5005
▁mas	-5006
▁mun	-5007
▁mél	-5008
▁nul	-5009
▁pel	-5010
aides	-5011
amuse	-5012
aucun	-5013
chées	-5014
cture	-5015
encre	-5016
essai	-5017
icace	-5018
ifier	-5019
illés	-5020
issue	-5021
isées	-5022
oncer	-5023
opéra	-5024
ordre	-5025
osité	-5026
ouill	-5027
▁bran	-5028
▁cuit	-5029
▁file	-5030
▁grav	-5031
▁insc	-5032
▁jeta	-5033
▁mani	-5034
▁marr	-5035
▁pist	-5036
▁pétr	-5037
▁raff	-5038
▁scep	-5039
▁tric	-5040
▁unis	-5041
▁épar	-5042
illons	-5043
oblige	-5044
▁abatt	-5045
▁adoré	-5046
▁affam	-5047
▁appuy	-5048
▁avert	-5049
▁bless	-5050
▁brûlé	-5051
▁cardi	-5052
▁cinqu	-5053
▁cruel	-5054
▁déver	-5055
▁effet	-5056
▁enreg	-5057
▁fabri	-5058
▁faite	-5059
▁forêt	-5060
▁incor	-5061
▁mince	-5062
▁moral	-5063
▁naiss	-5064
▁nôtre	-5065
▁plomb	-5066
▁poign	-5067
▁psych	-5068
▁simil	-5069
▁situe	-5070
▁suggé	-5071
▁sèche	-5072
▁trahi	-5073
▁égard	-5074
ennuyer	-5075
housias	-5076
iendrez	-5077
onnerai	-5078
▁baiser	-5079
▁baisse	-5080
▁ballon	-5081
▁banane	-5082
▁calmes	-5083
▁cigare	-5084
▁compos	-5085
▁conclu	-5086
▁disput	-5087
▁décoll	-5088
▁défaut	-5089
▁désesp	-5090
▁employ	-5091
▁entrez	-5092
▁esprit	-5093
▁fausse	-5094
▁fâchée	-5095
▁mangea	-5096
▁mourut	-5097
▁pronon	-5098
▁retiré	-5099
▁sortis	-5100
▁vieill	-5101
entendis	-5102
▁adorent	-5103
▁agressi	-5104
▁annuler	-5105
▁attrape	-5106
▁aurions	-5107
▁choquée	-5108
▁château	-5109
▁disposé	-5110
▁décrire	-5111
▁employé	-5112
▁importe	-5113
▁laisses	-5114
▁lecture	-5115
▁liberté	-5116
▁logique	-5117
▁miracle	-5118
▁méritez	-5119
▁papiers	-5120
▁parcour	-5121
▁parlait	-5122
▁pistole	-5123
▁retenir	-5124
▁retirez	-5125
▁réponds	-5126
▁serrure	-5127
▁tromper	-5128
apprécier	-5129
▁asseyons	-5130
▁brillant	-5131
▁commande	-5132
▁corriger	-5133
▁demandes	-5134
▁emporter	-5135
▁entendus	-5136
▁grossier	-5137
▁pareille	-5138
▁préparée	-5139
▁quartier	-5140
▁ressembl	-5141
▁répondez	-5142
▁réussite	-5143
▁séjourné	-5144
▁vendredi	-5145
▁violence	-5146
▁commencez	-5147
▁discutons	-5148
▁disposent	-5149
▁désespéré	-5150
▁interromp	-5151
▁négligent	-5152
▁programme	-5153
▁souhaiter	-5154
▁entreprise	-5155
▁prisonnier	-5156
▁suggestion	-5157
▁surprendre	-5158
▁étudiantes	-5159
▁confortable	-5160
▁constamment	-5161
▁augmentation	-5162
▁plaisanterie	-5163
▁ô	-5164
azz	-5165
obs	-5166
ota	-5167
vés	-5168
âce	-5169
▁py	-5170
agez	-5171
diez	-5172
ecte	-5173
empl	-5174
fois	-5175
illa	-5176
iées	-5177
neau	-5178
nent	-5179
quip	-5180
tice	-5181
▁bel	-5182
▁fie	-5183
▁gam	-5184
▁gra	-5185
▁lus	-5186
▁phy	-5187
▁rêv	-5188
▁tas	-5189
▁tor	-5190
amies	-5191
antée	-5192
assez	-5193
aviez	-5194
obile	-5195
ortun	-5196
tible	-5197
tures	-5198
échec	-5199
▁abas	-5200
▁espé	-5201
▁garé	-5202
▁inév	-5203
▁iras	-5204
▁jazz	-5205
▁joie	-5206
▁peau	-5207
▁quas	-5208
▁rôle	-5209
▁salu	-5210
▁visa	-5211
allait	-5212
atrice	-5213
aucune	-5214
ciente	-5215
eloppe	-5216
gument	-5217
italie	-5218
othèse	-5219
sèrent	-5220
ximité	-5221
étaire	-5222
▁basse	-5223
▁battu	-5224
▁chère	-5225
▁conte	-5226
▁criti	-5227
▁cuire	-5228
▁demie	-5229
▁dotée	-5230
▁durer	-5231
▁enfre	-5232
▁futur	-5233
▁fêtes	-5234
▁haute	-5235
▁maire	-5236
▁manif	-5237
▁naïve	-5238
▁poing	-5239
▁press	-5240
▁rater	-5241
▁saisi	-5242
▁soign	-5243
▁stres	-5244
▁suppl	-5245
cidents	-5246
conques	-5247
diction	-5248
entions	-5249
▁acheta	-5250
▁amical	-5251
▁annulé	-5252
▁centre	-5253
▁client	-5254
▁connue	-5255
▁consid	-5256
▁cousin	-5257
▁deviné	-5258
▁distin	-5259
▁ennemi	-5260
▁espère	-5261
▁favori	-5262
▁façons	-5263
▁genoux	-5264
▁gueule	-5265
▁gérant	-5266
▁heurté	-5267
▁jalous	-5268
▁mentez	-5269
▁miroir	-5270
▁nation	-5271
▁nuages	-5272
▁parais	-5273
▁pleuve	-5274
▁poussi	-5275
▁privée	-5276
▁prénom	-5277
▁rejeté	-5278
▁signer	-5279
▁sommet	-5280
▁sonner	-5281
▁telles	-5282
▁vivait	-5283
▁époque	-5284
▁étoile	-5285
issement	-5286
▁achetée	-5287
▁adolesc	-5288
▁avocate	-5289
▁billets	-5290
▁bougies	-5291
▁coûtera	-5292
▁crayons	-5293
▁devenus	-5294
▁dingues	-5295
▁fantôme	-5296
▁fichier	-5297
▁inventé	-5298
▁licenci	-5299
▁manquez	-5300
▁miennes	-5301
▁mérites	-5302
▁paierai	-5303
▁panneau	-5304
▁parties	-5305
▁plafond	-5306
▁raconté	-5307
▁sentait	-5308
▁soulevé	-5309
▁utilisé	-5310
▁valises	-5311
adorerais	-5312
▁admettre	-5313
▁curieuse	-5314
▁douzaine	-5315
▁déverrou	-5316
▁invitées	-5317
▁patiente	-5318
▁pistolet	-5319
▁présence	-5320
▁quarante	-5321
▁stupides	-5322
▁survivre	-5323
apprécient	-5324
▁contraire	-5325
▁dépourvue	-5326
▁hypothèse	-5327
▁naissance	-5328
▁proximité	-5329
▁sérieuses	-5330
instituteur	-5331
▁assistance	-5332
▁difficiles	-5333
▁difficulté	-5334
▁disponible	-5335
▁douloureux	-5336
▁rencontres	-5337
▁téléviseur	-5338
▁démissionné	-5339
▁dérangerait	-5340
▁journaliste	-5341
▁quelconques	-5342
▁sympathique	-5343
▁verrouiller	-5344
▁institutrice	-5345
▁soudainement	-5346
hy	-5347
ox	-5348
abe	-5349
aly	-5350
ice	-5351
lam	-5352
met	-5353
écu	-5354
île	-5355
▁sm	-5356
anou	-5357
dire	-5358
iant	-5359
inet	-5360
lend	-5361
ouff	-5362
pris	-5363
élic	-5364
étit	-5365
▁aig	-5366
▁amp	-5367
▁bav	-5368
▁chu	-5369
▁cro	-5370
▁hés	-5371
▁imb	-5372
▁jum	-5373
▁lab	-5374
▁obt	-5375
▁pur	-5376
▁pyj	-5377
▁raf	-5378
▁red	-5379
▁vêt	-5380
▁émo	-5381
▁équ	-5382
améli	-5383
andid	-5384
aules	-5385
chent	-5386
illon	-5387
ionne	-5388
objet	-5389
ption	-5390
sants	-5391
▁acqu	-5392
▁band	-5393
▁clim	-5394
▁fain	-5395
▁foir	-5396
▁fraî	-5397
▁hais	-5398
▁mali	-5399
▁mène	-5400
▁nier	-5401
▁orte	-5402
▁pèse	-5403
▁saut	-5404
▁seau	-5405
▁soix	-5406
chette	-5407
enfuir	-5408
ennemi	-5409
ograph	-5410
ulance	-5411
▁accue	-5412
▁arrog	-5413
▁boite	-5414
▁cible	-5415
▁crise	-5416
▁dette	-5417
▁dises	-5418
▁douce	-5419
▁finit	-5420
▁forts	-5421
▁grâce	-5422
▁insul	-5423
▁joign	-5424
▁malad	-5425
▁maths	-5426
▁meurt	-5427
▁odeur	-5428
▁optim	-5429
▁payée	-5430
▁piqué	-5431
▁poche	-5432
▁polie	-5433
▁prome	-5434
▁recru	-5435
▁signé	-5436
▁tapis	-5437
▁tatou	-5438
▁teint	-5439
▁trous	-5440
erreurs	-5441
ignorer	-5442
itables	-5443
onnelle	-5444
▁adopté	-5445
▁aimait	-5446
▁amusez	-5447
▁averti	-5448
▁baissé	-5449
▁candid	-5450
▁consac	-5451
▁disait	-5452
▁doigts	-5453
▁découv	-5454
▁dérobé	-5455
▁détour	-5456
▁faille	-5457
▁forcer	-5458
▁humide	-5459
▁lèvres	-5460
▁maigri	-5461
▁manuel	-5462
▁maître	-5463
▁menace	-5464
▁moquer	-5465
▁nourri	-5466
▁parten	-5467
▁places	-5468
▁ralent	-5469
▁rempli	-5470
▁remède	-5471
▁repose	-5472
▁reprod	-5473
▁sienne	-5474
▁tendit	-5475
▁tourné	-5476
▁venais	-5477
▁voient	-5478
▁éteins	-5479
▁étendu	-5480
appelles	-5481
évidence	-5482
▁aimable	-5483
▁appelée	-5484
▁arrives	-5485
▁article	-5486
▁baisser	-5487
▁bananes	-5488
▁chargée	-5489
▁confond	-5490
▁connait	-5491
▁corresp	-5492
▁deviens	-5493
▁dorment	-5494
▁déroule	-5495
▁emmener	-5496
▁illégal	-5497
▁inquiét	-5498
▁obligés	-5499
▁oubliez	-5500
▁petites	-5501
▁renvoyé	-5502
▁sincère	-5503
▁tickets	-5504
▁épaules	-5505
▁épouser	-5506
essayerai	-5507
▁amélioré	-5508
▁batterie	-5509
▁carottes	-5510
▁coopérer	-5511
▁cuillère	-5512
▁descendu	-5513
▁distrait	-5514
▁dépêchez	-5515
▁fantômes	-5516
▁incompét	-5517
▁mangeons	-5518
▁manifest	-5519
▁manières	-5520
▁manquent	-5521
▁signific	-5522
▁soixante	-5523
▁soutiens	-5524
▁traversa	-5525
▁véhicule	-5526
abandonner	-5527
▁autorisés	-5528
▁autrement	-5529
▁cardiaque	-5530
▁contentes	-5531
▁directeur	-5532
▁effectuer	-5533
▁embrassée	-5534
▁enseigner	-5535
▁entendues	-5536
▁optimiste	-5537
▁quasiment	-5538
▁récupérer	-5539
▁surveille	-5540
accompagner	-5541
▁appellerai	-5542
▁conditions	-5543
▁conducteur	-5544
▁couverture	-5545
▁enthousias	-5546
▁pourraient	-5547
▁ressembles	-5548
▁satisfaire	-5549
▁survivants	-5550
▁verrouillé	-5551
▁évidemment	-5552
▁directement	-5553
▁particulier	-5554
▁réservation	-5555
▁souhaiterais	-5556
adé	-5557
ern	-5558
ket	-5559
▁ho	-5560
▁hu	-5561
▁lo	-5562
ança	-5563
ates	-5564
cens	-5565
euve	-5566
igme	-5567
irez	-5568
léph	-5569
uler	-5570
vécu	-5571
vées	-5572
▁act	-5573
▁ber	-5574
▁gou	-5575
▁nia	-5576
▁sév	-5577
aigne	-5578
anges	-5579
emmen	-5580
envie	-5581
ignez	-5582
rable	-5583
raîch	-5584
troce	-5585
étang	-5586
▁anti	-5587
▁bouc	-5588
▁dira	-5589
▁doux	-5590
▁duré	-5591
▁exig	-5592
▁gras	-5593
▁gère	-5594
▁hall	-5595
▁jeté	-5596
▁jupe	-5597
▁menu	-5598
▁méth	-5599
▁nord	-5600
▁ours	-5601
▁porc	-5602
▁refr	-5603
▁rock	-5604
▁rome	-5605
▁réel	-5606
▁sacs	-5607
▁sien	-5608
▁soli	-5609
▁tués	-5610
▁vive	-5611
▁écar	-5612
alarme	-5613
entrer	-5614
espace	-5615
onnant	-5616
ouvrez	-5617
timité	-5618
uction	-5619
▁admir	-5620
▁aimée	-5621
▁autom	-5622
▁compt	-5623
▁dansé	-5624
▁débat	-5625
▁décor	-5626
▁embau	-5627
▁feras	-5628
▁ferez	-5629
▁finie	-5630
▁foiré	-5631
▁genou	-5632
▁jeans	-5633
▁lampe	-5634
▁linge	-5635
▁nomme	-5636
▁nuits	-5637
▁ordre	-5638
▁résol	-5639
▁sable	-5640
▁saint	-5641
▁salut	-5642
▁scène	-5643
▁sonné	-5644
▁style	-5645
▁tente	-5646
▁voies	-5647
▁élève	-5648
antique	-5649
obtenir	-5650
▁achète	-5651
▁atroce	-5652
▁blâmer	-5653
▁brosse	-5654
▁courus	-5655
▁craint	-5656
▁doutes	-5657
▁frappe	-5658
▁frites	-5659
▁grimpe	-5660
▁inconn	-5661
▁incons	-5662
▁justes	-5663
▁mirent	-5664
▁orange	-5665
▁ouvrit	-5666
▁pattes	-5667
▁qualif	-5668
▁requis	-5669
▁retira	-5670
▁répare	-5671
▁scient	-5672
▁soldat	-5673
▁trouva	-5674
▁témoin	-5675
▁valait	-5676
▁aiderai	-5677
▁attaque	-5678
▁contrac	-5679
▁coopéra	-5680
▁envoyer	-5681
▁envoyez	-5682
▁fournir	-5683
▁furieux	-5684
▁grimper	-5685
▁interpr	-5686
▁justice	-5687
▁mariées	-5688
▁mettons	-5689
▁mignons	-5690
▁normale	-5691
▁ouverts	-5692
▁passées	-5693
▁pensons	-5694
▁permett	-5695
▁placard	-5696
▁sachiez	-5697
▁secrète	-5698
▁survécu	-5699
▁théâtre	-5700
▁traiter	-5701
▁trompes	-5702
▁vérifie	-5703
allemagne	-5704
obscurité	-5705
reusement	-5706
▁accompli	-5707
▁aimerait	-5708
▁allemand	-5709
▁apprends	-5710
▁arranger	-5711
▁attitude	-5712
▁blessure	-5713
▁charmant	-5714
▁commerci	-5715
▁conscien	-5716
▁couleurs	-5717
▁deuxième	-5718
▁devenues	-5719
▁décevant	-5720
▁déprimée	-5721
▁emprunté	-5722
▁enfreint	-5723
▁généreux	-5724
▁imaginer	-5725
▁laissons	-5726
▁musicien	-5727
▁ouvertes	-5728
▁pardonné	-5729
▁perplexe	-5730
▁prétendu	-5731
▁rafraîch	-5732
▁respirer	-5733
▁revienne	-5734
▁réchauff	-5735
▁supposée	-5736
▁trouvons	-5737
▁accidents	-5738
▁ambulance	-5739
▁brillante	-5740
▁cinquante	-5741
▁curiosité	-5742
▁exigences	-5743
▁munitions	-5744
▁permettez	-5745
▁puissions	-5746
▁regardons	-5747
▁viendrait	-5748
▁téléphoner	-5749
▁information	-5750
▁ordinateurs	-5751
▁satisfaites	-5752
▁tranquilles	-5753
▁volontaires	-5754
▁téléphonerai	-5755
▁supplémentaires	-5756
ju	-5757
va	-5758
él	-5759
arc	-5760
chn	-5761
ctr	-5762
ieu	-5763
onz	-5764
ppe	-5765
▁cd	-5766
▁pé	-5767
atta	-5768
atég	-5769
auté	-5770
eaux	-5771
fait	-5772
guée	-5773
igin	-5774
indi	-5775
isme	-5776
lexi	-5777
ombe	-5778
oute	-5779
vard	-5780
▁coc	-5781
▁ext	-5782
▁flè	-5783
▁gym	-5784
▁hil	-5785
▁hos	-5786
▁huî	-5787
▁ind	-5788
▁kar	-5789
▁las	-5790
▁loc	-5791
▁mén	-5792
▁ong	-5793
▁reb	-5794
▁rum	-5795
▁sud	-5796
▁van	-5797
▁élu	-5798
arant	-5799
encer	-5800
ibles	-5801
icile	-5802
lable	-5803
laire	-5804
roché	-5805
▁arna	-5806
▁aver	-5807
▁brûl	-5808
▁bœuf	-5809
▁clas	-5810
▁clôt	-5811
▁cook	-5812
▁céré	-5813
▁côte	-5814
▁diam	-5815
▁drag	-5816
▁mars	-5817
▁mass	-5818
▁miel	-5819
▁oses	-5820
▁relâ	-5821
▁sers	-5822
▁site	-5823
▁suit	-5824
▁vein	-5825
appart	-5826
averti	-5827
europe	-5828
heures	-5829
humour	-5830
ologue	-5831
éprouv	-5832
▁brûle	-5833
▁camar	-5834
▁cramp	-5835
▁côtés	-5836
▁dissi	-5837
▁délai	-5838
▁dérob	-5839
▁déser	-5840
▁enfer	-5841
▁enter	-5842
▁flexi	-5843
▁formé	-5844
▁félic	-5845
▁gorge	-5846
▁irons	-5847
▁latin	-5848
▁levée	-5849
▁neuve	-5850
▁poule	-5851
▁prati	-5852
▁prier	-5853
▁prote	-5854
▁rasse	-5855
▁rever	-5856
▁saura	-5857
▁sauta	-5858
▁sourd	-5859
▁vitre	-5860
▁âgées	-5861
article	-5862
atience	-5863
avaient	-5864
censeur	-5865
cieuses	-5866
isation	-5867
jection	-5868
obligez	-5869
érature	-5870
▁adulte	-5871
▁amitié	-5872
▁ancien	-5873
▁arrêta	-5874
▁casser	-5875
▁charge	-5876
▁condam	-5877
▁couler	-5878
▁fallut	-5879
▁fauteu	-5880
▁fleuve	-5881
▁foudre	-5882
▁gardes	-5883
▁impoli	-5884
▁impôts	-5885
▁jouets	-5886
▁matéri	-5887
▁milieu	-5888
▁mètres	-5889
▁mérité	-5890
▁oublia	-5891
▁pardon	-5892
▁plaire	-5893
▁pleura	-5894
▁poches	-5895
▁points	-5896
▁pousse	-5897
▁promet	-5898
▁romans	-5899
▁réflex	-5900
▁révéla	-5901
▁saisis	-5902
▁serrer	-5903
▁venons	-5904
▁vôtres	-5905
▁écoulé	-5906
▁électr	-5907
▁étonné	-5908
accorder	-5909
ctricité	-5910
▁allumée	-5911
▁approuv	-5912
▁arrivez	-5913
▁assisté	-5914
▁chances	-5915
▁comptez	-5916
▁coûtent	-5917
▁divorcé	-5918
▁fermées	-5919
▁géniale	-5920
▁huîtres	-5921
▁inviter	-5922
▁limites	-5923
▁nettoyé	-5924
▁orteils	-5925
▁passera	-5926
▁passons	-5927
▁ramener	-5928
▁restons	-5929
▁saurais	-5930
▁solaire	-5931
▁soutien	-5932
▁station	-5933
▁termine	-5934
▁utilise	-5935
▁vertige	-5936
▁volonté	-5937
▁élégant	-5938
▁étoiles	-5939
▁étudies	-5940
▁étudiez	-5941
essaierai	-5942
▁arrêtons	-5943
▁chambres	-5944
▁changera	-5945
▁chinoise	-5946
▁conduite	-5947
▁correcte	-5948
▁dessiner	-5949
▁domicile	-5950
▁efficace	-5951
▁effrayés	-5952
▁entraîné	-5953
▁fréquent	-5954
▁imaginée	-5955
▁longueur	-5956
▁méchante	-5957
▁obligées	-5958
▁parlerai	-5959
▁ponctuel	-5960
▁préférez	-5961
▁présents	-5962
▁recevoir	-5963
▁réaliser	-5964
▁secondes	-5965
▁surpoids	-5966
▁tatouage	-5967
▁tendance	-5968
▁viendras	-5969
▁éveillée	-5970
▁attendent	-5971
▁chaussure	-5972
▁conduisez	-5973
▁consulter	-5974
▁descendre	-5975
▁disposais	-5976
▁frontière	-5977
▁inquiétez	-5978
▁poussière	-5979
▁remarquer	-5980
▁retournez	-5981
▁viendrais	-5982
▁délicieuse	-5983
▁détonation	-5984
▁impuissant	-5985
▁intéressés	-5986
▁semblables	-5987
▁talentueux	-5988
▁compréhensi	-5989
▁inspiration	-5990
▁intéressées	-5991
▁température	-5992
▁travaillais	-5993
▁verrouillée	-5994
▁intelligents	-5995
▁possibilités	-5996
▁cramponnèrent	-5997
▁impressionnés	-5998
▁impressionnant	-5999
▁responsabilité	-6000
▁supplémentaire	-6001
ay	-6002
ls	-6003
în	-6004
abl	-6005
amm	-6006
até	-6007
gré	-6008
ker	-6009
ola	-6010
ran	-6011
▁mâ	-6012
ades	-6013
amus	-6014
assa	-6015
astr	-6016
asun	-6017
esti	-6018
inze	-6019
itoy	-6020
omis	-6021
otes	-6022
trod	-6023
ules	-6024
urée	-6025
érié	-6026
▁chr	-6027
▁nau	-6028
▁nou	-6029
▁opé	-6030
▁pin	-6031
▁sup	-6032
▁tal	-6033
aises	-6034
assis	-6035
eniez	-6036
enses	-6037
huile	-6038
ieuse	-6039
ignes	-6040
irurg	-6041
iteur	-6042
lions	-6043
offre	-6044
otion	-6045
rifié	-6046
tenez	-6047
trait	-6048
▁afin	-6049
▁amer	-6050
▁bala	-6051
▁boue	-6052
▁briè	-6053
▁cend	-6054
▁clar	-6055
▁cult	-6056
▁gris	-6057
▁hamb	-6058
▁irez	-6059
▁jure	-6060
▁libé	-6061
▁moqu	-6062
▁onze	-6063
▁renf	-6064
▁repé	-6065
▁scol	-6066
▁stri	-6067
▁subi	-6068
▁tais	-6069
▁tolé	-6070
▁égal	-6071
agnole	-6072
atoire	-6073
chemar	-6074
excuse	-6075
imagin	-6076
obable	-6077
onomie	-6078
parler	-6079
serait	-6080
érence	-6081
▁absur	-6082
▁amène	-6083
▁atter	-6084
▁brave	-6085
▁conté	-6086
▁enfil	-6087
▁essai	-6088
▁férié	-6089
▁goûte	-6090
▁humil	-6091
▁jaune	-6092
▁jouet	-6093
▁kilos	-6094
▁lancé	-6095
▁lança	-6096
▁lapin	-6097
▁levez	-6098
▁manip	-6099
▁micro	-6100
▁mécan	-6101
▁mémor	-6102
▁nique	-6103
▁noire	-6104
▁plant	-6105
▁pneus	-6106
▁poker	-6107
▁poète	-6108
▁russe	-6109
▁réglé	-6110
▁songe	-6111
▁techn	-6112
▁tremp	-6113
▁vends	-6114
▁vente	-6115
▁émoti	-6116
▁étern	-6117
▁êtres	-6118
honnête	-6119
horloge	-6120
écoutes	-6121
▁araign	-6122
▁aurons	-6123
▁bières	-6124
▁bordel	-6125
▁bouill	-6126
▁chargé	-6127
▁chasse	-6128
▁chèque	-6129
▁coincé	-6130
▁coupez	-6131
▁courts	-6132
▁déprim	-6133
▁espion	-6134
▁exacte	-6135
▁fières	-6136
▁flèche	-6137
▁forcés	-6138
▁indiff	-6139
▁joyeux	-6140
▁lourde	-6141
▁maigre	-6142
▁malins	-6143
▁nôtres	-6144
▁offrir	-6145
▁panier	-6146
▁pareil	-6147
▁partes	-6148
▁perdez	-6149
▁plaint	-6150
▁portée	-6151
▁pyjama	-6152
▁questi	-6153
▁quinze	-6154
▁rappro	-6155
▁répand	-6156
▁suivie	-6157
▁suppli	-6158
▁tempor	-6159
▁traité	-6160
▁valent	-6161
▁venait	-6162
▁volant	-6163
▁éclaté	-6164
▁étasun	-6165
allemand	-6166
ambition	-6167
applique	-6168
approche	-6169
attendez	-6170
iendront	-6171
▁attrapa	-6172
▁avancer	-6173
▁baleine	-6174
▁changea	-6175
▁clôture	-6176
▁contrib	-6177
▁danseur	-6178
▁données	-6179
▁ennemis	-6180
▁faibles	-6181
▁feuille	-6182
▁frappée	-6183
▁gagnera	-6184
▁grenier	-6185
▁grosses	-6186
▁harvard	-6187
▁longues	-6188
▁maligne	-6189
▁meubles	-6190
▁partiel	-6191
▁partiez	-6192
▁passait	-6193
▁pelouse	-6194
▁pierres	-6195
▁preniez	-6196
▁revenez	-6197
▁revient	-6198
▁souciez	-6199
▁soulagé	-6200
▁supplie	-6201
▁tournez	-6202
▁visible	-6203
▁voisine	-6204
abandonne	-6205
attendait	-6206
▁apparent	-6207
▁argument	-6208
▁arrivent	-6209
▁chaleure	-6210
▁compatis	-6211
▁contient	-6212
▁factures	-6213
▁interdit	-6214
▁natation	-6215
▁offensée	-6216
▁partager	-6217
▁partirai	-6218
▁physique	-6219
▁procurer	-6220
▁produise	-6221
▁reconnus	-6222
▁retourna	-6223
▁souffrir	-6224
▁surprend	-6225
▁tracasse	-6226
▁utilisez	-6227
▁veuilles	-6228
achèterais	-6229
▁abasourdi	-6230
▁aimerions	-6231
▁américain	-6232
▁autrefois	-6233
▁bienvenus	-6234
▁casquette	-6235
▁cauchemar	-6236
▁commences	-6237
▁conduirai	-6238
▁considère	-6239
▁descendit	-6240
▁disputent	-6241
▁détestais	-6242
▁explosion	-6243
▁finissons	-6244
▁gravement	-6245
▁habitudes	-6246
▁honnêteté	-6247
▁magazines	-6248
▁promettez	-6249
▁regardait	-6250
▁reprocher	-6251
▁étrangère	-6252
▁acceptable	-6253
▁arriverait	-6254
▁brièvement	-6255
▁convaincre	-6256
▁désorienté	-6257
▁entretenir	-6258
▁formulaire	-6259
▁improbable	-6260
▁intentions	-6261
▁inévitable	-6262
▁paresseuse	-6263
▁protection	-6264
▁rejoindrai	-6265
▁retournons	-6266
▁romantique	-6267
▁spécialité	-6268
▁surveiller	-6269
▁volontiers	-6270
institutrice	-6271
▁apparemment	-6272
▁mentalement	-6273
▁heureusement	-6274
▁millionnaire	-6275
▁reconnaissez	-6276
▁électronique	-6277
▁soigneusement	-6278
hé	-6279
ji	-6280
ni	-6281
ow	-6282
th	-6283
ïe	-6284
alé	-6285
amp	-6286
dem	-6287
océ	-6288
ril	-6289
sif	-6290
umé	-6291
uée	-6292
ader	-6293
allé	-6294
char	-6295
dait	-6296
erie	-6297
illi	-6298
ital	-6299
itif	-6300
lina	-6301
onde	-6302
opri	-6303
ouée	-6304
oyée	-6305
tile	-6306
uisé	-6307
œufs	-6308
▁bre	-6309
▁bud	-6310
▁cot	-6311
▁dau	-6312
▁fid	-6313
▁hui	-6314
▁jet	-6315
▁loy	-6316
▁lut	-6317
▁méd	-6318
▁nés	-6319
▁pal	-6320
▁pes	-6321
▁pue	-6322
▁sin	-6323
▁soû	-6324
▁tit	-6325
▁têt	-6326
areil	-6327
ctive	-6328
dieux	-6329
estre	-6330
macie	-6331
océan	-6332
ontez	-6333
orité	-6334
écile	-6335
înmes	-6336
▁agac	-6337
▁aisé	-6338
▁anxi	-6339
▁cell	-6340
▁cerf	-6341
▁cool	-6342
▁cuir	-6343
▁fiez	-6344
▁fout	-6345
▁laid	-6346
▁moto	-6347
▁murs	-6348
▁mété	-6349
▁obst	-6350
▁pari	-6351
▁pein	-6352
▁poil	-6353
▁recu	-6354
▁réag	-6355
▁rêvé	-6356
▁tira	-6357
▁vote	-6358
▁épée	-6359
atives	-6360
emprun	-6361
endorm	-6362
entiel	-6363
idable	-6364
iences	-6365
iteurs	-6366
marché	-6367
olique	-6368
épaule	-6369
étions	-6370
▁abais	-6371
▁alité	-6372
▁assie	-6373
▁bluff	-6374
▁cacha	-6375
▁chuch	-6376
▁coule	-6377
▁crevé	-6378
▁crédu	-6379
▁douze	-6380
▁extra	-6381
▁exécu	-6382
▁fianc	-6383
▁foire	-6384
▁fuite	-6385
▁gosse	-6386
▁ident	-6387
▁indép	-6388
▁légal	-6389
▁meurs	-6390
▁neigé	-6391
▁oblig	-6392
▁plats	-6393
▁prude	-6394
▁sales	-6395
▁scand	-6396
▁soins	-6397
▁soupç	-6398
▁taill	-6399
▁texte	-6400
▁éléph	-6401
entendu	-6402
enterre	-6403
ulaires	-6404
étaient	-6405
▁aboyer	-6406
▁anéant	-6407
▁assass	-6408
▁assuré	-6409
▁balles	-6410
▁boîtes	-6411
▁direct	-6412
▁disiez	-6413
▁dissim	-6414
▁débord	-6415
▁emmène	-6416
▁ennuyé	-6417
▁entrés	-6418
▁envoie	-6419
▁fierté	-6420
▁figure	-6421
▁gosses	-6422
▁idiots	-6423
▁jouent	-6424
▁lapins	-6425
▁lignes	-6426
▁matern	-6427
▁natale	-6428
▁option	-6429
▁parfum	-6430
▁perdus	-6431
▁pointe	-6432
▁poèmes	-6433
▁précis	-6434
▁rideau	-6435
▁rirent	-6436
▁rompre	-6437
▁sauvée	-6438
▁stylos	-6439
▁supéri	-6440
▁surmen	-6441
▁verres	-6442
▁voyiez	-6443
▁éclata	-6444
arrivera	-6445
ouillard	-6446
▁allumer	-6447
▁chaises	-6448
▁chantes	-6449
▁cherché	-6450
▁chirurg	-6451
▁collier	-6452
▁conséqu	-6453
▁dépensé	-6454
▁déplace	-6455
▁déposer	-6456
▁détruit	-6457
▁enquête	-6458
▁fraîche	-6459
▁horloge	-6460
▁impitoy	-6461
▁incorre	-6462
▁jumeaux	-6463
▁laissés	-6464
▁langage	-6465
▁mentent	-6466
▁mystère	-6467
▁méprise	-6468
▁nettoie	-6469
▁oranges	-6470
▁pauvres	-6471
▁perdant	-6472
▁permets	-6473
▁planète	-6474
▁portail	-6475
▁presser	-6476
▁prétend	-6477
▁raccour	-6478
▁refroid	-6479
▁regrett	-6480
▁remarqu	-6481
▁rumeurs	-6482
▁saurait	-6483
▁savions	-6484
▁science	-6485
▁soulage	-6486
▁suivrai	-6487
▁vivants	-6488
assurance	-6489
ternative	-6490
▁attendit	-6491
▁bataille	-6492
▁chemises	-6493
▁concerne	-6494
▁concours	-6495
▁convainc	-6496
▁divorcer	-6497
▁dépenser	-6498
▁détestes	-6499
▁développ	-6500
▁endormis	-6501
▁laissées	-6502
▁magasins	-6503
▁opportun	-6504
▁parvenue	-6505
▁quantité	-6506
▁ralentir	-6507
▁reconnue	-6508
▁trouvais	-6509
▁trouvera	-6510
appartiens	-6511
▁allumette	-6512
▁assistant	-6513
▁atteignit	-6514
▁attendais	-6515
▁conserver	-6516
▁demandons	-6517
▁effrayant	-6518
▁gaspiller	-6519
▁objectifs	-6520
▁objection	-6521
▁organisée	-6522
▁parlerons	-6523
▁pharmacie	-6524
▁regardais	-6525
▁sceptique	-6526
▁sensation	-6527
▁similaire	-6528
▁tentation	-6529
▁angleterre	-6530
▁brouillard	-6531
▁compliment	-6532
▁courageuse	-6533
▁formidable	-6534
▁impatience	-6535
▁impression	-6536
▁malentendu	-6537
▁plaisantes	-6538
▁plaisantez	-6539
▁prudemment	-6540
▁remplissez	-6541
▁ressemblez	-6542
▁traitement	-6543
▁trouverons	-6544
apprécierais	-6545
▁changements	-6546
▁enseignants	-6547
▁pardonnerai	-6548
▁respiration	-6549
▁supermarché	-6550
▁horriblement	-6551
▁personnalité	-6552
▁scientifique	-6553
▁plaisanteries	-6554
aç	-6555
ia	-6556
ât	-6557
aud	-6558
bib	-6559
gil	-6560
lit	-6561
mos	-6562
obt	-6563
opé	-6564
rév	-6565
tic	-6566
élu	-6567
œud	-6568
▁cy	-6569
culi	-6570
gueu	-6571
ogue	-6572
ontr	-6573
orde	-6574
ores	-6575
oter	-6576
raie	-6577
riel	-6578
ries	-6579
sait	-6580
tale	-6581
uits	-6582
èner	-6583
▁agi	-6584
▁arm	-6585
▁bol	-6586
▁caf	-6587
▁chô	-6588
▁idé	-6589
▁lux	-6590
▁niv	-6591
▁oné	-6592
▁out	-6593
▁pag	-6594
▁pus	-6595
▁som	-6596
▁web	-6597
▁édu	-6598
▁île	-6599
acité	-6600
aurez	-6601
enver	-6602
insul	-6603
irait	-6604
isons	-6605
itive	-6606
leman	-6607
mbler	-6608
mosph	-6609
oprié	-6610
ordes	-6611
rages	-6612
ricul	-6613
tache	-6614
urant	-6615
écriv	-6616
▁acti	-6617
▁aper	-6618
▁barb	-6619
▁drap	-6620
▁durs	-6621
▁ence	-6622
▁esti	-6623
▁fric	-6624
▁glis	-6625
▁incl	-6626
▁judi	-6627
▁lion	-6628
▁maux	-6629
▁nœud	-6630
▁oign	-6631
▁plié	-6632
▁prog	-6633
▁rand	-6634
▁ronf	-6635
▁siff	-6636
▁taqu	-6637
▁tint	-6638
▁vict	-6639
▁vies	-6640
▁vole	-6641
▁épic	-6642
aidera	-6643
aimons	-6644
allume	-6645
isible	-6646
ouvant	-6647
éviter	-6648
▁aidés	-6649
▁balai	-6650
▁balay	-6651
▁blond	-6652
▁bourg	-6653
▁chers	-6654
▁dauph	-6655
▁dépou	-6656
▁embêt	-6657
▁enfui	-6658
▁envis	-6659
▁essuy	-6660
▁fondu	-6661
▁gamin	-6662
▁grond	-6663
▁guéri	-6664
▁image	-6665
▁indis	-6666
▁jetez	-6667
▁lavée	-6668
▁maîtr	-6669
▁mises	-6670
▁météo	-6671
▁ouvri	-6672
▁pendu	-6673
▁plong	-6674
▁pourv	-6675
▁quart	-6676
▁recon	-6677
▁reine	-6678
▁rense	-6679
▁revue	-6680
▁sangu	-6681
▁saute	-6682
▁stupé	-6683
▁tache	-6684
▁victi	-6685
▁virée	-6686
anément	-6687
attendu	-6688
emmener	-6689
honneur	-6690
istance	-6691
ouvrage	-6692
quipage	-6693
▁advenu	-6694
▁basket	-6695
▁bougez	-6696
▁caméra	-6697
▁censée	-6698
▁censés	-6699
▁confes	-6700
▁confus	-6701
▁cordes	-6702
▁couché	-6703
▁couvre	-6704
▁croira	-6705
▁disais	-6706
▁dégueu	-6707
▁enlevé	-6708
▁envoya	-6709
▁escala	-6710
▁exigea	-6711
▁fautes	-6712
▁feront	-6713
▁gorgée	-6714
▁grippe	-6715
▁gâcher	-6716
▁indice	-6717
▁interv	-6718
▁irresp	-6719
▁jetons	-6720
▁jumeau	-6721
▁lacets	-6722
▁offici	-6723
▁ongles	-6724
▁opposé	-6725
▁origin	-6726
▁peinte	-6727
▁phares	-6728
▁pilote	-6729
▁poussa	-6730
▁prises	-6731
▁promit	-6732
▁publié	-6733
▁raccro	-6734
▁renard	-6735
▁réveil	-6736
▁révélé	-6737
▁sacrée	-6738
▁sauvés	-6739
▁solide	-6740
▁suspec	-6741
▁toubib	-6742
▁tourna	-6743
▁trahie	-6744
▁élevés	-6745
appareil	-6746
apporter	-6747
identité	-6748
mentaire	-6749
▁absurde	-6750
▁arrêtes	-6751
▁avocats	-6752
▁bagnole	-6753
▁bouchon	-6754
▁bruyant	-6755
▁chantez	-6756
▁chienne	-6757
▁comptes	-6758
▁crainte	-6759
▁culture	-6760
▁diplômé	-6761
▁dormait	-6762
▁défaite	-6763
▁dépense	-6764
▁enfance	-6765
▁fiancée	-6766
▁forcées	-6767
▁fourmis	-6768
▁horaire	-6769
▁ignorer	-6770
▁intérêt	-6771
▁malheur	-6772
▁massage	-6773
▁oignons	-6774
▁ordonné	-6775
▁partagé	-6776
▁portent	-6777
▁postale	-6778
▁pouviez	-6779
▁prennes	-6780
▁pressée	-6781
▁protest	-6782
▁période	-6783
▁quittez	-6784
▁rejoint	-6785
▁rendons	-6786
▁rentres	-6787
▁retardé	-6788
▁réservé	-6789
▁soucier	-6790
▁terrain	-6791
▁tricher	-6792
▁tristes	-6793
▁trompez	-6794
▁voleurs	-6795
▁épuisée	-6796
imaginais	-6797
▁allergie	-6798
▁attirant	-6799
▁bizarres	-6800
▁constitu	-6801
▁contrain	-6802
▁destinée	-6803
▁décroché	-6804
▁effectué	-6805
▁enceinte	-6806
▁enchanté	-6807
▁indiffér	-6808
▁inquiets	-6809
▁jalouses	-6810
▁licencié	-6811
▁menteurs	-6812
▁médicale	-6813
▁parfaits	-6814
▁patients	-6815
▁pensions	-6816
▁plombier	-6817
▁pouvoirs	-6818
▁prennent	-6819
▁présenta	-6820
▁racontez	-6821
▁raquette	-6822
▁relation	-6823
▁religion	-6824
▁remporté	-6825
▁respectu	-6826
▁réfléchi	-6827
▁souhaité	-6828
▁suivante	-6829
▁émotions	-6830
▁épouvant	-6831
▁éteignez	-6832
▁éveillés	-6833
angleterre	-6834
infirmière	-6835
▁apprécies	-6836
▁araignées	-6837
▁canadiens	-6838
▁classique	-6839
▁confirmer	-6840
▁deviendra	-6841
▁dégoûtant	-6842
▁effrayées	-6843
▁fonctionn	-6844
▁gentleman	-6845
▁particuli	-6846
▁possédait	-6847
▁pouvaient	-6848
▁principal	-6849
▁promettre	-6850
▁promotion	-6851
▁propriété	-6852
▁regardent	-6853
▁reviennes	-6854
▁solitaire	-6855
▁séjourner	-6856
▁touristes	-6857
enterrement	-6858
électricité	-6859
▁comprenons	-6860
▁consciente	-6861
▁conseiller	-6862
▁débrouillé	-6863
▁désespérée	-6864
▁enregistre	-6865
▁extraverti	-6866
▁importance	-6867
▁inhabituel	-6868
▁maternelle	-6869
▁profondeur	-6870
▁recommande	-6871
▁verrouille	-6872
▁connaissiez	-6873
▁destination	-6874
▁incompétent	-6875
▁interrompre	-6876
▁souviendrai	-6877
▁confectionna	-6878
▁embarrassant	-6879
▁épouvantable	-6880
▁collectionner	-6881
▁travaillerons	-6882
af	-6883
bo	-6884
gb	-6885
abs	-6886
bri	-6887
bés	-6888
cés	-6889
dif	-6890
emm	-6891
eut	-6892
gue	-6893
irt	-6894
lav	-6895
lir	-6896
mie	-6897
not	-6898
och	-6899
usc	-6900
▁be	-6901
▁er	-6902
▁râ	-6903
chet	-6904
curr	-6905
ionn	-6906
itôt	-6907
mage	-6908
nant	-6909
nées	-6910
ondu	-6911
orta	-6912
oser	-6913
oule	-6914
phab	-6915
utée	-6916
ènes	-6917
êtir	-6918
▁blé	-6919
▁cue	-6920
▁far	-6921
▁fic	-6922
▁fla	-6923
▁gif	-6924
▁haï	-6925
▁lib	-6926
▁méf	-6927
▁nié	-6928
▁sir	-6929
▁ste	-6930
▁str	-6931
▁séd	-6932
agers	-6933
ageux	-6934
agnol	-6935
auras	-6936
duira	-6937
euble	-6938
excus	-6939
illai	-6940
isses	-6941
iture	-6942
odeur	-6943
ormer	-6944
rigér	-6945
sance	-6946
érons	-6947
▁arra	-6948
▁auss	-6949
▁cier	-6950
▁cria	-6951
▁crut	-6952
▁cédé	-6953
▁célé	-6954
▁fixe	-6955
▁frig	-6956
▁fuit	-6957
▁gagn	-6958
▁gelé	-6959
▁gobe	-6960
▁gron	-6961
▁gêné	-6962
▁inse	-6963
▁luxe	-6964
▁lycé	-6965
▁mouv	-6966
▁noyé	-6967
▁ouïe	-6968
▁pian	-6969
▁pige	-6970
▁plai	-6971
▁pluv	-6972
▁pété	-6973
▁sarc	-6974
▁sidé	-6975
▁surf	-6976
▁séle	-6977
▁vins	-6978
▁vire	-6979
▁émis	-6980
assion	-6981
attrap	-6982
cation	-6983
ension	-6984
ourdie	-6985
outons	-6986
rèrent	-6987
sement	-6988
tirent	-6989
échecs	-6990
▁aboie	-6991
▁absor	-6992
▁admis	-6993
▁adres	-6994
▁aidée	-6995
▁aient	-6996
▁amend	-6997
▁amuse	-6998
▁avisé	-6999
▁avril	-7000
▁bleus	-7001
▁bombe	-7002
▁bondé	-7003
▁bébés	-7004
▁dossi	-7005
▁expul	-7006
▁finan	-7007
▁frust	-7008
▁fusil	-7009
▁guide	-7010
▁gâché	-7011
▁intri	-7012
▁jules	-7013
▁nerfs	-7014
▁noirs	-7015
▁occas	-7016
▁possè	-7017
▁pouff	-7018
▁procu	-7019
▁proph	-7020
▁relax	-7021
▁ruiné	-7022
▁sacré	-7023
▁savon	-7024
▁singe	-7025
▁soirs	-7026
▁sonna	-7027
▁sourn	-7028
▁spont	-7029
▁taper	-7030
▁troup	-7031
▁veine	-7032
▁vides	-7033
▁vigil	-7034
accepte	-7035
apprend	-7036
habille	-7037
parlers	-7038
ription	-7039
utation	-7040
étrange	-7041
▁abattu	-7042
▁affamé	-7043
▁amenez	-7044
▁amuser	-7045
▁auront	-7046
▁blonde	-7047
▁bottes	-7048
▁bougie	-7049
▁calmer	-7050
▁canada	-7051
▁causer	-7052
▁contag	-7053
▁couche	-7054
▁couple	-7055
▁coupée	-7056
▁diront	-7057
▁domest	-7058
▁donnes	-7059
▁droits	-7060
▁défait	-7061
▁dégage	-7062
▁dégoté	-7063
▁excusé	-7064
▁fortes	-7065
▁frustr	-7066
▁garant	-7067
▁goutte	-7068
▁habile	-7069
▁habits	-7070
▁intime	-7071
▁intimi	-7072
▁introd	-7073
▁jouais	-7074
▁jusque	-7075
▁justif	-7076
▁lundis	-7077
▁malgré	-7078
▁marron	-7079
▁montée	-7080
▁mépris	-7081
▁métier	-7082
▁niveau	-7083
▁parier	-7084
▁perdis	-7085
▁poster	-7086
▁prêtez	-7087
▁pétrin	-7088
▁remett	-7089
▁rendra	-7090
▁renouv	-7091
▁retenu	-7092
▁rigole	-7093
▁récomp	-7094
▁semblé	-7095
▁songer	-7096
▁timbre	-7097
▁triché	-7098
▁ventre	-7099
▁volent	-7100
▁volume	-7101
▁voulut	-7102
▁écrite	-7103
abilités	-7104
enverrai	-7105
iendrait	-7106
intimité	-7107
mosphère	-7108
ormément	-7109
uitement	-7110
▁accusée	-7111
▁actrice	-7112
▁adorait	-7113
▁appuyer	-7114
▁baigner	-7115
▁branche	-7116
▁chômage	-7117
▁coincée	-7118
▁commets	-7119
▁conditi	-7120
▁courait	-7121
▁cruelle	-7122
▁crédule	-7123
▁déclaré	-7124
▁dégueul	-7125
▁déjeune	-7126
▁effecti	-7127
▁entends	-7128
▁essayes	-7129
▁excessi	-7130
▁excuser	-7131
▁fermier	-7132
▁gâteaux	-7133
▁habites	-7134
▁humains	-7135
▁indique	-7136
▁joignez	-7137
▁lustres	-7138
▁marchez	-7139
▁méthode	-7140
▁perdons	-7141
▁pressés	-7142
▁pénétré	-7143
▁remplir	-7144
▁rentrés	-7145
▁ridicul	-7146
▁réserve	-7147
▁suicidé	-7148
▁suspend	-7149
▁séparés	-7150
▁talents	-7151
▁traduis	-7152
▁tremble	-7153
▁veiller	-7154
▁voyages	-7155
▁écoutée	-7156
attention	-7157
▁abeilles	-7158
▁accompag	-7159
▁agressif	-7160
▁appeller	-7161
▁arrêtées	-7162
▁augmente	-7163
▁augmenté	-7164
▁aussitôt	-7165
▁comprenn	-7166
▁condamné	-7167
▁confront	-7168
▁courriel	-7169
▁délicate	-7170
▁déménage	-7171
▁dépenses	-7172
▁embrasse	-7173
▁entendit	-7174
▁fainéant	-7175
▁mangerai	-7176
▁manuelle	-7177
▁marchait	-7178
▁marchand	-7179
▁morceaux	-7180
▁méritent	-7181
▁pagaille	-7182
▁parvenez	-7183
▁parvenus	-7184
▁pianiste	-7185
▁plaintes	-7186
▁position	-7187
▁procéder	-7188
▁préparez	-7189
▁puissant	-7190
▁rendrait	-7191
▁reporter	-7192
▁reprises	-7193
▁requiers	-7194
▁réfrigér	-7195
▁résister	-7196
▁réussira	-7197
▁souffert	-7198
▁suicider	-7199
▁sûrement	-7200
▁traduire	-7201
▁trembler	-7202
▁vertiges	-7203
▁viendrez	-7204
▁voudront	-7205
▁voulions	-7206
▁écoutons	-7207
▁éloignez	-7208
▁élégante	-7209
entreprise	-7210
▁appréciez	-7211
▁cherchais	-7212
▁cherchent	-7213
▁cherchons	-7214
▁cigarette	-7215
▁clarifier	-7216
▁commander	-7217
▁compromis	-7218
▁considéré	-7219
▁descendez	-7220
▁dirigeons	-7221
▁doucement	-7222
▁embrassés	-7223
▁entraînée	-7224
▁faisaient	-7225
▁fascinant	-7226
▁généreuse	-7227
▁justement	-7228
▁moururent	-7229
▁naturelle	-7230
▁participé	-7231
▁passagers	-7232
▁persuader	-7233
▁plastique	-7234
▁préoccupé	-7235
▁publicité	-7236
▁randonnée	-7237
▁rencontra	-7238
▁réessayer	-7239
▁souhaites	-7240
▁visiteurs	-7241
▁amoureuses	-7242
▁chanceuses	-7243
▁commençais	-7244
▁compassion	-7245
▁contrariés	-7246
▁deviennent	-7247
▁distinguer	-7248
▁entraîneur	-7249
▁fourchette	-7250
▁poursuivre	-7251
▁recherches	-7252
▁véritables	-7253
▁accompagner	-7254
▁acquisition	-7255
▁conclusions	-7256
▁contrariées	-7257
▁embarrassée	-7258
▁normalement	-7259
▁pourparlers	-7260
▁professeurs	-7261
▁rappellerai	-7262
▁recommencer	-7263
▁rencontriez	-7264
▁silencieuse	-7265
▁sincèrement	-7266
▁affreusement	-7267
▁prisonnières	-7268
▁manifestement	-7269
▁professionnel	-7270
▁réfrigérateur	-7271
▁impressionnées	-7272
bu	-7273
su	-7274
agr	-7275
arg	-7276
chi	-7277
eng	-7278
get	-7279
his	-7280
ige	-7281
imm	-7282
ind	-7283
lor	-7284
nie	-7285
ntr	-7286
rec	-7287
reu	-7288
ylo	-7289
▁ol	-7290
▁ro	-7291
abli	-7292
adap	-7293
amie	-7294
anoï	-7295
aper	-7296
ardé	-7297
ario	-7298
aver	-7299
culé	-7300
cées	-7301
dure	-7302
hési	-7303
iait	-7304
ives	-7305
lier	-7306
nons	-7307
ntry	-7308
oncé	-7309
oyen	-7310
rime	-7311
sive	-7312
tage	-7313
tent	-7314
uise	-7315
ureu	-7316
ètre	-7317
▁asi	-7318
▁cat	-7319
▁cis	-7320
▁don	-7321
▁fre	-7322
▁gal	-7323
▁job	-7324
▁lav	-7325
▁nie	-7326
▁noy	-7327
▁nus	-7328
▁pic	-7329
▁prê	-7330
▁pét	-7331
▁rév	-7332
▁tig	-7333
▁vil	-7334
▁âme	-7335
▁ému	-7336
▁œuf	-7337
agnes	-7338
allai	-7339
aspir	-7340
astre	-7341
ciers	-7342
ennui	-7343
ennuy	-7344
excel	-7345
faire	-7346
image	-7347
irais	-7348
lande	-7349
lette	-7350
oigne	-7351
onger	-7352
ortez	-7353
ourir	-7354
quant	-7355
titue	-7356
tâmes	-7357
usion	-7358
▁aida	-7359
▁arrê	-7360
▁assi	-7361
▁aîné	-7362
▁brun	-7363
▁cais	-7364
▁cath	-7365
▁chaî	-7366
▁chou	-7367
▁cing	-7368
▁code	-7369
▁cran	-7370
▁crie	-7371
▁dact	-7372
▁dram	-7373
▁enla	-7374
▁exer	-7375
▁fixa	-7376
▁flat	-7377
▁frot	-7378
▁fuji	-7379
▁grec	-7380
▁géré	-7381
▁jean	-7382
▁jeun	-7383
▁nées	-7384
▁park	-7385
▁pomp	-7386
▁puér	-7387
▁ramp	-7388
▁rasé	-7389
▁revu	-7390
▁sied	-7391
▁sing	-7392
▁soie	-7393
▁stat	-7394
aidiez	-7395
alerie	-7396
aliser	-7397
aliste	-7398
auteur	-7399
existe	-7400
explos	-7401
isions	-7402
liquer	-7403
ondent	-7404
ouvrit	-7405
querai	-7406
éclair	-7407
évanou	-7408
évoque	-7409
▁abord	-7410
▁ailes	-7411
▁analy	-7412
▁apeur	-7413
▁armée	-7414
▁aînée	-7415
▁bijou	-7416
▁bronz	-7417
▁caill	-7418
▁captu	-7419
▁cessa	-7420
▁chass	-7421
▁devra	-7422
▁diner	-7423
▁distr	-7424
▁dévis	-7425
▁envah	-7426
▁erron	-7427
▁estim	-7428
▁finis	-7429
▁foies	-7430
▁foutu	-7431
▁foyer	-7432
▁garée	-7433
▁gramm	-7434
▁influ	-7435
▁laide	-7436
▁lavez	-7437
▁moder	-7438
▁mondi	-7439
▁monta	-7440
▁noter	-7441
▁pelle	-7442
▁polit	-7443
▁porta	-7444
▁pouls	-7445
▁rejet	-7446
▁repar	-7447
▁récol	-7448
▁salua	-7449
▁salée	-7450
▁steak	-7451
▁stock	-7452
▁stopp	-7453
▁types	-7454
▁téléc	-7455
▁vrais	-7456
▁vécut	-7457
▁élect	-7458
▁époux	-7459
▁étend	-7460
▁évité	-7461
envoyer	-7462
habitue	-7463
intérêt	-7464
orterai	-7465
écoutez	-7466
▁accent	-7467
▁aidera	-7468
▁alluma	-7469
▁appels	-7470
▁auteur	-7471
▁bavard	-7472
▁bourré	-7473
▁briser	-7474
▁brûler	-7475
▁budget	-7476
▁concoc	-7477
▁couver	-7478
▁disons	-7479
▁disque	-7480
▁drogue	-7481
▁débout	-7482
▁décour	-7483
▁dégoût	-7484
▁encais	-7485
▁endomm	-7486
▁espèce	-7487
▁essuie	-7488
▁eurent	-7489
▁fidèle	-7490
▁forces	-7491
▁forcez	-7492
▁fourni	-7493
▁gouver	-7494
▁largué	-7495
▁menacé	-7496
▁mordre	-7497
▁motivé	-7498
▁passes	-7499
▁pensée	-7500
▁poivre	-7501
▁ranger	-7502
▁refait	-7503
▁renfor	-7504
▁rentra	-7505
▁représ	-7506
▁revint	-7507
▁réside	-7508
▁saluer	-7509
▁saumon	-7510
▁source	-7511
▁splend	-7512
▁tombés	-7513
▁tracer	-7514
▁trembl	-7515
▁truite	-7516
▁tâches	-7517
▁vendez	-7518
▁écrasé	-7519
▁église	-7520
▁épargn	-7521
▁étroit	-7522
▁études	-7523
affaires	-7524
aimeriez	-7525
améliore	-7526
appelait	-7527
entraîne	-7528
impressi	-7529
ionnette	-7530
ographie	-7531
quemment	-7532
▁abeille	-7533
▁affreux	-7534
▁allâmes	-7535
▁amélior	-7536
▁appétit	-7537
▁attaché	-7538
▁attaqué	-7539
▁brosser	-7540
▁cendres	-7541
▁charbon	-7542
▁ciseaux	-7543
▁clients	-7544
▁country	-7545
▁cousine	-7546
▁dactylo	-7547
▁diamant	-7548
▁domaine	-7549
▁dossier	-7550
▁décédée	-7551
▁dépassé	-7552
▁désirez	-7553
▁désolés	-7554
▁détient	-7555
▁entrées	-7556
▁essaies	-7557
▁excitée	-7558
▁gardons	-7559
▁grandir	-7560
▁habitez	-7561
▁honneur	-7562
▁inconnu	-7563
▁inscrit	-7564
▁insensé	-7565
▁joueurs	-7566
▁jouions	-7567
▁modeste	-7568
▁mouillé	-7569
▁mélange	-7570
▁nettoya	-7571
▁nuageux	-7572
▁paraiss	-7573
▁paranoï	-7574
▁passage	-7575
▁patiner	-7576
▁peintre	-7577
▁poignée	-7578
▁proposé	-7579
▁puisque	-7580
▁raciste	-7581
▁rentrez	-7582
▁restées	-7583
▁revenue	-7584
▁rigoler	-7585
▁saigner	-7586
▁sanguin	-7587
▁stratég	-7588
▁sélecti	-7589
▁tomates	-7590
▁tombées	-7591
▁traitez	-7592
▁traîner	-7593
▁vendent	-7594
▁vivante	-7595
▁weekend	-7596
▁écoutes	-7597
▁éloigne	-7598
▁éloigné	-7599
ascenseur	-7600
étudiants	-7601
▁amusante	-7602
▁appelles	-7603
▁apporter	-7604
▁attrapez	-7605
▁auraient	-7606
▁bouillir	-7607
▁bourgade	-7608
▁capables	-7609
▁chantage	-7610
▁complexe	-7611
▁comporté	-7612
▁comprise	-7613
▁confondu	-7614
▁corrigez	-7615
▁craindre	-7616
▁déplacer	-7617
▁dérangée	-7618
▁désastre	-7619
▁détendue	-7620
▁détester	-7621
▁employés	-7622
▁envoyées	-7623
▁fichiers	-7624
▁flexible	-7625
▁habitent	-7626
▁hilarant	-7627
▁honnêtes	-7628
▁hospital	-7629
▁insectes	-7630
▁internet	-7631
▁jeunesse	-7632
▁jugement	-7633
▁justesse	-7634
▁laissera	-7635
▁marrante	-7636
▁messages	-7637
▁mouillée	-7638
▁médaille	-7639
▁oreiller	-7640
▁ouvrages	-7641
▁ouvriers	-7642
▁pardonne	-7643
▁parvient	-7644
▁passerai	-7645
▁pleuvait	-7646
▁pluvieux	-7647
▁profiter	-7648
▁précises	-7649
▁prévenus	-7650
▁refusait	-7651
▁remarqua	-7652
▁repasser	-7653
▁respecté	-7654
▁routière	-7655
▁réserver	-7656
▁scandale	-7657
▁séparées	-7658
▁échapper	-7659
▁écriture	-7660
▁étudions	-7661
▁astucieux	-7662
▁charmante	-7663
▁chauffage	-7664
▁compagnon	-7665
▁confiante	-7666
▁constitue	-7667
▁contentez	-7668
▁dépêchons	-7669
▁détestait	-7670
▁enveloppe	-7671
▁gaspillez	-7672
▁gentiment	-7673
▁grammaire	-7674
▁impliquée	-7675
▁ingénieur	-7676
▁innocence	-7677
▁irrespons	-7678
▁moustache	-7679
▁mouvement	-7680
▁ordinaire	-7681
▁parvienne	-7682
▁plaignent	-7683
▁poursuivi	-7684
▁prendrais	-7685
▁procédure	-7686
▁prévenant	-7687
▁prévenues	-7688
▁raccourci	-7689
▁reprendre	-7690
▁retrouver	-7691
▁sandwichs	-7692
▁serviable	-7693
▁tentative	-7694
▁tradition	-7695
▁travailla	-7696
accordèrent	-7697
application	-7698
▁ambitieuse	-7699
▁apprécient	-7700
▁apprécions	-7701
▁collection	-7702
▁commercial	-7703
▁conférence	-7704
▁convaincus	-7705
▁correspond	-7706
▁demanderai	-7707
▁débordante	-7708
▁entendîmes	-7709
▁instrument	-7710
▁légèrement	-7711
▁mécanicien	-7712
▁partenaire	-7713
▁permettrai	-7714
▁principale	-7715
▁rechercher	-7716
▁reproduira	-7717
▁reproduire	-7718
▁réputation	-7719
▁secrétaire	-7720
▁serviettes	-7721
▁université	-7722
▁énormément	-7723
▁bizarrement	-7724
▁camionnette	-7725
▁conditionné	-7726
▁coopération	-7727
▁déplacement	-7728
▁impitoyable	-7729
▁importantes	-7730
▁indépendant	-7731
▁photographe	-7732
▁soulagement	-7733
▁talentueuse	-7734
impressionner	-7735
▁gratuitement	-7736
▁photographie	-7737
▁responsables	-7738
▁travaillerai	-7739
▁végétarienne	-7740
▁effectivement	-7741
▁intelligentes	-7742
▁signification	-7743
▁responsabilités	-7744
ky	-7745
ov	-7746
tè	-7747
ît	-7748
ût	-7749
bou	-7750
cez	-7751
flé	-7752
gby	-7753
ina	-7754
odé	-7755
oût	-7756
pas	-7757
rud	-7758
sai	-7759
upp	-7760
êle	-7761
▁aj	-7762
▁is	-7763
▁ok	-7764
▁ti	-7765
▁él	-7766
aces	-7767
acqu	-7768
aida	-7769
arna	-7770
arpe	-7771
arra	-7772
aube	-7773
aîné	-7774
cide	-7775
conf	-7776
cope	-7777
dons	-7778
imie	-7779
inci	-7780
isté	-7781
lley	-7782
mont	-7783
nous	-7784
obil	-7785
ocat	-7786
phel	-7787
pide	-7788
rira	-7789
rité	-7790
thme	-7791
urne	-7792
vous	-7793
èges	-7794
éroï	-7795
étie	-7796
▁asp	-7797
▁boi	-7798
▁cic	-7799
▁civ	-7800
▁dal	-7801
▁dim	-7802
▁enr	-7803
▁gré	-7804
▁ham	-7805
▁her	-7806
▁mex	-7807
▁obs	-7808
▁tue	-7809
▁vom	-7810
acles	-7811
ancez	-7812
auter	-7813
açant	-7814
dique	-7815
démar	-7816
ettes	-7817
fique	-7818
gence	-7819
igine	-7820
mbres	-7821
merce	-7822
ouest	-7823
quent	-7824
reuve	-7825
siste	-7826
tence	-7827
tenue	-7828
urger	-7829
verse	-7830
étude	-7831
▁alco	-7832
▁blan	-7833
▁blot	-7834
▁boul	-7835
▁brav	-7836
▁béné	-7837
▁calm	-7838
▁chop	-7839
▁coqu	-7840
▁culp	-7841
▁dura	-7842
▁empê	-7843
▁ital	-7844
▁juin	-7845
▁lien	-7846
▁malé	-7847
▁maît	-7848
▁noue	-7849
▁obéi	-7850
▁path	-7851
▁perç	-7852
▁pick	-7853
▁piég	-7854
▁pros	-7855
▁rass	-7856
▁rati	-7857
▁rédi	-7858
▁soûl	-7859
▁symb	-7860
▁tape	-7861
▁toux	-7862
▁vola	-7863
▁zone	-7864
▁égar	-7865
▁épin	-7866
▁éplu	-7867
▁équi	-7868
▁évid	-7869
acités	-7870
ailles	-7871
alphab	-7872
amitié	-7873
atures	-7874
effray	-7875
embête	-7876
ennuis	-7877
enture	-7878
ieuses	-7879
ifrice	-7880
lateur	-7881
orange	-7882
outant	-7883
tèrent	-7884
upport	-7885
urgers	-7886
ènerai	-7887
▁actif	-7888
▁affai	-7889
▁bande	-7890
▁canne	-7891
▁capté	-7892
▁chiff	-7893
▁conne	-7894
▁coupa	-7895
▁crève	-7896
▁désag	-7897
▁effor	-7898
▁esseu	-7899
▁exagé	-7900
▁excep	-7901
▁exclu	-7902
▁excès	-7903
▁expos	-7904
▁eûmes	-7905
▁faill	-7906
▁fixer	-7907
▁franc	-7908
▁frigo	-7909
▁garda	-7910
▁goûts	-7911
▁griff	-7912
▁idéal	-7913
▁infec	-7914
▁issue	-7915
▁jugez	-7916
▁lacet	-7917
▁levés	-7918
▁lises	-7919
▁manne	-7920
▁modif	-7921
▁moqué	-7922
▁métal	-7923
▁nette	-7924
▁niche	-7925
▁nommé	-7926
▁noyer	-7927
▁pastè	-7928
▁payés	-7929
▁pensa	-7930
▁perde	-7931
▁postu	-7932
▁raide	-7933
▁ravir	-7934
▁robot	-7935
▁rugby	-7936
▁shirt	-7937
▁sobre	-7938
▁stade	-7939
▁sueur	-7940
▁tenta	-7941
▁tirez	-7942
▁trace	-7943
▁versé	-7944
▁verte	-7945
▁vêtir	-7946
▁vêtue	-7947
▁vîmes	-7948
▁épais	-7949
▁œuvre	-7950
appelez	-7951
attrape	-7952
chèrent	-7953
embêter	-7954
empirer	-7955
enquête	-7956
essayai	-7957
horreur	-7958
ommande	-7959
opinion	-7960
ulation	-7961
▁amener	-7962
▁assure	-7963
▁attiré	-7964
▁baissa	-7965
▁bandes	-7966
▁blancs	-7967
▁boucle	-7968
▁brille	-7969
▁cachée	-7970
▁cahier	-7971
▁carnet	-7972
▁champs	-7973
▁chauds	-7974
▁chauve	-7975
▁chaîne	-7976
▁climat	-7977
▁compar	-7978
▁coudre	-7979
▁courez	-7980
▁cruels	-7981
▁devrai	-7982
▁divert	-7983
▁drogué	-7984
▁dérais	-7985
▁emmené	-7986
▁empire	-7987
▁enlève	-7988
▁entour	-7989
▁entret	-7990
▁foirer	-7991
▁fondée	-7992
▁foutre	-7993
▁grasse	-7994
▁hantée	-7995
▁imprud	-7996
▁jaunes	-7997
▁karaté	-7998
▁lancer	-7999
▁marcha	-8000
▁mercis	-8001
▁montés	-8002
▁observ	-8003
▁perman	-8004
▁poings	-8005
▁poison	-8006
▁prenne	-8007
▁presse	-8008
▁prince	-8009
▁précip	-8010
▁quitta	-8011
▁rangée	-8012
▁recons	-8013
▁record	-8014
▁refais	-8015
▁reposé	-8016
▁repous	-8017
▁ronfle	-8018
▁rougir	-8019
▁réclam	-8020
▁rétabl	-8021
▁saigne	-8022
▁saisir	-8023
▁saouls	-8024
▁sidéré	-8025
▁signes	-8026
▁signez	-8027
▁sourde	-8028
▁sports	-8029
▁suisse	-8030
▁suivis	-8031
▁sévère	-8032
▁tentez	-8033
▁trains	-8034
▁traire	-8035
▁transf	-8036
▁utiles	-8037
▁villes	-8038
▁volley	-8039
▁énigme	-8040
▁épousa	-8041
▁éviter	-8042
aiderais	-8043
aspirine	-8044
démarrer	-8045
embrassa	-8046
indiquer	-8047
itations	-8048
onnables	-8049
onnement	-8050
utilisez	-8051
vénement	-8052
▁absence	-8053
▁absente	-8054
▁achevée	-8055
▁adultes	-8056
▁afrique	-8057
▁allumez	-8058
▁amusons	-8059
▁anxieux	-8060
▁arrangé	-8061
▁attache	-8062
▁avertir	-8063
▁battent	-8064
▁biscuit	-8065
▁bénisse	-8066
▁caisses	-8067
▁censées	-8068
▁compare	-8069
▁comport	-8070
▁concurr	-8071
▁cookies	-8072
▁corrige	-8073
▁corrigé	-8074
▁crainti	-8075
▁cultive	-8076
▁devinez	-8077
▁devrons	-8078
▁dortoir	-8079
▁draguer	-8080
▁drapeau	-8081
▁décidée	-8082
▁décédés	-8083
▁défauts	-8084
▁démarré	-8085
▁détends	-8086
▁détesté	-8087
▁détruis	-8088
▁enfermé	-8089
▁engager	-8090
▁envoyée	-8091
▁excités	-8092
▁expulsé	-8093
▁galerie	-8094
▁gaucher	-8095
▁grimpez	-8096
▁insisté	-8097
▁interro	-8098
▁invinci	-8099
▁jumelle	-8100
▁membres	-8101
▁moderne	-8102
▁moutons	-8103
▁onéreux	-8104
▁paniqué	-8105
▁parlera	-8106
▁parliez	-8107
▁partent	-8108
▁paysage	-8109
▁potable	-8110
▁quittée	-8111
▁rassemb	-8112
▁recette	-8113
▁reculez	-8114
▁remplis	-8115
▁rendiez	-8116
▁repassé	-8117
▁restais	-8118
▁restiez	-8119
▁robinet	-8120
▁saoules	-8121
▁servent	-8122
▁siffler	-8123
▁sorties	-8124
▁spontan	-8125
▁suspici	-8126
▁touchée	-8127
▁tranche	-8128
▁trompée	-8129
▁témoign	-8130
▁veinard	-8131
▁voyagea	-8132
▁échouer	-8133
approcher	-8134
explosion	-8135
issements	-8136
objection	-8137
riculteur	-8138
▁acceptez	-8139
▁acquérir	-8140
▁allèrent	-8141
▁apprenez	-8142
▁attachez	-8143
▁boutique	-8144
▁commerce	-8145
▁courtois	-8146
▁couverte	-8147
▁criminel	-8148
▁cuisines	-8149
▁danseuse	-8150
▁document	-8151
▁dormirai	-8152
▁désordre	-8153
▁examiner	-8154
▁fourrure	-8155
▁gaspille	-8156
▁horrifié	-8157
▁imbécile	-8158
▁maigrich	-8159
▁maltrait	-8160
▁manquera	-8161
▁marchera	-8162
▁mouillés	-8163
▁possèdes	-8164
▁producti	-8165
▁produits	-8166
▁prudence	-8167
▁préparés	-8168
▁prêterai	-8169
▁publique	-8170
▁remercié	-8171
▁sciences	-8172
▁signaler	-8173
▁soulever	-8174
▁spéciale	-8175
▁supposés	-8176
▁survenir	-8177
▁survivra	-8178
▁tenaient	-8179
▁tiendrai	-8180
▁trousses	-8181
▁utilises	-8182
▁épinards	-8183
accusèrent	-8184
cieusement	-8185
invitation	-8186
▁abandonna	-8187
▁accomplir	-8188
▁approchez	-8189
▁arrivâmes	-8190
▁assassiné	-8191
▁attendait	-8192
▁attendant	-8193
▁baignoire	-8194
▁capacités	-8195
▁champagne	-8196
▁comptable	-8197
▁condition	-8198
▁construis	-8199
▁demandais	-8200
▁dessinées	-8201
▁documents	-8202
▁déterminé	-8203
▁encourage	-8204
▁ennuyeuse	-8205
▁expliquez	-8206
▁fauteuils	-8207
▁fermement	-8208
▁fermeture	-8209
▁hamburger	-8210
▁inattendu	-8211
▁innocente	-8212
▁inquiéter	-8213
▁insupport	-8214
▁manquerez	-8215
▁maîtresse	-8216
▁montagnes	-8217
▁méprisent	-8218
▁parcourir	-8219
▁parfaites	-8220
▁partirons	-8221
▁prendrons	-8222
▁prononcer	-8223
▁précipita	-8224
▁religieux	-8225
▁réussiras	-8226
▁réveillés	-8227
▁stratégie	-8228
▁sucreries	-8229
▁technique	-8230
▁trouveras	-8231
▁accompagné	-8232
▁américaine	-8233
▁asiatiques	-8234
▁astucieuse	-8235
▁autorisées	-8236
▁bienvenues	-8237
▁commencent	-8238
▁compliquée	-8239
▁compreniez	-8240
▁conviendra	-8241
▁dentifrice	-8242
▁descendons	-8243
▁définitive	-8244
▁déterminer	-8245
▁gaspillage	-8246
▁importants	-8247
▁interprète	-8248
▁laisserais	-8249
▁mentionner	-8250
▁partageons	-8251
▁participer	-8252
▁poursuivit	-8253
▁psychiques	-8254
▁redémarrer	-8255
▁souhaitons	-8256
▁surprenant	-8257
▁temporaire	-8258
▁trouvèrent	-8259
entraînement	-8260
▁alimentaire	-8261
▁application	-8262
▁candidature	-8263
▁chaleureuse	-8264
▁culpabilité	-8265
▁disposition	-8266
▁fréquemment	-8267
▁impuissante	-8268
▁indifférent	-8269
▁malédiction	-8270
▁nécessaires	-8271
▁paranoïaque	-8272
▁remarquable	-8273
▁rencontrons	-8274
▁ressemblait	-8275
▁ressemblent	-8276
▁verrouillez	-8277
▁commencerons	-8278
▁comprendrais	-8279
▁construction	-8280
▁conséquences	-8281
▁fonctionnera	-8282
▁nerveusement	-8283
▁propriétaire	-8284
▁télécommande	-8285
▁abandonnèrent	-8286
▁irresponsable	-8287
▁extraordinaire	-8288
ba	-8289
cl	-8290
ey	-8291
wl	-8292
xy	-8293
aka	-8294
ape	-8295
ara	-8296
aça	-8297
cor	-8298
elé	-8299
ett	-8300
fie	-8301
hyp	-8302
iff	-8303
ili	-8304
tai	-8305
tie	-8306
ulé	-8307
uné	-8308
ura	-8309
âne	-8310
âts	-8311
éré	-8312
ône	-8313
▁bû	-8314
▁ov	-8315
▁ry	-8316
ames	-8317
andé	-8318
book	-8319
brer	-8320
ceur	-8321
cite	-8322
dite	-8323
gnes	-8324
ices	-8325
itté	-8326
lait	-8327
land	-8328
omne	-8329
once	-8330
ouer	-8331
pock	-8332
rimé	-8333
rine	-8334
simp	-8335
tout	-8336
ulti	-8337
ulée	-8338
umes	-8339
xion	-8340
étoi	-8341
▁cds	-8342
▁fli	-8343
▁giv	-8344
▁hom	-8345
▁hon	-8346
▁rad	-8347
▁res	-8348
▁tax	-8349
▁tol	-8350
▁vul	-8351
▁yen	-8352
aboie	-8353
admir	-8354
ament	-8355
ammes	-8356
assey	-8357
atifs	-8358
austr	-8359
avert	-8360
dente	-8361
dette	-8362
effet	-8363
erait	-8364
habit	-8365
incap	-8366
isier	-8367
istez	-8368
jugés	-8369
lexes	-8370
luies	-8371
monie	-8372
oncez	-8373
onnés	-8374
rases	-8375
rerai	-8376
rices	-8377
rirai	-8378
rutée	-8379
urtic	-8380
▁abri	-8381
▁accé	-8382
▁acte	-8383
▁agré	-8384
▁armé	-8385
▁assu	-8386
▁auda	-8387
▁bowl	-8388
▁carb	-8389
▁clou	-8390
▁crue	-8391
▁cure	-8392
▁déte	-8393
▁enqu	-8394
▁foin	-8395
▁fuir	-8396
▁harc	-8397
▁haïs	-8398
▁inst	-8399
▁irré	-8400
▁loua	-8401
▁loué	-8402
▁opin	-8403
▁over	-8404
▁pend	-8405
▁prié	-8406
▁quat	-8407
▁ranc	-8408
▁remu	-8409
▁remé	-8410
▁scie	-8411
▁serm	-8412
▁têtu	-8413
▁unif	-8414
▁vant	-8415
agisse	-8416
angers	-8417
assade	-8418
assomb	-8419
gulier	-8420
illées	-8421
invent	-8422
onniez	-8423
ouvris	-8424
qualif	-8425
raison	-8426
resser	-8427
ureuil	-8428
utiles	-8429
énigme	-8430
▁amère	-8431
▁aurai	-8432
▁avoué	-8433
▁bazar	-8434
▁beign	-8435
▁boule	-8436
▁bulle	-8437
▁bénév	-8438
▁calmé	-8439
▁canon	-8440
▁capte	-8441
▁chiot	-8442
▁chrét	-8443
▁coton	-8444
▁céléb	-8445
▁digne	-8446
▁décon	-8447
▁dépit	-8448
▁déçus	-8449
▁endur	-8450
▁excur	-8451
▁exigé	-8452
▁fabul	-8453
▁fumez	-8454
▁goûté	-8455
▁grèce	-8456
▁hauts	-8457
▁hurlé	-8458
▁insou	-8459
▁intré	-8460
▁joins	-8461
▁lance	-8462
▁maria	-8463
▁marin	-8464
▁merde	-8465
▁miles	-8466
▁moche	-8467
▁mords	-8468
▁motif	-8469
▁music	-8470
▁métro	-8471
▁patin	-8472
▁peign	-8473
▁plier	-8474
▁polis	-8475
▁poêle	-8476
▁princ	-8477
▁prouv	-8478
▁puits	-8479
▁punie	-8480
▁péché	-8481
▁refer	-8482
▁répét	-8483
▁secou	-8484
▁stati	-8485
▁tuera	-8486
▁tuées	-8487
▁venge	-8488
▁verts	-8489
▁vitam	-8490
▁volée	-8491
▁égaré	-8492
accuser	-8493
apporte	-8494
appétit	-8495
aurions	-8496
automne	-8497
confort	-8498
emploie	-8499
endrier	-8500
ensable	-8501
espagne	-8502
iendras	-8503
ifiques	-8504
illages	-8505
insiste	-8506
inviter	-8507
mission	-8508
pockets	-8509
rissent	-8510
échappe	-8511
éprouve	-8512
▁achevé	-8513
▁aperçu	-8514
▁appart	-8515
▁appuyé	-8516
▁avisée	-8517
▁battus	-8518
▁brûlée	-8519
▁buvons	-8520
▁caches	-8521
▁cesses	-8522
▁chiant	-8523
▁chimie	-8524
▁chères	-8525
▁citron	-8526
▁commet	-8527
▁consom	-8528
▁copies	-8529
▁criait	-8530
▁demeur	-8531
▁devras	-8532
▁diplom	-8533
▁donnée	-8534
▁dormit	-8535
▁décoré	-8536
▁dégâts	-8537
▁empris	-8538
▁ensole	-8539
▁essuya	-8540
▁estime	-8541
▁farine	-8542
▁fauché	-8543
▁fiancé	-8544
▁gagnes	-8545
▁grotte	-8546
▁images	-8547
▁jambon	-8548
▁labeur	-8549
▁limité	-8550
▁lisent	-8551
▁lycéen	-8552
▁lâches	-8553
▁légère	-8554
▁majeur	-8555
▁maladr	-8556
▁marine	-8557
▁marrer	-8558
▁mental	-8559
▁minuti	-8560
▁modèle	-8561
▁moqués	-8562
▁mécont	-8563
▁nageur	-8564
▁nausée	-8565
▁occupe	-8566
▁paient	-8567
▁paires	-8568
▁paraly	-8569
▁passés	-8570
▁plaira	-8571
▁planif	-8572
▁pleins	-8573
▁plonge	-8574
▁pourra	-8575
▁prouve	-8576
▁quérir	-8577
▁ramené	-8578
▁ramène	-8579
▁recule	-8580
▁redire	-8581
▁rendes	-8582
▁repéré	-8583
▁rythme	-8584
▁réduit	-8585
▁réprim	-8586
▁rêveur	-8587
▁sauveg	-8588
▁secoué	-8589
▁serrez	-8590
▁soucis	-8591
▁statue	-8592
▁strict	-8593
▁stupéf	-8594
▁suscep	-8595
▁termes	-8596
▁torche	-8597
▁totale	-8598
▁trempé	-8599
▁veillé	-8600
▁vision	-8601
▁échoua	-8602
▁évanou	-8603
acquérir	-8604
assister	-8605
austroph	-8606
emprunte	-8607
endormit	-8608
enseigne	-8609
estation	-8610
iendrons	-8611
oreilles	-8612
ralement	-8613
éteindre	-8614
étudiant	-8615
▁aboient	-8616
▁accepta	-8617
▁accorde	-8618
▁achèter	-8619
▁actions	-8620
▁adorons	-8621
▁affecte	-8622
▁affront	-8623
▁ajoutez	-8624
▁applaud	-8625
▁arrêtés	-8626
▁assises	-8627
▁assurer	-8628
▁atterri	-8629
▁baissez	-8630
▁bateaux	-8631
▁blaguer	-8632
▁bouchée	-8633
▁chasser	-8634
▁choisie	-8635
▁choqués	-8636
▁cliquez	-8637
▁cochons	-8638
▁collège	-8639
▁commenç	-8640
▁commett	-8641
▁croient	-8642
▁croyait	-8643
▁créatif	-8644
▁cueilli	-8645
▁cuisiné	-8646
▁diplôme	-8647
▁douceur	-8648
▁droguée	-8649
▁défense	-8650
▁dépasse	-8651
▁engagée	-8652
▁enterré	-8653
▁erronée	-8654
▁faciles	-8655
▁fausses	-8656
▁fusible	-8657
▁ignorez	-8658
▁jouerai	-8659
▁marches	-8660
▁mentait	-8661
▁million	-8662
▁moquées	-8663
▁mouches	-8664
▁mourant	-8665
▁moyenne	-8666
▁parking	-8667
▁pendule	-8668
▁pensées	-8669
▁perdues	-8670
▁phrases	-8671
▁pilules	-8672
▁pouffer	-8673
▁prenait	-8674
▁prirent	-8675
▁procédé	-8676
▁profite	-8677
▁promène	-8678
▁prépara	-8679
▁pétrole	-8680
▁qualité	-8681
▁raccomp	-8682
▁ramassé	-8683
▁recruté	-8684
▁remplie	-8685
▁rendait	-8686
▁reposez	-8687
▁requise	-8688
▁respire	-8689
▁restait	-8690
▁retarde	-8691
▁retrait	-8692
▁revenus	-8693
▁rideaux	-8694
▁rigueur	-8695
▁réparée	-8696
▁révéler	-8697
▁saurons	-8698
▁sauvées	-8699
▁sembler	-8700
▁sentent	-8701
▁serveur	-8702
▁suggéré	-8703
▁surmont	-8704
▁tentons	-8705
▁tiennes	-8706
▁traître	-8707
▁tricote	-8708
▁troupes	-8709
▁trouvés	-8710
▁utilité	-8711
▁vaincre	-8712
▁vedette	-8713
▁vendeur	-8714
▁verrais	-8715
▁verriez	-8716
▁verrons	-8717
▁victime	-8718
▁vinrent	-8719
▁violent	-8720
▁écharpe	-8721
▁échelle	-8722
achèterai	-8723
appréciai	-8724
apprécies	-8725
attendons	-8726
honnêteté	-8727
occuperai	-8728
opération	-8729
uellement	-8730
urticaire	-8731
▁accueill	-8732
▁achetons	-8733
▁acquitté	-8734
▁adressée	-8735
▁alentour	-8736
▁arrivons	-8737
▁arrogant	-8738
▁arrêtiez	-8739
▁attendue	-8740
▁avantage	-8741
▁bassiste	-8742
▁bonhomme	-8743
▁camarade	-8744
▁chapeaux	-8745
▁cheville	-8746
▁comptons	-8747
▁concerné	-8748
▁confirmé	-8749
▁consacré	-8750
▁couteaux	-8751
▁créative	-8752
▁demandai	-8753
▁débutant	-8754
▁décevoir	-8755
▁détendez	-8756
▁employer	-8757
▁endroits	-8758
▁entreten	-8759
▁exercice	-8760
▁explique	-8761
▁exprimer	-8762
▁facebook	-8763
▁faillite	-8764
▁favorite	-8765
▁gratuite	-8766
▁habituer	-8767
▁ignorait	-8768
▁immobile	-8769
▁incendie	-8770
▁inquiété	-8771
▁intrigué	-8772
▁inutiles	-8773
▁jumelles	-8774
▁marchant	-8775
▁matériel	-8776
▁mystères	-8777
▁méritons	-8778
▁négocier	-8779
▁persuadé	-8780
▁possédez	-8781
▁poursuit	-8782
▁prononce	-8783
▁proposez	-8784
▁préjugés	-8785
▁recrutée	-8786
▁remarque	-8787
▁rentrons	-8788
▁resplend	-8789
▁resterez	-8790
▁retrouvé	-8791
▁réaliste	-8792
▁scolaire	-8793
▁sentiras	-8794
▁serveuse	-8795
▁sincères	-8796
▁sournois	-8797
▁survient	-8798
▁tenterai	-8799
▁terrifié	-8800
▁toilette	-8801
▁trouvées	-8802
▁téléchar	-8803
▁valentin	-8804
▁victoire	-8805
▁vivement	-8806
▁voisines	-8807
▁équipage	-8808
▁étonnant	-8809
▁étranges	-8810
▁évidence	-8811
apporterai	-8812
atmosphère	-8813
incapacité	-8814
simplement	-8815
▁apprenons	-8816
▁approprié	-8817
▁bâtiments	-8818
▁camarades	-8819
▁chandelle	-8820
▁cicatrice	-8821
▁comporter	-8822
▁confiture	-8823
▁connexion	-8824
▁contenter	-8825
▁contracté	-8826
▁contraint	-8827
▁correctes	-8828
▁critiques	-8829
▁disposait	-8830
▁distances	-8831
▁distribué	-8832
▁donnèrent	-8833
▁décisions	-8834
▁démission	-8835
▁dépendant	-8836
▁déprimant	-8837
▁familière	-8838
▁fortement	-8839
▁introduit	-8840
▁maladroit	-8841
▁mannequin	-8842
▁marchâmes	-8843
▁meurtrier	-8844
▁moquèrent	-8845
▁nerveuses	-8846
▁opération	-8847
▁organisés	-8848
▁parlaient	-8849
▁parlèrent	-8850
▁parvenues	-8851
▁princesse	-8852
▁prophétie	-8853
▁précieuse	-8854
▁préparées	-8855
▁puissance	-8856
▁puissante	-8857
▁reconnues	-8858
▁regardiez	-8859
▁ressentez	-8860
▁resterons	-8861
▁réveillez	-8862
▁saisissez	-8863
▁soupçonne	-8864
▁souvienne	-8865
▁splendide	-8866
▁trompette	-8867
▁trouverez	-8868
▁viendriez	-8869
▁éléphants	-8870
imagination	-8871
interrompre	-8872
onnellement	-8873
▁apparences	-8874
▁arriverons	-8875
▁arrivèrent	-8876
▁bouteilles	-8877
▁calendrier	-8878
▁claustroph	-8879
▁continuons	-8880
▁dégoûtante	-8881
▁essayèrent	-8882
▁japonaises	-8883
▁laissèrent	-8884
▁parapluies	-8885
▁pathétique	-8886
▁renouveler	-8887
▁reviendras	-8888
▁récompense	-8889
▁réveillées	-8890
▁signifiait	-8891
▁séparément	-8892
▁traduction	-8893
▁transpirer	-8894
▁trouveront	-8895
▁végétarien	-8896
▁étasuniens	-8897
▁étrangères	-8898
▁compositeur	-8899
▁convaincues	-8900
▁demanderais	-8901
▁disponibles	-8902
▁dégueulasse	-8903
▁désagréable	-8904
▁inconscient	-8905
▁incroyables	-8906
▁partenaires	-8907
▁passionnant	-8908
▁pickpockets	-8909
▁recommander	-8910
▁respectueux	-8911
▁travaillait	-8912
▁travailleur	-8913
▁tremblement	-8914
▁visiblement	-8915
▁agréablement	-8916
▁comprendriez	-8917
▁célibataires	-8918
▁fonctionnent	-8919
▁gouvernement	-8920
▁négociations	-8921
▁avertissement	-8922
▁consciencieux	-8923
▁correspondent	-8924
▁insupportable	-8925
▁précipitation	-8926
▁préoccupation	-8927
▁compréhensible	-8928
▁professionnelle	-8929
aw	-8930
do	-8931
dr	-8932
mm	-8933
ry	-8934
to	-8935
ug	-8936
anç	-8937
arm	-8938
ash	-8939
bun	-8940
cir	-8941
clé	-8942
gna	-8943
idi	-8944
ith	-8945
ouf	-8946
pte	-8947
rob	-8948
roc	-8949
rov	-8950
tur	-8951
tén	-8952
vro	-8953
ymp	-8954
ûte	-8955
▁ah	-8956
▁dy	-8957
▁fû	-8958
▁hi	-8959
▁to	-8960
acté	-8961
agis	-8962
agon	-8963
anim	-8964
ares	-8965
aïne	-8966
bons	-8967
cils	-8968
culp	-8969
ette	-8970
exam	-8971
exer	-8972
faut	-8973
grés	-8974
guré	-8975
gène	-8976
ican	-8977
iché	-8978
issa	-8979
istr	-8980
libi	-8981
lons	-8982
mmif	-8983
ocra	-8984
odor	-8985
orth	-8986
otez	-8987
seau	-8988
umée	-8989
yeux	-8990
zart	-8991
▁bra	-8992
▁cab	-8993
▁cad	-8994
▁cur	-8995
▁cyn	-8996
▁dig	-8997
▁eue	-8998
▁fos	-8999
▁gav	-9000
▁pié	-9001
▁rab	-9002
▁rag	-9003
▁ray	-9004
▁sab	-9005
▁syn	-9006
▁tab	-9007
▁tua	-9008
▁typ	-9009
▁var	-9010
▁émé	-9011
actes	-9012
aidez	-9013
amène	-9014
angle	-9015
anité	-9016
armes	-9017
arqué	-9018
athon	-9019
auves	-9020
ayons	-9021
aînée	-9022
chant	-9023
daire	-9024
diman	-9025
enais	-9026
entir	-9027
errai	-9028
ersée	-9029
essim	-9030
essus	-9031
ettis	-9032
extir	-9033
iance	-9034
icots	-9035
idité	-9036
illet	-9037
isant	-9038
isent	-9039
isson	-9040
obser	-9041
obéis	-9042
ockey	-9043
ommée	-9044
ontrô	-9045
oquet	-9046
orage	-9047
ousse	-9048
rimez	-9049
ruque	-9050
stéri	-9051
teurs	-9052
timis	-9053
çable	-9054
ènent	-9055
ètres	-9056
élève	-9057
▁abru	-9058
▁agis	-9059
▁aigu	-9060
▁ange	-9061
▁auto	-9062
▁comé	-9063
▁croû	-9064
▁flan	-9065
▁funé	-9066
▁fées	-9067
▁guér	-9068
▁hale	-9069
▁hont	-9070
▁ivro	-9071
▁jong	-9072
▁lits	-9073
▁maqu	-9074
▁micr	-9075
▁migr	-9076
▁mule	-9077
▁mépr	-9078
▁mêle	-9079
▁navi	-9080
▁pile	-9081
▁poit	-9082
▁prol	-9083
▁pure	-9084
▁rats	-9085
▁riez	-9086
▁rond	-9087
▁roue	-9088
▁scén	-9089
▁sexy	-9090
▁somn	-9091
▁stim	-9092
▁stop	-9093
▁tapé	-9094
▁taux	-9095
▁tels	-9096
▁thaï	-9097
▁âges	-9098
▁émue	-9099
accusa	-9100
agères	-9101
agédie	-9102
aimiez	-9103
cevoir	-9104
cients	-9105
enfuit	-9106
ession	-9107
excusa	-9108
hommes	-9109
ilibre	-9110
issade	-9111
lentes	-9112
onnier	-9113
onnons	-9114
phelin	-9115
rirent	-9116
sommes	-9117
telles	-9118
veille	-9119
ègerai	-9120
èrerai	-9121
économ	-9122
épaiss	-9123
éroïne	-9124
▁abond	-9125
▁admit	-9126
▁agent	-9127
▁alibi	-9128
▁avide	-9129
▁aînés	-9130
▁bisou	-9131
▁blâme	-9132
▁brise	-9133
▁bœufs	-9134
▁charg	-9135
▁close	-9136
▁coche	-9137
▁coulé	-9138
▁crâne	-9139
▁dissu	-9140
▁dorén	-9141
▁débou	-9142
▁défis	-9143
▁déloy	-9144
▁dénué	-9145
▁dévoi	-9146
▁dévou	-9147
▁effac	-9148
▁emmén	-9149
▁engag	-9150
▁euros	-9151
▁extir	-9152
▁fainé	-9153
▁filer	-9154
▁flatt	-9155
▁flûte	-9156
▁fonds	-9157
▁fumes	-9158
▁fîmes	-9159
▁fûtes	-9160
▁grève	-9161
▁gênée	-9162
▁hurle	-9163
▁infin	-9164
▁inten	-9165
▁irait	-9166
▁laves	-9167
▁litté	-9168
▁lèves	-9169
▁maint	-9170
▁massi	-9171
▁moisi	-9172
▁mêlez	-9173
▁navig	-9174
▁neufs	-9175
▁ouais	-9176
▁parcs	-9177
▁parié	-9178
▁payez	-9179
▁pince	-9180
▁promu	-9181
▁punis	-9182
▁purit	-9183
▁quere	-9184
▁recul	-9185
▁remué	-9186
▁reçut	-9187
▁rigol	-9188
▁ronde	-9189
▁rétic	-9190
▁saine	-9191
▁sains	-9192
▁sauce	-9193
▁saufs	-9194
▁sensé	-9195
▁serra	-9196
▁serre	-9197
▁souli	-9198
▁therm	-9199
▁tirée	-9200
▁tonne	-9201
▁traît	-9202
▁usine	-9203
▁verra	-9204
▁virés	-9205
▁vomir	-9206
▁vélos	-9207
▁étant	-9208
abeille	-9209
adorais	-9210
adorent	-9211
ampoule	-9212
attende	-9213
attente	-9214
chestre	-9215
chettes	-9216
ditoire	-9217
emporte	-9218
ennemis	-9219
génique	-9220
ication	-9221
istence	-9222
istible	-9223
obation	-9224
obilier	-9225
ographe	-9226
oristes	-9227
railles	-9228
ruption	-9229
résario	-9230
épreuve	-9231
étaires	-9232
▁accout	-9233
▁acquis	-9234
▁aidons	-9235
▁aimais	-9236
▁ajoute	-9237
▁allais	-9238
▁allant	-9239
▁allerg	-9240
▁amende	-9241
▁appela	-9242
▁appuya	-9243
▁assoup	-9244
▁attrib	-9245
▁avérée	-9246
▁baigne	-9247
▁bijoux	-9248
▁camper	-9249
▁captes	-9250
▁captez	-9251
▁caract	-9252
▁casier	-9253
▁chanta	-9254
▁chevel	-9255
▁chopin	-9256
▁chèvre	-9257
▁cinglé	-9258
▁comité	-9259
▁connec	-9260
▁contus	-9261
▁cookie	-9262
▁creuse	-9263
▁crimes	-9264
▁desser	-9265
▁devrez	-9266
▁diminu	-9267
▁dirent	-9268
▁discre	-9269
▁divers	-9270
▁dressa	-9271
▁durera	-9272
▁décide	-9273
▁décrit	-9274
▁délibé	-9275
▁démodé	-9276
▁désert	-9277
▁détenu	-9278
▁déçues	-9279
▁embrou	-9280
▁envolé	-9281
▁esclav	-9282
▁estimé	-9283
▁europé	-9284
▁existe	-9285
▁expiré	-9286
▁fantas	-9287
▁figuré	-9288
▁flatté	-9289
▁formée	-9290
▁fumeur	-9291
▁glaces	-9292
▁glacée	-9293
▁guérir	-9294
▁habité	-9295
▁herbes	-9296
▁hockey	-9297
▁hypnot	-9298
▁hérité	-9299
▁hésité	-9300
▁imprév	-9301
▁inclus	-9302
▁indisp	-9303
▁insist	-9304
▁lisait	-9305
▁littér	-9306
▁livrer	-9307
▁lèvent	-9308
▁mammif	-9309
▁marque	-9310
▁mobile	-9311
▁mordue	-9312
▁mozart	-9313
▁ménage	-9314
▁paiera	-9315
▁paille	-9316
▁parent	-9317
▁peigne	-9318
▁pessim	-9319
▁pizzas	-9320
▁plains	-9321
▁polies	-9322
▁procès	-9323
▁profil	-9324
▁précau	-9325
▁recond	-9326
▁rendus	-9327
▁repris	-9328
▁resser	-9329
▁reçois	-9330
▁rouler	-9331
▁russes	-9332
▁réagir	-9333
▁rédigé	-9334
▁région	-9335
▁répond	-9336
▁répète	-9337
▁singes	-9338
▁sièges	-9339
▁submer	-9340
▁séduis	-9341
▁tarder	-9342
▁tendre	-9343
▁tendue	-9344
▁toucha	-9345
▁traces	-9346
▁trahis	-9347
▁tribun	-9348
▁tripes	-9349
▁tuerai	-9350
▁typhon	-9351
▁vendue	-9352
▁vingts	-9353
▁virent	-9354
▁voyait	-9355
▁vraies	-9356
▁élevée	-9357
▁œuvres	-9358
aiderait	-9359
allonger	-9360
approuve	-9361
arranger	-9362
arrivais	-9363
arrivent	-9364
arrivons	-9365
assirent	-9366
attendra	-9367
effrayer	-9368
employer	-9369
ensibles	-9370
espagnol	-9371
humanité	-9372
ications	-9373
implique	-9374
tivement	-9375
économie	-9376
évanouir	-9377
▁absorbe	-9378
▁achetez	-9379
▁agaçant	-9380
▁aiguisé	-9381
▁amicaux	-9382
▁anciens	-9383
▁apparue	-9384
▁apprêté	-9385
▁arnaque	-9386
▁avertis	-9387
▁aveuglé	-9388
▁beignet	-9389
▁bonbons	-9390
▁boucles	-9391
▁brûlant	-9392
▁caillou	-9393
▁cessent	-9394
▁changez	-9395
▁choisit	-9396
▁chèques	-9397
▁cierges	-9398
▁citrons	-9399
▁clément	-9400
▁cocaïne	-9401
▁commère	-9402
▁compose	-9403
▁contemp	-9404
▁cousins	-9405
▁coûteux	-9406
▁croyons	-9407
▁dauphin	-9408
▁dirigez	-9409
▁déclina	-9410
▁décollé	-9411
▁dégoûté	-9412
▁déguisé	-9413
▁délicat	-9414
▁démarre	-9415
▁déniché	-9416
▁déserte	-9417
▁emboute	-9418
▁emmenez	-9419
▁emplois	-9420
▁endiman	-9421
▁enfilez	-9422
▁enlever	-9423
▁fertile	-9424
▁financi	-9425
▁forment	-9426
▁formons	-9427
▁grandit	-9428
▁gronder	-9429
▁humilié	-9430
▁immense	-9431
▁indélic	-9432
▁inventa	-9433
▁italien	-9434
▁ivrogne	-9435
▁juillet	-9436
▁lessive	-9437
▁loyauté	-9438
▁malades	-9439
▁mangera	-9440
▁matinal	-9441
▁mention	-9442
▁mesures	-9443
▁neigera	-9444
▁optimis	-9445
▁oubliée	-9446
▁panique	-9447
▁pareils	-9448
▁payerai	-9449
▁persuad	-9450
▁pigeons	-9451
▁positif	-9452
▁poussez	-9453
▁procure	-9454
▁procuré	-9455
▁précise	-9456
▁raccord	-9457
▁raconta	-9458
▁referai	-9459
▁rendues	-9460
▁reposée	-9461
▁restera	-9462
▁risquer	-9463
▁récolte	-9464
▁rétabli	-9465
▁réussit	-9466
▁sauront	-9467
▁simples	-9468
▁sortiez	-9469
▁souriez	-9470
▁stopper	-9471
▁suffire	-9472
▁suicide	-9473
▁supplia	-9474
▁séjourn	-9475
▁timides	-9476
▁tolérer	-9477
▁trouble	-9478
▁trouvai	-9479
▁voudras	-9480
▁voyagez	-9481
▁énervée	-9482
▁épargne	-9483
▁épuisés	-9484
▁éteinte	-9485
arriverai	-9486
attendent	-9487
autoriser	-9488
enveloppe	-9489
impliquer	-9490
étiquette	-9491
▁abaisser	-9492
▁advienne	-9493
▁aliments	-9494
▁allusion	-9495
▁ambition	-9496
▁ancienne	-9497
▁appelons	-9498
▁applaudi	-9499
▁arrivait	-9500
▁assiette	-9501
▁attrapée	-9502
▁biologie	-9503
▁blanches	-9504
▁branches	-9505
▁changent	-9506
▁chantait	-9507
▁chantiez	-9508
▁cheminée	-9509
▁clochait	-9510
▁compagne	-9511
▁complète	-9512
▁confessé	-9513
▁consiste	-9514
▁disparut	-9515
▁détestez	-9516
▁détruire	-9517
▁effrayer	-9518
▁effronté	-9519
▁embrassa	-9520
▁enregist	-9521
▁entrions	-9522
▁enverrai	-9523
▁envisagé	-9524
▁excitées	-9525
▁expliqua	-9526
▁fabriqué	-9527
▁fabuleux	-9528
▁faisions	-9529
▁familles	-9530
▁fauteuil	-9531
▁furieuse	-9532
▁garantie	-9533
▁gâchette	-9534
▁habillés	-9535
▁habitait	-9536
▁haricots	-9537
▁ignoriez	-9538
▁immédiat	-9539
▁incontrô	-9540
▁incorrig	-9541
▁informée	-9542
▁ironique	-9543
▁laissiez	-9544
▁location	-9545
▁manquait	-9546
▁marathon	-9547
▁maîtrise	-9548
▁migraine	-9549
▁miracles	-9550
▁mourrais	-9551
▁mourrons	-9552
▁national	-9553
▁nettoyez	-9554
▁négative	-9555
▁opinions	-9556
▁paralysé	-9557
▁paraître	-9558
▁partions	-9559
▁passager	-9560
▁pastèque	-9561
▁perruque	-9562
▁poitrine	-9563
▁poussent	-9564
▁précieux	-9565
▁préférés	-9566
▁punition	-9567
▁qualifié	-9568
▁rapporte	-9569
▁rebelles	-9570
▁reconnut	-9571
▁rendrons	-9572
▁reposons	-9573
▁requérir	-9574
▁resteras	-9575
▁retrouve	-9576
▁reverrai	-9577
▁répandue	-9578
▁sentirez	-9579
▁souciais	-9580
▁soulevée	-9581
▁sourcils	-9582
▁souvient	-9583
▁suspects	-9584
▁suspendu	-9585
▁tantinet	-9586
▁tragédie	-9587
▁traverse	-9588
▁uniforme	-9589
▁vivantes	-9590
▁vérifiez	-9591
▁vêtement	-9592
▁éloignée	-9593
▁étranglé	-9594
▁étudient	-9595
abandonnez	-9596
apprendrai	-9597
entraîneur	-9598
interromps	-9599
itablement	-9600
▁affection	-9601
▁affronter	-9602
▁agressive	-9603
▁anciennes	-9604
▁assiettes	-9605
▁atteindre	-9606
▁bretelles	-9607
▁bénévolat	-9608
▁changeons	-9609
▁combattre	-9610
▁compétent	-9611
▁concentré	-9612
▁coulisses	-9613
▁criminels	-9614
▁dernières	-9615
▁devinrent	-9616
▁diplomate	-9617
▁décourage	-9618
▁dépendons	-9619
▁dépouillé	-9620
▁dépourvus	-9621
▁détendues	-9622
▁effrontée	-9623
▁essentiel	-9624
▁exception	-9625
▁frustrant	-9626
▁fréquenté	-9627
▁habillées	-9628
▁ignorance	-9629
▁impliqués	-9630
▁incorrect	-9631
▁ingénieux	-9632
▁inquiètes	-9633
▁largement	-9634
▁montreras	-9635
▁montèrent	-9636
▁mécontent	-9637
▁ménagères	-9638
▁nageaient	-9639
▁occuperai	-9640
▁palissade	-9641
▁papillons	-9642
▁paraissez	-9643
▁parvenons	-9644
▁perplexes	-9645
▁policiers	-9646
▁pratiquer	-9647
▁pratiques	-9648
▁principes	-9649
▁présentes	-9650
▁prévoyons	-9651
▁rattraper	-9652
▁reconnaît	-9653
▁remplacer	-9654
▁renseigne	-9655
▁réconfort	-9656
▁réflexion	-9657
▁réussirez	-9658
▁satisfais	-9659
▁stressant	-9660
▁supérieur	-9661
▁tombèrent	-9662
▁transpire	-9663
▁tremblait	-9664
▁vengeance	-9665
▁voisinage	-9666
▁éveillées	-9667
▁événement	-9668
alternative	-9669
excellentes	-9670
▁adolescent	-9671
▁alcoolique	-9672
▁approchons	-9673
▁catholique	-9674
▁communauté	-9675
▁conscients	-9676
▁contagieux	-9677
▁contrarier	-9678
▁coopératif	-9679
▁dangereuse	-9680
▁domestique	-9681
▁dorénavant	-9682
▁débarrassé	-9683
▁désireriez	-9684
▁emprisonné	-9685
▁exemplaire	-9686
▁géographie	-9687
▁impatients	-9688
▁ingénieuse	-9689
▁maigrichon	-9690
▁malhonnête	-9691
▁navigateur	-9692
▁obligation	-9693
▁paraissait	-9694
▁pessimiste	-9695
▁ponctuelle	-9696
▁profession	-9697
▁protègerai	-9698
▁préoccupée	-9699
▁présidente	-9700
▁ravissante	-9701
▁recouverte	-9702
▁réchauffer	-9703
▁sceptiques	-9704
▁souhaitais	-9705
▁subitement	-9706
▁uniquement	-9707
▁électrique	-9708
inconvénient	-9709
▁adolescente	-9710
▁agriculteur	-9711
▁alternative	-9712
▁canadiennes	-9713
▁commerciale	-9714
▁débarrassez	-9715
▁dérangement	-9716
▁funérailles	-9717
▁opportunité	-9718
▁présenterai	-9719
▁psychologue	-9720
▁regretteras	-9721
▁réaliseront	-9722
▁réparations	-9723
▁sarcastique	-9724
▁spécialiste	-9725
▁strictement	-9726
▁supposition	-9727
▁susceptible	-9728
▁terroristes	-9729
▁collectionne	-9730
▁commencèrent	-9731
▁commentaires	-9732
▁dernièrement	-9733
▁enseignantes	-9734
▁inconsciente	-9735
▁maigrichonne	-9736
▁malchanceuse	-9737
▁marchandises	-9738
▁photogénique	-9739
▁physiquement	-9740
▁raisonnables	-9741
▁rembourserai	-9742
▁désespérément	-9743
▁déverrouillée	-9744
▁littéralement	-9745
▁remboursement	-9746
▁universitaire	-9747
▁chaleureusement	-9748
bi	-9749
fa	-9750
ka	-9751
agh	-9752
ahu	-9753
aki	-9754
ane	-9755
cié	-9756
don	-9757
dép	-9758
hée	-9759
ibi	-9760
idn	-9761
ila	-9762
ilé	-9763
imb	-9764
inj	-9765
ivi	-9766
lip	-9767
mat	-9768
ney	-9769
ogg	-9770
ogr	-9771
ops	-9772
ora	-9773
ost	-9774
ouh	-9775
ows	-9776
oxy	-9777
ple	-9778
pre	-9779
ral	-9780
rip	-9781
rup	-9782
uel	-9783
ury	-9784
ust	-9785
uté	-9786
vis	-9787
yme	-9788
çue	-9789
œux	-9790
▁ot	-9791
▁so	-9792
abri	-9793
acte	-9794
agea	-9795
agna	-9796
annu	-9797
appe	-9798
appé	-9799
armé	-9800
arti	-9801
asié	-9802
cept	-9803
chis	-9804
cien	-9805
desc	-9806
dité	-9807
ermé	-9808
fare	-9809
ford	-9810
gner	-9811
gnon	-9812
gnés	-9813
gule	-9814
ifor	-9815
imum	-9816
insp	-9817
inst	-9818
iras	-9819
ires	-9820
jets	-9821
lave	-9822
loit	-9823
mies	-9824
offe	-9825
oies	-9826
ophe	-9827
opie	-9828
orge	-9829
pent	-9830
reau	-9831
ress	-9832
tral	-9833
ulté	-9834
vant	-9835
èces	-9836
éloi	-9837
élue	-9838
érez	-9839
ésie	-9840
étér	-9841
êtée	-9842
ôles	-9843
▁ath	-9844
▁bab	-9845
▁bec	-9846
▁bil	-9847
▁bio	-9848
▁bor	-9849
▁bég	-9850
▁bét	-9851
▁cac	-9852
▁crê	-9853
▁dus	-9854
▁eus	-9855
▁exh	-9856
▁fal	-9857
▁fat	-9858
▁fié	-9859
▁gér	-9860
▁hal	-9861
▁hib	-9862
▁hid	-9863
▁jau	-9864
▁jés	-9865
▁lue	-9866
▁mah	-9867
▁mut	-9868
▁net	-9869
▁pér	-9870
▁sag	-9871
▁sép	-9872
▁tox	-9873
▁tur	-9874
▁urb	-9875
▁vif	-9876
▁voc	-9877
▁élo	-9878
alibi	-9879
alier	-9880
ander	-9881
appuy	-9882
arabe	-9883
arium	-9884
arrue	-9885
arrée	-9886
avéra	-9887
celet	-9888
chard	-9889
cives	-9890
credi	-9891
cules	-9892
dence	-9893
denti	-9894
deuse	-9895
embau	-9896
enreg	-9897
envir	-9898
exemp	-9899
exige	-9900
expos	-9901
idiot	-9902
igmes	-9903
igner	-9904
inent	-9905
injas	-9906
intes	-9907
ionné	-9908
irmer	-9909
irons	-9910
lotte	-9911
menté	-9912
obéir	-9913
oking	-9914
olise	-9915
onflé	-9916
oppos	-9917
opsie	-9918
oquer	-9919
organ	-9920
oussé	-9921
oyant	-9922
rants	-9923
rigue	-9924
résil	-9925
saire	-9926
terne	-9927
tesse	-9928
tinct	-9929
ulsif	-9930
urons	-9931
usque	-9932
ussie	-9933
uteur	-9934
œuvre	-9935
▁aboy	-9936
▁asie	-9937
▁auth	-9938
▁bail	-9939
▁bale	-9940
▁bats	-9941
▁boir	-9942
▁brut	-9943
▁buis	-9944
▁case	-9945
▁cité	-9946
▁	-9947
e	-9948
s	-9949
a	-9950
i	-9951
t	-9952
u	-9953
n	-9954
r	-9955
o	-9956
l	-9957
p	-9958
m	-9959
c	-9960
d	-9961
v	-9962
é	-9963
'	-9964
j	-9965
q	-9966
f	-9967
b	-9968
h	-9969
g	-9970
z	-9971
à	-9972
x	-9973
ê	-9974
è	-9975
y	-9976
ç	-9977
û	-9978
ù	-9979
î	-9980
ô	-9981
â	-9982
œ	-9983
k	-9984
 	-9985
0	-9986
w	-9987
1	-9988
3	-9989
ï	-9990
2	-9991
ë	-9992
5	-9993
9	-9994
