<pad>	0
<s>	0
</s>	0
<unk>	0
▁d	-0
es	-1
▁l	-2
on	-3
en	-4
▁p	-5
ti	-6
▁de	-7
an	-8
▁c	-9
▁s	-10
re	-11
er	-12
▁a	-13
ent	-14
ur	-15
in	-16
tion	-17
qu	-18
is	-19
et	-20
it	-21
▁la	-22
▁des	-23
ra	-24
▁et	-25
le	-26
▁m	-27
ou	-28
or	-29
ment	-30
ar	-31
un	-32
▁les	-33
▁pr	-34
ation	-35
te	-36
▁le	-37
▁à	-38
om	-39
▁f	-40
▁qu	-41
ant	-42
▁t	-43
our	-44
▁n	-45
▁r	-46
▁au	-47
és	-48
▁C	-49
il	-50
el	-51
ic	-52
al	-53
▁en	-54
▁du	-55
▁L	-56
▁con	-57
▁un	-58
au	-59
▁é	-60
▁pro	-61
si	-62
ir	-63
ement	-64
ta	-65
ans	-66
ch	-67
▁v	-68
▁par	-69
▁in	-70
ce	-71
ri	-72
ont	-73
▁re	-74
us	-75
té	-76
▁dé	-77
ci	-78
▁pour	-79
▁com	-80
li	-81
me	-82
ad	-83
▁e	-84
que	-85
▁(	-86
▁g	-87
ire	-88
as	-89
▁sur	-90
▁P	-91
ec	-92
tre	-93
pp	-94
▁b	-95
ro	-96
▁dans	-97
les	-98
res	-99
tu	-100
mp	-101
est	-102
▁D	-103
ité	-104
▁que	-105
▁S	-106
se	-107
▁ré	-108
onn	-109
ff	-110
eu	-111
la	-112
▁A	-113
ol	-114
▁une	-115
▁ou	-116
de	-117
ers	-118
iv	-119
anad	-120
▁qui	-121
ée	-122
ter	-123
ag	-124
urs	-125
ac	-126
▁o	-127
ouv	-128
di	-129
ts	-130
ées	-131
ces	-132
▁pl	-133
du	-134
ig	-135
ons	-136
os	-137
ul	-138
ques	-139
▁aux	-140
ab	-141
tiv	-142
▁av	-143
▁M	-144
ie	-145
ous	-146
▁ex	-147
▁est	-148
▁I	-149
ations	-150
ale	-151
tions	-152
▁ch	-153
ne	-154
▁R	-155
aux	-156
orm	-157
pr	-158
▁T	-159
ien	-160
elle	-161
▁E	-162
▁Canad	-163
▁fa	-164
▁su	-165
ort	-166
▁mo	-167
ires	-168
ins	-169
mes	-170
▁ac	-171
ère	-172
erv	-173
éra	-174
▁j	-175
▁:	-176
tr	-177
and	-178
ten	-179
▁Canada	-180
tif	-181
▁Le	-182
ction	-183
cu	-184
▁ma	-185
▁•	-186
gra	-187
▁plus	-188
▁Les	-189
mb	-190
▁sont	-191
▁tra	-192
end	-193
▁pas	-194
min	-195
op	-196
én	-197
▁B	-198
▁comp	-199
▁pa	-200
▁cons	-201
entre	-202
▁se	-203
tes	-204
ants	-205
ré	-206
▁parti	-207
▁h	-208
tra	-209
▁N	-210
▁comm	-211
imp	-212
iss	-213
ient	-214
▁ra	-215
▁so	-216
gi	-217
une	-218
che	-219
ven	-220
__	-221
id	-222
▁pré	-223
ance	-224
at	-225
ence	-226
nement	-227
ex	-228
ys	-229
sion	-230
bl	-231
▁ce	-232
ités	-233
lo	-234
▁ont	-235
aires	-236
ès	-237
anté	-238
ise	-239
lé	-240
ure	-241
▁La	-242
aire	-243
▁po	-244
..	-245
ang	-246
éd	-247
▁F	-248
▁do	-249
its	-250
ue	-251
ér	-252
▁app	-253
▁tr	-254
tres	-255
omm	-256
form	-257
im	-258
ésent	-259
éri	-260
être	-261
tri	-262
▁an	-263
ite	-264
til	-265
▁te	-266
lement	-267
age	-268
▁pu	-269
gram	-270
ication	-271
▁peu	-272
▁produ	-273
cip	-274
ervic	-275
teur	-276
elles	-277
ond	-278
ique	-279
▁dis	-280
jet	-281
▁inter	-282
▁ne	-283
▁O	-284
▁été	-285
▁-	-286
ine	-287
ss	-288
▁avec	-289
ette	-290
ord	-291
▁G	-292
oir	-293
teurs	-294
▁tou	-295
um	-296
▁per	-297
▁entre	-298
▁pers	-299
▁conc	-300
ouver	-301
▁res	-302
▁rés	-303
va	-304
app	-305
isation	-306
▁être	-307
ux	-308
▁éta	-309
▁déc	-310
▁fin	-311
ture	-312
▁santé	-313
cher	-314
▁il	-315
▁personn	-316
gan	-317
eau	-318
▁servic	-319
▁mar	-320
ours	-321
ens	-322
ni	-323
▁gr	-324
to	-325
tique	-326
ales	-327
▁En	-328
am	-329
isi	-330
ures	-331
po	-332
▁co	-333
titu	-334
▁di	-335
tiques	-336
util	-337
▁imp	-338
▁program	-339
ffic	-340
▁V	-341
bli	-342
▁donn	-343
ments	-344
era	-345
▁U	-346
els	-347
▁sa	-348
ill	-349
▁ren	-350
able	-351
tin	-352
ap	-353
▁ces	-354
ères	-355
oup	-356
ble	-357
▁ad	-358
▁canad	-359
ge	-360
organ	-361
▁présent	-362
ration	-363
▁dép	-364
▁canadien	-365
▁In	-366
bre	-367
anc	-368
▁dem	-369
th	-370
ve	-371
oi	-372
ph	-373
).	-374
ande	-375
estion	-376
▁É	-377
éc	-378
lec	-379
▁gén	-380
▁recher	-381
▁commun	-382
ari	-383
fin	-384
▁no	-385
ille	-386
ier	-387
▁«	-388
ents	-389
▁leur	-390
▁min	-391
ist	-392
▁rec	-393
rer	-394
▁nom	-395
ements	-396
▁services	-397
▁Il	-398
tive	-399
bu	-400
ème	-401
▁li	-402
tats	-403
▁ob	-404
▁sec	-405
val	-406
▁trava	-407
olo	-408
des	-409
oc	-410
▁dro	-411
emp	-412
▁nouv	-413
ines	-414
ises	-415
____	-416
ouvernement	-417
▁pos	-418
lu	-419
cess	-420
ors	-421
irec	-422
▁sou	-423
▁rapp	-424
▁mes	-425
▁%	-426
▁Con	-427
▁cette	-428
▁trans	-429
bles	-430
▁recherche	-431
▁me	-432
▁eff	-433
▁ann	-434
▁prop	-435
ég	-436
ois	-437
▁ter	-438
▁ins	-439
▁H	-440
▁comme	-441
▁exp	-442
nation	-443
▁perm	-444
▁form	-445
▁généra	-446
tic	-447
ourn	-448
tifs	-449
vel	-450
▁J	-451
),	-452
iques	-453
ait	-454
opp	-455
▁si	-456
tives	-457
erta	-458
▁gouvernement	-459
eux	-460
ui	-461
rit	-462
▁»	-463
ign	-464
tis	-465
av	-466
▁peut	-467
▁soci	-468
posi	-469
valu	-470
bil	-471
▁organ	-472
▁acc	-473
▁projet	-474
velopp	-475
éta	-476
ES	-477
yst	-478
▁dev	-479
▁régi	-480
ard	-481
▁rép	-482
formation	-483
▁son	-484
▁éc	-485
▁Pro	-486
▁col	-487
èg	-488
▁pays	-489
▁util	-490
tribu	-491
été	-492
▁fait	-493
tionn	-494
ON	-495
vent	-496
ica	-497
mi	-498
ass	-499
▁vo	-500
▁es	-501
▁internation	-502
ences	-503
....	-504
▁mil	-505
▁non	-506
ivers	-507
ignement	-508
▁Par	-509
▁direc	-510
ut	-511
tru	-512
téri	-513
tég	-514
tivités	-515
alement	-516
▁suiv	-517
seignement	-518
ues	-519
ais	-520
▁poli	-521
▁développ	-522
▁concer	-523
▁deux	-524
▁ses	-525
▁ti	-526
vir	-527
ob	-528
▁resp	-529
▁particip	-530
▁nation	-531
ils	-532
▁ass	-533
aut	-534
▁nombre	-535
▁cas	-536
▁at	-537
bo	-538
▁W	-539
mis	-540
▁sp	-541
▁ind	-542
eur	-543
▁travail	-544
▁produits	-545
▁bien	-546
incip	-547
insi	-548
oci	-549
acc	-550
onom	-551
ente	-552
▁syst	-553
▁Com	-554
près	-555
cep	-556
autres	-557
▁compr	-558
ances	-559
▁march	-560
▁publ	-561
▁vous	-562
▁ég	-563
▁leurs	-564
▁vis	-565
ez	-566
▁memb	-567
mé	-568
ême	-569
sions	-570
▁Q	-571
▁fon	-572
ante	-573
int	-574
▁données	-575
▁tech	-576
▁cré	-577
▁ar	-578
rait	-579
▁utilis	-580
▁organis	-581
▁princip	-582
▁programme	-583
▁y	-584
▁rela	-585
ate	-586
▁certa	-587
▁gestion	-588
tière	-589
nes	-590
minis	-591
▁$	-592
▁pre	-593
▁import	-594
alité	-595
▁prov	-596
ications	-597
ici	-598
alis	-599
▁ainsi	-600
▁développement	-601
seignements	-602
ources	-603
ing	-604
▁fourn	-605
TI	-606
▁Comm	-607
onnement	-608
information	-609
▁mé	-610
exp	-611
▁nous	-612
▁rapport	-613
adre	-614
▁for	-615
ets	-616
ara	-617
▁group	-618
équ	-619
▁mon	-620
▁diff	-621
enti	-622
antes	-623
co	-624
fication	-625
▁sous	-626
▁docu	-627
ies	-628
ép	-629
▁doit	-630
▁faire	-631
ide	-632
▁tous	-633
▁–	-634
élé	-635
graph	-636
▁fond	-637
ision	-638
▁demande	-639
▁publi	-640
ustri	-641
▁Ch	-642
loy	-643
▁al	-644
tal	-645
▁pri	-646
▁commer	-647
ud	-648
ind	-649
▁emp	-650
▁mais	-651
▁permet	-652
labo	-653
▁résul	-654
▁cl	-655
ma	-656
▁cours	-657
tant	-658
▁Au	-659
jec	-660
▁autres	-661
ssi	-662
anci	-663
▁conf	-664
▁renseignements	-665
lar	-666
ode	-667
orts	-668
eurs	-669
ice	-670
▁to	-671
▁entrepr	-672
▁méd	-673
oma	-674
▁repr	-675
▁De	-676
▁prév	-677
gie	-678
▁personnes	-679
valuation	-680
▁membres	-681
iti	-682
elon	-683
▁cadre	-684
▁programmes	-685
endre	-686
▁né	-687
ables	-688
▁sera	-689
pe	-690
ani	-691
▁même	-692
▁on	-693
urop	-694
▁Pour	-695
seil	-696
▁pla	-697
ticle	-698
vre	-699
▁fonction	-700
▁également	-701
▁cap	-702
▁matière	-703
▁prof	-704
ves	-705
▁afin	-706
▁règ	-707
▁activités	-708
▁aussi	-709
▁Dans	-710
▁sub	-711
▁particu	-712
mbre	-713
itu	-714
▁Un	-715
▁dont	-716
xe	-717
▁étu	-718
▁peuvent	-719
ôt	-720
céd	-721
▁ress	-722
vironnement	-723
istre	-724
ministra	-725
▁public	-726
ca	-727
ivent	-728
éci	-729
tés	-730
ww	-731
termin	-732
▁lors	-733
èmes	-734
▁techn	-735
iens	-736
▁avant	-737
ission	-738
▁trait	-739
lev	-740
édéra	-741
▁moy	-742
▁tout	-743
▁demand	-744
▁provin	-745
▁cha	-746
▁représent	-747
entes	-748
onc	-749
▁particuli	-750
ages	-751
iste	-752
▁inf	-753
▁ag	-754
tér	-755
olu	-756
sid	-757
▁niv	-758
▁ph	-759
▁ris	-760
▁th	-761
▁On	-762
eaux	-763
▁rég	-764
ase	-765
▁nécess	-766
ologi	-767
endant	-768
laire	-769
ric	-770
voir	-771
▁concern	-772
▁financi	-773
▁K	-774
AN	-775
▁ver	-776
▁spéci	-777
vention	-778
▁mont	-779
▁mise	-780
orte	-781
ton	-782
ann	-783
ôle	-784
ulture	-785
par	-786
▁ten	-787
▁reven	-788
▁stra	-789
abil	-790
EN	-791
cri	-792
▁soit	-793
▁Qu	-794
ct	-795
eso	-796
oy	-797
▁détermin	-798
▁système	-799
▁fédéra	-800
tection	-801
▁États	-802
enne	-803
▁partie	-804
▁possi	-805
▁Loi	-806
▁.	-807
▁beso	-808
▁moins	-809
▁consul	-810
▁milli	-811
▁résultats	-812
▁>	-813
▁fac	-814
tuelle	-815
OM	-816
▁inc	-817
▁para	-818
semb	-819
ches	-820
▁compte	-821
aient	-822
▁économ	-823
ong	-824
▁tro	-825
▁Ce	-826
mo	-827
▁temp	-828
▁modi	-829
▁où	-830
tation	-831
▁doivent	-832
________	-833
eront	-834
tenir	-835
▁seu	-836
▁fr	-837
aiss	-838
▁contribu	-839
▁of	-840
bilité	-841
erc	-842
▁droit	-843
▁financ	-844
▁[	-845
lio	-846
▁péri	-847
▁doma	-848
▁région	-849
▁aut	-850
▁conn	-851
istère	-852
▁op	-853
▁contra	-854
estions	-855
▁droits	-856
lè	-857
▁différ	-858
cessus	-859
position	-860
▁plu	-861
▁tel	-862
ettre	-863
fi	-864
▁ressources	-865
▁respons	-866
em	-867
▁mesures	-868
▁Conseil	-869
issement	-870
ération	-871
▁ju	-872
▁men	-873
▁faç	-874
▁pouv	-875
▁dur	-876
▁exemp	-877
mment	-878
tien	-879
▁jus	-880
▁chang	-881
uis	-882
▁rédu	-883
▁indi	-884
ER	-885
ateurs	-886
écur	-887
uropé	-888
▁ent	-889
▁À	-890
tivité	-891
▁processus	-892
▁cor	-893
▁questions	-894
▁off	-895
▁vale	-896
▁consid	-897
▁contre	-898
liqu	-899
▁selon	-900
éro	-901
▁europé	-902
▁élec	-903
tement	-904
iser	-905
entif	-906
▁protection	-907
▁car	-908
▁secteur	-909
▁appro	-910
one	-911
▁canadienne	-912
▁toute	-913
▁mesure	-914
▁taux	-915
▁concernant	-916
▁mod	-917
amen	-918
acité	-919
▁sta	-920
ulation	-921
▁disp	-922
▁ans	-923
laboration	-924
▁coû	-925
▁commerci	-926
pec	-927
▁Re	-928
gment	-929
ali	-930
▁préc	-931
article	-932
évaluation	-933
▁sans	-934
isme	-935
écurité	-936
▁der	-937
▁effec	-938
gation	-939
▁pra	-940
ites	-941
▁établ	-942
ature	-943
▁autre	-944
for	-945
▁DE	-946
▁exig	-947
▁façon	-948
▁politiques	-949
▁fi	-950
▁mal	-951
▁aff	-952
ress	-953
▁politique	-954
▁niveau	-955
rés	-956
tari	-957
tat	-958
lication	-959
▁cel	-960
év	-961
▁"	-962
ureau	-963
▁ali	-964
raient	-965
tro	-966
▁derni	-967
▁main	-968
▁sci	-969
........	-970
▁document	-971
ion	-972
▁Si	-973
ologie	-974
sionn	-975
TION	-976
▁employ	-977
▁bi	-978
ffici	-979
▁dés	-980
ustrie	-981
▁cro	-982
▁collec	-983
Un	-984
ert	-985
▁Program	-986
▁communau	-987
▁je	-988
ommand	-989
positions	-990
AC	-991
▁général	-992
▁formation	-993
▁objec	-994
▁chaque	-995
og	-996
▁contin	-997
▁constitu	-998
œu	-999
▁Des	-1000
▁pop	-1001
▁rais	-1002
IC	-1003
▁plan	-1004
▁votre	-1005
▁défin	-1006
▁Santé	-1007
▁situ	-1008
▁soins	-1009
éch	-1010
nent	-1011
▁entreprises	-1012
▁personne	-1013
cid	-1014
ats	-1015
.,	-1016
éf	-1017
▁Une	-1018
▁lég	-1019
▁cli	-1020
▁cent	-1021
urer	-1022
▁cour	-1023
▁marché	-1024
▁question	-1025
▁sécurité	-1026
▁vers	-1027
▁jour	-1028
▁propri	-1029
action	-1030
▁période	-1031
▁profes	-1032
▁Cette	-1033
▁grand	-1034
▁norm	-1035
▁temps	-1036
▁toutes	-1037
▁prés	-1038
▁prom	-1039
▁paragraph	-1040
lle	-1041
IS	-1042
▁contr	-1043
▁parten	-1044
▁projets	-1045
▁organismes	-1046
▁était	-1047
▁groupe	-1048
▁condi	-1049
▁Ces	-1050
térê	-1051
iter	-1052
▁ca	-1053
▁hum	-1054
gag	-1055
inter	-1056
▁après	-1057
▁publique	-1058
▁and	-1059
▁base	-1060
AR	-1061
▁supp	-1062
rais	-1063
cé	-1064
mentaires	-1065
tégi	-1066
irection	-1067
tiss	-1068
▁probl	-1069
amin	-1070
▁point	-1071
▁Commission	-1072
érence	-1073
▁vue	-1074
▁revenu	-1075
ru	-1076
▁elle	-1077
tée	-1078
▁vie	-1079
▁avoir	-1080
ollar	-1081
ov	-1082
▁qualité	-1083
UR	-1084
▁conform	-1085
▁stratégi	-1086
▁divers	-1087
enses	-1088
crip	-1089
eure	-1090
loi	-1091
anti	-1092
▁ess	-1093
ellement	-1094
▁dollar	-1095
▁Min	-1096
▁international	-1097
IN	-1098
▁loc	-1099
tel	-1100
oni	-1101
▁bén	-1102
▁ta	-1103
▁premi	-1104
▁financement	-1105
reg	-1106
tric	-1107
sieurs	-1108
utilisation	-1109
ête	-1110
▁ci	-1111
▁trois	-1112
udg	-1113
unes	-1114
▁propos	-1115
▁décla	-1116
▁initi	-1117
▁lim	-1118
tivement	-1119
▁consomm	-1120
▁produit	-1121
éb	-1122
▁indiqu	-1123
écu	-1124
tent	-1125
▁service	-1126
arg	-1127
SC	-1128
▁recommand	-1129
▁chez	-1130
▁méth	-1131
sition	-1132
▁long	-1133
lation	-1134
▁société	-1135
▁Ac	-1136
▁accord	-1137
▁An	-1138
▁fem	-1139
▁nature	-1140
ili	-1141
▁culture	-1142
▁années	-1143
▁vertu	-1144
oute	-1145
semble	-1146
serv	-1147
truc	-1148
▁effectu	-1149
PI	-1150
▁véri	-1151
trang	-1152
abilité	-1153
▁règlement	-1154
tamment	-1155
▁reç	-1156
isse	-1157
▁éch	-1158
igne	-1159
vis	-1160
cue	-1161
▁prior	-1162
▁enf	-1163
▁dollars	-1164
yant	-1165
▁Programme	-1166
▁compé	-1167
out	-1168
▁im	-1169
aly	-1170
ément	-1171
▁autor	-1172
iqu	-1173
▁certains	-1174
▁exemple	-1175
ora	-1176
▁sign	-1177
▁huma	-1178
œuvre	-1179
▁mani	-1180
▁pres	-1181
▁malad	-1182
▁paragraphe	-1183
▁déf	-1184
duc	-1185
ver	-1186
▁personnel	-1187
▁sujet	-1188
▁valeur	-1189
ace	-1190
▁traitement	-1191
illeurs	-1192
toch	-1193
▁générale	-1194
omp	-1195
étu	-1196
▁remp	-1197
▁domaine	-1198
▁effic	-1199
▁devrait	-1200
gence	-1201
▁répond	-1202
▁gra	-1203
▁respec	-1204
ative	-1205
▁oc	-1206
ich	-1207
▁lieu	-1208
fois	-1209
tochton	-1210
taire	-1211
st	-1212
▁montant	-1213
CE	-1214
▁pe	-1215
▁institu	-1216
isions	-1217
▁amé	-1218
▁part	-1219
▁Gr	-1220
▁lang	-1221
mer	-1222
su	-1223
▁production	-1224
▁ty	-1225
PS	-1226
port	-1227
▁offici	-1228
▁cher	-1229
ministration	-1230
▁réun	-1231
AL	-1232
alyse	-1233
uses	-1234
▁Ex	-1235
▁Nous	-1236
ip	-1237
▁moyen	-1238
▁groupes	-1239
▁élev	-1240
▁télé	-1241
▁por	-1242
uméro	-1243
▁priv	-1244
ident	-1245
▁professionn	-1246
▁Comité	-1247
aide	-1248
iné	-1249
▁notamment	-1250
▁plusieurs	-1251
▁Canadiens	-1252
rent	-1253
▁év	-1254
▁très	-1255
▁rend	-1256
▁titre	-1257
▁réf	-1258
In	-1259
▁ab	-1260
▁millions	-1261
▁besoins	-1262
▁site	-1263
établ	-1264
eb	-1265
puis	-1266
▁savoir	-1267
▁équ	-1268
nexe	-1269
▁objectifs	-1270
▁augment	-1271
▁seront	-1272
▁mois	-1273
inf	-1274
▁procéd	-1275
tention	-1276
▁déta	-1277
▁élé	-1278
▁budg	-1279
▁année	-1280
industrie	-1281
▁femmes	-1282
lic	-1283
▁mondi	-1284
www	-1285
▁cau	-1286
▁pay	-1287
tario	-1288
▁risque	-1289
▁Servic	-1290
▁présente	-1291
ai	-1292
▁propriété	-1293
▁connaiss	-1294
▁réglement	-1295
▁loi	-1296
▁fois	-1297
▁sup	-1298
cer	-1299
omb	-1300
agn	-1301
laires	-1302
▁inform	-1303
▁sé	-1304
▁date	-1305
▁◦	-1306
▁pai	-1307
▁nouvelles	-1308
▁compris	-1309
▁cet	-1310
▁dépenses	-1311
▁internationale	-1312
▁pass	-1313
▁reconn	-1314
▁associ	-1315
xes	-1316
stitu	-1317
▁dém	-1318
▁bénéf	-1319
▁bre	-1320
▁conten	-1321
ler	-1322
ori	-1323
▁pendant	-1324
▁quel	-1325
ître	-1326
▁nouveaux	-1327
Unis	-1328
veill	-1329
▁prix	-1330
yn	-1331
▁national	-1332
od	-1333
▁réalis	-1334
alisation	-1335
ess	-1336
gr	-1337
EC	-1338
▁documents	-1339
dit	-1340
▁ayant	-1341
tim	-1342
examen	-1343
▁ministre	-1344
▁ceux	-1345
oire	-1346
▁enfants	-1347
liorer	-1348
▁am	-1349
▁ils	-1350
▁nationale	-1351
oles	-1352
▁cal	-1353
are	-1354
▁nouveau	-1355
application	-1356
▁conditions	-1357
lations	-1358
▁Ar	-1359
venir	-1360
tron	-1361
éré	-1362
▁mis	-1363
tées	-1364
▁œuvre	-1365
cup	-1366
▁transf	-1367
▁notre	-1368
▁jeunes	-1369
mier	-1370
▁fam	-1371
duction	-1372
▁population	-1373
▁demandes	-1374
OR	-1375
▁relatives	-1376
tie	-1377
▁dou	-1378
▁fonds	-1379
▁économique	-1380
eures	-1381
▁as	-1382
▁étaient	-1383
▁prest	-1384
import	-1385
IT	-1386
atives	-1387
▁terme	-1388
lan	-1389
▁fins	-1390
ole	-1391
▁rôle	-1392
tochtones	-1393
▁place	-1394
▁frais	-1395
▁Bureau	-1396
année	-1397
▁systèmes	-1398
▁opéra	-1399
▁disponi	-1400
vestiss	-1401
▁contrôle	-1402
cul	-1403
▁délé	-1404
AD	-1405
▁Sec	-1406
▁the	-1407
rée	-1408
ateur	-1409
▁participation	-1410
▁auc	-1411
▁croiss	-1412
▁mettre	-1413
olution	-1414
xte	-1415
missi	-1416
▁visant	-1417
entrepr	-1418
▁trav	-1419
▁provinci	-1420
environnement	-1421
▁|	-1422
ieux	-1423
lus	-1424
▁Ministère	-1425
inte	-1426
▁pourrait	-1427
▁annu	-1428
▁soutien	-1429
▁légis	-1430
erre	-1431
▁nég	-1432
▁rep	-1433
tructure	-1434
▁territ	-1435
▁médica	-1436
▁adop	-1437
▁évalu	-1438
pri	-1439
▁pê	-1440
▁serv	-1441
ivi	-1442
▁examin	-1443
AS	-1444
ébec	-1445
▁brev	-1446
▁modè	-1447
itaire	-1448
▁seulement	-1449
ditionn	-1450
isant	-1451
▁gar	-1452
▁administra	-1453
ENT	-1454
ange	-1455
tt	-1456
▁grande	-1457
▁matéri	-1458
accès	-1459
▁coûts	-1460
illes	-1461
tern	-1462
RE	-1463
▁continu	-1464
cription	-1465
▁atte	-1466
▁fab	-1467
▁environnement	-1468
emploi	-1469
▁cherche	-1470
▁surveill	-1471
ATION	-1472
▁fédéral	-1473
▁faut	-1474
▁dispositions	-1475
ner	-1476
rations	-1477
tellec	-1478
▁peti	-1479
lique	-1480
ception	-1481
UE	-1482
▁formu	-1483
▁industri	-1484
▁vol	-1485
az	-1486
impôt	-1487
ints	-1488
avant	-1489
odes	-1490
tégie	-1491
resse	-1492
cc	-1493
erts	-1494
pte	-1495
quête	-1496
Uni	-1497
ossi	-1498
▁électron	-1499
▁div	-1500
▁certaines	-1501
▁scientif	-1502
ital	-1503
▁employés	-1504
itation	-1505
orig	-1506
▁cara	-1507
▁risques	-1508
wa	-1509
ub	-1510
jo	-1511
ventions	-1512
asse	-1513
cement	-1514
mentaire	-1515
èrement	-1516
▁participants	-1517
▁ministère	-1518
RC	-1519
▁aur	-1520
▁lui	-1521
▁déterminer	-1522
érer	-1523
▁renfor	-1524
▁études	-1525
▁important	-1526
térieur	-1527
quelle	-1528
core	-1529
itaires	-1530
▁laquelle	-1531
ordin	-1532
fications	-1533
▁Web	-1534
▁première	-1535
▁fav	-1536
cueil	-1537
▁Ré	-1538
▁mul	-1539
ell	-1540
eff	-1541
▁effets	-1542
▁possible	-1543
▁technologi	-1544
ouvent	-1545
étés	-1546
▁nouvelle	-1547
tellectuelle	-1548
▁soient	-1549
▁étrang	-1550
▁européenne	-1551
▁concerne	-1552
▁coop	-1553
▁Centre	-1554
▁avait	-1555
rier	-1556
▁conséqu	-1557
▁déclaration	-1558
▁décision	-1559
▁sus	-1560
▁aid	-1561
OMPI	-1562
▁problèmes	-1563
gu	-1564
issent	-1565
▁rapports	-1566
onne	-1567
▁nécessaire	-1568
▁réc	-1569
appro	-1570
▁besoin	-1571
ront	-1572
administration	-1573
▁engag	-1574
▁premier	-1575
aff	-1576
▁total	-1577
▁jusqu	-1578
▁observ	-1579
▁can	-1580
▁particulier	-1581
▁actuelle	-1582
▁port	-1583
mun	-1584
▁capacité	-1585
ensemble	-1586
▁obli	-1587
gc	-1588
▁Rapp	-1589
▁étudi	-1590
ieu	-1591
▁canadiens	-1592
▁situation	-1593
▁encore	-1594
lles	-1595
▁réserv	-1596
▁nos	-1597
EM	-1598
▁commerce	-1599
▁normes	-1600
térêt	-1601
▁vi	-1602
▁pratiques	-1603
▁moment	-1604
▁établi	-1605
▁défini	-1606
▁sal	-1607
ommes	-1608
▁Col	-1609
amé	-1610
▁compos	-1611
viron	-1612
tégor	-1613
▁prendre	-1614
▁supplé	-1615
▁canadiennes	-1616
▁manière	-1617
▁vari	-1618
▁lorsque	-1619
▁Direction	-1620
anque	-1621
oires	-1622
▁pol	-1623
ions	-1624
iversité	-1625
▁id	-1626
▁rév	-1627
▁jur	-1628
tta	-1629
tient	-1630
▁cir	-1631
▁suite	-1632
▁promo	-1633
iller	-1634
isc	-1635
▁exigences	-1636
▁hau	-1637
▁Québec	-1638
▁Elle	-1639
pes	-1640
ercice	-1641
▁raison	-1642
▁destin	-1643
▁appr	-1644
CT	-1645
▁z	-1646
▁éléments	-1647
▁comité	-1648
fier	-1649
▁dépos	-1650
▁conclu	-1651
toire	-1652
▁essenti	-1653
▁intellectuelle	-1654
lob	-1655
gé	-1656
▁sein	-1657
élaboration	-1658
▁cin	-1659
▁devraient	-1660
▁pouvoir	-1661
niques	-1662
he	-1663
tiqu	-1664
ensi	-1665
▁VI	-1666
usion	-1667
▁Al	-1668
rgan	-1669
▁depuis	-1670
tage	-1671
▁croissance	-1672
▁travaux	-1673
▁che	-1674
▁fournir	-1675
atre	-1676
ay	-1677
ième	-1678
▁compéten	-1679
▁tant	-1680
ociation	-1681
ense	-1682
▁semb	-1683
ueur	-1684
▁Télé	-1685
fs	-1686
RSC	-1687
▁Nouv	-1688
▁donné	-1689
RO	-1690
▁aliments	-1691
tend	-1692
oul	-1693
ordonn	-1694
art	-1695
registre	-1696
________________	-1697
ène	-1698
▁auprès	-1699
taires	-1700
clu	-1701
▁agric	-1702
▁mars	-1703
▁»,	-1704
▁déj	-1705
▁parties	-1706
▁nu	-1707
▁Lors	-1708
▁médic	-1709
▁ligne	-1710
▁Ad	-1711
▁produc	-1712
▁radi	-1713
limin	-1714
▁donc	-1715
médi	-1716
▁effet	-1717
ource	-1718
▁Services	-1719
part	-1720
▁tri	-1721
oph	-1722
▁rendement	-1723
pa	-1724
rale	-1725
ducation	-1726
//	-1727
▁conse	-1728
AT	-1729
▁Pre	-1730
quel	-1731
▁Mar	-1732
effic	-1733
▁No	-1734
▁obtenir	-1735
éh	-1736
▁hab	-1737
rir	-1738
▁vig	-1739
ttp	-1740
▁plani	-1741
▁secteurs	-1742
▁actu	-1743
▁rev	-1744
▁fig	-1745
objet	-1746
▁surveillance	-1747
▁avons	-1748
://	-1749
▁calcul	-1750
▁Commun	-1751
▁directeur	-1752
écan	-1753
▁celui	-1754
▁Cour	-1755
▁déb	-1756
▁milieu	-1757
osition	-1758
oupe	-1759
nov	-1760
▁charg	-1761
urance	-1762
▁technologie	-1763
▁liste	-1764
tières	-1765
▁forme	-1766
use	-1767
▁déjà	-1768
▁monde	-1769
▁chercheurs	-1770
trices	-1771
▁Toute	-1772
▁numéro	-1773
▁Règ	-1774
oli	-1775
oit	-1776
gations	-1777
▁but	-1778
▁elles	-1779
On	-1780
itre	-1781
▁section	-1782
▁régime	-1783
▁esp	-1784
ira	-1785
▁Rés	-1786
▁collaboration	-1787
▁catégor	-1788
▁supéri	-1789
▁fai	-1790
ension	-1791
▁européen	-1792
odi	-1793
cour	-1794
▁intég	-1795
▁permis	-1796
▁comb	-1797
▁celle	-1798
▁jours	-1799
ffice	-1800
▁distribu	-1801
ity	-1802
▁requ	-1803
tac	-1804
vier	-1805
ableau	-1806
autre	-1807
ril	-1808
);	-1809
ges	-1810
▁IRSC	-1811
mon	-1812
lais	-1813
▁Dé	-1814
▁inté	-1815
▁changements	-1816
égard	-1817
▁celles	-1818
▁disc	-1819
▁suivants	-1820
▁Pr	-1821
urr	-1822
▁marchand	-1823
▁page	-1824
euille	-1825
indre	-1826
tisf	-1827
▁biens	-1828
▁voy	-1829
tenant	-1830
cent	-1831
inéa	-1832
cembre	-1833
alités	-1834
pendant	-1835
▁sol	-1836
euvre	-1837
▁cer	-1838
▁Y	-1839
▁mieux	-1840
▁partenari	-1841
lig	-1842
uy	-1843
yc	-1844
lection	-1845
▁fournit	-1846
ls	-1847
▁conserv	-1848
ose	-1849
▁connaissances	-1850
▁lic	-1851
▁communication	-1852
tations	-1853
èces	-1854
érique	-1855
▁Co	-1856
ain	-1857
▁́	-1858
lée	-1859
assurer	-1860
▁admissi	-1861
xim	-1862
▁facteurs	-1863
idi	-1864
ctions	-1865
▁mécan	-1866
▁juin	-1867
▁cinq	-1868
Ontario	-1869
pond	-1870
ettes	-1871
▁quatre	-1872
▁vigueur	-1873
▁techniques	-1874
▁clin	-1875
▁rem	-1876
▁autochtones	-1877
ras	-1878
ignes	-1879
▁▪	-1880
omme	-1881
ii	-1882
▁meille	-1883
▁conformément	-1884
mbours	-1885
▁sau	-1886
▁outre	-1887
▁vérification	-1888
▁marchés	-1889
▁ref	-1890
anvier	-1891
ards	-1892
▁délégation	-1893
ach	-1894
▁tab	-1895
▁type	-1896
▁mand	-1897
▁poursu	-1898
▁én	-1899
▁étant	-1900
▁décisions	-1901
▁médicaments	-1902
onse	-1903
▁domaines	-1904
▁Tr	-1905
ones	-1906
▁favor	-1907
▁jou	-1908
did	-1909
Union	-1910
▁nécessaires	-1911
▁ven	-1912
▁http	-1913
--	-1914
▁subst	-1915
établissement	-1916
venants	-1917
▁régions	-1918
ression	-1919
▁facil	-1920
▁univers	-1921
▁Nom	-1922
▁appropri	-1923
▁serait	-1924
économ	-1925
▁pertin	-1926
................	-1927
▁sensi	-1928
PC	-1929
▁plupart	-1930
▁création	-1931
▁décembre	-1932
mission	-1933
▁concent	-1934
orient	-1935
▁rap	-1936
▁médec	-1937
âce	-1938
ptembre	-1939
anç	-1940
▁réduire	-1941
ograph	-1942
▁marchandises	-1943
oix	-1944
orta	-1945
ttawa	-1946
▁accep	-1947
▁dossi	-1948
till	-1949
▁crit	-1950
▁aj	-1951
▁IN	-1952
coup	-1953
▁eu	-1954
illet	-1955
▁sociétés	-1956
▁budget	-1957
▁stratégie	-1958
▁satisf	-1959
▁communiqu	-1960
▁bas	-1961
avantage	-1962
occup	-1963
respond	-1964
▁lorsqu	-1965
dess	-1966
▁/	-1967
truction	-1968
▁II	-1969
▁font	-1970
▁traditionn	-1971
eaucoup	-1972
▁candid	-1973
▁multi	-1974
▁maladies	-1975
▁proven	-1976
issant	-1977
▁électronique	-1978
ternet	-1979
orme	-1980
antill	-1981
▁minis	-1982
ager	-1983
▁fisc	-1984
▁déclar	-1985
employ	-1986
istères	-1987
▁lib	-1988
▁DES	-1989
▁correspond	-1990
CI	-1991
▁tenu	-1992
▁résid	-1993
▁janvier	-1994
▁fer	-1995
▁Rép	-1996
▁val	-1997
analyse	-1998
ipe	-1999
orité	-2000
explo	-2001
SI	-2002
▁».	-2003
▁maj	-2004
assurance	-2005
▁log	-2006
▁appel	-2007
▁coopération	-2008
▁—	-2009
▁sc	-2010
▁LA	-2011
▁pêche	-2012
▁provinces	-2013
intérêt	-2014
ed	-2015
▁clients	-2016
étude	-2017
▁contrat	-2018
▁initiatives	-2019
▁ministères	-2020
▁souvent	-2021
ologiques	-2022
▁circ	-2023
ck	-2024
▁suivantes	-2025
▁partenaires	-2026
▁efforts	-2027
▁rembours	-2028
ismes	-2029
▁juridi	-2030
entreprise	-2031
▁septembre	-2032
él	-2033
▁concurr	-2034
naires	-2035
laborer	-2036
▁recommandations	-2037
gré	-2038
▁liv	-2039
vez	-2040
pose	-2041
grès	-2042
▁référence	-2043
EL	-2044
opie	-2045
▁médi	-2046
▁disposition	-2047
appliqu	-2048
▁fournisse	-2049
▁Règlement	-2050
autés	-2051
nies	-2052
▁lesqu	-2053
exercice	-2054
▁promotion	-2055
issements	-2056
ection	-2057
stitut	-2058
État	-2059
▁protég	-2060
AP	-2061
▁financière	-2062
▁débu	-2063
▁priorités	-2064
▁Su	-2065
▁TPS	-2066
▁Parlement	-2067
▁planification	-2068
▁esti	-2069
orter	-2070
isé	-2071
▁partir	-2072
ussions	-2073
pro	-2074
▁organisations	-2075
▁mondiale	-2076
alys	-2077
▁prê	-2078
dro	-2079
texte	-2080
tobre	-2081
▁u	-2082
▁alors	-2083
ancer	-2084
▁transport	-2085
▁VIH	-2086
▁Fond	-2087
▁rest	-2088
▁*	-2089
▁beaucoup	-2090
▁pourraient	-2091
▁obten	-2092
▁puis	-2093
▁Je	-2094
▁recherches	-2095
ocu	-2096
alinéa	-2097
▁changement	-2098
LE	-2099
érica	-2100
▁pris	-2101
▁env	-2102
▁améliorer	-2103
ctér	-2104
▁oeuvre	-2105
cont	-2106
▁règles	-2107
raî	-2108
étaire	-2109
▁méthodes	-2110
agit	-2111
▁points	-2112
▁us	-2113
▁Rapport	-2114
▁avril	-2115
jour	-2116
▁province	-2117
▁chac	-2118
DE	-2119
▁liés	-2120
▁modifi	-2121
▁cause	-2122
térêts	-2123
▁avantages	-2124
▁pati	-2125
▁langue	-2126
ote	-2127
agne	-2128
activité	-2129
▁suff	-2130
▁Div	-2131
▁traité	-2132
▁Nord	-2133
▁humaines	-2134
▁Man	-2135
novation	-2136
AI	-2137
registrement	-2138
▁intervenants	-2139
▁matériel	-2140
▁principaux	-2141
efficacité	-2142
ennent	-2143
▁trouv	-2144
ticles	-2145
▁termes	-2146
▁Tra	-2147
▁Date	-2148
▁communautaire	-2149
▁réduction	-2150
▁w	-2151
▁man	-2152
▁bureau	-2153
▁lut	-2154
▁précéd	-2155
▁ni	-2156
▁vente	-2157
▁réglementation	-2158
ém	-2159
▁Groupe	-2160
▁tels	-2161
▁différents	-2162
igni	-2163
▁réseau	-2164
▁relativement	-2165
▁explo	-2166
▁désign	-2167
après	-2168
▁Direc	-2169
PO	-2170
▁appliqu	-2171
▁Vous	-2172
▁conv	-2173
▁entreprise	-2174
▁permettre	-2175
▁financiers	-2176
▁Ass	-2177
▁coût	-2178
▁met	-2179
▁Toutefois	-2180
ral	-2181
▁technologies	-2182
▁assurer	-2183
▁Cons	-2184
lab	-2185
▁phy	-2186
atri	-2187
▁compara	-2188
vestissement	-2189
▁cri	-2190
▁revenus	-2191
mières	-2192
DI	-2193
écution	-2194
▁preu	-2195
.-	-2196
off	-2197
▁attribu	-2198
lioration	-2199
sique	-2200
table	-2201
▁compétences	-2202
icro	-2203
erait	-2204
▁simp	-2205
missions	-2206
arti	-2207
▁brevets	-2208
ot	-2209
▁modèle	-2210
▁consommation	-2211
éth	-2212
▁signi	-2213
▁anti	-2214
▁rempla	-2215
dure	-2216
apitre	-2217
hy	-2218
▁mentionn	-2219
▁collectivités	-2220
▁procédures	-2221
▁poste	-2222
▁char	-2223
▁ET	-2224
▁lar	-2225
vembre	-2226
▁moyens	-2227
▁bénéfici	-2228
▁nombreux	-2229
▁efficace	-2230
annexe	-2231
▁opérations	-2232
▁Comme	-2233
▁perman	-2234
▁davantage	-2235
intes	-2236
ritann	-2237
▁principal	-2238
▁reçu	-2239
▁ang	-2240
accord	-2241
jours	-2242
▁économiques	-2243
importance	-2244
dition	-2245
▁Inc	-2246
ritannique	-2247
▁modifications	-2248
▁communautés	-2249
▁sema	-2250
▁caractér	-2251
▁internationales	-2252
phone	-2253
▁direction	-2254
▁relations	-2255
tification	-2256
per	-2257
▁gouvernements	-2258
▁comprend	-2259
▁durable	-2260
▁relative	-2261
▁Mont	-2262
▁avis	-2263
▁mai	-2264
▁patients	-2265
uide	-2266
▁élevé	-2267
▁durée	-2268
▁certain	-2269
▁accès	-2270
▁Cha	-2271
▁glob	-2272
▁niveaux	-2273
▁étude	-2274
▁responsabil	-2275
▁réunion	-2276
▁institutions	-2277
act	-2278
▁four	-2279
▁ret	-2280
ME	-2281
▁importante	-2282
▁technique	-2283
▁critères	-2284
Organ	-2285
trice	-2286
esp	-2287
▁vos	-2288
▁maxim	-2289
érience	-2290
▁spécialis	-2291
urope	-2292
▁consommateurs	-2293
▁Fin	-2294
▁fil	-2295
▁crédit	-2296
▁franç	-2297
CC	-2298
RI	-2299
▁inv	-2300
▁exist	-2301
▁liées	-2302
▁comporte	-2303
▁acqu	-2304
éducation	-2305
échelle	-2306
▁Ottawa	-2307
ati	-2308
▁langues	-2309
▁contribution	-2310
origine	-2311
rim	-2312
cédure	-2313
▁soulig	-2314
aces	-2315
ombie	-2316
▁Selon	-2317
cessi	-2318
Agence	-2319
urant	-2320
▁publics	-2321
vant	-2322
istr	-2323
▁capital	-2324
▁garanti	-2325
▁membre	-2326
▁prestation	-2327
▁valeurs	-2328
▁avaient	-2329
ordre	-2330
▁principes	-2331
▁Sta	-2332
▁proch	-2333
▁formulaire	-2334
ron	-2335
ht	-2336
hui	-2337
auteur	-2338
▁intéress	-2339
▁approuv	-2340
ger	-2341
▁drog	-2342
▁structure	-2343
▁distin	-2344
▁taxe	-2345
▁considér	-2346
rant	-2347
▁dimin	-2348
▁toujours	-2349
▁novembre	-2350
▁posi	-2351
▁répondre	-2352
▁Ils	-2353
assi	-2354
istes	-2355
▁quanti	-2356
ke	-2357
▁stratégique	-2358
▁prépa	-2359
▁séri	-2360
forme	-2361
▁App	-2362
▁instal	-2363
▁rece	-2364
▁applic	-2365
▁tend	-2366
▁touch	-2367
berta	-2368
cidence	-2369
▁maladie	-2370
▁lignes	-2371
▁consultation	-2372
▁Ind	-2373
▁gu	-2374
▁X	-2375
▁professionnels	-2376
▁anim	-2377
▁Fr	-2378
▁octobre	-2379
rication	-2380
▁pi	-2381
ult	-2382
▁retra	-2383
bilités	-2384
▁grâce	-2385
▁suivi	-2386
évrier	-2387
▁encour	-2388
▁importants	-2389
▁utilisés	-2390
▁sources	-2391
▁outil	-2392
tenti	-2393
▁plans	-2394
intention	-2395
oun	-2396
▁dernier	-2397
êtes	-2398
▁rémun	-2399
▁proposition	-2400
▁affec	-2401
▁paiement	-2402
▁suivant	-2403
▁conta	-2404
ern	-2405
▁directrices	-2406
▁deme	-2407
lage	-2408
▁faible	-2409
▁mandat	-2410
▁communauté	-2411
▁prob	-2412
istance	-2413
▁syn	-2414
fica	-2415
▁méthode	-2416
▁k	-2417
lin	-2418
▁choix	-2419
▁Bien	-2420
▁disponibles	-2421
▁Ren	-2422
▁aucune	-2423
urent	-2424
▁Déc	-2425
▁représentants	-2426
ologique	-2427
▁ax	-2428
alth	-2429
▁nationaux	-2430
ides	-2431
US	-2432
lure	-2433
▁évent	-2434
▁fix	-2435
▁prévention	-2436
▁aider	-2437
▁contexte	-2438
▁He	-2439
▁ple	-2440
▁termin	-2441
▁ailleurs	-2442
▁juillet	-2443
dic	-2444
ût	-2445
▁For	-2446
▁aucun	-2447
âge	-2448
lai	-2449
▁instru	-2450
▁impos	-2451
▁responsabilité	-2452
▁début	-2453
▁aspec	-2454
▁donner	-2455
▁potenti	-2456
▁prestations	-2457
euillez	-2458
▁actuellement	-2459
▁reg	-2460
▁progrès	-2461
▁procédure	-2462
▁conjo	-2463
▁deuxième	-2464
▁utilisé	-2465
run	-2466
ask	-2467
▁moyenne	-2468
▁maintenant	-2469
registr	-2470
▁présenter	-2471
▁scientifiques	-2472
itoy	-2473
▁lois	-2474
olog	-2475
▁portant	-2476
▁pratique	-2477
▁tenir	-2478
inc	-2479
exécution	-2480
▁directement	-2481
rique	-2482
ouvoir	-2483
uel	-2484
▁prise	-2485
ow	-2486
▁tox	-2487
▁;	-2488
aci	-2489
uli	-2490
▁matières	-2491
▁Secré	-2492
▁cela	-2493
▁porte	-2494
tariat	-2495
moine	-2496
▁durant	-2497
ices	-2498
▁indiqué	-2499
▁enregistr	-2500
▁problème	-2501
oncé	-2502
▁conseil	-2503
labor	-2504
▁lutte	-2505
ox	-2506
▁nationales	-2507
▁heures	-2508
▁diminu	-2509
actions	-2510
▁établissements	-2511
aine	-2512
▁préoccup	-2513
crit	-2514
▁évaluation	-2515
rées	-2516
inté	-2517
icu	-2518
économie	-2519
▁provenant	-2520
▁hy	-2521
▁précis	-2522
roître	-2523
▁CR	-2524
▁transfert	-2525
▁fré	-2526
▁caus	-2527
▁déli	-2528
▁février	-2529
man	-2530
▁relev	-2531
applique	-2532
▁avez	-2533
▁trouver	-2534
Britannique	-2535
▁ach	-2536
▁privé	-2537
aître	-2538
acqu	-2539
toco	-2540
▁considéra	-2541
▁président	-2542
▁stratégies	-2543
AM	-2544
▁définition	-2545
▁br	-2546
▁négoci	-2547
▁articles	-2548
▁Internet	-2549
▁Ag	-2550
▁personnels	-2551
▁mission	-2552
▁Colombie	-2553
▁législation	-2554
sie	-2555
▁souh	-2556
air	-2557
état	-2558
irig	-2559
▁ajou	-2560
▁modification	-2561
FC	-2562
quer	-2563
▁commen	-2564
▁vise	-2565
▁circons	-2566
▁prises	-2567
chn	-2568
▁prévoit	-2569
▁financières	-2570
▁six	-2571
▁Sa	-2572
▁expos	-2573
▁diverses	-2574
▁supplémentaires	-2575
tock	-2576
▁DU	-2577
▁sociale	-2578
▁affaires	-2579
▁examen	-2580
▁communautaires	-2581
▁utiliser	-2582
▁dom	-2583
enregistrement	-2584
▁offre	-2585
▁social	-2586
▁accomp	-2587
com	-2588
▁différentes	-2589
innovation	-2590
▁caractéris	-2591
pl	-2592
▁Soci	-2593
▁Régi	-2594
nexes	-2595
hn	-2596
venu	-2597
avis	-2598
▁constitue	-2599
ports	-2600
▁uti	-2601
...	-2602
▁demander	-2603
▁rempl	-2604
▁délai	-2605
▁fut	-2606
bilisation	-2607
▁signal	-2608
iff	-2609
ane	-2610
▁législa	-2611
▁chim	-2612
▁conséquent	-2613
bun	-2614
▁fédérale	-2615
option	-2616
oront	-2617
organisation	-2618
▁poss	-2619
thè	-2620
▁succ	-2621
gés	-2622
▁communications	-2623
▁responsable	-2624
▁contrô	-2625
onde	-2626
né	-2627
▁Cel	-2628
oronto	-2629
▁financier	-2630
ick	-2631
▁titu	-2632
▁Cependant	-2633
▁fau	-2634
▁www	-2635
▁Ma	-2636
▁phar	-2637
tistiques	-2638
▁réponse	-2639
NE	-2640
EMENT	-2641
▁sciences	-2642
▁Ph	-2643
▁approche	-2644
▁analys	-2645
▁possibilité	-2646
ividu	-2647
▁conseils	-2648
▁possibilités	-2649
▁milliards	-2650
êmes	-2651
▁tableau	-2652
tice	-2653
▁existe	-2654
▁mun	-2655
cie	-2656
▁reli	-2657
▁organisation	-2658
éhicu	-2659
jourd	-2660
▁près	-2661
▁présentation	-2662
▁Comp	-2663
▁comprendre	-2664
▁minim	-2665
PA	-2666
▁types	-2667
▁licence	-2668
▁command	-2669
▁voie	-2670
▁Rec	-2671
appui	-2672
naire	-2673
truct	-2674
▁officielles	-2675
▁second	-2676
▁environ	-2677
▁quant	-2678
▁parce	-2679
▁dirig	-2680
▁tabac	-2681
ib	-2682
▁informations	-2683
▁Trans	-2684
▁plut	-2685
vement	-2686
▁établir	-2687
▁Pré	-2688
▁sim	-2689
▁américa	-2690
▁class	-2691
▁contenu	-2692
▁indép	-2693
▁anté	-2694
Al	-2695
▁Ne	-2696
▁créer	-2697
▁sociaux	-2698
▁quelques	-2699
mig	-2700
▁Cor	-2701
▁ment	-2702
urb	-2703
▁famille	-2704
▁travailleurs	-2705
▁plutôt	-2706
▁intérêts	-2707
▁rou	-2708
▁participer	-2709
▁client	-2710
exploitation	-2711
▁relatifs	-2712
mps	-2713
▁entraî	-2714
▁détaill	-2715
▁Dr	-2716
▁nav	-2717
▁Accueil	-2718
▁tour	-2719
▁fabrication	-2720
▁sens	-2721
▁Ontario	-2722
AU	-2723
ulations	-2724
▁Nations	-2725
▁dépôt	-2726
▁Convention	-2727
▁spécif	-2728
▁exécu	-2729
ubli	-2730
▁scientifique	-2731
lor	-2732
tte	-2733
▁généralement	-2734
ting	-2735
jectif	-2736
▁réus	-2737
▁viv	-2738
▁particuliers	-2739
▁gaz	-2740
▁fonctions	-2741
ortation	-2742
▁dernières	-2743
▁poiss	-2744
▁paiements	-2745
▁liens	-2746
▁publication	-2747
enn	-2748
▁fonctionnement	-2749
▁appuy	-2750
enf	-2751
çu	-2752
emb	-2753
tistique	-2754
investissement	-2755
all	-2756
▁diffic	-2757
ST	-2758
riel	-2759
▁permettra	-2760
▁consta	-2761
▁publiques	-2762
appr	-2763
▁règle	-2764
pré	-2765
adresse	-2766
PP	-2767
sse	-2768
onnes	-2769
▁organisme	-2770
▁charge	-2771
▁renforcer	-2772
ath	-2773
▁Sur	-2774
▁catégorie	-2775
▁complé	-2776
ubl	-2777
iers	-2778
▁État	-2779
gg	-2780
▁promouvoir	-2781
hés	-2782
▁confir	-2783
▁admissibles	-2784
▁comment	-2785
▁clés	-2786
▁Dép	-2787
▁permettant	-2788
▁preuve	-2789
▁substances	-2790
riculture	-2791
▁internationaux	-2792
▁priorité	-2793
▁gens	-2794
▁pouvez	-2795
▁source	-2796
▁franc	-2797
VH	-2798
▁bon	-2799
entiss	-2800
▁consulta	-2801
▁CON	-2802
organisme	-2803
▁géné	-2804
▁renouv	-2805
▁distribution	-2806
▁gen	-2807
▁Inter	-2808
idé	-2809
ordination	-2810
▁véhicu	-2811
▁Fonds	-2812
▁règlements	-2813
iennent	-2814
▁citoy	-2815
▁réguli	-2816
tale	-2817
ède	-2818
En	-2819
▁lequel	-2820
▁Certa	-2821
titude	-2822
arch	-2823
▁eux	-2824
▁statu	-2825
tibles	-2826
ergie	-2827
▁agents	-2828
▁suffis	-2829
▁chapitre	-2830
▁devant	-2831
olutions	-2832
IB	-2833
▁Z	-2834
▁sorte	-2835
▁telles	-2836
▁détail	-2837
▁série	-2838
▁dernière	-2839
▁médias	-2840
▁recours	-2841
▁cotis	-2842
ablement	-2843
▁cô	-2844
initi	-2845
identi	-2846
▁Autres	-2847
ament	-2848
aisse	-2849
▁soum	-2850
ulle	-2851
▁habitu	-2852
▁Toronto	-2853
▁aspects	-2854
Organisation	-2855
▁Am	-2856
▁voir	-2857
▁conformité	-2858
▁=	-2859
▁autoris	-2860
imposition	-2861
exposition	-2862
gration	-2863
▁nations	-2864
▁bil	-2865
wan	-2866
aissance	-2867
▁étudiants	-2868
▁Numéro	-2869
▁rendre	-2870
SE	-2871
▁servir	-2872
études	-2873
▁voyage	-2874
IR	-2875
▁provinciaux	-2876
.)	-2877
▁subventions	-2878
vait	-2879
amélioration	-2880
▁suivante	-2881
▁Secrétariat	-2882
▁individu	-2883
▁responsabilités	-2884
tout	-2885
▁etc	-2886
umé	-2887
▁demandé	-2888
▁coordonn	-2889
▁Lorsque	-2890
enseignement	-2891
▁fédéraux	-2892
centage	-2893
▁prog	-2894
▁faisant	-2895
▁Cela	-2896
▁réserve	-2897
étrang	-2898
▁CN	-2899
▁zone	-2900
Institut	-2901
▁brevet	-2902
▁modèles	-2903
vestissements	-2904
▁propositions	-2905
bation	-2906
tente	-2907
▁ouv	-2908
iquement	-2909
▁inféri	-2910
ps	-2911
▁Stra	-2912
▁annuel	-2913
▁stratégiques	-2914
▁consac	-2915
▁pén	-2916
▁The	-2917
▁certif	-2918
▁ép	-2919
▁gé	-2920
▁Premières	-2921
dire	-2922
▁Banque	-2923
ublique	-2924
▁journ	-2925
ymp	-2926
avoir	-2927
casion	-2928
▁toutefois	-2929
ains	-2930
fr	-2931
▁test	-2932
▁â	-2933
▁inclu	-2934
riv	-2935
▁dépend	-2936
ison	-2937
ancement	-2938
▁bonne	-2939
cr	-2940
▁claire	-2941
▁Ins	-2942
▁élabor	-2943
iles	-2944
▁Conf	-2945
ssemb	-2946
icip	-2947
équipe	-2948
▁PRO	-2949
▁représentant	-2950
ière	-2951
émo	-2952
▁suscep	-2953
▁fréqu	-2954
CH	-2955
▁telle	-2956
▁identif	-2957
▁analyse	-2958
▁nombreuses	-2959
ît	-2960
IL	-2961
cell	-2962
gement	-2963
askat	-2964
▁stock	-2965
étranger	-2966
exportation	-2967
▁micro	-2968
▁CAN	-2969
▁mu	-2970
▁suit	-2971
visi	-2972
let	-2973
énergie	-2974
Université	-2975
ied	-2976
▁dit	-2977
▁complè	-2978
améliorer	-2979
ET	-2980
abs	-2981
▁PCT	-2982
▁drogues	-2983
▁régional	-2984
oût	-2985
engag	-2986
▁cr	-2987
enquête	-2988
▁plein	-2989
AG	-2990
▁aide	-2991
itob	-2992
vous	-2993
▁centres	-2994
ume	-2995
▁opérationn	-2996
▁rémunération	-2997
▁gouver	-2998
▁hommes	-2999
▁fondament	-3000
èce	-3001
▁coordination	-3002
▁remboursement	-3003
▁To	-3004
rez	-3005
alog	-3006
▁neu	-3007
▁raisonn	-3008
▁exerc	-3009
affaires	-3010
▁commerciales	-3011
bora	-3012
▁parmi	-3013
▁fournisseurs	-3014
anes	-3015
dex	-3016
▁déclaré	-3017
irs	-3018
▁grandes	-3019
ples	-3020
arb	-3021
▁ve	-3022
▁quo	-3023
augment	-3024
▁démont	-3025
▁continue	-3026
toires	-3027
▁rencont	-3028
▁émissions	-3029
▁PO	-3030
ulletin	-3031
sp	-3032
acités	-3033
▁centre	-3034
lent	-3035
▁tiers	-3036
ail	-3037
▁cancer	-3038
htm	-3039
▁Jo	-3040
▁nécessité	-3041
▁sélection	-3042
▁responsables	-3043
▁EN	-3044
érap	-3045
▁is	-3046
étaires	-3047
lier	-3048
▁téléc	-3049
▁tari	-3050
▁concurrence	-3051
▁coll	-3052
▁comptes	-3053
▁estim	-3054
▁Ob	-3055
▁Th	-3056
▁consultations	-3057
uest	-3058
▁infec	-3059
▁%)	-3060
▁Nouvelle	-3061
▁français	-3062
iennes	-3063
▁CO	-3064
▁fra	-3065
rales	-3066
▁labora	-3067
▁chef	-3068
▁sugg	-3069
▁tot	-3070
▁chacun	-3071
ids	-3072
▁chois	-3073
dre	-3074
▁succès	-3075
▁communiquer	-3076
▁influ	-3077
▁feu	-3078
▁vas	-3079
▁nutri	-3080
▁comple	-3081
èrent	-3082
▁viol	-3083
▁compter	-3084
▁espèces	-3085
▁appar	-3086
▁propre	-3087
▁limité	-3088
itoba	-3089
mentation	-3090
▁propres	-3091
IM	-3092
▁représente	-3093
suite	-3094
cherche	-3095
▁évaluer	-3096
icateurs	-3097
autor	-3098
▁Cont	-3099
érés	-3100
▁Vo	-3101
▁enti	-3102
▁Health	-3103
▁fidu	-3104
▁application	-3105
ystème	-3106
▁Res	-3107
▁connexes	-3108
CR	-3109
▁sommes	-3110
DF	-3111
▁antéri	-3112
▁partenariat	-3113
▁protéger	-3114
▁orient	-3115
▁état	-3116
▁propor	-3117
▁municip	-3118
établir	-3119
▁prévues	-3120
hab	-3121
▁produire	-3122
▁ensemble	-3123
ore	-3124
▁i	-3125
▁session	-3126
vie	-3127
▁Avis	-3128
▁donne	-3129
▁surtout	-3130
▁dispos	-3131
▁prévu	-3132
▁tâ	-3133
entissage	-3134
▁Téléc	-3135
▁Mal	-3136
▁dossiers	-3137
▁position	-3138
▁présence	-3139
▁commerciaux	-3140
yl	-3141
urée	-3142
▁autorités	-3143
tir	-3144
tocole	-3145
▁ministéri	-3146
▁unique	-3147
rastructure	-3148
▁mécanismes	-3149
▁gro	-3150
▁prim	-3151
ccord	-3152
▁marque	-3153
▁capacités	-3154
▁]	-3155
▁marques	-3156
▁actions	-3157
▁Poli	-3158
▁obligations	-3159
ome	-3160
TE	-3161
▁proposé	-3162
▁Form	-3163
▁<	-3164
▁camp	-3165
uc	-3166
▁Plan	-3167
uration	-3168
dessus	-3169
▁réunions	-3170
▁petites	-3171
▁partenariats	-3172
▁importantes	-3173
ulgation	-3174
▁large	-3175
aines	-3176
▁Saskat	-3177
▁trouve	-3178
▁&	-3179
▁outils	-3180
ary	-3181
para	-3182
▁Service	-3183
▁soli	-3184
pos	-3185
▁équip	-3186
▁juridique	-3187
niti	-3188
▁exclu	-3189
appel	-3190
UN	-3191
▁version	-3192
uré	-3193
▁caract	-3194
▁article	-3195
dits	-3196
▁producteurs	-3197
ète	-3198
▁territori	-3199
▁confi	-3200
OC	-3201
uit	-3202
▁construction	-3203
▁commentaires	-3204
▁face	-3205
▁collectivité	-3206
▁chiff	-3207
▁décid	-3208
▁LE	-3209
▁rur	-3210
ination	-3211
▁disponible	-3212
▁faciliter	-3213
PE	-3214
iteurs	-3215
▁cyc	-3216
▁terres	-3217
▁Division	-3218
▁Dis	-3219
▁auxqu	-3220
▁diffusion	-3221
onses	-3222
▁vir	-3223
▁Car	-3224
ché	-3225
▁montants	-3226
▁pied	-3227
▁investissements	-3228
ivre	-3229
▁populations	-3230
▁Ã	-3231
▁locaux	-3232
orable	-3233
ureaux	-3234
vres	-3235
▁consulter	-3236
▁répondants	-3237
ties	-3238
rain	-3239
tez	-3240
▁présenté	-3241
▁République	-3242
origin	-3243
ry	-3244
itant	-3245
▁échantill	-3246
ork	-3247
nés	-3248
réal	-3249
urgence	-3250
oule	-3251
▁cellu	-3252
▁vacc	-3253
▁export	-3254
▁adap	-3255
ider	-3256
▁Partie	-3257
duire	-3258
chewan	-3259
isent	-3260
érences	-3261
▁reten	-3262
▁seul	-3263
bunal	-3264
▁favoriser	-3265
▁réseaux	-3266
▁postes	-3267
▁dess	-3268
▁principe	-3269
por	-3270
▁bienf	-3271
Ar	-3272
▁immédi	-3273
▁difficul	-3274
veur	-3275
▁RE	-3276
▁lien	-3277
▁Article	-3278
▁St	-3279
▁alimentaire	-3280
▁Mc	-3281
▁principales	-3282
ommun	-3283
▁perf	-3284
▁Institu	-3285
ènes	-3286
erce	-3287
▁rapid	-3288
entrée	-3289
tabl	-3290
objectif	-3291
▁augmentation	-3292
▁cliniques	-3293
ouverture	-3294
▁utilisateurs	-3295
▁COM	-3296
▁meilleure	-3297
▁installations	-3298
▁contenant	-3299
▁Roy	-3300
ienne	-3301
▁Mo	-3302
pt	-3303
▁fich	-3304
▁pé	-3305
TR	-3306
gées	-3307
ith	-3308
▁Publ	-3309
tances	-3310
▁direct	-3311
ercussions	-3312
▁tard	-3313
▁sites	-3314
▁Trés	-3315
▁haut	-3316
▁Te	-3317
▁directive	-3318
▁commerciale	-3319
▁Téléphone	-3320
dem	-3321
▁AU	-3322
blement	-3323
Am	-3324
▁Annexe	-3325
▁infir	-3326
▁Nombre	-3327
expérience	-3328
armon	-3329
lie	-3330
pit	-3331
▁num	-3332
▁sembla	-3333
▁Trésor	-3334
▁principalement	-3335
▁Total	-3336
èle	-3337
lant	-3338
cos	-3339
ival	-3340
▁envoy	-3341
▁Tous	-3342
▁égard	-3343
employé	-3344
obtenir	-3345
tructures	-3346
▁Se	-3347
rage	-3348
mation	-3349
quement	-3350
▁associés	-3351
▁repro	-3352
▁corre	-3353
▁Manitoba	-3354
▁ban	-3355
▁préparation	-3356
▁phase	-3357
▁pourcentage	-3358
jus	-3359
due	-3360
cool	-3361
▁contributions	-3362
équip	-3363
▁décrit	-3364
▁essais	-3365
▁inves	-3366
▁adopté	-3367
▁aéri	-3368
ffich	-3369
fie	-3370
évalu	-3371
▁activité	-3372
▁pharma	-3373
▁sujets	-3374
▁justif	-3375
anges	-3376
▁mg	-3377
uits	-3378
▁publications	-3379
rin	-3380
▁tran	-3381
olume	-3382
▁agricoles	-3383
▁condition	-3384
▁confl	-3385
▁territoire	-3386
▁consiste	-3387
▁pen	-3388
▁anglais	-3389
amment	-3390
uler	-3391
▁majorité	-3392
▁diffici	-3393
ates	-3394
▁fabric	-3395
▁lesquels	-3396
▁fum	-3397
▁Montréal	-3398
▁permettent	-3399
▁Mes	-3400
sida	-3401
▁objectif	-3402
land	-3403
apprentissage	-3404
adap	-3405
▁utilisées	-3406
▁taille	-3407
▁aujourd	-3408
adoption	-3409
lair	-3410
▁comprennent	-3411
avenir	-3412
▁efficaces	-3413
mination	-3414
lications	-3415
▁traditionnels	-3416
▁fourni	-3417
con	-3418
▁consultatif	-3419
jets	-3420
▁parta	-3421
GR	-3422
Accord	-3423
▁lac	-3424
▁réponses	-3425
▁Recherche	-3426
ris	-3427
▁eaux	-3428
▁Sh	-3429
Ouest	-3430
▁trop	-3431
▁conservation	-3432
Europe	-3433
▁défis	-3434
▁Aff	-3435
▁générales	-3436
oto	-3437
ANT	-3438
▁conception	-3439
▁envis	-3440
▁opp	-3441
▁compta	-3442
cueill	-3443
▁déch	-3444
gat	-3445
▁Unies	-3446
▁travaill	-3447
lantique	-3448
▁Docu	-3449
uels	-3450
▁physique	-3451
▁obs	-3452
▁animaux	-3453
areils	-3454
intégration	-3455
▁faud	-3456
ia	-3457
▁agricole	-3458
ÉS	-3459
loc	-3460
TVH	-3461
▁centrale	-3462
frique	-3463
▁libre	-3464
matique	-3465
▁mess	-3466
▁pil	-3467
▁représentent	-3468
aison	-3469
▁mises	-3470
▁médicaux	-3471
▁solutions	-3472
hésion	-3473
élec	-3474
▁dossier	-3475
▁clairement	-3476
osph	-3477
▁répercussions	-3478
▁grands	-3479
▁août	-3480
▁pau	-3481
était	-3482
▁toxic	-3483
▁reste	-3484
inform	-3485
ish	-3486
agement	-3487
pection	-3488
▁uniquement	-3489
▁concentrations	-3490
▁texte	-3491
▁famili	-3492
▁lo	-3493
▁francoph	-3494
▁candidats	-3495
CN	-3496
▁difficile	-3497
ret	-3498
▁Saskatchewan	-3499
▁diversité	-3500
▁indépend	-3501
▁régionaux	-3502
▁réalisation	-3503
tici	-3504
▁limite	-3505
▁réparti	-3506
men	-3507
TM	-3508
▁dipl	-3509
▁semble	-3510
aisance	-3511
dessous	-3512
duit	-3513
lois	-3514
▁relatif	-3515
▁Mon	-3516
▁mer	-3517
ussion	-3518
▁quali	-3519
agnos	-3520
▁indique	-3521
▁lesquelles	-3522
▁énonc	-3523
arde	-3524
▁tenue	-3525
ms	-3526
ssemblée	-3527
▁dix	-3528
UL	-3529
▁territoires	-3530
isième	-3531
▁catégories	-3532
dul	-3533
▁vra	-3534
essai	-3535
▁Acc	-3536
▁prévue	-3537
échange	-3538
met	-3539
▁poids	-3540
▁bureaux	-3541
istor	-3542
▁rapidement	-3543
▁manif	-3544
assification	-3545
ical	-3546
ortées	-3547
▁portée	-3548
▁ait	-3549
▁Univers	-3550
▁travailler	-3551
enz	-3552
▁seule	-3553
intervention	-3554
idité	-3555
▁Prés	-3556
▁pension	-3557
▁instruments	-3558
▁Imp	-3559
▁spécial	-3560
▁Autochtones	-3561
activités	-3562
▁prend	-3563
ennes	-3564
▁abs	-3565
▁Depuis	-3566
▁eng	-3567
▁respect	-3568
▁Sud	-3569
mat	-3570
▁accords	-3571
▁hausse	-3572
▁quantité	-3573
initiative	-3574
GC	-3575
opieur	-3576
▁bienfaisance	-3577
occasion	-3578
erie	-3579
énements	-3580
▁cad	-3581
▁prélimin	-3582
▁net	-3583
amp	-3584
▁expéri	-3585
uff	-3586
identif	-3587
▁raisons	-3588
ak	-3589
▁Chine	-3590
▁initiative	-3591
oses	-3592
extérieur	-3593
▁perspec	-3594
▁retraite	-3595
▁préf	-3596
▁sû	-3597
▁exige	-3598
▁mus	-3599
▁ventes	-3600
▁utilisation	-3601
atique	-3602
▁fournis	-3603
▁accr	-3604
mise	-3605
▁PR	-3606
▁limites	-3607
▁Ainsi	-3608
▁étrangères	-3609
▁interne	-3610
▁emploi	-3611
▁Cal	-3612
▁citoyens	-3613
sc	-3614
▁démar	-3615
uelle	-3616
itent	-3617
▁Association	-3618
▁--	-3619
▁concep	-3620
▁Code	-3621
visionnement	-3622
▁payer	-3623
▁atteindre	-3624
▁déliv	-3625
▁aura	-3626
▁Mme	-3627
▁gestionnaires	-3628
▁quelque	-3629
▁adéqu	-3630
▁faci	-3631
▁veu	-3632
▁connaître	-3633
effet	-3634
▁susceptibles	-3635
▁intitu	-3636
dis	-3637
ôts	-3638
▁carb	-3639
▁PAR	-3640
▁maintenir	-3641
▁clinique	-3642
érations	-3643
▁Directeur	-3644
▁proc	-3645
inguis	-3646
ceu	-3647
▁quelle	-3648
veloppement	-3649
sw	-3650
io	-3651
▁discu	-3652
ège	-3653
▁Gestion	-3654
qué	-3655
▁augmenté	-3656
▁contrac	-3657
▁statistiques	-3658
▁exportations	-3659
térieure	-3660
▁ensuite	-3661
gén	-3662
usage	-3663
▁témo	-3664
ile	-3665
▁constituent	-3666
ètres	-3667
uk	-3668
▁éché	-3669
▁médicament	-3670
lior	-3671
II	-3672
clusion	-3673
andis	-3674
national	-3675
atrimoine	-3676
Office	-3677
échantill	-3678
▁connaissance	-3679
ister	-3680
▁adminis	-3681
▁sauf	-3682
▁étrangers	-3683
AB	-3684
abord	-3685
▁ministres	-3686
▁SC	-3687
▁OU	-3688
▁principale	-3689
▁sond	-3690
▁familles	-3691
prétation	-3692
quoi	-3693
▁assu	-3694
▁révision	-3695
ommaire	-3696
apon	-3697
▁norme	-3698
▁utilisée	-3699
▁découl	-3700
**	-3701
▁note	-3702
demn	-3703
incidence	-3704
▁conférence	-3705
▁aurait	-3706
▁ON	-3707
▁information	-3708
▁mêmes	-3709
observ	-3710
MD	-3711
cide	-3712
▁Patrimoine	-3713
hip	-3714
▁seraient	-3715
▁emb	-3716
appliquent	-3717
▁somme	-3718
▁nomm	-3719
▁universités	-3720
cosse	-3721
▁semaine	-3722
tori	-3723
isations	-3724
▁offerts	-3725
▁écrit	-3726
Ass	-3727
AF	-3728
▁permanent	-3729
▁alimentaires	-3730
▁Terre	-3731
matiques	-3732
▁simil	-3733
rière	-3734
▁chimiques	-3735
▁amélior	-3736
▁admissible	-3737
LO	-3738
esse	-3739
▁recevoir	-3740
ych	-3741
▁Guide	-3742
▁transpar	-3743
▁parlement	-3744
alcool	-3745
▁Nouveau	-3746
vin	-3747
gent	-3748
▁gouvernementaux	-3749
seign	-3750
▁ul	-3751
▁perte	-3752
▁LES	-3753
▁suivre	-3754
▁véhicules	-3755
auté	-3756
▁recettes	-3757
▁supplémentaire	-3758
▁mondial	-3759
odiff	-3760
▁pêches	-3761
▁discussions	-3762
▁obligat	-3763
duits	-3764
once	-3765
▁Sal	-3766
▁maintien	-3767
▁Canadiennes	-3768
ood	-3769
▁Auc	-3770
▁soumis	-3771
▁publié	-3772
Amérique	-3773
tionnels	-3774
vi	-3775
▁John	-3776
approbation	-3777
SP	-3778
▁pollu	-3779
▁faveur	-3780
no	-3781
▁comités	-3782
▁Exp	-3783
nitiative	-3784
anger	-3785
▁accessi	-3786
▁électroniques	-3787
▁University	-3788
heure	-3789
▁supérieur	-3790
qui	-3791
▁thé	-3792
▁géograph	-3793
oss	-3794
▁prêts	-3795
▁Jus	-3796
▁diagnos	-3797
----	-3798
▁humaine	-3799
▁étro	-3800
itable	-3801
▁disposi	-3802
atifs	-3803
▁remplir	-3804
▁semaines	-3805
agent	-3806
▁coup	-3807
Alberta	-3808
fié	-3809
▁donnée	-3810
▁subs	-3811
fa	-3812
▁genre	-3813
▁réforme	-3814
▁Tableau	-3815
▁sex	-3816
▁Politique	-3817
▁contient	-3818
▁bâ	-3819
isition	-3820
▁électo	-3821
▁vou	-3822
évolution	-3823
DC	-3824
▁origin	-3825
▁professionnel	-3826
SN	-3827
▁AN	-3828
QU	-3829
▁obstac	-3830
ian	-3831
aume	-3832
▁Société	-3833
▁veuillez	-3834
eter	-3835
▁Dem	-3836
▁banques	-3837
utiliser	-3838
▁refus	-3839
ortateur	-3840
▁convient	-3841
ulaire	-3842
▁titulaire	-3843
▁résultat	-3844
▁minor	-3845
▁additionn	-3846
▁ordin	-3847
alogue	-3848
▁dette	-3849
▁mentale	-3850
▁fais	-3851
▁Organ	-3852
▁crédits	-3853
swick	-3854
▁sais	-3855
▁sang	-3856
rite	-3857
Assemblée	-3858
runswick	-3859
▁privée	-3860
lex	-3861
▁Sous	-3862
aise	-3863
▁bar	-3864
rité	-3865
▁devez	-3866
▁Information	-3867
vaient	-3868
itement	-3869
augmentation	-3870
▁décès	-3871
▁fiducie	-3872
▁commune	-3873
▁offrir	-3874
▁contrats	-3875
▁sensibilisation	-3876
▁troisième	-3877
▁commercial	-3878
atte	-3879
▁statut	-3880
▁fonctionnaires	-3881
▁généraux	-3882
lève	-3883
▁dépass	-3884
▁négociations	-3885
▁description	-3886
▁exter	-3887
▁Table	-3888
▁préoccupations	-3889
▁capit	-3890
▁dépla	-3891
tidi	-3892
▁destinés	-3893
▁officielle	-3894
▁combin	-3895
absence	-3896
▁PDF	-3897
▁tarif	-3898
▁solution	-3899
▁directives	-3900
andes	-3901
▁Même	-3902
▁Non	-3903
QUE	-3904
▁rapide	-3905
▁élevés	-3906
essources	-3907
▁Gen	-3908
▁Journ	-3909
▁souhait	-3910
▁hô	-3911
▁transmission	-3912
intérieur	-3913
▁renforcement	-3914
▁taxes	-3915
▁Affaires	-3916
▁Après	-3917
▁zones	-3918
▁culturelles	-3919
▁thérap	-3920
tentes	-3921
▁partage	-3922
tait	-3923
▁assujet	-3924
".	-3925
▁confiance	-3926
▁élément	-3927
ze	-3928
▁code	-3929
▁modifier	-3930
effec	-3931
▁bénéfic	-3932
rê	-3933
udici	-3934
▁juridiques	-3935
▁effectué	-3936
▁Certains	-3937
▁relation	-3938
eté	-3939
▁Plus	-3940
▁Stratégie	-3941
▁conclusions	-3942
▁radiodiff	-3943
▁douanes	-3944
Association	-3945
▁étapes	-3946
▁Renseignements	-3947
▁civ	-3948
▁savoirs	-3949
▁adul	-3950
▁final	-3951
tiquement	-3952
▁discussion	-3953
▁importations	-3954
IE	-3955
▁révis	-3956
▁employé	-3957
▁concentration	-3958
liers	-3959
▁caractère	-3960
Écosse	-3961
▁amp	-3962
▁expliqu	-3963
▁abord	-3964
engagement	-3965
ortateurs	-3966
▁faits	-3967
▁Pers	-3968
euve	-3969
cemment	-3970
rie	-3971
group	-3972
▁réaliser	-3973
▁significa	-3974
ectionnement	-3975
pital	-3976
▁Mise	-3977
▁+	-3978
▁fourniture	-3979
▁pouvant	-3980
▁contribuer	-3981
▁parents	-3982
▁sociales	-3983
▁pap	-3984
oraire	-3985
▁forte	-3986
ancouver	-3987
▁justice	-3988
▁défense	-3989
autorisation	-3990
▁naturelles	-3991
▁élaborer	-3992
céans	-3993
tionnelle	-3994
dé	-3995
der	-3996
▁provis	-3997
ériques	-3998
▁gam	-3999
▁restric	-4000
▁vaste	-4001
atement	-4002
▁appu	-4003
▁CANAD	-4004
▁Comment	-4005
▁jo	-4006
▁tandis	-4007
▁Pa	-4008
less	-4009
▁logici	-4010
▁subvention	-4011
orientation	-4012
▁cependant	-4013
▁applicables	-4014
achat	-4015
▁Lorsqu	-4016
▁médecins	-4017
▁lead	-4018
▁actuel	-4019
active	-4020
accent	-4021
ty	-4022
▁haute	-4023
mobil	-4024
▁mort	-4025
▁volume	-4026
experts	-4027
▁spécifiques	-4028
▁applicable	-4029
▁manque	-4030
jeux	-4031
▁utile	-4032
cident	-4033
▁traiter	-4034
▁lettre	-4035
html	-4036
▁urb	-4037
▁examiner	-4038
itations	-4039
▁documentation	-4040
mement	-4041
▁contract	-4042
▁?	-4043
▁Université	-4044
▁proportion	-4045
▁Cet	-4046
▁bénév	-4047
▁Ressources	-4048
▁civi	-4049
▁puisse	-4050
▁respecter	-4051
▁New	-4052
ÉR	-4053
▁quand	-4054
gh	-4055
▁régimes	-4056
▁bo	-4057
▁complète	-4058
OU	-4059
DA	-4060
▁civile	-4061
quêtes	-4062
▁couv	-4063
▁pièces	-4064
▁locales	-4065
▁Royaume	-4066
icat	-4067
édi	-4068
▁déclarations	-4069
▁accroître	-4070
face	-4071
PR	-4072
▁Tout	-4073
An	-4074
ives	-4075
▁différences	-4076
▁radio	-4077
ran	-4078
ourses	-4079
gl	-4080
▁dû	-4081
ocra	-4082
▁mécanisme	-4083
▁essentiel	-4084
▁liqu	-4085
▁sys	-4086
enant	-4087
▁soutenir	-4088
issaire	-4089
▁offic	-4090
▁RÉ	-4091
▁bou	-4092
meu	-4093
▁engagements	-4094
td	-4095
▁patri	-4096
ôm	-4097
▁poisson	-4098
▁industrielle	-4099
▁mag	-4100
duite	-4101
cédent	-4102
▁communes	-4103
Neuve	-4104
▁obtenu	-4105
▁sco	-4106
▁quotidi	-4107
mping	-4108
▁éner	-4109
▁circonstances	-4110
▁défic	-4111
examin	-4112
▁court	-4113
▁Conta	-4114
▁guide	-4115
importation	-4116
▁tiss	-4117
▁totale	-4118
ustra	-4119
▁Ter	-4120
▁facteur	-4121
▁passe	-4122
onction	-4123
ôles	-4124
▁don	-4125
icile	-4126
lèves	-4127
▁derniers	-4128
▁passé	-4129
inn	-4130
agriculture	-4131
▁renv	-4132
▁distinc	-4133
▁enquête	-4134
seurs	-4135
utés	-4136
▁linguis	-4137
sych	-4138
Brunswick	-4139
▁recru	-4140
▁travaille	-4141
ola	-4142
▁préal	-4143
▁fondée	-4144
TA	-4145
▁observations	-4146
▁Vancouver	-4147
▁Tri	-4148
son	-4149
amb	-4150
▁compens	-4151
ade	-4152
▁prépar	-4153
▁chau	-4154
▁transformation	-4155
▁cotisations	-4156
erm	-4157
▁estime	-4158
▁convention	-4159
earch	-4160
▁titres	-4161
tionnel	-4162
▁laboratoire	-4163
amais	-4164
▁effectuées	-4165
équipement	-4166
▁créé	-4167
▁indicateurs	-4168
▁officiel	-4169
atiques	-4170
aus	-4171
▁réuss	-4172
▁Char	-4173
idence	-4174
▁appuyer	-4175
istage	-4176
▁récemment	-4177
orté	-4178
rimer	-4179
isez	-4180
larg	-4181
▁Section	-4182
enc	-4183
crits	-4184
▁domicile	-4185
▁tendance	-4186
▁remar	-4187
IG	-4188
▁Description	-4189
▁bois	-4190
rad	-4191
tiennent	-4192
▁traités	-4193
ber	-4194
▁lanc	-4195
▁modalités	-4196
▁possibles	-4197
instal	-4198
omo	-4199
▁classe	-4200
▁publicité	-4201
▁annuelle	-4202
▁bénéficiaire	-4203
CS	-4204
▁dire	-4205
▁sép	-4206
▁occup	-4207
▁extra	-4208
égi	-4209
chement	-4210
leur	-4211
▁Afin	-4212
PT	-4213
▁continuer	-4214
DU	-4215
▁profit	-4216
▁premiers	-4217
▁nord	-4218
tence	-4219
▁figure	-4220
rang	-4221
▁dès	-4222
▁Courriel	-4223
cellence	-4224
▁Communauté	-4225
▁soup	-4226
▁contribuable	-4227
▁Parmi	-4228
▁évaluations	-4229
▁collecte	-4230
▁diffus	-4231
gique	-4232
▁compéti	-4233
fique	-4234
▁jamais	-4235
▁CNRC	-4236
▁neuf	-4237
▁atteint	-4238
ét	-4239
▁endro	-4240
▁excep	-4241
▁établissement	-4242
▁compétence	-4243
oxy	-4244
▁Deux	-4245
▁Cré	-4246
tine	-4247
▁recueill	-4248
fic	-4249
outes	-4250
▁champ	-4251
▁baisse	-4252
infrastructure	-4253
▁chargé	-4254
▁congé	-4255
▁globale	-4256
change	-4257
▁potentiel	-4258
▁DÉ	-4259
andic	-4260
▁rendu	-4261
blio	-4262
▁provincial	-4263
▁juste	-4264
▁conséquences	-4265
▁candidat	-4266
▁faite	-4267
ynam	-4268
▁gamme	-4269
▁humains	-4270
▁Conférence	-4271
▁affir	-4272
times	-4273
▁Entre	-4274
andicap	-4275
aul	-4276
aleur	-4277
lam	-4278
tible	-4279
ARC	-4280
office	-4281
▁utilisant	-4282
▁prévus	-4283
OT	-4284
obli	-4285
tance	-4286
▁III	-4287
resser	-4288
migration	-4289
▁habituellement	-4290
▁coh	-4291
éder	-4292
▁degré	-4293
entement	-4294
▁MPO	-4295
▁Statistique	-4296
tistes	-4297
OP	-4298
isée	-4299
▁Chambre	-4300
▁effectuée	-4301
▁change	-4302
▁cycle	-4303
érée	-4304
▁rejet	-4305
ership	-4306
▁reconnaissance	-4307
▁mobil	-4308
itants	-4309
▁garde	-4310
▁chron	-4311
institu	-4312
MC	-4313
MA	-4314
até	-4315
▁visés	-4316
▁voyages	-4317
▁fu	-4318
urés	-4319
▁handicap	-4320
itié	-4321
eraient	-4322
▁Ministre	-4323
▁fédérales	-4324
▁inclus	-4325
▁table	-4326
▁mode	-4327
▁demeure	-4328
▁fort	-4329
▁copie	-4330
▁déposant	-4331
▁conjoint	-4332
▁nette	-4333
▁presse	-4334
▁Cl	-4335
▁TP	-4336
éthique	-4337
▁déterminé	-4338
▁chacune	-4339
évaluer	-4340
▁)	-4341
▁développer	-4342
mont	-4343
▁affich	-4344
▁médecine	-4345
▁diver	-4346
▁vit	-4347
▁Système	-4348
▁faibles	-4349
▁hom	-4350
▁élimin	-4351
▁définir	-4352
érées	-4353
érant	-4354
ommunications	-4355
aît	-4356
▁professionnelle	-4357
élimin	-4358
▁x	-4359
inspection	-4360
aliser	-4361
▁Décla	-4362
uté	-4363
▁actifs	-4364
▁Alberta	-4365
▁,	-4366
▁classification	-4367
▁raisonnable	-4368
acquisition	-4369
rid	-4370
lande	-4371
▁visite	-4372
▁détermination	-4373
▁%.	-4374
SS	-4375
▁recommandation	-4376
▁bless	-4377
▁spec	-4378
étiqu	-4379
▁industries	-4380
otechn	-4381
▁CH	-4382
▁départ	-4383
▁dose	-4384
▁Avant	-4385
▁retr	-4386
▁débat	-4387
▁devra	-4388
tlantique	-4389
anie	-4390
▁porter	-4391
▁Adresse	-4392
▁requis	-4393
▁san	-4394
▁militaire	-4395
▁Ver	-4396
▁compréh	-4397
agisme	-4398
▁Bi	-4399
tants	-4400
sez	-4401
▁payé	-4402
▁monétaire	-4403
▁Av	-4404
▁conver	-4405
atif	-4406
▁commission	-4407
▁participant	-4408
▁cellules	-4409
▁accrue	-4410
▁participé	-4411
arité	-4412
▁imprim	-4413
rimé	-4414
▁naturels	-4415
▁Évaluation	-4416
▁ate	-4417
nu	-4418
▁dirige	-4419
▁eur	-4420
rement	-4421
erb	-4422
▁gérer	-4423
▁ii	-4424
▁anci	-4425
▁Contact	-4426
▁inten	-4427
attend	-4428
▁Po	-4429
▁élevée	-4430
▁présentées	-4431
fond	-4432
▁domm	-4433
▁Europe	-4434
isés	-4435
aliers	-4436
ly	-4437
▁Chaque	-4438
▁Ret	-4439
▁cibl	-4440
dou	-4441
▁mén	-4442
▁préliminaire	-4443
▁figurant	-4444
criptions	-4445
▁Mesures	-4446
ilibre	-4447
RA	-4448
▁bulletin	-4449
▁cess	-4450
▁interventions	-4451
▁déchets	-4452
▁tient	-4453
▁puissent	-4454
ressions	-4455
iver	-4456
▁lec	-4457
aj	-4458
formes	-4459
▁considéré	-4460
médiaire	-4461
▁histor	-4462
▁enjeux	-4463
▁Gu	-4464
▁veiller	-4465
▁établis	-4466
IV	-4467
▁rue	-4468
▁ouver	-4469
▁Résul	-4470
▁fé	-4471
ouss	-4472
▁concours	-4473
▁visée	-4474
▁confidenti	-4475
environ	-4476
▁Ou	-4477
▁formes	-4478
▁conforme	-4479
▁fron	-4480
▁pharmaceu	-4481
▁%,	-4482
▁bases	-4483
long	-4484
▁violence	-4485
▁comportement	-4486
▁occa	-4487
▁touchant	-4488
▁exclusi	-4489
OMC	-4490
▁démocra	-4491
▁entière	-4492
même	-4493
▁Déf	-4494
perçu	-4495
▁automa	-4496
▁cult	-4497
▁difficultés	-4498
exemp	-4499
▁Voir	-4500
▁Mais	-4501
▁pourquoi	-4502
▁virus	-4503
tables	-4504
IP	-4505
▁pouvoirs	-4506
▁présentée	-4507
▁Développement	-4508
iend	-4509
▁radiodiffusion	-4510
▁amélio	-4511
▁sexe	-4512
▁Me	-4513
venue	-4514
ève	-4515
approche	-4516
▁Pri	-4517
▁gouvern	-4518
istence	-4519
▁longue	-4520
▁puisque	-4521
▁indiquer	-4522
bliothè	-4523
▁DG	-4524
ocuité	-4525
▁tent	-4526
▁bénéficiaires	-4527
▁traitements	-4528
▁Cap	-4529
",	-4530
▁inscrit	-4531
▁Ste	-4532
▁particulière	-4533
▁premières	-4534
▁tex	-4535
▁adjo	-4536
▁Consul	-4537
onnage	-4538
▁Nation	-4539
▁paragraphes	-4540
expression	-4541
▁fonctionn	-4542
▁Région	-4543
▁étape	-4544
▁administratives	-4545
gée	-4546
crire	-4547
▁propose	-4548
▁pens	-4549
itat	-4550
▁identifi	-4551
▁arri	-4552
▁ici	-4553
▁judici	-4554
▁inclure	-4555
▁Dépenses	-4556
▁détails	-4557
▁Finances	-4558
influ	-4559
▁vote	-4560
▁BCE	-4561
▁faites	-4562
onorable	-4563
▁situations	-4564
▁souff	-4565
▁pourra	-4566
▁élèves	-4567
▁CE	-4568
▁sport	-4569
RES	-4570
▁cardi	-4571
▁chaî	-4572
▁complet	-4573
▁campagne	-4574
▁reti	-4575
fiés	-4576
▁événements	-4577
▁naturel	-4578
▁Inf	-4579
etage	-4580
▁France	-4581
▁trou	-4582
▁répartition	-4583
ina	-4584
tier	-4585
isionn	-4586
▁présentés	-4587
▁International	-4588
▁intérêt	-4589
▁Sou	-4590
▁papier	-4591
▁Institut	-4592
▁physi	-4593
▁Ab	-4594
▁Or	-4595
▁AD	-4596
▁appareils	-4597
▁mouv	-4598
▁annoncé	-4599
raux	-4600
▁petite	-4601
▁sept	-4602
dation	-4603
▁là	-4604
éral	-4605
▁renouvel	-4606
▁pétro	-4607
▁approuvé	-4608
▁Research	-4609
accueil	-4610
▁tendances	-4611
▁petits	-4612
▁effectuer	-4613
▁scru	-4614
▁Japon	-4615
▁intérieur	-4616
▁suffisamment	-4617
▁moitié	-4618
accep	-4619
ASFC	-4620
▁systé	-4621
▁tâches	-4622
inion	-4623
▁fournisseur	-4624
▁vision	-4625
▁régionale	-4626
▁superv	-4627
tor	-4628
chés	-4629
▁conç	-4630
▁administr	-4631
▁précise	-4632
▁rent	-4633
▁entente	-4634
▁Budg	-4635
▁compréhension	-4636
llem	-4637
▁stocks	-4638
▁présentent	-4639
▁enregistré	-4640
▁lit	-4641
▁psych	-4642
▁Document	-4643
▁volon	-4644
▁modifié	-4645
mestre	-4646
vision	-4647
▁écoles	-4648
çant	-4649
aie	-4650
▁tests	-4651
▁Que	-4652
ula	-4653
ésira	-4654
▁tabagisme	-4655
▁engagement	-4656
▁insuff	-4657
▁indésira	-4658
▁presque	-4659
entreprises	-4660
organismes	-4661
▁intéri	-4662
▁Enfin	-4663
▁poursuivre	-4664
▁Lab	-4665
cements	-4666
▁importe	-4667
tructions	-4668
▁licences	-4669
▁Liens	-4670
▁régionales	-4671
▁courant	-4672
▁décide	-4673
▁échanges	-4674
UM	-4675
▁culturel	-4676
▁biologiques	-4677
▁dim	-4678
▁Aux	-4679
▁Veuillez	-4680
▁Sci	-4681
▁options	-4682
▁découlant	-4683
▁discri	-4684
arc	-4685
intég	-4686
▁Industrie	-4687
abin	-4688
▁réalisés	-4689
▁actuelles	-4690
▁liber	-4691
▁crimin	-4692
▁parc	-4693
▁réserves	-4694
▁uni	-4695
▁procéder	-4696
adaptation	-4697
istoire	-4698
▁cultures	-4699
▁SUR	-4700
▁local	-4701
▁dén	-4702
▁gains	-4703
▁maximum	-4704
▁CC	-4705
entente	-4706
▁céré	-4707
test	-4708
▁adultes	-4709
▁Elles	-4710
▁perform	-4711
cier	-4712
▁contact	-4713
auva	-4714
interprétation	-4715
▁souten	-4716
org	-4717
tribution	-4718
▁noter	-4719
ana	-4720
oudre	-4721
▁Techn	-4722
▁Rapports	-4723
fer	-4724
▁noms	-4725
▁format	-4726
▁souha	-4727
▁mariti	-4728
▁garantir	-4729
▁obstacles	-4730
▁réception	-4731
▁usage	-4732
▁patient	-4733
▁Environnement	-4734
tochtone	-4735
▁auxquels	-4736
▁associations	-4737
▁FC	-4738
▁administrations	-4739
sig	-4740
▁téléphone	-4741
▁mener	-4742
be	-4743
▁résolution	-4744
▁transform	-4745
▁établies	-4746
▁Télécopieur	-4747
prés	-4748
▁rappel	-4749
▁industriels	-4750
offre	-4751
innocuité	-4752
impact	-4753
▁bourses	-4754
▁police	-4755
▁souligné	-4756
urg	-4757
▁volet	-4758
▁certificat	-4759
▁obtenus	-4760
▁actuels	-4761
émie	-4762
usement	-4763
▁transition	-4764
▁échéant	-4765
▁conven	-4766
▁incidence	-4767
▁Recommand	-4768
▁Gouvernement	-4769
missibilité	-4770
▁précédente	-4771
édition	-4772
▁Aide	-4773
▁dispose	-4774
▁combus	-4775
▁Plu	-4776
▁exc	-4777
▁réduit	-4778
uelles	-4779
reux	-4780
▁contamin	-4781
▁prêt	-4782
▁nouvel	-4783
▁Mac	-4784
tisation	-4785
poration	-4786
▁extr	-4787
▁Parti	-4788
▁Pê	-4789
ORT	-4790
▁vul	-4791
▁enseign	-4792
▁Rob	-4793
▁allé	-4794
onnées	-4795
▁exemples	-4796
▁terrain	-4797
▁importance	-4798
▁PE	-4799
▁envers	-4800
▁cop	-4801
▁vic	-4802
▁secré	-4803
ok	-4804
▁regroup	-4805
▁meilleur	-4806
▁préserv	-4807
▁bâti	-4808
fe	-4809
eng	-4810
▁audi	-4811
alimentation	-4812
▁délais	-4813
mosph	-4814
▁proposée	-4815
bue	-4816
▁multiples	-4817
▁stabilité	-4818
▁sondage	-4819
▁militaires	-4820
énom	-4821
▁tirer	-4822
▁#	-4823
▁PIB	-4824
▁attend	-4825
▁devront	-4826
▁expérience	-4827
▁pourront	-4828
▁offices	-4829
▁devenir	-4830
ank	-4831
▁maison	-4832
erti	-4833
▁dynam	-4834
▁avanc	-4835
▁pauvre	-4836
▁pertinents	-4837
▁vérifier	-4838
▁cadres	-4839
moins	-4840
▁Budget	-4841
iz	-4842
▁Site	-4843
ID	-4844
▁hors	-4845
existence	-4846
▁formule	-4847
acifique	-4848
frica	-4849
rance	-4850
▁terre	-4851
homme	-4852
gouvernement	-4853
▁conséquence	-4854
▁empê	-4855
▁immobil	-4856
▁utiles	-4857
▁ententes	-4858
cure	-4859
aider	-4860
▁pertes	-4861
▁protocole	-4862
égalité	-4863
▁analyses	-4864
▁ir	-4865
▁Traité	-4866
▁Tribunal	-4867
▁Mex	-4868
▁immédiatement	-4869
▁considération	-4870
▁reçus	-4871
▁suc	-4872
adhésion	-4873
ule	-4874
▁va	-4875
ATI	-4876
▁mentionné	-4877
rig	-4878
▁considérée	-4879
▁Déclaration	-4880
▁Per	-4881
▁mach	-4882
▁stim	-4883
agnie	-4884
▁reconnu	-4885
ption	-4886
accise	-4887
igu	-4888
▁symp	-4889
▁échantillons	-4890
endu	-4891
▁var	-4892
▁mi	-4893
bres	-4894
▁périodes	-4895
▁mauva	-4896
▁Commerce	-4897
▁Indi	-4898
lées	-4899
▁budgétaire	-4900
▁exercice	-4901
infection	-4902
▁génétiques	-4903
▁différence	-4904
tribue	-4905
llemagne	-4906
chives	-4907
▁internes	-4908
nous	-4909
)(	-4910
▁autochtone	-4911
▁œu	-4912
▁particulières	-4913
atta	-4914
▁provisoire	-4915
ience	-4916
▁formul	-4917
thèse	-4918
appliquer	-4919
▁préparer	-4920
▁Président	-4921
ACI	-4922
▁dange	-4923
▁signifie	-4924
▁conclusion	-4925
▁appui	-4926
▁Canadian	-4927
▁enquêtes	-4928
▁liée	-4929
auc	-4930
agers	-4931
cum	-4932
▁élections	-4933
▁Étu	-4934
areil	-4935
orth	-4936
▁consentement	-4937
▁Mich	-4938
▁prochaine	-4939
exig	-4940
▁élaboré	-4941
▁proactive	-4942
issons	-4943
▁milieux	-4944
▁équival	-4945
examiner	-4946
▁gouvernance	-4947
idente	-4948
▁auquel	-4949
▁Cent	-4950
tec	-4951
orde	-4952
▁comport	-4953
▁discip	-4954
▁Di	-4955
▁prolong	-4956
arts	-4957
rador	-4958
▁passer	-4959
▁surface	-4960
▁établie	-4961
▁respectivement	-4962
▁PME	-4963
argent	-4964
▁Toutes	-4965
▁partout	-4966
enfant	-4967
▁ville	-4968
▁patrimoine	-4969
accroître	-4970
▁Divulgation	-4971
entretien	-4972
▁visi	-4973
umeurs	-4974
auche	-4975
▁cig	-4976
effectu	-4977
▁unités	-4978
FP	-4979
▁assure	-4980
▁intégrée	-4981
entremise	-4982
▁Util	-4983
▁recommandé	-4984
▁dépistage	-4985
▁parfois	-4986
▁Compte	-4987
▁pages	-4988
▁prévenir	-4989
▁assez	-4990
Atlantique	-4991
ulaires	-4992
▁jouer	-4993
TC	-4994
▁Saint	-4995
▁Reg	-4996
▁flu	-4997
▁ordonn	-4998
▁logement	-4999
▁red	-5000
▁venir	-5001
utes	-5002
identification	-5003
▁amples	-5004
▁cou	-5005
▁tub	-5006
ende	-5007
▁Réseau	-5008
▁active	-5009
▁provinciales	-5010
▁vég	-5011
indi	-5012
TER	-5013
▁médecin	-5014
▁procédé	-5015
ratif	-5016
▁CANADA	-5017
▁autant	-5018
df	-5019
Initiative	-5020
asp	-5021
▁erre	-5022
DN	-5023
ju	-5024
▁Ltd	-5025
▁augmenter	-5026
▁aient	-5027
▁simple	-5028
▁chiffres	-5029
▁minimum	-5030
▁déten	-5031
înés	-5032
çons	-5033
▁matériaux	-5034
▁lum	-5035
ministre	-5036
ley	-5037
tiers	-5038
▁accompagn	-5039
▁supérieure	-5040
▁all	-5041
▁visé	-5042
▁fiscale	-5043
ustralie	-5044
▁exposés	-5045
▁restre	-5046
▁appropriée	-5047
▁Autre	-5048
Internet	-5049
▁effectués	-5050
▁biais	-5051
▁pertinentes	-5052
▁francophones	-5053
▁transparence	-5054
▁dér	-5055
anim	-5056
▁pal	-5057
▁rédi	-5058
▁tempéra	-5059
chent	-5060
unité	-5061
▁global	-5062
cle	-5063
▁Haut	-5064
AA	-5065
▁indiquent	-5066
▁pauvreté	-5067
▁juge	-5068
▁Ann	-5069
▁̈	-5070
▁diminution	-5071
ald	-5072
lies	-5073
illers	-5074
▁scrutin	-5075
▁examiné	-5076
XX	-5077
ttes	-5078
élaborer	-5079
▁faudrait	-5080
▁Environ	-5081
▁Agence	-5082
▁liti	-5083
ror	-5084
raison	-5085
▁prochaines	-5086
▁coopéra	-5087
▁préalable	-5088
ataire	-5089
▁chargée	-5090
ATIONS	-5091
▁commencé	-5092
▁remplacement	-5093
▁surv	-5094
▁incid	-5095
▁probablement	-5096
▁susp	-5097
▁économies	-5098
▁recouv	-5099
▁conflits	-5100
▁Journal	-5101
entiel	-5102
▁vu	-5103
autorité	-5104
tionnelles	-5105
▁amb	-5106
excellence	-5107
▁décri	-5108
▁mention	-5109
anada	-5110
▁obligatoire	-5111
▁pairs	-5112
▁action	-5113
▁livres	-5114
▁agré	-5115
fon	-5116
▁fabri	-5117
▁leadership	-5118
▁approprié	-5119
honorable	-5120
OL	-5121
ertise	-5122
▁réglementaires	-5123
▁iss	-5124
IF	-5125
▁auront	-5126
alisés	-5127
▁poissons	-5128
▁contribué	-5129
▁téléph	-5130
▁Tél	-5131
▁acquis	-5132
aï	-5133
▁manifest	-5134
▁décidé	-5135
▁numérique	-5136
▁spécialistes	-5137
▁menées	-5138
vues	-5139
gène	-5140
▁culturelle	-5141
▁Voici	-5142
▁substance	-5143
▁temporaire	-5144
▁lieux	-5145
▁Page	-5146
▁POUR	-5147
▁lumière	-5148
▁Sub	-5149
▁visent	-5150
▁proté	-5151
▁auteurs	-5152
▁ray	-5153
▁connu	-5154
▁supérieurs	-5155
rants	-5156
ressi	-5157
▁résidence	-5158
roali	-5159
oivent	-5160
ortiss	-5161
▁utilise	-5162
▁exac	-5163
olesc	-5164
comp	-5165
▁présentations	-5166
▁traditionnelles	-5167
▁apport	-5168
lait	-5169
▁travers	-5170
▁prévoir	-5171
affec	-5172
▁poly	-5173
▁Résultats	-5174
▁finances	-5175
▁peuples	-5176
▁estimations	-5177
▁avantage	-5178
observation	-5179
▁TPSGC	-5180
▁bande	-5181
SM	-5182
▁harmon	-5183
▁récep	-5184
▁directeurs	-5185
▁aqu	-5186
étique	-5187
▁budgétaires	-5188
équité	-5189
▁thérapeu	-5190
▁Forces	-5191
del	-5192
dent	-5193
▁collèg	-5194
▁Pêches	-5195
▁clé	-5196
▁Liste	-5197
▁organisationn	-5198
▁certaine	-5199
tront	-5200
▁or	-5201
▁intro	-5202
▁Mad	-5203
▁sud	-5204
▁Pra	-5205
index	-5206
▁revend	-5207
▁contac	-5208
▁central	-5209
dr	-5210
▁bu	-5211
▁forces	-5212
▁science	-5213
tricité	-5214
▁Ed	-5215
▁infra	-5216
▁inh	-5217
▁senti	-5218
▁Projet	-5219
▁transm	-5220
néra	-5221
▁clientèle	-5222
▁secondaire	-5223
iment	-5224
▁cigare	-5225
▁paix	-5226
énat	-5227
▁Plusieurs	-5228
▁diab	-5229
▁Océans	-5230
▁offrent	-5231
▁banc	-5232
▁experts	-5233
▁rig	-5234
titudes	-5235
▁titulaires	-5236
▁satisfaction	-5237
▁proposées	-5238
fiée	-5239
▁Br	-5240
employeur	-5241
▁mesurer	-5242
▁Sch	-5243
▁EX	-5244
▁musique	-5245
▁agent	-5246
▁petit	-5247
tablissement	-5248
lore	-5249
TS	-5250
itée	-5251
▁Version	-5252
▁soumettre	-5253
école	-5254
ètes	-5255
▁transports	-5256
▁soulev	-5257
illi	-5258
▁veut	-5259
▁axée	-5260
venus	-5261
▁déterminée	-5262
▁rechange	-5263
acement	-5264
▁instrument	-5265
mar	-5266
inscription	-5267
▁périodi	-5268
ukon	-5269
admissibilité	-5270
▁Durée	-5271
ata	-5272
▁Med	-5273
▁encourage	-5274
▁visées	-5275
▁apporter	-5276
▁recomm	-5277
▁mig	-5278
▁approches	-5279
▁vulnéra	-5280
▁location	-5281
▁Étant	-5282
IST	-5283
▁désigné	-5284
ètre	-5285
▁demandeur	-5286
ITÉ	-5287
▁Pe	-5288
GI	-5289
die	-5290
▁gagn	-5291
isées	-5292
gués	-5293
▁Conse	-5294
▁modes	-5295
▁réel	-5296
amens	-5297
▁culturels	-5298
▁contraire	-5299
endement	-5300
▁recueil	-5301
▁dispositifs	-5302
lés	-5303
exception	-5304
▁Demande	-5305
▁diagnostic	-5306
▁potable	-5307
▁accordée	-5308
mière	-5309
▁conduite	-5310
artement	-5311
CES	-5312
▁recrutement	-5313
mac	-5314
quée	-5315
▁vieill	-5316
offrir	-5317
abinet	-5318
▁similaires	-5319
otechnologie	-5320
seur	-5321
▁combat	-5322
▁locale	-5323
▁relever	-5324
▁essentiels	-5325
roit	-5326
▁réussi	-5327
▁couver	-5328
▁cra	-5329
▁vidé	-5330
▁artistes	-5331
ansion	-5332
▁carte	-5333
▁illus	-5334
▁discuter	-5335
▁missions	-5336
ténu	-5337
énement	-5338
▁choisir	-5339
▁Rus	-5340
▁territoriaux	-5341
▁accordé	-5342
▁Mexique	-5343
aur	-5344
▁nour	-5345
▁rôles	-5346
▁Et	-5347
iration	-5348
édération	-5349
BC	-5350
▁circu	-5351
▁offert	-5352
▁Pl	-5353
▁productivité	-5354
Ind	-5355
▁montre	-5356
▁bac	-5357
▁banque	-5358
▁luc	-5359
▁résidents	-5360
▁provinciale	-5361
▁spéciaux	-5362
obligation	-5363
▁tourisme	-5364
▁Sommaire	-5365
uyer	-5366
temps	-5367
Afrique	-5368
▁technologique	-5369
▁National	-5370
▁corps	-5371
▁pensions	-5372
▁figurent	-5373
time	-5374
▁défi	-5375
▁dialogue	-5376
▁essentiellement	-5377
étudi	-5378
▁antérieure	-5379
▁exemplaires	-5380
mploy	-5381
▁perç	-5382
anmoins	-5383
▁inférieur	-5384
▁Du	-5385
istres	-5386
▁appropriées	-5387
cial	-5388
▁réussite	-5389
▁équipe	-5390
▁meilleures	-5391
rat	-5392
actif	-5393
ERS	-5394
ômes	-5395
▁villes	-5396
▁salari	-5397
▁indirec	-5398
élimination	-5399
▁cho	-5400
autom	-5401
llè	-5402
ology	-5403
▁humain	-5404
▁Prof	-5405
▁existants	-5406
▁codes	-5407
▁réd	-5408
▁télévision	-5409
▁pes	-5410
▁communs	-5411
▁différend	-5412
▁réglementaire	-5413
licite	-5414
▁circulation	-5415
▁structures	-5416
▁Défense	-5417
▁$.	-5418
ographie	-5419
▁Publications	-5420
▁Pacifique	-5421
▁âgées	-5422
▁gross	-5423
▁efficacement	-5424
▁trimestre	-5425
▁régulièrement	-5426
▁Pol	-5427
▁force	-5428
▁sert	-5429
▁AC	-5430
▁suis	-5431
▁lié	-5432
▁Lim	-5433
instru	-5434
▁photo	-5435
▁devait	-5436
▁fabricants	-5437
▁huit	-5438
▁façons	-5439
▁trouvent	-5440
▁déploy	-5441
▁adopter	-5442
▁Pays	-5443
▁Inuits	-5444
▁renouvellement	-5445
ommet	-5446
Environnement	-5447
▁pollution	-5448
▁Yukon	-5449
▁éth	-5450
▁objet	-5451
▁Notre	-5452
▁encourager	-5453
MI	-5454
▁hos	-5455
▁transpor	-5456
ALE	-5457
mètres	-5458
▁accompl	-5459
AIRE	-5460
▁modern	-5461
▁spéciales	-5462
▁Protocole	-5463
ah	-5464
èses	-5465
▁semblables	-5466
ED	-5467
▁pression	-5468
SA	-5469
▁prévisions	-5470
].	-5471
endrier	-5472
▁Bo	-5473
ium	-5474
▁Etats	-5475
émission	-5476
résil	-5477
▁μ	-5478
▁députés	-5479
▁meilleurs	-5480
▁bru	-5481
▁opport	-5482
▁constaté	-5483
▁livraison	-5484
ds	-5485
ières	-5486
velop	-5487
▁autorisé	-5488
LES	-5489
idents	-5490
dom	-5491
▁Im	-5492
▁vérifica	-5493
▁INC	-5494
▁aînés	-5495
réci	-5496
▁reflè	-5497
▁offer	-5498
▁repos	-5499
▁déposé	-5500
crivez	-5501
▁perspectives	-5502
jectifs	-5503
▁arts	-5504
▁travaillent	-5505
▁étrangère	-5506
▁indésirables	-5507
▁équipes	-5508
▁Fondation	-5509
HC	-5510
▁Mus	-5511
trique	-5512
prit	-5513
▁guerre	-5514
anche	-5515
▁Communiqu	-5516
▁inscrits	-5517
agir	-5518
▁remer	-5519
▁Princip	-5520
▁soi	-5521
▁éviter	-5522
▁biologique	-5523
▁restrictions	-5524
umer	-5525
ited	-5526
▁vend	-5527
▁résident	-5528
clé	-5529
▁gouverne	-5530
ocation	-5531
▁discrimination	-5532
TIONS	-5533
ystèmes	-5534
▁découver	-5535
▁interpr	-5536
▁bénéfices	-5537
▁fabricant	-5538
vers	-5539
▁préciser	-5540
▁Grâce	-5541
▁mor	-5542
▁PN	-5543
▁entièrement	-5544
▁SE	-5545
▁bour	-5546
▁IV	-5547
▁téléphon	-5548
▁génétique	-5549
▁Cadre	-5550
▁garantie	-5551
▁apportées	-5552
▁directrice	-5553
illets	-5554
ef	-5555
▁conformes	-5556
▁conserver	-5557
gion	-5558
▁intitulé	-5559
erne	-5560
▁rétro	-5561
rich	-5562
▁hypo	-5563
▁initiale	-5564
VE	-5565
intro	-5566
▁preuves	-5567
pitaux	-5568
▁traite	-5569
▁Ty	-5570
oriz	-5571
▁motifs	-5572
▁formulaires	-5573
▁gri	-5574
▁êtes	-5575
▁aller	-5576
▁doute	-5577
Qu	-5578
▁reçoit	-5579
▁Secteur	-5580
▁approfon	-5581
▁Para	-5582
▁sauv	-5583
len	-5584
▁fondé	-5585
▁considérés	-5586
▁parvenir	-5587
avait	-5588
▁Aucune	-5589
▁choisi	-5590
▁atta	-5591
▁carrière	-5592
▁états	-5593
▁emplois	-5594
▁CD	-5595
▁vér	-5596
assistance	-5597
▁reproduction	-5598
anne	-5599
▁relève	-5600
▁teneur	-5601
▁devons	-5602
▁recens	-5603
▁troubles	-5604
▁associé	-5605
emar	-5606
installation	-5607
▁manu	-5608
▁fixe	-5609
quent	-5610
▁subséqu	-5611
igure	-5612
▁heure	-5613
▁institutionnels	-5614
▁directe	-5615
▁maximale	-5616
aw	-5617
idation	-5618
mograph	-5619
étaient	-5620
ditions	-5621
▁représentation	-5622
▁Tro	-5623
arder	-5624
alisme	-5625
▁consoli	-5626
▁participent	-5627
▁performance	-5628
habitat	-5629
▁consci	-5630
▁primaires	-5631
▁mortalité	-5632
attention	-5633
▁atti	-5634
▁navires	-5635
▁lucratif	-5636
onomie	-5637
▁tissus	-5638
▁EUR	-5639
immigration	-5640
tendue	-5641
▁composé	-5642
▁Régime	-5643
▁observé	-5644
▁portent	-5645
▁BC	-5646
▁graves	-5647
»,	-5648
▁Is	-5649
▁Dav	-5650
▁eau	-5651
▁Cro	-5652
▁américains	-5653
▁achet	-5654
istan	-5655
▁Valeur	-5656
andu	-5657
informations	-5658
identité	-5659
ômage	-5660
▁seconde	-5661
delà	-5662
▁Pres	-5663
▁convenu	-5664
CO	-5665
▁résistance	-5666
▁rurales	-5667
▁énergé	-5668
▁employeurs	-5669
mée	-5670
▁fournitures	-5671
▁laiss	-5672
ame	-5673
▁Intro	-5674
▁disponibilité	-5675
als	-5676
▁chaîne	-5677
▁Activités	-5678
▁gros	-5679
▁financer	-5680
▁exprim	-5681
▁organisé	-5682
▁pleinement	-5683
▁entrepris	-5684
▁séance	-5685
▁reconnaît	-5686
▁comparaison	-5687
▁Quel	-5688
triques	-5689
▁démarche	-5690
▁fiscal	-5691
▁économie	-5692
▁limitée	-5693
▁signature	-5694
érir	-5695
▁améliorations	-5696
oyer	-5697
▁Gra	-5698
▁OUI	-5699
▁immun	-5700
▁spor	-5701
▁simplement	-5702
▁bl	-5703
▁enfant	-5704
▁Win	-5705
▁Retour	-5706
▁dumping	-5707
rangement	-5708
▁divulgation	-5709
▁résumé	-5710
▁privil	-5711
▁correc	-5712
aits	-5713
▁Index	-5714
▁sépar	-5715
étape	-5716
rastructures	-5717
▁sympt	-5718
▁expressions	-5719
▁française	-5720
▁incor	-5721
▁infectie	-5722
▁Commentaires	-5723
▁CRDI	-5724
tration	-5725
ida	-5726
▁Résumé	-5727
▁expériment	-5728
▁propriétaire	-5729
▁adress	-5730
▁séances	-5731
▁finale	-5732
▁Archives	-5733
kg	-5734
▁fréquence	-5735
▁TM	-5736
▁Est	-5737
oth	-5738
▁sections	-5739
enci	-5740
▁déduction	-5741
utilis	-5742
▁régler	-5743
▁technologiques	-5744
unav	-5745
▁nuclé	-5746
▁Contac	-5747
▁Op	-5748
▁ST	-5749
▁Taux	-5750
▁satisfaire	-5751
tifi	-5752
▁mél	-5753
▁remise	-5754
▁plas	-5755
▁annuels	-5756
▁recommande	-5757
▁questionnaire	-5758
tuel	-5759
QUES	-5760
▁$)	-5761
▁recueillir	-5762
▁composés	-5763
intermédiaire	-5764
▁méta	-5765
▁Grand	-5766
OMS	-5767
▁universitaire	-5768
▁énum	-5769
▁investis	-5770
▁existantes	-5771
▁Fonction	-5772
▁dessins	-5773
cée	-5774
▁modifiée	-5775
▁enregistrés	-5776
▁pron	-5777
▁tâche	-5778
▁commis	-5779
▁bilaté	-5780
▁moyennes	-5781
▁pilote	-5782
▁préval	-5783
▁Pla	-5784
▁mens	-5785
▁utilisent	-5786
line	-5787
▁chefs	-5788
▁adoptée	-5789
électricité	-5790
▁double	-5791
▁scolaire	-5792
hô	-5793
▁entier	-5794
▁appliquer	-5795
▁intéressés	-5796
▁immig	-5797
▁universitaires	-5798
ÉN	-5799
▁exportateurs	-5800
ignation	-5801
eneur	-5802
▁fumer	-5803
issez	-5804
▁plaintes	-5805
gary	-5806
▁vendre	-5807
▁facilement	-5808
tures	-5809
▁Eff	-5810
peg	-5811
istique	-5812
▁Certaines	-5813
Île	-5814
taux	-5815
lue	-5816
▁Revenu	-5817
issance	-5818
▁Introduction	-5819
▁idées	-5820
▁collabo	-5821
idus	-5822
▁syndic	-5823
oies	-5824
ensus	-5825
▁retour	-5826
▁entend	-5827
tas	-5828
oraires	-5829
SION	-5830
keting	-5831
▁classement	-5832
▁reconnaître	-5833
▁commissaire	-5834
▁compagnie	-5835
▁diss	-5836
▁OM	-5837
▁considère	-5838
▁jeu	-5839
▁mainten	-5840
▁Bulletin	-5841
▁susc	-5842
▁fondées	-5843
▁possède	-5844
▁collective	-5845
▁délégations	-5846
▁nova	-5847
▁sy	-5848
▁diabète	-5849
▁reçoivent	-5850
ciplin	-5851
érance	-5852
LI	-5853
UD	-5854
▁COMM	-5855
▁auxquelles	-5856
▁cul	-5857
▁terror	-5858
▁corpo	-5859
▁descrip	-5860
▁édu	-5861
EX	-5862
oirs	-5863
▁million	-5864
ppe	-5865
▁Conform	-5866
nipeg	-5867
▁roy	-5868
▁continuera	-5869
▁bénévoles	-5870
▁attentes	-5871
▁registre	-5872
▁hydro	-5873
we	-5874
▁PL	-5875
illage	-5876
▁applications	-5877
▁incluant	-5878
SO	-5879
▁détaillée	-5880
▁signé	-5881
▁conseiller	-5882
▁affili	-5883
▁étranger	-5884
▁prioritaires	-5885
▁maî	-5886
▁blessures	-5887
énagement	-5888
spec	-5889
▁bass	-5890
▁englob	-5891
▁Rel	-5892
▁bonnes	-5893
▁complexes	-5894
▁largement	-5895
icité	-5896
▁destiné	-5897
cevoir	-5898
▁âgés	-5899
▁rajus	-5900
▁contribue	-5901
▁financés	-5902
▁contribuent	-5903
▁infirmières	-5904
moni	-5905
meuble	-5906
▁externes	-5907
▁composition	-5908
▁Transports	-5909
▁rang	-5910
▁comparativement	-5911
élection	-5912
GM	-5913
▁mol	-5914
▁Afrique	-5915
▁lancé	-5916
idémi	-5917
▁fera	-5918
▁profil	-5919
icats	-5920
▁lacunes	-5921
▁éventail	-5922
▁reconnaiss	-5923
▁parent	-5924
▁vaccin	-5925
▁conflit	-5926
▁concept	-5927
nant	-5928
▁indiquant	-5929
▁conçu	-5930
▁Programmes	-5931
▁législatives	-5932
bes	-5933
outil	-5934
▁tribunal	-5935
▁vice	-5936
▁revue	-5937
▁nomination	-5938
espace	-5939
MP	-5940
roch	-5941
▁équitable	-5942
▁Méd	-5943
▁adjoint	-5944
▁st	-5945
▁côté	-5946
▁instructions	-5947
▁aven	-5948
xy	-5949
▁signalé	-5950
▁bibliothè	-5951
▁bénéficier	-5952
existe	-5953
▁Fac	-5954
URE	-5955
▁sûre	-5956
roalimentaire	-5957
▁simpli	-5958
fini	-5959
ash	-5960
jud	-5961
ividus	-5962
qués	-5963
▁Produits	-5964
▁négociation	-5965
▁multip	-5966
intérêts	-5967
roissement	-5968
yth	-5969
▁bord	-5970
▁réaction	-5971
▁inspec	-5972
ession	-5973
▁Ge	-5974
▁respira	-5975
▁Avec	-5976
onnements	-5977
▁estimé	-5978
▁constituer	-5979
miers	-5980
▁médical	-5981
▁Lignes	-5982
ettres	-5983
▁vieillissement	-5984
▁euro	-5985
▁expériences	-5986
▁réalisé	-5987
oie	-5988
▁fournissent	-5989
▁associées	-5990
▁hôpitaux	-5991
eth	-5992
▁totalité	-5993
▁AR	-5994
▁Nunav	-5995
▁fiscaux	-5996
▁théor	-5997
▁pharmaceutiques	-5998
hum	-5999
▁calculer	-6000
▁futures	-6001
ousse	-6002
▁bactéri	-6003
▁température	-6004
▁adolesc	-6005
▁récentes	-6006
ÉU	-6007
▁bate	-6008
dite	-6009
▁contrepar	-6010
icateur	-6011
▁commandes	-6012
▁transferts	-6013
ére	-6014
▁conva	-6015
IPO	-6016
ultur	-6017
▁Winnipeg	-6018
▁désignés	-6019
▁appropriés	-6020
▁courriel	-6021
▁procédés	-6022
▁voyageurs	-6023
▁front	-6024
▁prévoy	-6025
▁appuie	-6026
▁intéressées	-6027
▁Son	-6028
▁enregistre	-6029
grédi	-6030
nova	-6031
▁end	-6032
▁victimes	-6033
▁placement	-6034
▁tenant	-6035
ety	-6036
▁Calgary	-6037
▁transactions	-6038
▁milliard	-6039
▁donnent	-6040
▁correction	-6041
▁liberté	-6042
▁rich	-6043
aration	-6044
ive	-6045
▁attention	-6046
oure	-6047
▁numéros	-6048
▁destinées	-6049
▁neur	-6050
Ad	-6051
▁provenance	-6052
▁physiques	-6053
▁toxicom	-6054
ANS	-6055
▁chemin	-6056
érone	-6057
▁fiscales	-6058
▁drogue	-6059
▁vivant	-6060
▁conclure	-6061
▁pér	-6062
▁RS	-6063
▁Forum	-6064
▁sor	-6065
view	-6066
▁diminué	-6067
RP	-6068
▁appara	-6069
▁ouvert	-6070
Au	-6071
▁devient	-6072
▁souhaite	-6073
mêmes	-6074
▁Territ	-6075
▁cartes	-6076
▁requises	-6077
▁résoudre	-6078
▁spécifique	-6079
▁indications	-6080
▁facile	-6081
harmon	-6082
velopment	-6083
▁correspondant	-6084
▁éclair	-6085
▁fichier	-6086
▁ordre	-6087
▁variables	-6088
▁véhicule	-6089
▁permettront	-6090
enneté	-6091
▁solide	-6092
effectuer	-6093
▁Institute	-6094
feuille	-6095
▁couverture	-6096
▁...	-6097
▁Chapitre	-6098
▁NON	-6099
▁infectieuses	-6100
▁sécur	-6101
guer	-6102
▁servent	-6103
sh	-6104
▁Ca	-6105
▁cu	-6106
ADRC	-6107
▁mots	-6108
▁bal	-6109
▁loin	-6110
▁accessibles	-6111
▁élevées	-6112
▁maritime	-6113
▁voies	-6114
▁occasions	-6115
Est	-6116
▁SO	-6117
▁plantes	-6118
▁biotechnologie	-6119
douard	-6120
▁aéro	-6121
AV	-6122
▁cru	-6123
lacement	-6124
▁décideurs	-6125
▁thèmes	-6126
▁récente	-6127
XE	-6128
diction	-6129
▁David	-6130
▁Amé	-6131
▁administratifs	-6132
ERV	-6133
▁TC	-6134
opération	-6135
▁linguistique	-6136
▁Russie	-6137
▁Es	-6138
▁ajouté	-6139
▁consig	-6140
▁indépendant	-6141
▁dériv	-6142
▁perspective	-6143
je	-6144
▁dispens	-6145
▁médicale	-6146
▁Oui	-6147
▁rub	-6148
La	-6149
oux	-6150
atrième	-6151
FIC	-6152
▁voit	-6153
torat	-6154
▁consensus	-6155
▁SCT	-6156
▁secondaires	-6157
ariat	-6158
▁vende	-6159
▁fruits	-6160
inéas	-6161
▁pouvait	-6162
thèses	-6163
▁compétitivité	-6164
▁passi	-6165
▁Parten	-6166
▁organes	-6167
▁ém	-6168
tell	-6169
▁doc	-6170
▁versement	-6171
▁sti	-6172
appuyer	-6173
histoire	-6174
▁poursuite	-6175
disciplin	-6176
dy	-6177
▁PC	-6178
▁notification	-6179
bi	-6180
▁Modi	-6181
troph	-6182
CNRC	-6183
▁ateliers	-6184
Ac	-6185
idée	-6186
ÉT	-6187
▁conférences	-6188
▁suivent	-6189
▁siè	-6190
asi	-6191
ington	-6192
▁Véri	-6193
▁arriv	-6194
▁corri	-6195
▁surveiller	-6196
▁`	-6197
▁tax	-6198
Québec	-6199
échantillon	-6200
▁Source	-6201
▁Exemp	-6202
biliser	-6203
▁messages	-6204
):	-6205
▁Présent	-6206
Prin	-6207
▁intégré	-6208
anch	-6209
▁division	-6210
▁paramètres	-6211
exclusion	-6212
▁capitaux	-6213
▁longtemps	-6214
▁navig	-6215
▁Nunavut	-6216
▁démograph	-6217
▁émis	-6218
▁prennent	-6219
▁complexe	-6220
▁monn	-6221
▁tôt	-6222
▁établit	-6223
▁West	-6224
Prince	-6225
▁mér	-6226
▁rien	-6227
▁distance	-6228
▁atteints	-6229
ast	-6230
▁flo	-6231
ortée	-6232
▁européennes	-6233
hc	-6234
▁Aut	-6235
▁Be	-6236
▁Parties	-6237
▁Jean	-6238
▁servi	-6239
▁africa	-6240
▁institution	-6241
▁contrôles	-6242
▁Brésil	-6243
▁livre	-6244
env	-6245
oser	-6246
▁vété	-6247
▁limiter	-6248
▁électorale	-6249
▁exh	-6250
▁mené	-6251
▁activement	-6252
isp	-6253
▁arrê	-6254
stra	-6255
▁éduca	-6256
▁administratif	-6257
tress	-6258
▁symptômes	-6259
▁bio	-6260
▁normalement	-6261
▁permanente	-6262
▁composantes	-6263
▁quoi	-6264
▁reçues	-6265
▁envisag	-6266
▁détection	-6267
▁Quoi	-6268
yer	-6269
▁Paris	-6270
▁salaire	-6271
▁nutrition	-6272
▁servant	-6273
▁géographique	-6274
enfants	-6275
ingt	-6276
▁personnelle	-6277
▁œuvres	-6278
▁handicapées	-6279
ki	-6280
▁Syn	-6281
vue	-6282
Ottawa	-6283
ulteurs	-6284
itter	-6285
▁pointe	-6286
▁semblent	-6287
▁volontaire	-6288
▁graph	-6289
▁Protection	-6290
cl	-6291
▁tourn	-6292
gué	-6293
artis	-6294
▁forê	-6295
▁enseignants	-6296
EUR	-6297
▁indemn	-6298
▁autorisée	-6299
▁plainte	-6300
▁pertinence	-6301
▁faudra	-6302
▁puisqu	-6303
agnies	-6304
▁requête	-6305
alisé	-6306
▁présentant	-6307
▁notes	-6308
▁dépendance	-6309
▁contractante	-6310
▁intégra	-6311
èdent	-6312
▁climatiques	-6313
▁attribuable	-6314
▁fondamentaux	-6315
▁élo	-6316
▁solides	-6317
▁industriel	-6318
rons	-6319
▁détec	-6320
▁prud	-6321
▁choses	-6322
▁considérer	-6323
ulé	-6324
▁provo	-6325
itées	-6326
▁réalisations	-6327
▁path	-6328
▁passage	-6329
bler	-6330
▁innova	-6331
▁progressi	-6332
▁satell	-6333
▁Cara	-6334
▁ingrédi	-6335
▁rencontre	-6336
auf	-6337
▁laboratoires	-6338
▁présentes	-6339
cés	-6340
arition	-6341
▁douane	-6342
énie	-6343
endra	-6344
▁européens	-6345
net	-6346
immun	-6347
▁constru	-6348
▁dirigeants	-6349
▁opportun	-6350
▁concert	-6351
▁MO	-6352
▁lettres	-6353
▁fores	-6354
isses	-6355
UB	-6356
acts	-6357
▁pouss	-6358
▁accessible	-6359
▁administration	-6360
▁message	-6361
▁précises	-6362
▁logiciels	-6363
▁désignation	-6364
▁cible	-6365
▁Charte	-6366
▁forum	-6367
▁mouvement	-6368
▁désir	-6369
gue	-6370
▁cat	-6371
▁fol	-6372
▁vétérin	-6373
aculture	-6374
▁tarifaire	-6375
▁journée	-6376
▁carbone	-6377
▁Accord	-6378
▁ache	-6379
▁Resp	-6380
▁semblable	-6381
▁inférieure	-6382
▁accru	-6383
êtements	-6384
▁explique	-6385
▁mine	-6386
AE	-6387
▁Bri	-6388
orandu	-6389
▁fournie	-6390
accomp	-6391
▁matern	-6392
▁tonnes	-6393
▁examens	-6394
▁diversi	-6395
▁requise	-6396
▁précédent	-6397
▁instituts	-6398
ÉE	-6399
ico	-6400
old	-6401
▁parlementaire	-6402
outer	-6403
▁with	-6404
▁route	-6405
lètes	-6406
Édouard	-6407
ORM	-6408
▁incidences	-6409
taient	-6410
conom	-6411
dev	-6412
issait	-6413
laté	-6414
▁actif	-6415
NI	-6416
ubrité	-6417
tériel	-6418
▁partiel	-6419
▁Fédération	-6420
▁solde	-6421
▁Genève	-6422
▁allant	-6423
▁Réponse	-6424
▁Sénat	-6425
▁souligne	-6426
▁traduction	-6427
obile	-6428
▁pilo	-6429
▁menée	-6430
▁ro	-6431
▁At	-6432
▁judiciaire	-6433
▁endroits	-6434
▁exprimé	-6435
▁pétrole	-6436
inflation	-6437
▁Gl	-6438
▁rac	-6439
trict	-6440
▁chir	-6441
▁ser	-6442
anglais	-6443
▁Pai	-6444
▁sûr	-6445
uisse	-6446
▁MA	-6447
▁doses	-6448
▁comportements	-6449
▁atmosph	-6450
▁administrative	-6451
▁socio	-6452
▁potentiels	-6453
▁ratta	-6454
atteindre	-6455
indemn	-6456
▁pêcheurs	-6457
obtention	-6458
▁prépara	-6459
ute	-6460
▁Group	-6461
utation	-6462
▁liaison	-6463
encour	-6464
entend	-6465
ôme	-6466
▁vaccins	-6467
▁dons	-6468
▁volont	-6469
▁stable	-6470
▁spéciale	-6471
tements	-6472
▁minorités	-6473
opinion	-6474
▁retard	-6475
dies	-6476
▁pièce	-6477
▁compagnies	-6478
ings	-6479
▁mari	-6480
▁examine	-6481
▁complémentaires	-6482
▁super	-6483
▁révélé	-6484
▁énoncées	-6485
▁quantités	-6486
rits	-6487
ondu	-6488
▁poursuiv	-6489
cession	-6490
pour	-6491
▁CIB	-6492
location	-6493
▁dynamique	-6494
▁fortement	-6495
▁considérable	-6496
▁compati	-6497
arer	-6498
▁Ko	-6499
gal	-6500
entraî	-6501
américa	-6502
▁%).	-6503
▁Jeux	-6504
étiquetage	-6505
TRE	-6506
▁modu	-6507
introduction	-6508
Industrie	-6509
▁orientations	-6510
pdf	-6511
▁réalité	-6512
aqu	-6513
▁Coun	-6514
▁auraient	-6515
▁Id	-6516
▁consultez	-6517
cs	-6518
▁former	-6519
▁externe	-6520
▁Air	-6521
▁biling	-6522
econd	-6523
▁verser	-6524
▁post	-6525
▁logiciel	-6526
▁régissant	-6527
▁chlor	-6528
▁unité	-6529
▁coule	-6530
Le	-6531
provin	-6532
--------	-6533
▁administrateurs	-6534
ater	-6535
▁étiqu	-6536
agré	-6537
▁conseillers	-6538
ierre	-6539
intemps	-6540
▁	-6541
▁pratici	-6542
▁manifes	-6543
eneurs	-6544
▁excédent	-6545
▁nécessairement	-6546
▁Mod	-6547
cidents	-6548
▁Corée	-6549
▁récup	-6550
▁tenus	-6551
▁méthod	-6552
▁cibles	-6553
▁QU	-6554
▁intitulée	-6555
▁listes	-6556
WG	-6557
ignant	-6558
▁Justice	-6559
▁porté	-6560
▁Office	-6561
▁maîtr	-6562
hydro	-6563
▁naissance	-6564
▁écrite	-6565
▁désire	-6566
▁retrait	-6567
▁intégrés	-6568
AUX	-6569
▁Norm	-6570
▁dra	-6571
▁cotisation	-6572
▁Bro	-6573
▁parallè	-6574
▁essentielles	-6575
▁positifs	-6576
▁circonscription	-6577
▁Bul	-6578
%)	-6579
gin	-6580
culaire	-6581
oncer	-6582
istant	-6583
▁Ques	-6584
▁Particip	-6585
▁Conformément	-6586
▁compar	-6587
▁acceptable	-6588
▁certification	-6589
fax	-6590
▁délib	-6591
▁int	-6592
▁civil	-6593
▁américain	-6594
▁accélé	-6595
▁sémin	-6596
▁aérien	-6597
▁Bar	-6598
▁danger	-6599
▁aperçu	-6600
onner	-6601
▁privés	-6602
▁presta	-6603
▁chose	-6604
▁retenues	-6605
▁marge	-6606
▁autorisation	-6607
isté	-6608
▁réfu	-6609
▁Aucun	-6610
▁payés	-6611
automne	-6612
ologies	-6613
▁Cabinet	-6614
Canada	-6615
▁statistique	-6616
èque	-6617
▁pharmac	-6618
▁gestionnaire	-6619
présent	-6620
▁individus	-6621
équilibre	-6622
of	-6623
estim	-6624
▁difficulté	-6625
▁Montant	-6626
tauration	-6627
▁gratu	-6628
▁train	-6629
èvement	-6630
éviter	-6631
élarg	-6632
énari	-6633
▁stress	-6634
atite	-6635
▁Salle	-6636
▁siècle	-6637
▁dommages	-6638
expansion	-6639
▁visiteurs	-6640
▁pho	-6641
▁nomin	-6642
▁buts	-6643
▁multilaté	-6644
▁isol	-6645
▁femme	-6646
▁réalisées	-6647
▁clair	-6648
▁Frais	-6649
ony	-6650
allage	-6651
▁assemb	-6652
▁thème	-6653
▁familiale	-6654
▁futurs	-6655
▁publiés	-6656
union	-6657
▁grave	-6658
▁Examen	-6659
▁Données	-6660
▁calendrier	-6661
▁essentielle	-6662
ala	-6663
CEE	-6664
rom	-6665
▁énoncés	-6666
▁sexes	-6667
▁York	-6668
▁mettant	-6669
▁multic	-6670
▁Sécurité	-6671
▁actes	-6672
▁Méth	-6673
▁Fourn	-6674
▁fichiers	-6675
entité	-6676
▁répu	-6677
▁Har	-6678
▁Franc	-6679
térieures	-6680
▁seuil	-6681
▁masse	-6682
osystème	-6683
▁minutes	-6684
attente	-6685
▁pou	-6686
▁différends	-6687
▁engagés	-6688
▁siège	-6689
▁tableaux	-6690
ombe	-6691
téra	-6692
eries	-6693
INE	-6694
▁chev	-6695
▁délivrance	-6696
▁déclarer	-6697
uri	-6698
monton	-6699
▁moteur	-6700
▁adolescents	-6701
iseaux	-6702
▁Recommandation	-6703
▁thérapeutiques	-6704
▁autrement	-6705
▁file	-6706
élément	-6707
▁interro	-6708
▁impossi	-6709
fait	-6710
▁consommateur	-6711
tag	-6712
▁cum	-6713
▁significative	-6714
NEXE	-6715
▁Pendant	-6716
▁spécialisés	-6717
estiv	-6718
▁évolu	-6719
RS	-6720
ataires	-6721
▁décisionn	-6722
▁gouvernementale	-6723
ars	-6724
▁fournies	-6725
▁quels	-6726
▁ath	-6727
▁spati	-6728
▁volonté	-6729
glish	-6730
▁facul	-6731
paravant	-6732
▁crise	-6733
▁fal	-6734
▁comprenant	-6735
DS	-6736
▁initial	-6737
▁Corporation	-6738
▁considérées	-6739
ventionn	-6740
▁saine	-6741
▁offrant	-6742
▁investissement	-6743
intégrité	-6744
▁intr	-6745
▁joue	-6746
▁géographiques	-6747
▁exon	-6748
▁vidéo	-6749
▁Questions	-6750
épatite	-6751
▁registres	-6752
▁Pos	-6753
▁entraîne	-6754
▁continuent	-6755
ailleurs	-6756
▁climat	-6757
ack	-6758
pol	-6759
▁cigarettes	-6760
▁mot	-6761
▁ethn	-6762
))	-6763
▁salubrité	-6764
▁critère	-6765
▁vola	-6766
▁Bel	-6767
▁anticip	-6768
▁concentre	-6769
▁repose	-6770
▁encourag	-6771
hou	-6772
▁désigne	-6773
▁ajoutée	-6774
▁sommaire	-6775
▁composante	-6776
▁causes	-6777
▁REER	-6778
▁justifi	-6779
oeuvre	-6780
jection	-6781
expertise	-6782
oz	-6783
opter	-6784
ted	-6785
▁infrastructures	-6786
▁phénom	-6787
▁impliqu	-6788
▁entrevues	-6789
▁personnelles	-6790
▁informer	-6791
expiration	-6792
▁propriétaires	-6793
▁positive	-6794
bunaux	-6795
▁North	-6796
▁lour	-6797
ventaire	-6798
▁constat	-6799
▁prochain	-6800
▁résultant	-6801
▁associée	-6802
▁parlementaires	-6803
▁comportant	-6804
▁vois	-6805
esprit	-6806
▁déficit	-6807
uellement	-6808
▁réfugi	-6809
▁croy	-6810
▁étudier	-6811
ourg	-6812
▁ciné	-6813
asser	-6814
fact	-6815
▁axé	-6816
atteinte	-6817
▁marketing	-6818
exemple	-6819
▁définitions	-6820
▁élar	-6821
▁définis	-6822
▁débou	-6823
yste	-6824
▁retrouv	-6825
oient	-6826
lèvent	-6827
▁renfer	-6828
▁contrepartie	-6829
trait	-6830
▁bons	-6831
▁PA	-6832
▁AL	-6833
alifax	-6834
▁annexe	-6835
▁(-	-6836
▁Né	-6837
▁divul	-6838
▁duquel	-6839
▁paye	-6840
▁versé	-6841
▁AV	-6842
▁situé	-6843
▁stand	-6844
▁const	-6845
▁chroniques	-6846
▁détaillé	-6847
▁TR	-6848
▁opérationnel	-6849
▁regard	-6850
aliments	-6851
▁infirmiers	-6852
▁fl	-6853
▁historique	-6854
▁génie	-6855
gure	-6856
▁motiv	-6857
▁tribunaux	-6858
culaires	-6859
▁tél	-6860
▁insuffis	-6861
▁symb	-6862
tension	-6863
▁souples	-6864
cadre	-6865
▁rivi	-6866
▁touche	-6867
▁pouvons	-6868
▁salaires	-6869
▁Hong	-6870
▁Titre	-6871
▁contrôler	-6872
▁Gaz	-6873
▁métal	-6874
▁aigu	-6875
umin	-6876
▁coûte	-6877
Ch	-6878
▁horiz	-6879
président	-6880
▁engagé	-6881
▁adresse	-6882
▁collaborer	-6883
gar	-6884
▁cy	-6885
▁achats	-6886
▁subventionn	-6887
igh	-6888
étiques	-6889
▁autorisés	-6890
Lab	-6891
▁Dre	-6892
▁légi	-6893
▁favorable	-6894
▁chercheur	-6895
▁relevant	-6896
▁visites	-6897
▁Gén	-6898
▁Administration	-6899
▁Territoires	-6900
▁Communications	-6901
▁prescrit	-6902
▁primaire	-6903
▁versées	-6904
reu	-6905
▁devaient	-6906
▁annonce	-6907
PF	-6908
orti	-6909
▁imposable	-6910
intement	-6911
GE	-6912
inves	-6913
▁appelé	-6914
▁Décision	-6915
NO	-6916
▁descriptif	-6917
tiles	-6918
tendu	-6919
▁déterminées	-6920
▁démontré	-6921
ensions	-6922
avec	-6923
▁appels	-6924
▁stade	-6925
mest	-6926
cédents	-6927
▁égal	-6928
endes	-6929
ames	-6930
▁frontières	-6931
▁ap	-6932
▁Votre	-6933
▁ANNEXE	-6934
emplois	-6935
▁sectori	-6936
▁Amérique	-6937
tuelles	-6938
▁comprom	-6939
▁partenaire	-6940
ormais	-6941
▁Lib	-6942
▁om	-6943
▁redev	-6944
▁veulent	-6945
AND	-6946
▁armes	-6947
▁appréci	-6948
▁nommé	-6949
▁endroit	-6950
erson	-6951
▁réformes	-6952
▁suggestions	-6953
eld	-6954
▁producteur	-6955
▁entendu	-6956
▁destination	-6957
▁IT	-6958
cupe	-6959
▁permettrait	-6960
▁Rich	-6961
▁dent	-6962
▁quin	-6963
invention	-6964
icaments	-6965
ock	-6966
ardeau	-6967
▁peine	-6968
▁fixé	-6969
▁montrent	-6970
▁dépasse	-6971
▁recour	-6972
▁secrétaire	-6973
▁Sp	-6974
▁Type	-6975
▁royale	-6976
▁chômage	-6977
▁dépôts	-6978
▁MC	-6979
▁Wh	-6980
octro	-6981
iciens	-6982
▁accéder	-6983
orables	-6984
▁commencer	-6985
PM	-6986
▁indépendants	-6987
ignent	-6988
▁investisseurs	-6989
▁chin	-6990
▁impossible	-6991
▁stip	-6992
giques	-6993
▁constitué	-6994
Hz	-6995
▁Supp	-6996
appareil	-6997
▁municipalités	-6998
▁hospit	-6999
▁amélioration	-7000
▁$,	-7001
▁toxicité	-7002
▁exhaus	-7003
apport	-7004
▁from	-7005
tablir	-7006
▁prosp	-7007
▁étroite	-7008
APP	-7009
▁oct	-7010
▁partis	-7011
▁concernés	-7012
▁SR	-7013
affir	-7014
▁quelles	-7015
▁Figure	-7016
▁appliquée	-7017
▁renseignement	-7018
itec	-7019
▁échelle	-7020
▁vérifications	-7021
▁valoir	-7022
▁transmettre	-7023
▁anciens	-7024
▁support	-7025
▁déduc	-7026
lem	-7027
▁directs	-7028
▁Nouvelles	-7029
▁Moy	-7030
inions	-7031
étend	-7032
atelier	-7033
▁adoptées	-7034
▁mère	-7035
▁voul	-7036
uni	-7037
attribution	-7038
▁quatrième	-7039
appu	-7040
alisée	-7041
▁Ang	-7042
▁pren	-7043
hom	-7044
▁contacts	-7045
▁réactions	-7046
▁rati	-7047
▁probable	-7048
▁ferme	-7049
▁Madrid	-7050
▁décider	-7051
▁démontrer	-7052
▁portefeuille	-7053
▁tête	-7054
▁Development	-7055
▁séqu	-7056
▁faill	-7057
ases	-7058
orge	-7059
ients	-7060
rages	-7061
▁contractant	-7062
▁Organisation	-7063
▁Défini	-7064
▁terminé	-7065
dra	-7066
▁récol	-7067
▁Malgré	-7068
▁printemps	-7069
▁Tur	-7070
exerc	-7071
▁parler	-7072
▁remplacer	-7073
▁lancement	-7074
▁déplacement	-7075
▁échantillon	-7076
rera	-7077
▁ultérieure	-7078
ribu	-7079
▁vont	-7080
accessi	-7081
▁accepté	-7082
▁éloign	-7083
TIC	-7084
▁ajus	-7085
▁répondu	-7086
▁agriculteurs	-7087
▁er	-7088
diteurs	-7089
ondes	-7090
▁cinqu	-7091
▁immigrants	-7092
opath	-7093
▁normale	-7094
▁présents	-7095
▁posts	-7096
▁littéra	-7097
▁UN	-7098
▁plomb	-7099
▁rapportant	-7100
▁linguistiques	-7101
▁lecture	-7102
éparg	-7103
▁copies	-7104
▁charges	-7105
▁satisfait	-7106
priété	-7107
▁vendu	-7108
▁scénari	-7109
▁fardeau	-7110
affectation	-7111
▁Vic	-7112
▁évidence	-7113
charg	-7114
▁toxiques	-7115
▁appartenant	-7116
▁struct	-7117
éber	-7118
▁exposition	-7119
▁ressource	-7120
contre	-7121
gy	-7122
biens	-7123
▁bout	-7124
▁assi	-7125
▁milliers	-7126
▁El	-7127
▁comptabilité	-7128
gènes	-7129
▁NO	-7130
▁conjointement	-7131
▁programmation	-7132
▁totales	-7133
ordi	-7134
▁sida	-7135
▁accum	-7136
▁malgré	-7137
▁dépense	-7138
▁souligner	-7139
▁WIPO	-7140
▁critique	-7141
▁Memb	-7142
▁mémo	-7143
NEMENT	-7144
▁association	-7145
▁vivent	-7146
orandum	-7147
work	-7148
▁Financement	-7149
Labrador	-7150
▁versés	-7151
▁Mari	-7152
▁positif	-7153
▁impact	-7154
▁hon	-7155
vergure	-7156
▁expédi	-7157
▁végét	-7158
▁consacré	-7159
▁approuvés	-7160
▁invités	-7161
▁Contactez	-7162
gies	-7163
▁commande	-7164
▁satisfais	-7165
▁changer	-7166
Australie	-7167
▁postsecond	-7168
▁précisément	-7169
CTION	-7170
atis	-7171
Ag	-7172
▁infections	-7173
▁Prix	-7174
▁textes	-7175
▁médicales	-7176
▁GRC	-7177
▁vient	-7178
Organisme	-7179
▁by	-7180
▁proposés	-7181
▁OF	-7182
▁Équ	-7183
▁INTER	-7184
▁courrier	-7185
▁Agriculture	-7186
▁Seu	-7187
▁divid	-7188
▁centrales	-7189
arrê	-7190
osi	-7191
▁autonom	-7192
▁reflé	-7193
▁retourn	-7194
▁énergétique	-7195
▁sûreté	-7196
UT	-7197
ouris	-7198
▁chimique	-7199
▁Instituts	-7200
▁marchande	-7201
urées	-7202
▁clari	-7203
▁Ta	-7204
▁menace	-7205
▁grossesse	-7206
▁Rad	-7207
quie	-7208
novations	-7209
▁partager	-7210
▁%),	-7211
effor	-7212
▁OMPI	-7213
▁magas	-7214
▁estima	-7215
AGE	-7216
ses	-7217
▁dépens	-7218
▁Respons	-7219
▁Val	-7220
arma	-7221
▁monnaie	-7222
▁ral	-7223
▁franch	-7224
SD	-7225
▁Ligne	-7226
▁pâ	-7227
▁investi	-7228
▁English	-7229
▁augmente	-7230
mentionn	-7231
▁Surveill	-7232
▁vites	-7233
▁annuelles	-7234
▁exercer	-7235
▁accorde	-7236
enza	-7237
▁décrites	-7238
▁déposée	-7239
▁profonde	-7240
▁chauff	-7241
▁demeurent	-7242
▁préparé	-7243
▁Transf	-7244
▁tiennent	-7245
▁Directive	-7246
▁intervention	-7247
▁magn	-7248
▁blanc	-7249
▁alinéas	-7250
▁noté	-7251
▁passagers	-7252
▁·	-7253
▁CAD	-7254
euros	-7255
▁repas	-7256
▁impôts	-7257
▁scol	-7258
▁Tari	-7259
▁netto	-7260
▁bourse	-7261
ulf	-7262
équival	-7263
▁accorder	-7264
▁fumée	-7265
».	-7266
euse	-7267
▁machines	-7268
▁human	-7269
▁recons	-7270
▁rédaction	-7271
▁Esp	-7272
▁conformer	-7273
▁Micha	-7274
▁Première	-7275
▁transit	-7276
▁SY	-7277
venant	-7278
▁désormais	-7279
▁rural	-7280
▁supérieures	-7281
▁diploma	-7282
posage	-7283
lines	-7284
hépatite	-7285
MENT	-7286
▁Département	-7287
vaux	-7288
auto	-7289
▁intensi	-7290
▁autour	-7291
▁climatique	-7292
▁revendications	-7293
ya	-7294
institution	-7295
▁payée	-7296
▁demandeurs	-7297
ores	-7298
DP	-7299
ild	-7300
▁oeu	-7301
▁déterminants	-7302
lène	-7303
▁législatif	-7304
▁exposé	-7305
▁pose	-7306
▁CL	-7307
▁fumeurs	-7308
talie	-7309
▁individuels	-7310
▁vulnérables	-7311
▁combinaison	-7312
▁frontière	-7313
▁canc	-7314
▁be	-7315
ik	-7316
amil	-7317
dam	-7318
épargne	-7319
▁dommage	-7320
▁génération	-7321
▁entités	-7322
▁métaux	-7323
▁Contexte	-7324
élev	-7325
▁station	-7326
▁SD	-7327
▁gla	-7328
▁mam	-7329
try	-7330
▁excessi	-7331
▁soumises	-7332
▁SP	-7333
échantillonnage	-7334
▁athlètes	-7335
eral	-7336
▁écos	-7337
▁réalisée	-7338
▁Puis	-7339
èmement	-7340
▁revê	-7341
▁dil	-7342
▁dév	-7343
▁Main	-7344
MB	-7345
Asie	-7346
importe	-7347
dium	-7348
onie	-7349
avons	-7350
raine	-7351
▁Contribu	-7352
acte	-7353
ics	-7354
▁auto	-7355
▁révisé	-7356
aménagement	-7357
▁ménages	-7358
▁susmentionn	-7359
▁croire	-7360
▁intégrer	-7361
octroi	-7362
▁alli	-7363
▁Processus	-7364
ld	-7365
yp	-7366
▁TIC	-7367
▁reçue	-7368
liquer	-7369
▁substitu	-7370
ville	-7371
ulose	-7372
▁pertinente	-7373
iries	-7374
écart	-7375
▁passant	-7376
▁réelles	-7377
▁Robert	-7378
SH	-7379
▁brut	-7380
▁PSN	-7381
▁défaut	-7382
▁plafond	-7383
ago	-7384
▁légèrement	-7385
▁mettent	-7386
▁industrie	-7387
harmonisation	-7388
▁élarg	-7389
▁report	-7390
▁emprun	-7391
▁rendus	-7392
▁Premier	-7393
illon	-7394
▁pressions	-7395
▁Act	-7396
▁souches	-7397
ause	-7398
istent	-7399
OCDE	-7400
▁Quels	-7401
▁Halifax	-7402
cées	-7403
trer	-7404
▁canada	-7405
osé	-7406
▁définit	-7407
IEN	-7408
▁calculé	-7409
▁modernisation	-7410
▁imprimable	-7411
ctique	-7412
gen	-7413
▁JO	-7414
▁atteintes	-7415
instruction	-7416
meubles	-7417
▁relevé	-7418
▁magaz	-7419
istiques	-7420
▁ministériel	-7421
col	-7422
crite	-7423
▁Analyse	-7424
▁particules	-7425
étal	-7426
▁alinéa	-7427
▁molécu	-7428
iteur	-7429
▁extérieur	-7430
chant	-7431
▁rappro	-7432
ossaire	-7433
▁blé	-7434
analys	-7435
▁cam	-7436
▁office	-7437
▁exécutif	-7438
▁dispositif	-7439
▁chasse	-7440
▁mété	-7441
▁atteinte	-7442
▁perception	-7443
FI	-7444
rac	-7445
▁exceptions	-7446
▁télés	-7447
éance	-7448
▁budgets	-7449
▁Ju	-7450
▁Lac	-7451
▁chargés	-7452
▁Travaux	-7453
▁dangereux	-7454
▁erreurs	-7455
▁Dro	-7456
ONU	-7457
TD	-7458
▁bateaux	-7459
▁Paul	-7460
▁incomp	-7461
▁bâtiment	-7462
▁Fab	-7463
▁Dan	-7464
▁contiennent	-7465
▁antérieures	-7466
▁desqu	-7467
gramme	-7468
affaire	-7469
▁observer	-7470
▁folk	-7471
▁recev	-7472
▁émer	-7473
▁serre	-7474
▁tol	-7475
▁reconnus	-7476
▁identifier	-7477
CA	-7478
ican	-7479
▁profiter	-7480
fiées	-7481
▁répondent	-7482
▁coordonner	-7483
▁Bur	-7484
▁entraîner	-7485
▁!	-7486
épend	-7487
▁prévalence	-7488
▁Net	-7489
▁ACC	-7490
▁participe	-7491
actifs	-7492
▁ord	-7493
titution	-7494
association	-7495
▁ministériels	-7496
tuellement	-7497
rets	-7498
ney	-7499
▁Uni	-7500
▁Nos	-7501
▁Mark	-7502
▁payable	-7503
▁tu	-7504
onf	-7505
▁opérationnels	-7506
▁concurrenti	-7507
▁recouvrement	-7508
▁SERV	-7509
▁prélev	-7510
▁Lond	-7511
▁pouvaient	-7512
▁intérim	-7513
MR	-7514
▁feuilles	-7515
▁américaine	-7516
▁formuler	-7517
▁pond	-7518
▁constitution	-7519
Eur	-7520
hypo	-7521
▁indiqués	-7522
▁fiduci	-7523
▁législative	-7524
liques	-7525
▁courantes	-7526
▁axées	-7527
▁saison	-7528
▁indiquée	-7529
▁obligatoires	-7530
▁mac	-7531
▁agences	-7532
▁chiffre	-7533
▁MAR	-7534
▁scolaires	-7535
Allemagne	-7536
territ	-7537
▁financé	-7538
allé	-7539
▁lait	-7540
▁seuls	-7541
▁Membres	-7542
▁FA	-7543
éde	-7544
avaient	-7545
▁Appro	-7546
▁axés	-7547
▁déployés	-7548
▁rÃ	-7549
▁vraiment	-7550
▁iden	-7551
▁corpore	-7552
▁saumon	-7553
▁MDN	-7554
▁Nor	-7555
▁spectre	-7556
ancien	-7557
ampleur	-7558
▁réflex	-7559
▁ministérielle	-7560
atoire	-7561
ault	-7562
▁concr	-7563
▁situés	-7564
▁salle	-7565
▁viabilité	-7566
ticides	-7567
dia	-7568
own	-7569
can	-7570
europ	-7571
▁voix	-7572
▁fibres	-7573
▁constante	-7574
aéro	-7575
▁biom	-7576
▁Note	-7577
▁annonc	-7578
▁vendeur	-7579
Bas	-7580
▁promoteur	-7581
▁étroitement	-7582
avancement	-7583
▁conçus	-7584
▁félic	-7585
ws	-7586
adopter	-7587
mployeur	-7588
augmenter	-7589
▁Sciences	-7590
▁sén	-7591
▁blan	-7592
EE	-7593
rédit	-7594
ECTION	-7595
▁bandes	-7596
▁chances	-7597
▁Amendement	-7598
▁occasion	-7599
▁invité	-7600
▁habitants	-7601
▁biod	-7602
▁échange	-7603
▁remis	-7604
▁colonne	-7605
▁Relations	-7606
▁portu	-7607
▁comptables	-7608
▁kil	-7609
▁Bay	-7610
quemment	-7611
tissement	-7612
▁ryth	-7613
▁Ro	-7614
cons	-7615
▁Devis	-7616
▁Sm	-7617
▁Stu	-7618
▁chercher	-7619
▁influence	-7620
▁mm	-7621
▁Tel	-7622
▁transmis	-7623
▁dégag	-7624
êmement	-7625
▁privées	-7626
▁favorise	-7627
▁moindre	-7628
▁due	-7629
avance	-7630
▁subséquente	-7631
▁informatique	-7632
▁CS	-7633
▁navire	-7634
▁équilibre	-7635
▁donnant	-7636
▁Objectifs	-7637
▁attribuables	-7638
▁litige	-7639
▁débats	-7640
ONS	-7641
▁normales	-7642
ciale	-7643
▁employeur	-7644
▁déduire	-7645
▁épidémi	-7646
▁ingrédients	-7647
▁SERVIC	-7648
urants	-7649
WA	-7650
▁Gre	-7651
▁Dou	-7652
ouest	-7653
hr	-7654
▁Slo	-7655
▁exclusivement	-7656
▁vérificateur	-7657
étail	-7658
▁trimest	-7659
▁régulière	-7660
▁uniforme	-7661
aquaculture	-7662
▁irré	-7663
▁recyc	-7664
▁dates	-7665
fil	-7666
▁jeunesse	-7667
▁McG	-7668
gov	-7669
▁empêcher	-7670
▁pp	-7671
▁disposer	-7672
▁Év	-7673
▁bassin	-7674
administra	-7675
▁Syste	-7676
▁réputé	-7677
▁lutter	-7678
ÉD	-7679
pect	-7680
▁APP	-7681
▁Réf	-7682
▁Aperçu	-7683
▁collègues	-7684
▁francophone	-7685
▁ajouter	-7686
▁ol	-7687
ogènes	-7688
▁arm	-7689
▁spécialement	-7690
▁Disc	-7691
graphe	-7692
▁évolution	-7693
onnés	-7694
▁maisons	-7695
cule	-7696
▁décel	-7697
▁mentionnés	-7698
▁courante	-7699
▁jouent	-7700
▁compren	-7701
ressé	-7702
▁travaillé	-7703
bis	-7704
▁durables	-7705
comm	-7706
▁accus	-7707
nées	-7708
poque	-7709
umes	-7710
angers	-7711
toria	-7712
▁combler	-7713
▁option	-7714
▁recueillies	-7715
▁entrepreneurs	-7716
▁quelcon	-7717
▁vitesse	-7718
orial	-7719
ÉRI	-7720
èges	-7721
▁Allemagne	-7722
▁âge	-7723
intend	-7724
▁Faire	-7725
▁quantita	-7726
▁confidentialité	-7727
▁case	-7728
▁domin	-7729
▁susceptible	-7730
PIC	-7731
ING	-7732
▁ONG	-7733
▁retenue	-7734
▁commence	-7735
▁Quand	-7736
▁scène	-7737
▁varie	-7738
▁formats	-7739
▁Lang	-7740
▁autom	-7741
▁vêtements	-7742
▁den	-7743
ECH	-7744
ruption	-7745
▁complex	-7746
▁DR	-7747
▁affectation	-7748
."	-7749
▁assurés	-7750
▁préserver	-7751
▁importés	-7752
FS	-7753
▁And	-7754
▁précision	-7755
importantes	-7756
▁stockage	-7757
appar	-7758
▁obligation	-7759
▁produisent	-7760
▁propriétés	-7761
▁Amer	-7762
▁ordonnance	-7763
▁rats	-7764
▁rétablissement	-7765
▁FR	-7766
▁interpré	-7767
▁Sco	-7768
▁gre	-7769
iveau	-7770
▁folklore	-7771
▁extrêmement	-7772
instrument	-7773
▁fili	-7774
▁Détermin	-7775
▁récip	-7776
lages	-7777
▁communique	-7778
▁film	-7779
▁distinction	-7780
▁exiger	-7781
emballage	-7782
ouvrir	-7783
▁appliquées	-7784
▁Force	-7785
▁effectivement	-7786
▁Sing	-7787
iii	-7788
image	-7789
▁remarquer	-7790
▁éventuels	-7791
dumping	-7792
▁majeure	-7793
▁antim	-7794
▁décrire	-7795
▁efficacité	-7796
endroit	-7797
éronefs	-7798
▁diplôm	-7799
accroissement	-7800
▁Outre	-7801
▁réputée	-7802
▁CI	-7803
▁TV	-7804
▁access	-7805
▁traitées	-7806
▁Camp	-7807
▁Environment	-7808
▁interdit	-7809
née	-7810
▁reporter	-7811
▁penser	-7812
▁versements	-7813
PD	-7814
▁champs	-7815
▁notion	-7816
▁Conn	-7817
▁détaillées	-7818
▁Ber	-7819
ombées	-7820
▁Rou	-7821
▁Provin	-7822
▁publiées	-7823
▁touchent	-7824
tuels	-7825
adapter	-7826
▁minéra	-7827
▁restru	-7828
▁cohér	-7829
▁excell	-7830
▁énoncé	-7831
évent	-7832
▁appuyé	-7833
incer	-7834
▁expliquer	-7835
▁entité	-7836
▁pauvres	-7837
vité	-7838
▁angla	-7839
▁montré	-7840
▁mondiaux	-7841
jac	-7842
importateur	-7843
Pro	-7844
AIRES	-7845
▁sil	-7846
▁dimension	-7847
▁dotation	-7848
▁RH	-7849
arge	-7850
loph	-7851
Employeur	-7852
euses	-7853
groupe	-7854
▁coopératives	-7855
▁Initiative	-7856
▁Suède	-7857
▁inqui	-7858
▁octro	-7859
▁Chef	-7860
▁rythme	-7861
▁Michael	-7862
▁engagées	-7863
influenza	-7864
▁évalué	-7865
▁joindre	-7866
▁films	-7867
▁entrée	-7868
▁devenu	-7869
▁concernent	-7870
▁Por	-7871
aucune	-7872
▁puissance	-7873
atrice	-7874
▁pleine	-7875
▁accepter	-7876
▁sexuelle	-7877
▁officiels	-7878
▁signes	-7879
▁journaux	-7880
▁inclut	-7881
istait	-7882
▁procès	-7883
▁dangere	-7884
▁éliminer	-7885
▁pilotes	-7886
▁KGM	-7887
▁sols	-7888
▁existent	-7889
▁confirmé	-7890
▁déposer	-7891
▁impôt	-7892
▁examinés	-7893
▁conte	-7894
itables	-7895
▁allou	-7896
ovis	-7897
▁correspondent	-7898
cad	-7899
agrément	-7900
▁appliqué	-7901
▁Labora	-7902
▁douani	-7903
TH	-7904
▁réelle	-7905
▁exercices	-7906
▁orientation	-7907
Inde	-7908
▁égale	-7909
▁opérationnelle	-7910
▁trouvé	-7911
▁Explo	-7912
▁quelconque	-7913
OS	-7914
▁Emp	-7915
▁opinions	-7916
ulturalisme	-7917
bit	-7918
tifier	-7919
impression	-7920
là	-7921
ANCE	-7922
▁(->	-7923
▁variations	-7924
alit	-7925
▁aliment	-7926
essais	-7927
lèvement	-7928
▁raisonnables	-7929
▁remplacé	-7930
▁he	-7931
riture	-7932
▁variété	-7933
▁Sans	-7934
▁Paiements	-7935
▁remettre	-7936
▁communiqués	-7937
▁RPC	-7938
oxyde	-7939
▁sensibiliser	-7940
▁fondés	-7941
▁Can	-7942
▁destinée	-7943
▁précédentes	-7944
OI	-7945
▁tarifs	-7946
▁actionn	-7947
lège	-7948
▁libéral	-7949
▁tirées	-7950
tish	-7951
ULT	-7952
rient	-7953
▁optim	-7954
agerie	-7955
▁effectifs	-7956
Ex	-7957
extra	-7958
ACIA	-7959
▁courants	-7960
tième	-7961
bol	-7962
▁fixer	-7963
ébergement	-7964
▁billets	-7965
▁atelier	-7966
▁assujettis	-7967
▁volets	-7968
▁Communication	-7969
sec	-7970
▁insuffisant	-7971
outils	-7972
▁Surveillance	-7973
da	-7974
▁Society	-7975
▁importateurs	-7976
itte	-7977
ITS	-7978
▁TÉU	-7979
▁dessin	-7980
dif	-7981
▁ratio	-7982
▁fondamentales	-7983
▁trafic	-7984
▁prévoient	-7985
▁joué	-7986
arth	-7987
▁Li	-7988
▁sait	-7989
employés	-7990
▁Notes	-7991
rc	-7992
▁web	-7993
▁future	-7994
▁poser	-7995
▁Statistiques	-7996
▁CP	-7997
▁Fre	-7998
▁formé	-7999
▁procure	-8000
oulement	-8001
ound	-8002
ham	-8003
▁aérienne	-8004
▁−	-8005
▁Vi	-8006
▁dénom	-8007
▁cardia	-8008
▁matériels	-8009
hors	-8010
▁Suisse	-8011
▁réfugiés	-8012
▁examinées	-8013
▁répondant	-8014
▁GES	-8015
▁numériques	-8016
▁Qui	-8017
▁maîtrise	-8018
▁amor	-8019
▁antimicro	-8020
inten	-8021
▁limitées	-8022
▁Inscrivez	-8023
▁réductions	-8024
END	-8025
lets	-8026
▁diminuer	-8027
▁avoc	-8028
▁démocratique	-8029
identifier	-8030
▁subi	-8031
▁systématique	-8032
omique	-8033
▁express	-8034
▁célé	-8035
▁paie	-8036
quées	-8037
rières	-8038
▁occident	-8039
tocoles	-8040
inclusion	-8041
▁RES	-8042
▁lou	-8043
.).	-8044
▁considérables	-8045
TK	-8046
▁écarts	-8047
▁estiment	-8048
▁constater	-8049
▁gain	-8050
▁Quelles	-8051
▁pratiqu	-8052
▁broch	-8053
plus	-8054
▁trouverez	-8055
▁commissions	-8056
▁fro	-8057
▁caractères	-8058
▁plate	-8059
▁suffisante	-8060
▁déterminés	-8061
▁possession	-8062
▁contribuables	-8063
▁publiée	-8064
▁jugement	-8065
▁détaillés	-8066
▁détaillants	-8067
anctions	-8068
▁Propriété	-8069
▁météor	-8070
▁minoritaire	-8071
▁vendus	-8072
▁Sommet	-8073
▁reflète	-8074
▁garanties	-8075
▁recensement	-8076
▁incap	-8077
idu	-8078
▁épr	-8079
ha	-8080
▁SU	-8081
▁indication	-8082
vu	-8083
éléments	-8084
▁débit	-8085
▁TPMD	-8086
▁précisé	-8087
SB	-8088
▁infrastructure	-8089
▁auparavant	-8090
▁télécopieur	-8091
tabilité	-8092
▁suggéré	-8093
▁préoccupation	-8094
▁modifiant	-8095
ésité	-8096
▁détente	-8097
▁pert	-8098
ford	-8099
▁conventions	-8100
mil	-8101
▁bref	-8102
▁populaire	-8103
entreposage	-8104
▁récepteur	-8105
▁proviennent	-8106
utilisateur	-8107
comme	-8108
tons	-8109
▁filles	-8110
édemment	-8111
▁différente	-8112
cin	-8113
▁tuberc	-8114
tination	-8115
▁critiques	-8116
▁Trait	-8117
rante	-8118
▁aquatiques	-8119
▁rouge	-8120
▁définies	-8121
▁Asie	-8122
▁garder	-8123
acceptation	-8124
▁reliés	-8125
èse	-8126
▁boissons	-8127
médiaires	-8128
▁confirmer	-8129
▁anglaise	-8130
▁approfondie	-8131
▁certifi	-8132
INS	-8133
ïs	-8134
▁ouverte	-8135
▁contamination	-8136
▁concevoir	-8137
▁mentionnées	-8138
▁précédemment	-8139
tastroph	-8140
▁diplômés	-8141
▁signaler	-8142
▁illé	-8143
▁aspect	-8144
omobil	-8145
▁bâtiments	-8146
▁prioritaire	-8147
▁nuit	-8148
xx	-8149
▁communiqué	-8150
▁intra	-8151
??	-8152
▁peau	-8153
▁désignée	-8154
ool	-8155
orb	-8156
▁confront	-8157
atténu	-8158
▁Associ	-8159
▁flux	-8160
▁existant	-8161
▁visibles	-8162
▁acteurs	-8163
▁quotidien	-8164
▁formulation	-8165
▁soutient	-8166
▁disposent	-8167
****	-8168
▁renvoi	-8169
▁substanti	-8170
▁Trava	-8171
cides	-8172
▁cerner	-8173
▁stations	-8174
bs	-8175
icy	-8176
▁mandataire	-8177
▁consécu	-8178
▁historiques	-8179
▁Gazette	-8180
▁variable	-8181
▁demeurer	-8182
▁difficiles	-8183
▁Jusqu	-8184
▁Projets	-8185
▁perturb	-8186
▁catastroph	-8187
ga	-8188
▁Réunion	-8189
▁Utilisation	-8190
▁jugé	-8191
iction	-8192
▁Enquête	-8193
▁négli	-8194
▁édition	-8195
ilib	-8196
▁Malad	-8197
▁courte	-8198
▁envisager	-8199
fre	-8200
att	-8201
▁scolarité	-8202
ACC	-8203
▁entour	-8204
orisation	-8205
▁iii	-8206
rateurs	-8207
▁survie	-8208
▁fonctionnaire	-8209
omen	-8210
▁Gro	-8211
▁forêts	-8212
▁pul	-8213
▁allégations	-8214
▁antidumping	-8215
ka	-8216
giène	-8217
▁océans	-8218
ks	-8219
ÉES	-8220
mber	-8221
initiatives	-8222
▁détenus	-8223
assemb	-8224
▁objets	-8225
▁adéquate	-8226
▁minimale	-8227
oise	-8228
▁accueil	-8229
▁Ke	-8230
▁stagi	-8231
▁Produc	-8232
.),	-8233
▁Exig	-8234
grammes	-8235
▁décrits	-8236
yage	-8237
▁erreur	-8238
▁probabilité	-8239
▁concernées	-8240
▁gl	-8241
étiquette	-8242
▁construc	-8243
liance	-8244
▁représenter	-8245
▁PARTI	-8246
▁disciplines	-8247
▁Catégor	-8248
▁continué	-8249
riez	-8250
aucun	-8251
▁souplesse	-8252
tur	-8253
▁révisée	-8254
▁manufact	-8255
▁travaillant	-8256
nie	-8257
uer	-8258
▁Water	-8259
ECI	-8260
ologues	-8261
▁angloph	-8262
▁escomp	-8263
ylène	-8264
▁accomplis	-8265
ispens	-8266
onneur	-8267
▁affaire	-8268
lexi	-8269
influence	-8270
▁fondamentale	-8271
▁retombées	-8272
économiques	-8273
onald	-8274
▁organiques	-8275
PSN	-8276
tile	-8277
▁Victoria	-8278
cil	-8279
hiver	-8280
▁fréquences	-8281
▁Ceci	-8282
cop	-8283
▁positions	-8284
▁grandement	-8285
iner	-8286
▁SG	-8287
▁infraction	-8288
▁lev	-8289
▁placements	-8290
▁sollic	-8291
EB	-8292
tics	-8293
ologation	-8294
▁dangers	-8295
▁réels	-8296
▁établissant	-8297
▁AUX	-8298
▁Droits	-8299
▁approuvée	-8300
▁enregistrement	-8301
▁contenus	-8302
▁informé	-8303
▁apportés	-8304
aller	-8305
rol	-8306
économique	-8307
▁souhaitent	-8308
▁rivière	-8309
▁profession	-8310
PL	-8311
▁acte	-8312
▁sanctions	-8313
▁véritable	-8314
▁terrorisme	-8315
▁conviennent	-8316
isemb	-8317
▁oiseaux	-8318
▁similaire	-8319
▁moderne	-8320
▁constatations	-8321
▁LC	-8322
▁constate	-8323
verse	-8324
Annexe	-8325
▁porta	-8326
ultan	-8327
▁Bre	-8328
GL	-8329
▁attribué	-8330
▁TRA	-8331
événement	-8332
▁éditeurs	-8333
▁indispens	-8334
▁polluants	-8335
arriv	-8336
▁ence	-8337
▁offertes	-8338
▁couvrir	-8339
▁délibérations	-8340
▁praticiens	-8341
▁exigent	-8342
▁témoins	-8343
▁ressort	-8344
up	-8345
http	-8346
▁préjud	-8347
endice	-8348
▁Peter	-8349
▁signe	-8350
▁complexité	-8351
▁contraintes	-8352
tar	-8353
▁sangu	-8354
▁Médicaments	-8355
validité	-8356
estimation	-8357
▁satellite	-8358
éli	-8359
espèce	-8360
▁cultiv	-8361
▁souris	-8362
ONN	-8363
▁tes	-8364
nex	-8365
▁lire	-8366
▁AM	-8367
bal	-8368
icide	-8369
▁essai	-8370
▁standard	-8371
▁sem	-8372
▁réflexion	-8373
▁procu	-8374
autonomie	-8375
▁Objectif	-8376
▁soutenu	-8377
iez	-8378
▁Coût	-8379
▁AB	-8380
▁occasionn	-8381
▁images	-8382
▁croissante	-8383
erci	-8384
▁indépendante	-8385
▁Chang	-8386
▁viande	-8387
omobiles	-8388
▁protégés	-8389
▁aidera	-8390
▁TH	-8391
▁Tarif	-8392
▁Edmonton	-8393
▁major	-8394
▁habil	-8395
▁Mondi	-8396
▁néanmoins	-8397
▁adh	-8398
▁additionnels	-8399
ashington	-8400
▁fusion	-8401
▁délégués	-8402
▁Glossaire	-8403
▁supervision	-8404
▁côte	-8405
▁chronique	-8406
▁rempli	-8407
importants	-8408
ordonnance	-8409
▁plén	-8410
▁récents	-8411
▁décenn	-8412
▁Néanmoins	-8413
▁US	-8414
iversaire	-8415
▁protocoles	-8416
▁AT	-8417
▁effectue	-8418
▁hautement	-8419
URS	-8420
▁Cer	-8421
▁photograph	-8422
▁amélioré	-8423
▁détenteurs	-8424
inscrit	-8425
▁restruct	-8426
ovas	-8427
▁Formation	-8428
usines	-8429
▁plais	-8430
▁effectif	-8431
▁DANS	-8432
▁dégra	-8433
▁progresser	-8434
▁environnemental	-8435
▁pense	-8436
▁leçons	-8437
▁tenues	-8438
▁déposées	-8439
▁compléter	-8440
▁favorisant	-8441
intégrer	-8442
▁OB	-8443
▁bibliothèques	-8444
▁ordinateur	-8445
audi	-8446
obs	-8447
CL	-8448
euro	-8449
sses	-8450
ax	-8451
▁éducation	-8452
▁reliées	-8453
▁expressément	-8454
orld	-8455
▁vraisemb	-8456
▁récla	-8457
▁décisionnel	-8458
▁étage	-8459
rou	-8460
▁retrouve	-8461
osent	-8462
▁réper	-8463
▁collabor	-8464
incertitude	-8465
▁foi	-8466
ENA	-8467
▁opérationnelles	-8468
▁CT	-8469
▁dÃ	-8470
▁vingt	-8471
▁considérations	-8472
▁British	-8473
▁privilégi	-8474
▁synthèse	-8475
▁sav	-8476
▁Food	-8477
▁métabol	-8478
▁câ	-8479
▁sanitaires	-8480
▁somm	-8481
omes	-8482
▁bancaires	-8483
▁Vis	-8484
▁validation	-8485
▁sort	-8486
▁Labrador	-8487
▁Accès	-8488
▁pan	-8489
▁mondialisation	-8490
ory	-8491
▁définitive	-8492
▁Commissaire	-8493
érité	-8494
▁pharmaci	-8495
apporter	-8496
▁maximal	-8497
▁civils	-8498
af	-8499
▁posséd	-8500
PH	-8501
timis	-8502
▁dehors	-8503
▁couvre	-8504
aisons	-8505
▁possèdent	-8506
exac	-8507
▁Fich	-8508
▁formulées	-8509
▁mouvements	-8510
▁fils	-8511
estival	-8512
▁Matériel	-8513
▁périodiques	-8514
acier	-8515
▁carburant	-8516
sieur	-8517
testation	-8518
▁impacts	-8519
▁acceptables	-8520
▁entraîné	-8521
CHE	-8522
alisées	-8523
▁suffisant	-8524
▁sin	-8525
▁Econom	-8526
Col	-8527
accessibilité	-8528
▁stu	-8529
êtres	-8530
▁progression	-8531
acide	-8532
▁ferro	-8533
▁menaces	-8534
▁terminant	-8535
ASS	-8536
TML	-8537
▁solid	-8538
▁ronde	-8539
▁détermine	-8540
ayant	-8541
▁grippe	-8542
und	-8543
▁stimuler	-8544
entrepreneur	-8545
▁transaction	-8546
phab	-8547
▁aim	-8548
PB	-8549
formité	-8550
utilité	-8551
▁nucléaire	-8552
▁Ken	-8553
▁péril	-8554
▁envoyer	-8555
▁gouverneur	-8556
ades	-8557
▁Lis	-8558
▁député	-8559
▁mém	-8560
olumb	-8561
FR	-8562
▁intermédiaires	-8563
▁Peu	-8564
▁vétérinaires	-8565
▁industrielles	-8566
▁varient	-8567
▁fréquent	-8568
___	-8569
œur	-8570
▁AS	-8571
▁fémin	-8572
▁mauvais	-8573
▁dûment	-8574
DR	-8575
▁vin	-8576
▁combustible	-8577
▁intérieure	-8578
▁fact	-8579
emplacement	-8580
▁Ali	-8581
▁sanction	-8582
▁individuelles	-8583
▁Bon	-8584
▁Limited	-8585
▁imposables	-8586
▁EURO	-8587
▁déclarés	-8588
EST	-8589
▁directions	-8590
▁spécialisées	-8591
université	-8592
▁modifiés	-8593
▁compteurs	-8594
▁autorisées	-8595
DG	-8596
ALES	-8597
▁contenir	-8598
ACDI	-8599
▁usines	-8600
▁électeurs	-8601
▁■	-8602
gel	-8603
▁flexi	-8604
▁changé	-8605
▁frau	-8606
▁préférence	-8607
tein	-8608
yle	-8609
cédant	-8610
▁approuvées	-8611
▁Pi	-8612
▁Remar	-8613
▁mobilité	-8614
méd	-8615
▁permanents	-8616
▁fournissant	-8617
▁renferme	-8618
▁sentiment	-8619
▁Formulaire	-8620
▁procurer	-8621
encourager	-8622
hôpital	-8623
▁simples	-8624
▁inscrire	-8625
▁Hay	-8626
▁discours	-8627
▁certificats	-8628
▁sédi	-8629
érable	-8630
▁normal	-8631
Administration	-8632
▁territoriales	-8633
itres	-8634
Arrangement	-8635
alistes	-8636
▁atténu	-8637
▁adaptés	-8638
▁agir	-8639
▁ration	-8640
▁CA	-8641
▁**	-8642
ANG	-8643
▁pesticides	-8644
▁incl	-8645
▁concepts	-8646
▁opération	-8647
▁présentement	-8648
▁étal	-8649
▁phénomène	-8650
▁dispar	-8651
▁tuberculose	-8652
▁réexamen	-8653
hol	-8654
isson	-8655
▁envoyé	-8656
dans	-8657
▁fraction	-8658
▁).	-8659
▁intégrante	-8660
ONT	-8661
▁Arts	-8662
réditation	-8663
▁régie	-8664
▁DOC	-8665
▁domes	-8666
▁protéines	-8667
any	-8668
▁rendue	-8669
▁réparation	-8670
OUV	-8671
▁sac	-8672
▁visitez	-8673
LIC	-8674
rob	-8675
▁accidents	-8676
▁mâ	-8677
▁envisage	-8678
▁proposer	-8679
▁télésanté	-8680
▁précisions	-8681
▁argu	-8682
▁atlantique	-8683
▁arch	-8684
TKF	-8685
▁séjour	-8686
nel	-8687
rug	-8688
FA	-8689
ram	-8690
omé	-8691
▁pharmaceutique	-8692
▁tre	-8693
▁reprise	-8694
▁obtenues	-8695
GRTKF	-8696
▁Columb	-8697
▁importées	-8698
▁contractantes	-8699
associ	-8700
▁expliqué	-8701
▁rentabilité	-8702
▁spécifications	-8703
▁mas	-8704
▁analyser	-8705
▁recourir	-8706
COM	-8707
▁crédi	-8708
▁préco	-8709
avantages	-8710
▁qualifiés	-8711
▁trés	-8712
▁Australie	-8713
▁causer	-8714
ORD	-8715
▁rubrique	-8716
▁Hy	-8717
iritu	-8718
▁menac	-8719
habitation	-8720
▁rigoure	-8721
ury	-8722
▁baiss	-8723
▁Documents	-8724
▁aériens	-8725
neu	-8726
agnes	-8727
▁latine	-8728
▁entendre	-8729
▁inu	-8730
▁quotidienne	-8731
▁Trois	-8732
▁couleur	-8733
if	-8734
▁coun	-8735
▁soin	-8736
▁Question	-8737
organisations	-8738
▁produites	-8739
▁événement	-8740
▁administré	-8741
rlande	-8742
▁Crédit	-8743
▁rassemb	-8744
▁Secrétaire	-8745
▁Washington	-8746
▁Public	-8747
▁feuillet	-8748
▁Sus	-8749
▁déroul	-8750
tonie	-8751
▁sensibles	-8752
▁lancer	-8753
▁ordinaire	-8754
▁suspension	-8755
▁professeur	-8756
▁avenir	-8757
▁mou	-8758
▁cre	-8759
▁choisis	-8760
▁cm	-8761
olue	-8762
▁allem	-8763
▁dérivés	-8764
▁apporté	-8765
▁proxim	-8766
▁faisait	-8767
▁faillite	-8768
by	-8769
▁TI	-8770
▁jurid	-8771
opro	-8772
▁lés	-8773
▁extérieures	-8774
▁exigence	-8775
▁intégrées	-8776
fgh	-8777
▁Martin	-8778
▁Transfert	-8779
ël	-8780
▁amen	-8781
▁INT	-8782
exercer	-8783
▁Industri	-8784
▁kg	-8785
▁impré	-8786
▁basée	-8787
▁mémoire	-8788
rangements	-8789
▁qualit	-8790
▁médicin	-8791
▁affectés	-8792
ACT	-8793
▁PI	-8794
ular	-8795
▁Pet	-8796
▁vivre	-8797
années	-8798
▁Niveau	-8799
▁incombe	-8800
affich	-8801
▁incorpor	-8802
▁candidature	-8803
▁Recommandations	-8804
sur	-8805
▁immobiliers	-8806
érents	-8807
▁défav	-8808
▁stric	-8809
▁Sport	-8810
émissions	-8811
oon	-8812
▁fréquemment	-8813
▁Pas	-8814
ities	-8815
lica	-8816
▁doctorat	-8817
▁maïs	-8818
▁définie	-8819
mique	-8820
erve	-8821
▁boî	-8822
isons	-8823
▁cumula	-8824
▁bilan	-8825
▁Promo	-8826
mal	-8827
▁interactions	-8828
las	-8829
▁morale	-8830
▁légumes	-8831
▁NE	-8832
Nouv	-8833
▁cla	-8834
▁Personne	-8835
▁retirer	-8836
▁moteurs	-8837
▁SI	-8838
▁effort	-8839
▁CONS	-8840
JET	-8841
quant	-8842
▁navigation	-8843
ajus	-8844
léch	-8845
▁redevances	-8846
▁fondement	-8847
ADN	-8848
▁OR	-8849
▁Fed	-8850
articles	-8851
▁préliminaires	-8852
arrivée	-8853
étudier	-8854
▁ferrovi	-8855
agissant	-8856
çon	-8857
ressent	-8858
▁Exemple	-8859
ATE	-8860
▁offerte	-8861
▁dépasser	-8862
ajouter	-8863
▁connaissent	-8864
ographique	-8865
▁affirmé	-8866
indice	-8867
résidents	-8868
▁indiquées	-8869
▁ports	-8870
▁conjointe	-8871
▁autorité	-8872
▁simultan	-8873
laient	-8874
élevage	-8875
sta	-8876
▁LM	-8877
▁Initi	-8878
▁usées	-8879
▁projec	-8880
aurer	-8881
ix	-8882
partment	-8883
▁équilib	-8884
▁pont	-8885
obésité	-8886
▁électorales	-8887
▁abou	-8888
▁demi	-8889
low	-8890
▁litiges	-8891
▁élection	-8892
▁conversion	-8893
▁informatiques	-8894
engage	-8895
▁pand	-8896
FORM	-8897
ency	-8898
▁frontaliers	-8899
▁Quant	-8900
▁feuille	-8901
▁écosystèmes	-8902
ozone	-8903
illants	-8904
way	-8905
cieux	-8906
▁cardiovas	-8907
▁contaminants	-8908
▁bénéficient	-8909
audit	-8910
go	-8911
▁graphique	-8912
▁dimensions	-8913
▁favorables	-8914
▁manifestations	-8915
▁Management	-8916
arm	-8917
▁réduite	-8918
ébéc	-8919
TPS	-8920
incu	-8921
▁issus	-8922
▁produite	-8923
▁collection	-8924
▁sensiblement	-8925
▁démocratie	-8926
▁sév	-8927
▁mixte	-8928
▁Hos	-8929
▁transfront	-8930
▁bancaire	-8931
▁dangereuses	-8932
▁Lieu	-8933
▁révé	-8934
ek	-8935
▁arriver	-8936
efficience	-8937
▁diffuser	-8938
exc	-8939
hib	-8940
▁compétente	-8941
▁motif	-8942
avez	-8943
sser	-8944
▁TVH	-8945
▁mines	-8946
▁élabo	-8947
âtre	-8948
érapie	-8949
sité	-8950
▁crime	-8951
▁deviennent	-8952
▁assur	-8953
▁trousse	-8954
▁Formulaires	-8955
omal	-8956
pers	-8957
▁district	-8958
▁exerce	-8959
▁expositions	-8960
▁OT	-8961
▁supr	-8962
▁Council	-8963
▁relèvent	-8964
▁Columbia	-8965
▁REL	-8966
▁Alors	-8967
▁affiliée	-8968
▁sauve	-8969
▁Normes	-8970
▁But	-8971
▁Entrepr	-8972
ple	-8973
ISS	-8974
car	-8975
▁évident	-8976
▁Rep	-8977
▁margin	-8978
▁SERVICES	-8979
▁Grands	-8980
disciplinaire	-8981
▁installation	-8982
▁Renfor	-8983
▁Durant	-8984
▁fermet	-8985
offres	-8986
▁renseign	-8987
▁Communiqués	-8988
ince	-8989
▁négatifs	-8990
vé	-8991
▁méthodologie	-8992
ÈRE	-8993
CAN	-8994
▁dividendes	-8995
onné	-8996
ky	-8997
ivant	-8998
▁ÉT	-8999
pir	-9000
valle	-9001
▁remerci	-9002
▁éthique	-9003
▁fonctionne	-9004
▁gras	-9005
▁sommet	-9006
▁rencontres	-9007
ENCE	-9008
▁côtière	-9009
cf	-9010
▁Comb	-9011
▁détru	-9012
▁ara	-9013
▁électrique	-9014
▁originaires	-9015
▁sold	-9016
essence	-9017
▁références	-9018
▁Mettre	-9019
hygiène	-9020
▁QC	-9021
ABLE	-9022
anol	-9023
étis	-9024
ebdom	-9025
undi	-9026
▁antimicrobiens	-9027
▁urg	-9028
drome	-9029
encer	-9030
▁audiovis	-9031
▁aides	-9032
▁urbain	-9033
▁tal	-9034
ebdomad	-9035
▁traditionnelle	-9036
▁sain	-9037
▁séminaires	-9038
▁individuelle	-9039
▁Point	-9040
ativité	-9041
Enquête	-9042
▁Production	-9043
▁comportent	-9044
▁compensation	-9045
itera	-9046
▁Fabrication	-9047
▁corriger	-9048
▁Maladies	-9049
▁francs	-9050
▁incluent	-9051
doc	-9052
▁Mondiale	-9053
administrateur	-9054
▁fixés	-9055
▁proche	-9056
▁précon	-9057
ortissement	-9058
wn	-9059
▁durabilité	-9060
sauf	-9061
▁sty	-9062
▁composants	-9063
▁Vérification	-9064
ENTS	-9065
ficie	-9066
▁Phili	-9067
▁Ville	-9068
amine	-9069
opposition	-9070
▁infractions	-9071
▁requérant	-9072
ordinateurs	-9073
▁proximité	-9074
emark	-9075
▁Exigences	-9076
manie	-9077
ortir	-9078
▁campagnes	-9079
▁toxicomanie	-9080
locu	-9081
▁anniversaire	-9082
▁meu	-9083
alogues	-9084
▁SM	-9085
▁assistance	-9086
▁laisser	-9087
▁seules	-9088
▁protégées	-9089
▁futur	-9090
▁officiellement	-9091
nal	-9092
pati	-9093
cal	-9094
▁Proposition	-9095
▁appuient	-9096
▁éventuellement	-9097
duites	-9098
anciers	-9099
▁ordres	-9100
ATS	-9101
ION	-9102
▁Courrier	-9103
▁justifica	-9104
▁variation	-9105
▁résidus	-9106
▁feront	-9107
épendance	-9108
▁TACI	-9109
▁arrive	-9110
▁Ess	-9111
empê	-9112
▁km	-9113
▁corré	-9114
opies	-9115
▁fur	-9116
▁tirés	-9117
Les	-9118
▁lot	-9119
▁classi	-9120
garde	-9121
▁Maj	-9122
▁Info	-9123
FF	-9124
▁devenue	-9125
▁séparément	-9126
VI	-9127
▁crée	-9128
▁Inform	-9129
▁justifier	-9130
▁Phase	-9131
▁chap	-9132
élande	-9133
▁cesse	-9134
opéra	-9135
▁versée	-9136
▁tomb	-9137
▁primes	-9138
▁PRÉ	-9139
▁aident	-9140
immunisation	-9141
▁gouverneurs	-9142
cole	-9143
▁IMP	-9144
▁Engag	-9145
▁interminis	-9146
▁exception	-9147
▁vac	-9148
joint	-9149
▁comporter	-9150
▁libération	-9151
▁diplôme	-9152
▁nettement	-9153
▁Bu	-9154
▁reflètent	-9155
▁spiritu	-9156
▁accident	-9157
▁Commande	-9158
▁additionnelles	-9159
iert	-9160
▁comparer	-9161
▁Politiques	-9162
enez	-9163
trans	-9164
radi	-9165
carb	-9166
avi	-9167
▁accro	-9168
▁signée	-9169
▁longueur	-9170
▁Quelle	-9171
▁volontaires	-9172
▁viennent	-9173
AIL	-9174
▁liquide	-9175
homologation	-9176
arbit	-9177
▁Participation	-9178
▁Instru	-9179
▁intéressant	-9180
▁Mor	-9181
▁destruction	-9182
▁Network	-9183
apour	-9184
▁garan	-9185
opérations	-9186
LA	-9187
étendue	-9188
▁démons	-9189
▁musées	-9190
direc	-9191
▁laisse	-9192
Eurosystème	-9193
▁déclare	-9194
▁rapporte	-9195
engager	-9196
▁Glob	-9197
▁enfin	-9198
▁mélange	-9199
▁Oc	-9200
ressource	-9201
▁faune	-9202
▁manip	-9203
▁logements	-9204
umés	-9205
value	-9206
éti	-9207
▁entrer	-9208
▁rester	-9209
▁voulu	-9210
▁accessoires	-9211
lections	-9212
▁exposées	-9213
▁croissant	-9214
▁Law	-9215
▁Ses	-9216
▁annexes	-9217
▁devises	-9218
mbres	-9219
chée	-9220
▁précau	-9221
attendre	-9222
accum	-9223
▁signalés	-9224
▁apprendre	-9225
▁»)	-9226
ctu	-9227
illiam	-9228
inv	-9229
▁intervenir	-9230
▁XX	-9231
uxelles	-9232
▁préjudice	-9233
▁complets	-9234
▁Présentation	-9235
▁Prairies	-9236
quê	-9237
▁devoir	-9238
déc	-9239
▁Union	-9240
▁soumise	-9241
▁restent	-9242
▁profondeur	-9243
▁approbation	-9244
excédent	-9245
▁Application	-9246
▁Sol	-9247
▁PNUD	-9248
▁McGill	-9249
▁euros	-9250
▁financées	-9251
Re	-9252
▁automatiquement	-9253
TAWA	-9254
▁invite	-9255
inscrire	-9256
▁correspondance	-9257
▁obstacle	-9258
▁distributeurs	-9259
octobre	-9260
▁témoin	-9261
==	-9262
▁écologiques	-9263
▁cœur	-9264
▁distincts	-9265
▁Intellectuelle	-9266
olfe	-9267
▁située	-9268
quez	-9269
▁Musée	-9270
▁Bal	-9271
▁mérite	-9272
▁mauvaise	-9273
▁transporteurs	-9274
inclure	-9275
▁débouchés	-9276
▁enregistrements	-9277
▁bénévole	-9278
èlement	-9279
▁complètement	-9280
infec	-9281
▁PRODU	-9282
▁logique	-9283
▁immobilisations	-9284
▁émet	-9285
adie	-9286
▁idée	-9287
▁entra	-9288
▁publier	-9289
▁concentrer	-9290
ûts	-9291
iendra	-9292
▁intrants	-9293
▁organisée	-9294
istra	-9295
OPIC	-9296
▁Coordonn	-9297
▁convainc	-9298
▁pertinent	-9299
▁da	-9300
▁validité	-9301
érie	-9302
▁bri	-9303
▁liquides	-9304
▁MHz	-9305
anda	-9306
▁artistiques	-9307
▁Étude	-9308
ISE	-9309
effets	-9310
ellé	-9311
▁concurrentiel	-9312
▁étudié	-9313
▁émerg	-9314
▁noci	-9315
▁Science	-9316
▁séro	-9317
▁Danemark	-9318
▁électriques	-9319
▁Demandes	-9320
▁compétentes	-9321
▁Études	-9322
résident	-9323
▁intermédiaire	-9324
▁connaît	-9325
▁montrer	-9326
▁consultatifs	-9327
▁EC	-9328
▁rob	-9329
artier	-9330
▁supervise	-9331
ROU	-9332
ella	-9333
▁nécessite	-9334
▁Agent	-9335
▁annon	-9336
▁clause	-9337
▁chinois	-9338
▁Personnes	-9339
oins	-9340
▁négatif	-9341
▁hebdomad	-9342
▁reconnue	-9343
▁lâ	-9344
orteur	-9345
▁nommés	-9346
▁décennie	-9347
▁cote	-9348
▁ambi	-9349
▁Subventions	-9350
▁'	-9351
▁tiré	-9352
▁créés	-9353
▁planifier	-9354
inage	-9355
▁greff	-9356
pôt	-9357
▁favorisent	-9358
huile	-9359
ologne	-9360
▁TPAC	-9361
ho	-9362
▁touchés	-9363
▁Bibliothè	-9364
▁précédents	-9365
▁équipements	-9366
▁manuel	-9367
ACE	-9368
idémie	-9369
▁antécédents	-9370
échelon	-9371
▁Journée	-9372
rose	-9373
▁attirer	-9374
▁bactéries	-9375
outh	-9376
tox	-9377
avril	-9378
▁that	-9379
▁herb	-9380
▁Plani	-9381
▁assumer	-9382
ated	-9383
▁nourr	-9384
▁Department	-9385
▁Pourcentage	-9386
▁immeubles	-9387
▁américaines	-9388
élargissement	-9389
▁Bruxelles	-9390
vabilité	-9391
▁suprême	-9392
▁Lou	-9393
▁ét	-9394
▁TOT	-9395
▁ressortiss	-9396
itÃ	-9397
▁marins	-9398
interdiction	-9399
alumin	-9400
▁ADPIC	-9401
▁accompli	-9402
▁équipement	-9403
exactitude	-9404
hau	-9405
otos	-9406
andon	-9407
▁respiratoire	-9408
▁transporteur	-9409
▁Chris	-9410
▁affic	-9411
▁résidu	-9412
▁retenir	-9413
▁différent	-9414
▁WO	-9415
locations	-9416
▁cos	-9417
▁illég	-9418
▁bov	-9419
▁spécifi	-9420
▁DM	-9421
▁FMI	-9422
▁Communiqué	-9423
▁Press	-9424
▁grains	-9425
icale	-9426
▁générations	-9427
▁sécuritaire	-9428
genti	-9429
▁vaccination	-9430
ésie	-9431
usiness	-9432
▁enrich	-9433
▁marche	-9434
itecture	-9435
▁démographiques	-9436
▁vap	-9437
▁Crit	-9438
▁fo	-9439
PSA	-9440
▁macro	-9441
▁uniques	-9442
▁Port	-9443
▁Bank	-9444
SF	-9445
▁déro	-9446
▁innovations	-9447
▁rayonnement	-9448
TEN	-9449
▁Aus	-9450
▁prot	-9451
▁opposition	-9452
▁exploitants	-9453
▁espèce	-9454
▁animale	-9455
▁Traitement	-9456
▁profils	-9457
▁ur	-9458
parti	-9459
urier	-9460
▁amis	-9461
orption	-9462
▁rejets	-9463
▁coordonnateur	-9464
▁Do	-9465
▁causé	-9466
▁OTTAWA	-9467
▁automobile	-9468
▁marquée	-9469
▁revues	-9470
pare	-9471
chlor	-9472
ancier	-9473
▁comptent	-9474
▁Report	-9475
ker	-9476
▁sondages	-9477
▁polici	-9478
▁provisoires	-9479
▁ponc	-9480
▁suppose	-9481
▁poursuit	-9482
Zélande	-9483
▁discré	-9484
▁récent	-9485
apparition	-9486
▁mini	-9487
▁distincte	-9488
▁croit	-9489
▁injec	-9490
▁monétaires	-9491
▁révèle	-9492
▁condam	-9493
actu	-9494
SNA	-9495
arbitrage	-9496
▁Promotion	-9497
▁précédant	-9498
▁péd	-9499
▁laiti	-9500
▁prospérité	-9501
▁facture	-9502
▁mercure	-9503
GA	-9504
▁impu	-9505
geant	-9506
▁acides	-9507
▁heureux	-9508
▁Cre	-9509
▁confirm	-9510
▁Fait	-9511
▁souter	-9512
▁suivie	-9513
▁imposées	-9514
▁décéd	-9515
▁découlent	-9516
▁COMMUN	-9517
▁déclen	-9518
▁interd	-9519
MAN	-9520
▁cesser	-9521
▁racisme	-9522
▁refléter	-9523
▁habitudes	-9524
▁facilité	-9525
▁Lég	-9526
▁illustr	-9527
▁suisses	-9528
▁vues	-9529
▁moi	-9530
▁connus	-9531
ITÉS	-9532
▁Élaborer	-9533
▁Stre	-9534
▁Centres	-9535
▁visait	-9536
accorder	-9537
▁exploitation	-9538
▁yeux	-9539
▁reddition	-9540
ust	-9541
missibles	-9542
▁qualités	-9543
▁préservation	-9544
▁béb	-9545
Agriculture	-9546
▁fonctionner	-9547
▁distinctes	-9548
▁sensibilité	-9549
aliste	-9550
▁essay	-9551
▁incit	-9552
rec	-9553
▁distinct	-9554
▁We	-9555
vège	-9556
▁sains	-9557
▁veille	-9558
▁ajoute	-9559
▁Men	-9560
▁déploi	-9561
UEL	-9562
▁jeune	-9563
▁prenant	-9564
▁respiratoires	-9565
ano	-9566
VEN	-9567
▁Prépa	-9568
▁raff	-9569
▁auxili	-9570
▁rapportent	-9571
▁observés	-9572
▁restauration	-9573
▁acquérir	-9574
▁Améliorer	-9575
▁restructuration	-9576
▁Vol	-9577
▁capitale	-9578
VES	-9579
▁GR	-9580
▁James	-9581
▁désigner	-9582
▁eth	-9583
▁élu	-9584
ympiques	-9585
▁Belgique	-9586
▁cohérence	-9587
▁judiciaires	-9588
▁évalués	-9589
▁développés	-9590
▁Monsieur	-9591
▁rencontrer	-9592
ïbes	-9593
acquitter	-9594
exigence	-9595
berg	-9596
▁idé	-9597
fghan	-9598
États	-9599
▁fortes	-9600
▁mL	-9601
▁FIN	-9602
▁therm	-9603
▁Work	-9604
▁transférer	-9605
▁Sim	-9606
▁retenu	-9607
▁détient	-9608
TIN	-9609
▁ressortir	-9610
▁reconnaissent	-9611
▁cycles	-9612
▁exploiter	-9613
▁récré	-9614
▁décret	-9615
▁Singapour	-9616
▁tiendra	-9617
ae	-9618
▁Règles	-9619
▁demandent	-9620
▁posent	-9621
▁chirurg	-9622
▁Agroalimentaire	-9623
▁habitant	-9624
▁sédiments	-9625
ling	-9626
▁automobiles	-9627
PN	-9628
▁bloc	-9629
▁congés	-9630
ducteurs	-9631
▁William	-9632
▁japon	-9633
expédition	-9634
envoi	-9635
rains	-9636
▁soulevées	-9637
▁ladite	-9638
▁observée	-9639
▁intérimaire	-9640
▁bilingues	-9641
▁donateurs	-9642
▁stagiaires	-9643
▁créée	-9644
▁douze	-9645
▁maritimes	-9646
▁exemplaire	-9647
▁Export	-9648
▁Contra	-9649
▁prévision	-9650
▁tor	-9651
▁Mul	-9652
▁Medical	-9653
appareils	-9654
▁éman	-9655
▁poursuites	-9656
▁englobe	-9657
effectif	-9658
▁concerné	-9659
▁fixation	-9660
▁confirmation	-9661
atmosph	-9662
▁collèges	-9663
ALENA	-9664
▁informés	-9665
▁revendication	-9666
▁accordés	-9667
Acte	-9668
▁EUROPA	-9669
▁visiter	-9670
▁Steph	-9671
ommunication	-9672
▁interprètes	-9673
▁gard	-9674
▁respecte	-9675
▁efficient	-9676
▁hauts	-9677
▁contaminés	-9678
▁écologique	-9679
▁remarqu	-9680
▁Télécopies	-9681
br	-9682
▁REN	-9683
▁Smith	-9684
▁Constitution	-9685
▁promoteurs	-9686
king	-9687
▁figurer	-9688
▁postsecondaire	-9689
ographiques	-9690
▁bis	-9691
▁naturelle	-9692
▁travailleur	-9693
▁traduit	-9694
▁Préc	-9695
▁rendent	-9696
esses	-9697
▁Chili	-9698
▁assuré	-9699
▁attitudes	-9700
▁Établissement	-9701
▁tarifaires	-9702
▁recommander	-9703
▁mobiles	-9704
▁Définition	-9705
invalidité	-9706
▁déficience	-9707
▁Del	-9708
▁assujetties	-9709
ECT	-9710
▁accepte	-9711
hu	-9712
▁amend	-9713
▁précisés	-9714
informatique	-9715
non	-9716
isible	-9717
▁classes	-9718
▁fiables	-9719
ung	-9720
PDF	-9721
habitu	-9722
▁River	-9723
erais	-9724
▁desserv	-9725
▁Finlande	-9726
____________	-9727
▁sessions	-9728
▁atten	-9729
▁comparables	-9730
▁dos	-9731
▁médiation	-9732
noncé	-9733
▁saisir	-9734
▁déposants	-9735
▁présidente	-9736
inventaire	-9737
▁Indiens	-9738
▁CIC	-9739
▁télécharg	-9740
ja	-9741
▁Droit	-9742
▁rares	-9743
▁Passer	-9744
▁restreint	-9745
aster	-9746
▁ministérielles	-9747
▁Rég	-9748
▁sortie	-9749
▁Aujourd	-9750
▁congrès	-9751
▁Sign	-9752
▁fluctu	-9753
▁découle	-9754
▁opinion	-9755
agissait	-9756
▁décrite	-9757
▁constamment	-9758
▁Tre	-9759
▁veill	-9760
itablement	-9761
▁identifiés	-9762
▁COR	-9763
▁totaux	-9764
▁appliqués	-9765
Colombie	-9766
▁connexe	-9767
▁pluri	-9768
▁Pourquoi	-9769
raser	-9770
▁Norvège	-9771
térieurs	-9772
▁conscience	-9773
▁spécifiquement	-9774
▁classés	-9775
▁normalisation	-9776
▁zéro	-9777
envergure	-9778
▁transmet	-9779
▁respectent	-9780
▁Année	-9781
▁Observ	-9782
▁ratification	-9783
▁RC	-9784
▁DIS	-9785
▁jury	-9786
▁cohésion	-9787
chim	-9788
▁Caraïbes	-9789
▁législatifs	-9790
ÉG	-9791
▁récupération	-9792
lablement	-9793
▁Transport	-9794
bonne	-9795
▁immédiate	-9796
▁indiennes	-9797
▁coeur	-9798
▁satisfaits	-9799
▁citoyenneté	-9800
IRSC	-9801
itue	-9802
tacles	-9803
▁invent	-9804
▁Cher	-9805
où	-9806
▁Effec	-9807
enfance	-9808
▁confusion	-9809
esti	-9810
▁TOTAL	-9811
▁surmont	-9812
▁HTML	-9813
▁grie	-9814
▁assurant	-9815
anth	-9816
▁choc	-9817
▁réunir	-9818
▁coeffic	-9819
▁Directrice	-9820
arr	-9821
▁conju	-9822
▁subir	-9823
▁Initiatives	-9824
irement	-9825
▁Base	-9826
▁Contr	-9827
▁nettoyage	-9828
oro	-9829
▁trouvera	-9830
▁réadaptation	-9831
▁Ni	-9832
▁minorité	-9833
▁contenues	-9834
intervenants	-9835
▁CTI	-9836
▁altern	-9837
▁contrôleur	-9838
▁bénéfice	-9839
▁élaborés	-9840
nom	-9841
▁voter	-9842
▁présidence	-9843
▁secrétariat	-9844
▁influent	-9845
emprun	-9846
▁expertise	-9847
MES	-9848
▁rappelé	-9849
▁positives	-9850
▁autorisations	-9851
▁considèrent	-9852
issariat	-9853
iliation	-9854
aluminium	-9855
▁libéralisation	-9856
main	-9857
échéance	-9858
lez	-9859
aujourd	-9860
▁superficie	-9861
▁fallait	-9862
▁Tex	-9863
erveau	-9864
▁précoce	-9865
▁croient	-9866
▁oui	-9867
▁variétés	-9868
ouse	-9869
▁Roumanie	-9870
▁Environmental	-9871
▁rach	-9872
▁déterminant	-9873
▁fiabilité	-9874
▁Vari	-9875
ièmement	-9876
▁Sy	-9877
▁vert	-9878
▁vastes	-9879
▁cinémat	-9880
positifs	-9881
ols	-9882
▁cinquième	-9883
ECTI	-9884
activ	-9885
▁Régions	-9886
▁recueillis	-9887
ett	-9888
atoires	-9889
▁éventuelle	-9890
▁britannique	-9891
▁restriction	-9892
accréditation	-9893
tionnaire	-9894
IA	-9895
▁(%)	-9896
▁Conditions	-9897
▁Lacs	-9898
immeuble	-9899
arrêt	-9900
ainissement	-9901
▁Turquie	-9902
auses	-9903
▁SCP	-9904
▁Colle	-9905
▁Carte	-9906
oré	-9907
▁ancien	-9908
▁affecté	-9909
leu	-9910
▁touchées	-9911
ench	-9912
▁démonstration	-9913
monie	-9914
atmosphère	-9915
▁microbi	-9916
bio	-9917
ther	-9918
div	-9919
Autres	-9920
▁arrangements	-9921
▁productions	-9922
▁gouvernemental	-9923
oug	-9924
▁stimul	-9925
achet	-9926
▁stér	-9927
▁immeuble	-9928
▁détéri	-9929
▁fondamental	-9930
▁passif	-9931
iendrait	-9932
▁risquent	-9933
sembles	-9934
ject	-9935
instruments	-9936
éthylène	-9937
▁entreprendre	-9938
▁enceintes	-9939
▁Suite	-9940
rime	-9941
implant	-9942
abus	-9943
▁gradu	-9944
▁refusé	-9945
▁énumérés	-9946
▁interprétation	-9947
rateur	-9948
île	-9949
▁téléphonique	-9950
dez	-9951
mie	-9952
▁perdu	-9953
▁revanche	-9954
ôture	-9955
▁Portu	-9956
▁pathogènes	-9957
▁Instruments	-9958
ANTS	-9959
▁chevau	-9960
▁prestataires	-9961
▁affirme	-9962
quants	-9963
MIN	-9964
tical	-9965
▁Chez	-9966
▁inad	-9967
▁Pop	-9968
▁équivalent	-9969
▁Établir	-9970
▁interview	-9971
▁pénur	-9972
▁voire	-9973
▁trente	-9974
▁Classification	-9975
ectionn	-9976
▁comptable	-9977
▁fournira	-9978
itez	-9979
▁panne	-9980
trie	-9981
Esp	-9982
icon	-9983
▁vols	-9984
▁supplément	-9985
amer	-9986
▁aidé	-9987
▁coli	-9988
rables	-9989
▁douleur	-9990
fghanistan	-9991
pi	-9992
▁diam	-9993
▁propag	-9994
NATION	-9995
▁arbit	-9996
▁réputation	-9997
▁School	-9998
▁résulte	-9999
▁saisie	-10000
▁discipline	-10001
▁fasse	-10002
▁parcs	-10003
neau	-10004
▁sent	-10005
honneur	-10006
▁chaleur	-10007
▁Ris	-10008
triche	-10009
▁parrain	-10010
▁el	-10011
▁Citoy	-10012
omètres	-10013
▁appareil	-10014
▁concurrents	-10015
▁complémentaire	-10016
ene	-10017
▁préven	-10018
▁Puisque	-10019
▁chambre	-10020
▁libertés	-10021
▁LTD	-10022
▁has	-10023
▁Obli	-10024
▁orale	-10025
▁Dès	-10026
▁vag	-10027
▁Conseils	-10028
▁aband	-10029
▁grain	-10030
▁Procéd	-10031
▁renouvelable	-10032
issue	-10033
▁douce	-10034
▁cessation	-10035
ocy	-10036
▁fret	-10037
▁entourant	-10038
▁affiché	-10039
▁Fish	-10040
ciales	-10041
▁magasins	-10042
▁Micro	-10043
▁crois	-10044
▁sauvages	-10045
ajout	-10046
▁Care	-10047
▁correctement	-10048
▁signaux	-10049
tera	-10050
▁hu	-10051
▁Hospital	-10052
▁extraordin	-10053
bile	-10054
assade	-10055
▁assis	-10056
gentine	-10057
▁Policy	-10058
▁bétail	-10059
▁mondiales	-10060
servic	-10061
▁exclus	-10062
LT	-10063
ural	-10064
atténuation	-10065
▁FCI	-10066
▁Stock	-10067
▁évo	-10068
▁renouvelables	-10069
▁préparés	-10070
arn	-10071
cel	-10072
▁GÉN	-10073
▁fier	-10074
kraine	-10075
informer	-10076
▁négative	-10077
▁Bibliothèque	-10078
poni	-10079
▁Garde	-10080
▁criminalité	-10081
▁activ	-10082
▁routes	-10083
▁réguliers	-10084
exportateur	-10085
▁Consultations	-10086
▁chargées	-10087
▁dentaires	-10088
▁capables	-10089
▁nourriture	-10090
phy	-10091
faire	-10092
acquérir	-10093
▁Community	-10094
▁fre	-10095
▁céréales	-10096
aud	-10097
occupe	-10098
▁pénalité	-10099
ulés	-10100
▁Hum	-10101
Arctique	-10102
▁acheter	-10103
▁assujetti	-10104
ortium	-10105
leurs	-10106
▁signale	-10107
▁conclut	-10108
▁continent	-10109
▁bibliothèque	-10110
▁Manuel	-10111
▁Identif	-10112
alisations	-10113
▁intention	-10114
▁succurs	-10115
▁Lisbonne	-10116
▁consulté	-10117
▁supprimer	-10118
ón	-10119
uxemb	-10120
▁déplacements	-10121
▁Sources	-10122
▁minéraux	-10123
▁étend	-10124
▁blanch	-10125
▁participantes	-10126
▁remboursements	-10127
▁PER	-10128
▁module	-10129
▁inscrites	-10130
▁Opérations	-10131
▁créativité	-10132
▁alimentation	-10133
raction	-10134
anies	-10135
▁World	-10136
gis	-10137
water	-10138
▁assemblées	-10139
▁Éta	-10140
▁remet	-10141
▁Technologies	-10142
xtes	-10143
faits	-10144
▁capable	-10145
urgie	-10146
MS	-10147
▁analy	-10148
Laurent	-10149
▁Employ	-10150
▁combustion	-10151
▁rurale	-10152
▁barre	-10153
▁témoign	-10154
▁africains	-10155
▁puits	-10156
▁éventuel	-10157
▁Fournir	-10158
▁comptant	-10159
▁Inde	-10160
ality	-10161
ineux	-10162
▁criminel	-10163
faces	-10164
Modi	-10165
indemnité	-10166
▁éloignées	-10167
▁sanitaire	-10168
▁synth	-10169
avoc	-10170
▁donnés	-10171
gouvernementales	-10172
▁Statu	-10173
▁Diff	-10174
▁hypothèses	-10175
▁utilisations	-10176
▁mè	-10177
bert	-10178
▁Lake	-10179
▁dens	-10180
ICE	-10181
▁ventil	-10182
▁American	-10183
▁raisonnablement	-10184
▁Conserv	-10185
▁RÉS	-10186
interaction	-10187
ICH	-10188
énoncé	-10189
▁estimation	-10190
▁gagner	-10191
GRAM	-10192
▁Cos	-10193
▁élargi	-10194
▁envir	-10195
▁Remarque	-10196
▁versions	-10197
▁fermeture	-10198
oration	-10199
▁accueill	-10200
▁minimales	-10201
▁sérieux	-10202
exploration	-10203
▁journal	-10204
▁pourvu	-10205
▁Province	-10206
▁Bern	-10207
▁revendi	-10208
▁diplomatique	-10209
mond	-10210
▁situe	-10211
antation	-10212
▁Systèmes	-10213
▁municipalité	-10214
▁administrés	-10215
RL	-10216
▁fiable	-10217
▁portion	-10218
▁inspections	-10219
erence	-10220
▁respectifs	-10221
▁causés	-10222
▁Jeunes	-10223
▁rétroaction	-10224
mine	-10225
bus	-10226
▁Format	-10227
alière	-10228
▁prononc	-10229
▁Cas	-10230
▁intégration	-10231
TRES	-10232
▁formés	-10233
▁biennal	-10234
▁inférieurs	-10235
▁anglophones	-10236
▁traditionnel	-10237
▁Règle	-10238
▁connue	-10239
▁Catégorie	-10240
▁CRTC	-10241
▁appelée	-10242
azote	-10243
▁DD	-10244
▁forfait	-10245
▁officiers	-10246
▁prévoyant	-10247
aim	-10248
▁sucre	-10249
▁fir	-10250
▁LCPE	-10251
▁dépit	-10252
▁Bull	-10253
▁panc	-10254
comité	-10255
annonce	-10256
occuper	-10257
▁instituant	-10258
CIP	-10259
OMM	-10260
▁Richard	-10261
vén	-10262
▁PUB	-10263
Or	-10264
▁°	-10265
▁Wind	-10266
▁traitée	-10267
▁sensible	-10268
▁SSNA	-10269
▁professeurs	-10270
▁(«	-10271
quet	-10272
▁Unité	-10273
▁Technology	-10274
▁Leur	-10275
pre	-10276
▁rédac	-10277
gestion	-10278
▁acad	-10279
armaceu	-10280
▁recyclage	-10281
▁individuel	-10282
entraînement	-10283
ressources	-10284
▁quit	-10285
alition	-10286
▁invo	-10287
▁couns	-10288
▁souffrant	-10289
▁convergence	-10290
▁réagir	-10291
hébergement	-10292
▁intérieures	-10293
▁indirectement	-10294
loie	-10295
▁couverts	-10296
▁chauffage	-10297
▁combustibles	-10298
Équ	-10299
▁insta	-10300
▁Représent	-10301
▁Off	-10302
tifié	-10303
ENCES	-10304
urait	-10305
▁nets	-10306
orerie	-10307
OD	-10308
arri	-10309
▁aiguë	-10310
▁hi	-10311
▁Remp	-10312
▁marqué	-10313
▁complément	-10314
ache	-10315
▁image	-10316
▁procède	-10317
abri	-10318
▁communiquez	-10319
APEC	-10320
▁biodiversité	-10321
guay	-10322
▁payées	-10323
érar	-10324
▁terminée	-10325
▁avancés	-10326
▁aéronefs	-10327
▁it	-10328
gibles	-10329
▁compose	-10330
▁Citoyenneté	-10331
▁théorie	-10332
▁formules	-10333
▁instance	-10334
olats	-10335
▁éprouv	-10336
▁aborder	-10337
▁bulletins	-10338
▁CER	-10339
▁DPT	-10340
▁sulf	-10341
▁SCIT	-10342
▁désignées	-10343
▁constituée	-10344
▁exprimées	-10345
▁mobilières	-10346
▁situées	-10347
▁organiser	-10348
▁urbaines	-10349
▁inscrivez	-10350
▁Company	-10351
▁nettes	-10352
encontre	-10353
▁municipaux	-10354
▁Profil	-10355
▁adéquat	-10356
▁exécution	-10357
▁CANADIEN	-10358
guée	-10359
ennies	-10360
▁Communautés	-10361
▁Vers	-10362
▁découverte	-10363
icales	-10364
▁rédigé	-10365
▁automatis	-10366
▁Met	-10367
▁compil	-10368
issage	-10369
▁automatique	-10370
ichlor	-10371
▁identifié	-10372
▁logistique	-10373
énag	-10374
▁tradu	-10375
▁mobile	-10376
▁gravité	-10377
▁Pierre	-10378
▁Volume	-10379
▁municipales	-10380
▁céd	-10381
olat	-10382
▁Kong	-10383
▁vrai	-10384
▁reprises	-10385
emmes	-10386
OB	-10387
▁malades	-10388
sive	-10389
▁dépendent	-10390
▁Franç	-10391
▁South	-10392
▁absolu	-10393
▁rappeler	-10394
ather	-10395
▁phosph	-10396
hos	-10397
▁artif	-10398
▁espagn	-10399
cera	-10400
èlent	-10401
▁spatiale	-10402
▁Haye	-10403
ildr	-10404
▁interprétations	-10405
ernes	-10406
▁suicide	-10407
▁consacrer	-10408
▁maternelle	-10409
habil	-10410
ogène	-10411
▁modifiées	-10412
▁autonome	-10413
ICIST	-10414
assure	-10415
▁ethnique	-10416
chées	-10417
▁inég	-10418
▁magazines	-10419
▁servira	-10420
▁investir	-10421
▁terrestre	-10422
▁département	-10423
▁trésorerie	-10424
isance	-10425
▁DRO	-10426
▁PCH	-10427
▁colon	-10428
gouvernementale	-10429
inqui	-10430
▁récolte	-10431
▁continueront	-10432
ami	-10433
▁dirigé	-10434
▁novatrices	-10435
▁sch	-10436
riers	-10437
▁Rév	-10438
▁exhaustive	-10439
▁marine	-10440
▁Culture	-10441
▁urbains	-10442
ridge	-10443
tilles	-10444
▁troup	-10445
▁coopérative	-10446
▁combattants	-10447
▁Fraser	-10448
ildren	-10449
objectifs	-10450
▁lecteur	-10451
▁libellé	-10452
▁contenants	-10453
▁décennies	-10454
▁Portugal	-10455
▁Quelques	-10456
▁mène	-10457
▁TCR	-10458
▁cession	-10459
▁segment	-10460
▁ISO	-10461
▁admis	-10462
▁antérieurs	-10463
visionnements	-10464
fères	-10465
▁sodium	-10466
▁acquise	-10467
▁illustre	-10468
lément	-10469
▁accré	-10470
▁élaborées	-10471
▁déploiement	-10472
ower	-10473
bec	-10474
film	-10475
▁Mess	-10476
tenance	-10477
▁guides	-10478
ution	-10479
▁Pologne	-10480
▁aideront	-10481
achèvement	-10482
▁PS	-10483
▁saisonn	-10484
éliminer	-10485
▁revient	-10486
▁adéquatement	-10487
▁fondant	-10488
attaquer	-10489
▁dég	-10490
▁fixes	-10491
▁profond	-10492
▁directes	-10493
▁violation	-10494
▁étiquettes	-10495
▁nan	-10496
original	-10497
▁incluses	-10498
etés	-10499
▁SMA	-10500
▁Soutien	-10501
isibles	-10502
▁concrètes	-10503
▁relevés	-10504
veloppe	-10505
▁suffit	-10506
indication	-10507
ceptions	-10508
▁diriger	-10509
▁commençant	-10510
▁réellement	-10511
▁enregistrée	-10512
▁Bos	-10513
▁débar	-10514
▁Medic	-10515
▁Collège	-10516
vient	-10517
ITE	-10518
▁textiles	-10519
▁délivré	-10520
],	-10521
▁extérieure	-10522
▁ACT	-10523
bon	-10524
▁modél	-10525
appropri	-10526
▁soumission	-10527
▁morue	-10528
▁ordinaires	-10529
▁observées	-10530
▁mémorandum	-10531
mons	-10532
▁autorise	-10533
▁indispensable	-10534
RQ	-10535
▁conserve	-10536
▁Gar	-10537
▁gauche	-10538
▁calculs	-10539
▁démontre	-10540
▁horizont	-10541
▁augmentations	-10542
onnel	-10543
▁Import	-10544
▁air	-10545
▁prime	-10546
▁délin	-10547
▁Wal	-10548
▁soutenue	-10549
▁IC	-10550
▁jeux	-10551
▁améliorée	-10552
terie	-10553
▁Festival	-10554
▁téléphoniques	-10555
▁sh	-10556
▁DIR	-10557
▁coordonnateurs	-10558
▁fruc	-10559
▁indicateur	-10560
▁semi	-10561
▁artistique	-10562
▁multipli	-10563
▁volu	-10564
▁embau	-10565
▁attribués	-10566
▁bilingue	-10567
▁demandés	-10568
▁octroy	-10569
▁végétales	-10570
▁annuellement	-10571
OUR	-10572
▁<!	-10573
▁quelqu	-10574
▁déclarée	-10575
ono	-10576
maine	-10577
▁refuser	-10578
lementation	-10579
▁Tun	-10580
▁créance	-10581
▁pandémie	-10582
▁saillants	-10583
Bre	-10584
▁RAPP	-10585
agisse	-10586
allocation	-10587
entis	-10588
▁Conc	-10589
▁scénario	-10590
itats	-10591
▁TD	-10592
▁pencher	-10593
FORMATION	-10594
LC	-10595
▁Bou	-10596
assainissement	-10597
ISATION	-10598
▁récomp	-10599
enregistre	-10600
▁Parcs	-10601
▁prudence	-10602
▁faute	-10603
▁rehau	-10604
▁Grande	-10605
▁consenti	-10606
▁inhib	-10607
▁instances	-10608
▁INTERNATION	-10609
▁SEC	-10610
▁Augment	-10611
▁organisés	-10612
▁salles	-10613
▁obtenue	-10614
▁touristique	-10615
clusions	-10616
▁are	-10617
▁Compr	-10618
▁nit	-10619
▁atmosphérique	-10620
tenteur	-10621
▁escomptés	-10622
FM	-10623
heures	-10624
▁gènes	-10625
animaux	-10626
▁gal	-10627
▁faculta	-10628
▁redress	-10629
▁suggère	-10630
▁conjoints	-10631
▁concré	-10632
rimés	-10633
ographies	-10634
▁entrées	-10635
▁indemnités	-10636
▁flot	-10637
▁voisins	-10638
ELL	-10639
▁riv	-10640
▁paliers	-10641
▁Amélioration	-10642
▁Pap	-10643
▁évalue	-10644
tagne	-10645
indiquer	-10646
▁engend	-10647
▁Perspec	-10648
▁terrestres	-10649
▁té	-10650
agents	-10651
jonction	-10652
▁calculée	-10653
▁mentionnons	-10654
▁Objet	-10655
▁clarifier	-10656
▁actionnaires	-10657
LD	-10658
▁basé	-10659
istants	-10660
▁contro	-10661
hal	-10662
èques	-10663
▁avenue	-10664
▁Part	-10665
taurer	-10666
▁mains	-10667
▁bat	-10668
▁Gend	-10669
émique	-10670
▁syndrome	-10671
agr	-10672
énég	-10673
▁Analys	-10674
▁clôture	-10675
▁ouvre	-10676
▁identiques	-10677
▁enregistrées	-10678
▁PROGRAM	-10679
▁SRAS	-10680
▁Premi	-10681
▁résidant	-10682
▁foie	-10683
▁Italie	-10684
▁québéc	-10685
▁familial	-10686
▁informe	-10687
▁justification	-10688
erty	-10689
▁saisi	-10690
▁original	-10691
▁partagés	-10692
▁phoques	-10693
▁cardiaque	-10694
▁surmonter	-10695
▁remercier	-10696
▁météorologiques	-10697
idées	-10698
▁issues	-10699
▁mettra	-10700
▁remplies	-10701
▁transféré	-10702
▁réside	-10703
▁ouvrages	-10704
▁coordonnées	-10705
dép	-10706
▁Mil	-10707
▁GÉNÉR	-10708
▁MON	-10709
oculture	-10710
méth	-10711
PAC	-10712
▁bénéficié	-10713
BR	-10714
maj	-10715
maladie	-10716
accompl	-10717
▁démarches	-10718
éhy	-10719
▁Cancer	-10720
admission	-10721
▁quart	-10722
▁FN	-10723
uner	-10724
TIQUE	-10725
▁artifici	-10726
tain	-10727
▁assig	-10728
▁imposer	-10729
▁ethniques	-10730
hyper	-10731
garie	-10732
▁soir	-10733
▁transmissibles	-10734
▁négocier	-10735
▁collectives	-10736
▁visu	-10737
▁Revenus	-10738
▁oxy	-10739
▁reconnues	-10740
▁×	-10741
▁Jan	-10742
▁pure	-10743
▁céréb	-10744
ordinateur	-10745
▁transmises	-10746
▁SCI	-10747
▁prête	-10748
▁école	-10749
▁hauteur	-10750
▁Aussi	-10751
▁prendra	-10752
▁Tour	-10753
▁fabriqués	-10754
illén	-10755
accords	-10756
▁perfectionn	-10757
tents	-10758
▁apportée	-10759
▁péné	-10760
▁antic	-10761
▁chance	-10762
▁cigarette	-10763
▁FI	-10764
gments	-10765
Modifié	-10766
▁mentionne	-10767
▁DPSN	-10768
▁fixée	-10769
mersion	-10770
▁Prestation	-10771
▁Outil	-10772
do	-10773
▁postale	-10774
▁réussir	-10775
indemnisation	-10776
▁minoritaires	-10777
ASE	-10778
▁révèlent	-10779
▁TPG	-10780
oft	-10781
▁répartis	-10782
▁menés	-10783
▁explic	-10784
▁appartient	-10785
▁plaisir	-10786
céan	-10787
▁Chac	-10788
▁prépare	-10789
▁urbaine	-10790
érants	-10791
▁porc	-10792
▁adopte	-10793
▁tension	-10794
▁art	-10795
érarch	-10796
acheteur	-10797
lèv	-10798
▁("	-10799
▁austra	-10800
▁signer	-10801
▁régulier	-10802
▁projections	-10803
jou	-10804
erreur	-10805
▁Ceux	-10806
▁Nu	-10807
Mar	-10808
▁mètres	-10809
▁spécialiste	-10810
publ	-10811
▁quasi	-10812
▁commandant	-10813
▁acier	-10814
▁Berne	-10815
▁verre	-10816
▁Prince	-10817
▁Ouest	-10818
▁professions	-10819
TG	-10820
▁approxim	-10821
▁inscrite	-10822
▁tumeurs	-10823
the	-10824
▁entraîn	-10825
▁Couronne	-10826
▁démographique	-10827
▁assurance	-10828
▁additionnel	-10829
Man	-10830
▁écri	-10831
▁remédi	-10832
▁Canadien	-10833
▁Planification	-10834
▁précieux	-10835
lif	-10836
▁avions	-10837
▁organisées	-10838
▁Fort	-10839
extraction	-10840
▁spécialisée	-10841
▁pH	-10842
▁qualifié	-10843
▁exploitations	-10844
▁Tox	-10845
▁suffisantes	-10846
▁temporaires	-10847
▁aver	-10848
▁voud	-10849
▁Andre	-10850
ands	-10851
▁problé	-10852
▁transp	-10853
▁Gestionnaire	-10854
PER	-10855
assent	-10856
▁usine	-10857
▁College	-10858
hypothèse	-10859
▁crises	-10860
▁SYST	-10861
▁mères	-10862
▁accordées	-10863
")	-10864
NC	-10865
▁tissu	-10866
▁palli	-10867
▁couche	-10868
rop	-10869
▁IND	-10870
▁tru	-10871
▁juges	-10872
▁stipule	-10873
▁consolidation	-10874
▁Fer	-10875
▁modernes	-10876
enzène	-10877
▁cur	-10878
SMT	-10879
▁RELATI	-10880
asses	-10881
▁lign	-10882
▁George	-10883
▁Art	-10884
▁collections	-10885
▁plénière	-10886
ander	-10887
▁céléb	-10888
▁dédou	-10889
▁ppm	-10890
▁suppression	-10891
voy	-10892
jonc	-10893
▁Bra	-10894
▁ordinateurs	-10895
III	-10896
inture	-10897
▁consister	-10898
API	-10899
▁photos	-10900
▁qualifiée	-10901
EA	-10902
▁),	-10903
ciences	-10904
▁entrent	-10905
▁provient	-10906
▁Conclusion	-10907
Orient	-10908
arthrite	-10909
XXXX	-10910
épidémie	-10911
▁étendue	-10912
▁ouverts	-10913
sor	-10914
dule	-10915
▁apporte	-10916
▁homolo	-10917
uxembourg	-10918
▁Conseillers	-10919
▁sélec	-10920
▁tch	-10921
▁fermes	-10922
aliment	-10923
vage	-10924
▁PAS	-10925
▁Common	-10926
▁faisaient	-10927
▁Élaboration	-10928
▁Mt	-10929
▁Her	-10930
▁faisabilité	-10931
▁Women	-10932
▁mutuelle	-10933
▁Street	-10934
oureux	-10935
▁Location	-10936
▁financée	-10937
▁bran	-10938
▁lésions	-10939
oundation	-10940
▁incidents	-10941
jeu	-10942
▁my	-10943
▁Gouver	-10944
▁représenté	-10945
étudiants	-10946
EU	-10947
▁examinée	-10948
pire	-10949
tableau	-10950
ouissement	-10951
▁rapides	-10952
▁détecter	-10953
▁rappelle	-10954
type	-10955
ignants	-10956
installations	-10957
▁exigé	-10958
▁éthiques	-10959
▁soufre	-10960
▁Contin	-10961
▁avancer	-10962
▁originale	-10963
▁exigi	-10964
▁Critères	-10965
▁demandée	-10966
▁pratiquement	-10967
▁signification	-10968
▁Kenya	-10969
▁Deuxièmement	-10970
zy	-10971
▁recl	-10972
▁q	-10973
▁adoption	-10974
RH	-10975
▁Compara	-10976
INT	-10977
lay	-10978
tifications	-10979
▁CAR	-10980
▁Drug	-10981
▁CCI	-10982
▁Consid	-10983
▁acceptée	-10984
▁incon	-10985
raël	-10986
▁cellulaire	-10987
▁dégradation	-10988
▁évaluées	-10989
▁inventions	-10990
CER	-10991
effort	-10992
▁valide	-10993
ave	-10994
▁GI	-10995
docu	-10996
▁Structure	-10997
▁Log	-10998
intendant	-10999
▁chem	-11000
▁hép	-11001
aissances	-11002
▁hiérarch	-11003
ader	-11004
phal	-11005
▁phases	-11006
▁Cop	-11007
▁mentionnée	-11008
▁progressive	-11009
▁Bulgarie	-11010
▁Mars	-11011
▁développé	-11012
▁effective	-11013
▁engagée	-11014
▁Mag	-11015
oriser	-11016
ALA	-11017
▁étudiant	-11018
▁MP	-11019
▁fondation	-11020
indique	-11021
▁---	-11022
inspec	-11023
tÃ	-11024
▁réuni	-11025
▁optimis	-11026
▁crimes	-11027
▁Congrès	-11028
▁chutes	-11029
▁territorial	-11030
▁appelle	-11031
▁épreu	-11032
illénaire	-11033
▁intel	-11034
▁confirme	-11035
▁sep	-11036
ductions	-11037
IAN	-11038
rate	-11039
cueille	-11040
▁législations	-11041
▁consacrées	-11042
disciplinaires	-11043
▁compétent	-11044
▁majeur	-11045
gouvernemental	-11046
PAR	-11047
▁Business	-11048
▁patrimoni	-11049
▁indépendantes	-11050
▁dâ	-11051
▁quar	-11052
▁nutritifs	-11053
▁Bén	-11054
▁NMB	-11055
▁garçons	-11056
▁artis	-11057
assemblée	-11058
▁MIN	-11059
▁revoir	-11060
oï	-11061
▁RAPPORT	-11062
▁favoris	-11063
▁trimestri	-11064
▁forment	-11065
▁réclam	-11066
▁thérapeutique	-11067
▁nul	-11068
gieux	-11069
étant	-11070
IO	-11071
icien	-11072
▁pénale	-11073
▁Activité	-11074
▁foss	-11075
▁échel	-11076
▁genres	-11077
SEIG	-11078
▁SCC	-11079
▁analogues	-11080
tit	-11081
mobilisation	-11082
right	-11083
▁découvrir	-11084
aille	-11085
▁dévers	-11086
hi	-11087
urrence	-11088
▁lots	-11089
▁polym	-11090
excédant	-11091
▁divisions	-11092
▁sports	-11093
▁Général	-11094
époque	-11095
▁métro	-11096
▁Eur	-11097
iconque	-11098
▁contrôlée	-11099
▁FER	-11100
▁construire	-11101
▁conduit	-11102
▁Radio	-11103
▁recommandées	-11104
▁Éch	-11105
▁Marine	-11106
▁imparti	-11107
▁Board	-11108
▁soldats	-11109
▁iv	-11110
oyers	-11111
POSI	-11112
▁Divers	-11113
onge	-11114
▁cens	-11115
▁attest	-11116
▁langage	-11117
▁rédiger	-11118
▁souhaitable	-11119
▁Pat	-11120
grais	-11121
▁Laboratoire	-11122
ORS	-11123
ELLE	-11124
▁vent	-11125
▁health	-11126
▁chaînes	-11127
▁commencent	-11128
Ne	-11129
▁Dés	-11130
.»	-11131
▁Coûts	-11132
▁utilisez	-11133
▁accomplir	-11134
▁desquelles	-11135
▁gas	-11136
▁Vice	-11137
▁viable	-11138
▁espace	-11139
▁parallèle	-11140
▁Luxembourg	-11141
▁expérimental	-11142
▁histoire	-11143
levée	-11144
▁soumet	-11145
▁Education	-11146
▁Ve	-11147
▁pédago	-11148
▁envoyée	-11149
▁Partenariat	-11150
américain	-11151
exemption	-11152
▁resta	-11153
▁inters	-11154
provincial	-11155
EMB	-11156
tone	-11157
▁loisirs	-11158
▁PH	-11159
inclu	-11160
infir	-11161
▁identité	-11162
CON	-11163
▁collectif	-11164
▁scénarios	-11165
▁conduire	-11166
▁laitiers	-11167
▁Situ	-11168
agence	-11169
▁légal	-11170
▁incorpo	-11171
▁Évalu	-11172
▁fixées	-11173
▁statuts	-11174
▁conservés	-11175
▁Sujets	-11176
uffisance	-11177
▁Jac	-11178
▁Impôt	-11179
événements	-11180
TON	-11181
▁piles	-11182
▁contrôlées	-11183
posé	-11184
EMENTS	-11185
ectori	-11186
▁délégué	-11187
▁reconstruction	-11188
▁Nig	-11189
▁électr	-11190
▁Comptes	-11191
olvabilité	-11192
▁Systems	-11193
▁ménage	-11194
ANTÉ	-11195
▁bro	-11196
▁bata	-11197
indépendance	-11198
▁Francoph	-11199
intervalle	-11200
▁ru	-11201
▁tuy	-11202
▁gratuitement	-11203
TRI	-11204
▁Der	-11205
▁Regina	-11206
▁complètes	-11207
▁Hongrie	-11208
▁partagée	-11209
▁augmentent	-11210
expéri	-11211
▁adapté	-11212
▁traitent	-11213
▁MAECI	-11214
▁Foundation	-11215
▁Péri	-11216
▁Dispositions	-11217
alo	-11218
▁toucher	-11219
▁assurent	-11220
▁glace	-11221
▁Sc	-11222
▁Mesure	-11223
▁cerveau	-11224
TICLE	-11225
▁contribuera	-11226
▁symboles	-11227
▁accompagné	-11228
▁acheteurs	-11229
▁détenteur	-11230
▁lundi	-11231
▁pluriann	-11232
▁varier	-11233
▁longues	-11234
▁conçues	-11235
accéder	-11236
▁cancéro	-11237
graphie	-11238
▁conclus	-11239
▁nuire	-11240
▁argent	-11241
▁prÃ	-11242
▁Espagne	-11243
ura	-11244
▁poul	-11245
▁pédi	-11246
▁humanitaire	-11247
URES	-11248
overn	-11249
▁licenci	-11250
▁accompagnée	-11251
▁prescriptions	-11252
onci	-11253
major	-11254
▁Dossi	-11255
▁Étudi	-11256
▁élabore	-11257
▁Conclusions	-11258
▁quan	-11259
▁allocations	-11260
▁époux	-11261
▁réduisant	-11262
▁prouv	-11263
espèces	-11264
LL	-11265
issante	-11266
▁assisté	-11267
▁neig	-11268
▁Éc	-11269
▁valable	-11270
▁feuillets	-11271
▁Indicateurs	-11272
▁RÉF	-11273
▁océan	-11274
▁Rock	-11275
▁migration	-11276
▁rentable	-11277
▁thérapies	-11278
tory	-11279
▁Mission	-11280
▁dig	-11281
▁usagers	-11282
▁sauvetage	-11283
▁doté	-11284
ôpital	-11285
▁Grèce	-11286
▁cessé	-11287
▁semences	-11288
STR	-11289
▁avocats	-11290
▁adaptées	-11291
----------------	-11292
classe	-11293
▁consacrée	-11294
▁gel	-11295
Espagne	-11296
▁concernée	-11297
développement	-11298
▁mâles	-11299
▁arguments	-11300
▁toxicomanies	-11301
▁Moyen	-11302
▁clauses	-11303
▁LIR	-11304
▁perçu	-11305
▁ultra	-11306
▁cé	-11307
érentes	-11308
▁traitant	-11309
▁plastique	-11310
▁Pan	-11311
eration	-11312
▁TMÉU	-11313
▁assister	-11314
indicateurs	-11315
▁renseigner	-11316
▁ferroviaire	-11317
▁Premièrement	-11318
▁gère	-11319
aurait	-11320
▁femelles	-11321
sification	-11322
▁significatif	-11323
▁Histor	-11324
▁transformer	-11325
cend	-11326
▁Métis	-11327
▁exécuter	-11328
ÈRES	-11329
▁Adoption	-11330
▁facilite	-11331
▁descriptions	-11332
ATT	-11333
but	-11334
▁Paragraphe	-11335
fé	-11336
▁planète	-11337
▁brochure	-11338
▁manifeste	-11339
▁Mand	-11340
▁fructu	-11341
ize	-11342
cium	-11343
immobil	-11344
▁Possi	-11345
lim	-11346
▁typ	-11347
▁consistant	-11348
▁Examin	-11349
▁psychi	-11350
▁seuils	-11351
▁rarement	-11352
▁glu	-11353
éhyde	-11354
équivalent	-11355
▁territoriale	-11356
▁partiellement	-11357
▁menu	-11358
▁asi	-11359
assad	-11360
sen	-11361
▁souci	-11362
▁occupe	-11363
VAL	-11364
▁BPC	-11365
▁brû	-11366
▁fla	-11367
▁périodique	-11368
▁bail	-11369
matiquement	-11370
▁PM	-11371
▁vitro	-11372
▁assor	-11373
▁intégral	-11374
▁Saskatoon	-11375
appuie	-11376
▁passée	-11377
UEIL	-11378
osium	-11379
▁publie	-11380
▁Barb	-11381
▁minimal	-11382
ESC	-11383
ulée	-11384
▁soutiennent	-11385
cy	-11386
▁volaille	-11387
▁claires	-11388
▁densité	-11389
▁agit	-11390
▁soupç	-11391
▁finance	-11392
▁bag	-11393
▁sels	-11394
▁Ger	-11395
▁lacs	-11396
▁Hu	-11397
esté	-11398
etteurs	-11399
otox	-11400
▁remplace	-11401
▁coûteux	-11402
▁atmosphériques	-11403
▁mentionner	-11404
▁recommandée	-11405
▁interprété	-11406
ros	-11407
▁disent	-11408
▁tchèque	-11409
▁attendre	-11410
▁observe	-11411
▁lecteurs	-11412
GAN	-11413
▁Mém	-11414
ester	-11415
▁DRHC	-11416
▁frapp	-11417
▁fruit	-11418
liquez	-11419
▁bilatérales	-11420
orps	-11421
▁convaincu	-11422
▁énonce	-11423
▁prescrits	-11424
▁acquises	-11425
▁progressivement	-11426
▁MM	-11427
▁Laval	-11428
▁doter	-11429
itons	-11430
▁amendements	-11431
▁progressé	-11432
▁Loc	-11433
orités	-11434
De	-11435
Net	-11436
▁radic	-11437
▁déclarées	-11438
▁Indice	-11439
▁initiales	-11440
rions	-11441
▁Cir	-11442
▁visibilité	-11443
conse	-11444
▁perd	-11445
▁compétents	-11446
▁combattre	-11447
enrich	-11448
avérer	-11449
▁découvert	-11450
entreprendre	-11451
tus	-11452
▁exigés	-11453
talement	-11454
▁Principes	-11455
▁pulmon	-11456
▁tenter	-11457
artition	-11458
▁prétend	-11459
térielle	-11460
▁assistée	-11461
▁propagation	-11462
vey	-11463
tels	-11464
ological	-11465
▁théâtre	-11466
ourse	-11467
▁moléculaire	-11468
▁Hol	-11469
▁élargir	-11470
han	-11471
chau	-11472
▁PRE	-11473
▁voulons	-11474
▁Rembours	-11475
▁London	-11476
▁additionnelle	-11477
▁fini	-11478
▁combien	-11479
▁PARTIE	-11480
▁har	-11481
▁Stephen	-11482
▁palliatifs	-11483
▁manqu	-11484
▁Ate	-11485
▁remédier	-11486
apacité	-11487
ough	-11488
▁rus	-11489
▁LMSI	-11490
▁abré	-11491
▁UE	-11492
▁souple	-11493
▁Londres	-11494
▁respectées	-11495
ulées	-11496
▁isolats	-11497
▁marines	-11498
▁retenus	-11499
enda	-11500
▁audit	-11501
▁rémunéré	-11502
heureusement	-11503
▁nécessitent	-11504
osés	-11505
▁simplifier	-11506
▁terroristes	-11507
)?	-11508
▁harc	-11509
▁trib	-11510
▁Programmation	-11511
ulté	-11512
itage	-11513
▁Human	-11514
ATEUR	-11515
▁ingén	-11516
▁existante	-11517
miques	-11518
organiser	-11519
▁souv	-11520
anz	-11521
fient	-11522
▁PARI	-11523
▁collo	-11524
▁exercé	-11525
ortait	-11526
▁passés	-11527
TEUR	-11528
▁accréd	-11529
▁adulte	-11530
▁±	-11531
chéma	-11532
▁pare	-11533
▁vrac	-11534
wood	-11535
échantillons	-11536
▁agroalimentaire	-11537
▁Gé	-11538
▁compatible	-11539
▁Ky	-11540
▁Bell	-11541
MM	-11542
amilton	-11543
accus	-11544
élève	-11545
▁cali	-11546
▁amende	-11547
▁limités	-11548
▁éb	-11549
▁consacrés	-11550
▁Actuellement	-11551
▁ramen	-11552
▁créances	-11553
▁Informations	-11554
itch	-11555
▁Ben	-11556
▁Cin	-11557
▁mesur	-11558
▁apparaît	-11559
▁barrières	-11560
gues	-11561
▁meubles	-11562
▁honoraires	-11563
HV	-11564
▁[...	-11565
inerie	-11566
umeur	-11567
▁légère	-11568
gs	-11569
▁stabilisation	-11570
INC	-11571
aug	-11572
tirer	-11573
▁inférieures	-11574
esel	-11575
▁Vie	-11576
lang	-11577
luents	-11578
▁caractéristique	-11579
▁Temp	-11580
▁référ	-11581
▁CRSH	-11582
▁protégée	-11583
▁envoyés	-11584
▁comprenait	-11585
tilité	-11586
▁énergie	-11587
▁distribuer	-11588
▁confidentiels	-11589
osla	-11590
▁collabore	-11591
▁attendus	-11592
isease	-11593
▁portes	-11594
▁balance	-11595
▁religie	-11596
▁infection	-11597
▁imposée	-11598
▁indemnité	-11599
▁introduit	-11600
ientôt	-11601
▁déposés	-11602
▁émanant	-11603
▁pénalités	-11604
onnée	-11605
▁stéril	-11606
▁poursuivi	-11607
ARD	-11608
ompe	-11609
▁prospec	-11610
▁Gal	-11611
vénie	-11612
▁Thom	-11613
territori	-11614
▁autoriser	-11615
▁partielle	-11616
alières	-11617
▁surplus	-11618
▁atténuer	-11619
Is	-11620
▁fonde	-11621
▁intérieurs	-11622
▁nordi	-11623
exige	-11624
▁minière	-11625
ajustement	-11626
▁Fil	-11627
▁Effets	-11628
kins	-11629
▁GROU	-11630
▁attra	-11631
locution	-11632
SEIGNEMENT	-11633
▁démontrent	-11634
▁nucléaires	-11635
▁occupé	-11636
▁créateurs	-11637
imer	-11638
▁McM	-11639
▁appris	-11640
▁roulement	-11641
univers	-11642
▁approuver	-11643
armer	-11644
▁conçue	-11645
rira	-11646
▁guider	-11647
▁VHC	-11648
▁Calcul	-11649
venues	-11650
▁taxables	-11651
▁salariale	-11652
etown	-11653
culture	-11654
▁néglige	-11655
▁compromis	-11656
▁Che	-11657
▁apparent	-11658
▁PD	-11659
▁étudie	-11660
)]	-11661
région	-11662
tia	-11663
ESS	-11664
▁United	-11665
hydrogène	-11666
ENS	-11667
ight	-11668
romp	-11669
▁monop	-11670
▁étendu	-11671
▁graines	-11672
▁vétérinaire	-11673
▁dus	-11674
▁fraude	-11675
▁posséder	-11676
▁DGPSA	-11677
▁offres	-11678
▁désirent	-11679
▁agréé	-11680
dés	-11681
▁négatives	-11682
▁ressortissants	-11683
ELS	-11684
▁Medicine	-11685
irait	-11686
illons	-11687
Italie	-11688
▁Cô	-11689
▁ACCUEIL	-11690
▁Western	-11691
▁village	-11692
▁comparaisons	-11693
▁habitats	-11694
▁incompati	-11695
▁Let	-11696
▁hém	-11697
▁sonore	-11698
▁énergétiques	-11699
▁ralentiss	-11700
judici	-11701
▁corruption	-11702
acu	-11703
▁souver	-11704
pé	-11705
▁volumes	-11706
▁Mi	-11707
▁serviront	-11708
▁Action	-11709
illé	-11710
▁représentaient	-11711
ns	-11712
▁REC	-11713
▁aires	-11714
▁créant	-11715
étisation	-11716
▁informatis	-11717
▁avi	-11718
▁protégé	-11719
outs	-11720
▁Quatre	-11721
▁réfléch	-11722
▁Mu	-11723
affichage	-11724
▁aéroports	-11725
▁continuité	-11726
▁adapter	-11727
▁primordi	-11728
ça	-11729
▁accélérer	-11730
▁démarrage	-11731
▁contingent	-11732
▁McC	-11733
▁©	-11734
cra	-11735
elling	-11736
▁adéquates	-11737
financement	-11738
▁SA	-11739
▁déceler	-11740
▁Deuxième	-11741
▁végétaux	-11742
▁détention	-11743
▁Conference	-11744
▁répertoire	-11745
▁armées	-11746
ycl	-11747
▁BCN	-11748
Fr	-11749
▁CV	-11750
▁Queen	-11751
▁inconn	-11752
▁incen	-11753
▁spécialisé	-11754
Tra	-11755
▁Sé	-11756
▁parle	-11757
▁Contrôle	-11758
▁As	-11759
▁Trade	-11760
animité	-11761
TP	-11762
▁adoptés	-11763
▁cabinet	-11764
▁Consultation	-11765
▁pieds	-11766
▁cherchent	-11767
▁biologie	-11768
▁AG	-11769
▁électoral	-11770
▁familiales	-11771
▁rayons	-11772
▁desquels	-11773
▁payables	-11774
liz	-11775
▁pomp	-11776
▁distribué	-11777
▁géré	-11778
charge	-11779
▁marges	-11780
▁innovateurs	-11781
offic	-11782
▁gagné	-11783
isitions	-11784
programme	-11785
onésie	-11786
▁aptitudes	-11787
▁Commissariat	-11788
ouc	-11789
▁style	-11790
élargir	-11791
▁Bourses	-11792
▁Majesté	-11793
▁surfaces	-11794
▁tire	-11795
▁perdre	-11796
▁appelés	-11797
▁droite	-11798
LÉ	-11799
▁vapeur	-11800
▁Rome	-11801
œuvres	-11802
▁concord	-11803
▁Slovénie	-11804
insolvabilité	-11805
▁concertation	-11806
▁touristiques	-11807
OTAN	-11808
▁SANTÉ	-11809
▁innovation	-11810
▁séparation	-11811
▁dépassent	-11812
▁Notification	-11813
▁Méthodes	-11814
bac	-11815
▁savent	-11816
hp	-11817
nez	-11818
thme	-11819
ettez	-11820
▁ouvrir	-11821
EI	-11822
ama	-11823
▁IS	-11824
ittee	-11825
abandon	-11826
▁pur	-11827
▁dépression	-11828
oine	-11829
▁commandement	-11830
▁Agency	-11831
▁Project	-11832
ray	-11833
dicats	-11834
▁déclin	-11835
▁bilatéraux	-11836
imagerie	-11837
▁passées	-11838
▁littérature	-11839
hydra	-11840
ramme	-11841
appréci	-11842
▁contribuant	-11843
▁crédibilité	-11844
▁ja	-11845
▁sper	-11846
▁machine	-11847
▁expéditions	-11848
▁obtient	-11849
▁soumissions	-11850
▁impose	-11851
▁abond	-11852
▁lisez	-11853
▁terminer	-11854
▁possédant	-11855
▁indésirable	-11856
▁Modification	-11857
▁correspondre	-11858
▁bientôt	-11859
▁crucial	-11860
occ	-11861
▁inhal	-11862
▁acheté	-11863
FICATION	-11864
▁Innovation	-11865
mpora	-11866
▁pancanad	-11867
▁invention	-11868
▁nommer	-11869
▁chapitres	-11870
▁tolérance	-11871
IQUE	-11872
ward	-11873
▁parole	-11874
▁Modifications	-11875
siers	-11876
▁quotidiennes	-11877
▁SDD	-11878
▁explications	-11879
▁Immigration	-11880
▁terrains	-11881
▁Travail	-11882
ppines	-11883
▁config	-11884
intensité	-11885
▁Cherche	-11886
institutions	-11887
▁paras	-11888
▁transférés	-11889
▁préparations	-11890
▁San	-11891
▁composant	-11892
lacements	-11893
▁deg	-11894
exécu	-11895
▁Subst	-11896
▁entré	-11897
▁avancé	-11898
▁perçus	-11899
▁précie	-11900
▁résume	-11901
▁émises	-11902
▁assurée	-11903
▁SH	-11904
▁Industries	-11905
▁élargie	-11906
▁Capacité	-11907
▁autonomes	-11908
▁prochains	-11909
▁Justification	-11910
ENTI	-11911
▁phoque	-11912
▁PF	-11913
▁MÉ	-11914
▁répara	-11915
▁Réserve	-11916
▁parfait	-11917
▁homologues	-11918
▁ultérieurement	-11919
▁énorm	-11920
▁General	-11921
▁Registre	-11922
▁Réduction	-11923
▁cité	-11924
▁passation	-11925
▁enquê	-11926
uréat	-11927
▁rajustement	-11928
igence	-11929
▁susciter	-11930
▁Contribution	-11931
▁traum	-11932
version	-11933
▁globales	-11934
date	-11935
▁corro	-11936
▁concrets	-11937
▁séminaire	-11938
▁hyper	-11939
étendre	-11940
empêcher	-11941
OUVER	-11942
▁Zone	-11943
▁réaffir	-11944
▁donneurs	-11945
▁Engagements	-11946
▁surpr	-11947
équivalence	-11948
ino	-11949
▁CM	-11950
▁dues	-11951
▁recr	-11952
▁imprimée	-11953
▁bénéficie	-11954
▁comparative	-11955
mètre	-11956
IPC	-11957
▁discrimin	-11958
▁observateurs	-11959
euf	-11960
▁cuivre	-11961
▁jugées	-11962
obe	-11963
▁père	-11964
▁empir	-11965
▁joint	-11966
Nouvelle	-11967
▁ciblées	-11968
▁Bla	-11969
▁Points	-11970
▁explica	-11971
uns	-11972
▁SAF	-11973
▁Voy	-11974
▁Ha	-11975
spati	-11976
▁rembourser	-11977
éthanol	-11978
ument	-11979
▁Jose	-11980
▁reposent	-11981
Ph	-11982
▁Royal	-11983
aéroport	-11984
érons	-11985
▁ciblés	-11986
▁allocation	-11987
lub	-11988
▁Mémorandum	-11989
▁dénomination	-11990
▁remplit	-11991
▁Aj	-11992
▁hoc	-11993
▁écart	-11994
aspect	-11995
éronef	-11996
▁éventuelles	-11997
▁Médi	-11998
olement	-11999
▁FON	-12000
▁rel	-12001
▁crdi	-12002
ualité	-12003
▁harcèlement	-12004
établissements	-12005
▁placé	-12006
▁récipro	-12007
▁Lu	-12008
▁incluse	-12009
▁rapprochement	-12010
▁MD	-12011
▁questionnaires	-12012
NA	-12013
bury	-12014
▁maximiser	-12015
wi	-12016
sifs	-12017
▁enc	-12018
▁branche	-12019
▁compatibles	-12020
▁institutionnel	-12021
ètent	-12022
▁phil	-12023
▁télévis	-12024
ft	-12025
▁implique	-12026
▁Appr	-12027
▁charbon	-12028
nam	-12029
icides	-12030
▁Francophonie	-12031
▁Den	-12032
▁muni	-12033
hospit	-12034
▁Méthode	-12035
▁wh	-12036
▁respectives	-12037
▁sté	-12038
ougosla	-12039
▁voient	-12040
▁donnera	-12041
▁fiducies	-12042
▁ventilation	-12043
’«	-12044
atie	-12045
▁moral	-12046
▁parts	-12047
▁conjonc	-12048
▁discuté	-12049
astes	-12050
▁Créer	-12051
▁applique	-12052
▁hui	-12053
pla	-12054
▁Outils	-12055
▁Beaucoup	-12056
▁indirects	-12057
▁fonctionnelle	-12058
INSMT	-12059
▁mammi	-12060
▁rad	-12061
ym	-12062
▁Center	-12063
▁optique	-12064
▁sénateur	-12065
▁correctives	-12066
Je	-12067
ancienne	-12068
▁agissant	-12069
▁ouvertes	-12070
▁consulaires	-12071
▁êtres	-12072
leterre	-12073
optique	-12074
▁Europé	-12075
▁composer	-12076
▁anc	-12077
▁Création	-12078
▁renf	-12079
▁incer	-12080
▁chirurgie	-12081
▁regroupement	-12082
▁Hamilton	-12083
adresser	-12084
▁évaluée	-12085
▁distributeur	-12086
▁forêt	-12087
▁Principaux	-12088
▁handicapés	-12089
▁fid	-12090
▁Kings	-12091
▁places	-12092
VP	-12093
▁contrefa	-12094
▁extraordinaire	-12095
▁impéra	-12096
▁Suivant	-12097
▁caisse	-12098
▁hypoth	-12099
▁achemin	-12100
▁Caractér	-12101
▁Prévention	-12102
▁Prom	-12103
▁Wood	-12104
▁expose	-12105
obligations	-12106
▁ign	-12107
▁PROT	-12108
▁précip	-12109
▁Tend	-12110
▁clairs	-12111
▁réservé	-12112
UATION	-12113
oncton	-12114
▁créanciers	-12115
▁radiodiffus	-12116
lerie	-12117
▁TABLE	-12118
▁Discours	-12119
▁exercent	-12120
ISION	-12121
▁accueilli	-12122
annulation	-12123
▁inscription	-12124
▁Maritimes	-12125
entra	-12126
données	-12127
aviation	-12128
▁consultant	-12129
▁indé	-12130
lose	-12131
▁précède	-12132
▁résidenti	-12133
▁disparition	-12134
losion	-12135
▁stades	-12136
▁déroulement	-12137
▁os	-12138
▁initialement	-12139
▁mandats	-12140
▁rotation	-12141
▁sauvegarde	-12142
▁modélisation	-12143
▁sen	-12144
▁pira	-12145
▁MB	-12146
aises	-12147
▁chaud	-12148
▁comprises	-12149
ierie	-12150
Éducation	-12151
▁énumérées	-12152
▁disposé	-12153
atrie	-12154
▁Sond	-12155
unanimité	-12156
aill	-12157
▁Dal	-12158
▁chèque	-12159
▁portait	-12160
▁contes	-12161
▁corrélation	-12162
▁imprimés	-12163
EP	-12164
trition	-12165
analyser	-12166
▁exprimés	-12167
▁Excellence	-12168
▁université	-12169
éron	-12170
▁Changement	-12171
▁Déterminer	-12172
▁Compagnie	-12173
▁libres	-12174
▁acceptées	-12175
excell	-12176
▁syndicats	-12177
redi	-12178
armes	-12179
▁savons	-12180
▁facilit	-12181
▁PERS	-12182
▁homme	-12183
vol	-12184
AUT	-12185
▁cuis	-12186
essionn	-12187
▁Décisions	-12188
ilà	-12189
▁émo	-12190
▁absorb	-12191
▁compare	-12192
▁potentiellement	-12193
Inter	-12194
immersion	-12195
▁prescription	-12196
.:	-12197
arl	-12198
erte	-12199
▁matin	-12200
▁importé	-12201
ulsion	-12202
▁factures	-12203
▁diminue	-12204
▁affectées	-12205
Ed	-12206
▁abu	-12207
▁TRAV	-12208
▁Légis	-12209
▁exacte	-12210
▁organe	-12211
absorption	-12212
▁Er	-12213
Équipe	-12214
▁dépassé	-12215
ITY	-12216
▁mut	-12217
conseils	-12218
europa	-12219
ousses	-12220
▁illicite	-12221
▁White	-12222
▁faisons	-12223
▁contrôlés	-12224
▁probantes	-12225
ser	-12226
▁partagent	-12227
▁Rem	-12228
▁massi	-12229
▁centaines	-12230
neur	-12231
èvre	-12232
▁postal	-12233
gypte	-12234
▁foyer	-12235
▁conclue	-12236
▁découvertes	-12237
international	-12238
▁cohérente	-12239
▁Enregistrement	-12240
▁exer	-12241
lements	-12242
▁circuits	-12243
▁[...]	-12244
estation	-12245
▁assujettie	-12246
lever	-12247
▁marin	-12248
nouv	-12249
explique	-12250
▁horizon	-12251
▁surintendant	-12252
▁sentir	-12253
▁inquiétudes	-12254
mail	-12255
▁Références	-12256
▁australi	-12257
sier	-12258
▁Renforcer	-12259
onciation	-12260
▁Obligations	-12261
▁vulnérabilité	-12262
ONG	-12263
▁fen	-12264
▁imposé	-12265
▁entrera	-12266
▁transmise	-12267
info	-12268
▁Publication	-12269
armerie	-12270
▁côtières	-12271
▁Stand	-12272
ignante	-12273
▁décent	-12274
estes	-12275
▁vendues	-12276
▁néf	-12277
▁unies	-12278
arté	-12279
inée	-12280
ELLES	-12281
aimerais	-12282
▁oubli	-12283
="	-12284
sif	-12285
ammoni	-12286
▁inciter	-12287
▁prolongée	-12288
▁Spéci	-12289
▁fassent	-12290
▁adjointe	-12291
▁rencontré	-12292
▁catastrophes	-12293
na	-12294
▁Lo	-12295
▁adressée	-12296
▁rétablir	-12297
alcoolisme	-12298
▁tac	-12299
▁vendredi	-12300
▁Ach	-12301
▁CAS	-12302
▁DPA	-12303
▁Membre	-12304
▁intellig	-12305
▁dirigeant	-12306
▁établissent	-12307
▁Liv	-12308
sb	-12309
▁rare	-12310
▁peuple	-12311
▁réduits	-12312
▁distinguer	-12313
▁totalement	-12314
▁métabolisme	-12315
tiens	-12316
▁Case	-12317
▁lymp	-12318
▁bel	-12319
▁Champ	-12320
▁légale	-12321
▁monographie	-12322
▁Hab	-12323
▁mineurs	-12324
▁Rempl	-12325
cor	-12326
domin	-12327
usine	-12328
▁ouest	-12329
riques	-12330
▁examinera	-12331
▁Explorateur	-12332
▁manutention	-12333
ustry	-12334
cles	-12335
alphab	-12336
▁recommandons	-12337
▁Assurer	-12338
▁témoigne	-12339
ÉC	-12340
ministres	-12341
▁hebdomadaire	-12342
▁ES	-12343
▁comparable	-12344
▁Fir	-12345
▁renforcé	-12346
inscri	-12347
▁prenantes	-12348
▁ami	-12349
▁VII	-12350
▁classé	-12351
▁Certif	-12352
▁donneur	-12353
EMP	-12354
blé	-12355
▁alé	-12356
▁tubes	-12357
▁Reconn	-12358
▁Résultat	-12359
▁plur	-12360
▁troupes	-12361
insuffisance	-12362
▁aval	-12363
▁chrom	-12364
▁diffère	-12365
appréciation	-12366
▁attribuée	-12367
▁kilomètres	-12368
▁Île	-12369
▁mécanique	-12370
▁cod	-12371
▁sexuelles	-12372
▁recruter	-12373
page	-12374
▁Classe	-12375
▁inspection	-12376
▁documentaire	-12377
OEB	-12378
oulez	-12379
projet	-12380
entrevue	-12381
▁annonces	-12382
▁Préparation	-12383
exploiter	-12384
▁Synthèses	-12385
▁rat	-12386
▁concurrentielle	-12387
orés	-12388
▁AAC	-12389
▁Bas	-12390
▁degrés	-12391
▁réfrig	-12392
▁pourriez	-12393
tan	-12394
▁Distribution	-12395
▁soulève	-12396
▁jugée	-12397
▁Définitions	-12398
▁Perspectives	-12399
Etat	-12400
▁séch	-12401
App	-12402
▁modifie	-12403
▁coordonnée	-12404
accepter	-12405
tissements	-12406
▁préférable	-12407
▁lamin	-12408
▁manuels	-12409
▁avancées	-12410
▁Kir	-12411
▁URL	-12412
▁motion	-12413
viennent	-12414
▁retards	-12415
paras	-12416
▁baie	-12417
adress	-12418
ariats	-12419
▁vivants	-12420
exploitant	-12421
▁King	-12422
réation	-12423
▁ralentissement	-12424
▁sécher	-12425
▁estimer	-12426
▁Carol	-12427
▁diffèrent	-12428
Es	-12429
ime	-12430
▁bâtir	-12431
▁élaborée	-12432
▁certainement	-12433
▁’	-12434
ator	-12435
wealth	-12436
aïlande	-12437
▁Présence	-12438
▁distribués	-12439
▁touché	-12440
▁influen	-12441
▁ˆ	-12442
▁PP	-12443
▁jugés	-12444
extension	-12445
▁centraux	-12446
▁novateurs	-12447
▁récepteurs	-12448
▁composée	-12449
▁diagnostiqu	-12450
▁brutes	-12451
▁multimédi	-12452
▁retourner	-12453
▁Reine	-12454
▁Moncton	-12455
▁mauvaises	-12456
▁guér	-12457
▁Dispositifs	-12458
▁liné	-12459
▁Committee	-12460
ageux	-12461
appels	-12462
▁orienter	-12463
▁Moins	-12464
ponible	-12465
▁diesel	-12466
▁calculés	-12467
▁prouver	-12468
▁contacter	-12469
alifor	-12470
▁Ensemble	-12471
▁passeport	-12472
envis	-12473
santé	-12474
▁chèques	-12475
ativement	-12476
exprimer	-12477
▁écrites	-12478
▁chambres	-12479
▁sportives	-12480
▁consolider	-12481
▁chute	-12482
chômage	-12483
carbures	-12484
▁comprise	-12485
▁demandant	-12486
▁arbres	-12487
▁métalliques	-12488
▁lu	-12489
irsc	-12490
▁fonci	-12491
▁chauss	-12492
▁quai	-12493
▁exécutants	-12494
key	-12495
▁magazine	-12496
▁limitations	-12497
▁forts	-12498
▁adresses	-12499
thé	-12500
ickel	-12501
▁imprimer	-12502
▁complications	-12503
actives	-12504
▁voiture	-12505
écla	-12506
imposent	-12507
nière	-12508
▁flexibilité	-12509
▁blo	-12510
▁ASS	-12511
▁réviser	-12512
▁vérificateurs	-12513
▁formulé	-12514
instauration	-12515
▁Gendarmerie	-12516
stein	-12517
▁exigeant	-12518
▁blanchiment	-12519
ADI	-12520
plantation	-12521
▁améliorés	-12522
ATA	-12523
▁limitation	-12524
▁traditions	-12525
▁Anci	-12526
TIQUES	-12527
nels	-12528
▁publicitaires	-12529
ducteur	-12530
▁fonctionnels	-12531
▁Bru	-12532
▁Équip	-12533
▁segments	-12534
▁catalogue	-12535
▁index	-12536
▁Modèle	-12537
▁connues	-12538
▁horaire	-12539
▁Salmon	-12540
▁diverg	-12541
▁adéquats	-12542
ône	-12543
deux	-12544
cihr	-12545
▁Marie	-12546
appartenance	-12547
▁pénurie	-12548
▁percevoir	-12549
ersion	-12550
▁Faits	-12551
acquis	-12552
produits	-12553
▁Institution	-12554
aborder	-12555
▁contest	-12556
▁Bud	-12557
▁réunit	-12558
▁respectant	-12559
▁caution	-12560
infraction	-12561
▁contractants	-12562
▁RCE	-12563
▁Téléfilm	-12564
▁sécuritaires	-12565
TIT	-12566
▁élus	-12567
DUCTION	-12568
▁placés	-12569
taxe	-12570
iront	-12571
othérapie	-12572
prud	-12573
ouler	-12574
opathie	-12575
▁sièges	-12576
▁totalis	-12577
enu	-12578
ournal	-12579
unités	-12580
▁Scotia	-12581
▁venant	-12582
▁dirigée	-12583
▁représentés	-12584
▁huiles	-12585
▁Strate	-12586
ïn	-12587
▁Us	-12588
ppes	-12589
▁regroupe	-12590
itud	-12591
▁furent	-12592
▁phono	-12593
▁mascul	-12594
▁achev	-12595
▁lancée	-12596
▁Children	-12597
▁antérieur	-12598
JO	-12599
▁RÉGI	-12600
▁pommes	-12601
▁survenus	-12602
▁juridiction	-12603
▁MATI	-12604
▁Frank	-12605
▁exclusif	-12606
▁périodiquement	-12607
arienne	-12608
ILLE	-12609
▁TECH	-12610
▁brève	-12611
▁Social	-12612
▁rejeté	-12613
LS	-12614
▁mobilisation	-12615
▁ceci	-12616
▁Avantages	-12617
▁Réper	-12618
▁perçue	-12619
▁actives	-12620
tral	-12621
illages	-12622
▁Statut	-12623
▁menant	-12624
▁carburants	-12625
▁soumissionn	-12626
▁antérieurement	-12627
▁insec	-12628
▁prémat	-12629
▁couramment	-12630
./	-12631
tienne	-12632
▁finalement	-12633
ultural	-12634
▁participante	-12635
irage	-12636
▁canaux	-12637
▁identique	-12638
chang	-12639
▁bioméd	-12640
▁quitter	-12641
▁Michel	-12642
▁attribuer	-12643
▁expansion	-12644
▁Sw	-12645
sous	-12646
▁Dani	-12647
▁stables	-12648
▁affecter	-12649
▁graphiques	-12650
inal	-12651
intéressent	-12652
............	-12653
▁manifestation	-12654
▁employées	-12655
ee	-12656
▁UNE	-12657
lants	-12658
▁tables	-12659
▁ethnoculture	-12660
field	-12661
▁rejo	-12662
▁exigée	-12663
▁optimale	-12664
avocat	-12665
▁sanguins	-12666
▁restreinte	-12667
▁hôte	-12668
▁saines	-12669
▁corporel	-12670
▁classées	-12671
▁abro	-12672
▁System	-12673
▁PAY	-12674
▁quinqu	-12675
▁disciplin	-12676
▁réseautage	-12677
▁marqu	-12678
institut	-12679
▁excellent	-12680
▁Eng	-12681
américaine	-12682
▁Consultez	-12683
▁PROGRAMME	-12684
▁Calendrier	-12685
▁pneu	-12686
▁secours	-12687
▁mammifères	-12688
▁opérateurs	-12689
▁Pér	-12690
▁prestataire	-12691
▁élaboration	-12692
▁Commonwealth	-12693
IALA	-12694
▁Viet	-12695
épidémi	-12696
expliquer	-12697
▁tradition	-12698
tionnellement	-12699
mm	-12700
▁féminine	-12701
▁antiparas	-12702
▁richesse	-12703
▁précisant	-12704
▁Partenaires	-12705
▁gripp	-12706
▁anomal	-12707
▁Coopération	-12708
iterran	-12709
▁del	-12710
▁calcium	-12711
▁repérer	-12712
▁séquences	-12713
HA	-12714
ots	-12715
.(	-12716
▁confère	-12717
llèlement	-12718
▁ital	-12719
▁postsecondaires	-12720
▁Anne	-12721
▁époque	-12722
épreu	-12723
▁municipal	-12724
▁contempora	-12725
.]	-12726
EMS	-12727
▁How	-12728
▁COMP	-12729
▁délivrer	-12730
▁envergure	-12731
▁Sam	-12732
▁acquit	-12733
▁inadéqu	-12734
▁approfondi	-12735
▁régulières	-12736
UX	-12737
▁phén	-12738
impose	-12739
Con	-12740
ull	-12741
▁Croatie	-12742
▁cliniciens	-12743
▁satisfaisante	-12744
▁liquid	-12745
▁antibio	-12746
▁consistent	-12747
????	-12748
▁Clar	-12749
▁disques	-12750
▁notifier	-12751
▁réalités	-12752
ÔT	-12753
▁convo	-12754
▁gérés	-12755
▁Region	-12756
▁commémo	-12757
rase	-12758
▁appartiennent	-12759
▁bé	-12760
▁CCE	-12761
UTION	-12762
onférence	-12763
dont	-12764
isprud	-12765
▁Situation	-12766
ONE	-12767
oty	-12768
▁habitat	-12769
holm	-12770
▁Bureaux	-12771
▁défendre	-12772
▁brièvement	-12773
▁Philippines	-12774
VA	-12775
▁éli	-12776
▁Déta	-12777
▁Appui	-12778
▁raccord	-12779
▁fabriqué	-12780
automobile	-12781
▁Facil	-12782
▁mensuel	-12783
▁race	-12784
▁injus	-12785
▁tente	-12786
ÉRATION	-12787
▁souche	-12788
▁Parallèlement	-12789
▁Island	-12790
▁énoncée	-12791
thor	-12792
▁exactement	-12793
rép	-12794
▁RO	-12795
▁cérémonie	-12796
▁ARTICLE	-12797
▁confér	-12798
▁japonais	-12799
▁Thaïlande	-12800
▁Gh	-12801
étale	-12802
▁vécu	-12803
▁éto	-12804
▁peines	-12805
▁températures	-12806
ARS	-12807
▁voulez	-12808
audience	-12809
▁sectorielles	-12810
▁indépendamment	-12811
levé	-12812
▁oeuv	-12813
▁Lettre	-12814
▁maintenance	-12815
▁Contributions	-12816
orat	-12817
▁livrer	-12818
▁prélevés	-12819
▁compenser	-12820
kin	-12821
▁Red	-12822
▁Van	-12823
▁Vir	-12824
▁dessus	-12825
▁innovatrices	-12826
▁noir	-12827
omptes	-12828
ISSION	-12829
▁indices	-12830
▁postérieure	-12831
▁potentielle	-12832
▁She	-12833
▁faux	-12834
▁bateau	-12835
▁denrées	-12836
entrer	-12837
▁traduire	-12838
▁industrialisés	-12839
▁Economic	-12840
▁Répartition	-12841
▁Collec	-12842
▁dégager	-12843
ministrer	-12844
▁coutu	-12845
▁endomm	-12846
▁contenue	-12847
ertion	-12848
▁Proch	-12849
▁protège	-12850
▁Articles	-12851
▁esprit	-12852
▁renvoy	-12853
▁Message	-12854
▁permettraient	-12855
▁PRI	-12856
▁intèg	-12857
▁Hill	-12858
▁vertic	-12859
▁agriculture	-12860
––	-12861
ally	-12862
▁Sauf	-12863
▁filiale	-12864
▁influer	-12865
▁propice	-12866
▁vacances	-12867
▁diligence	-12868
▁Destination	-12869
▁LI	-12870
enic	-12871
▁tôles	-12872
atrices	-12873
détermin	-12874
▁maintenu	-12875
▁africaine	-12876
▁disparités	-12877
▁conviendrait	-12878
éle	-12879
loir	-12880
écran	-12881
landais	-12882
individu	-12883
▁préavis	-12884
▁morb	-12885
asthme	-12886
Irlande	-12887
▁jet	-12888
lète	-12889
▁wag	-12890
▁imposés	-12891
▁Beau	-12892
roid	-12893
▁passent	-12894
▁Amériques	-12895
▁dénomm	-12896
▁mesurée	-12897
▁extérieurs	-12898
▁répété	-12899
▁Énoncé	-12900
▁Population	-12901
images	-12902
▁transitoire	-12903
▁multination	-12904
PPE	-12905
trage	-12906
appliquera	-12907
igner	-12908
▁tranche	-12909
▁excessive	-12910
SCE	-12911
▁Nova	-12912
▁Postes	-12913
▁garantiss	-12914
▁exécutions	-12915
ster	-12916
▁pel	-12917
▁Golfe	-12918
▁rand	-12919
▁parlé	-12920
▁hasard	-12921
ercredi	-12922
▁améliore	-12923
▁Organismes	-12924
SPNI	-12925
antaine	-12926
▁placer	-12927
▁ID	-12928
embauche	-12929
▁immunitaires	-12930
▁compensateurs	-12931
rédi	-12932
▁basées	-12933
UES	-12934
▁turb	-12935
▁visible	-12936
▁hospitaliers	-12937
ISA	-12938
▁Aliments	-12939
▁Afghanistan	-12940
▁révisées	-12941
immobilisations	-12942
uss	-12943
▁administre	-12944
▁Cat	-12945
housi	-12946
outch	-12947
▁DS	-12948
▁Idris	-12949
▁Précédent	-12950
ingén	-12951
▁ench	-12952
oxygène	-12953
▁chaires	-12954
uniformité	-12955
trée	-12956
▁cellulaires	-12957
▁connec	-12958
▁Autorisation	-12959
▁accrues	-12960
architecture	-12961
▁Bang	-12962
▁STR	-12963
▁PRIN	-12964
▁équiv	-12965
▁Qualité	-12966
▁concrétis	-12967
▁Long	-12968
▁animales	-12969
▁exclusive	-12970
▁consultants	-12971
▁occupent	-12972
▁accroissement	-12973
ASPC	-12974
▁Mun	-12975
▁NOM	-12976
▁March	-12977
▁CB	-12978
▁CIP	-12979
▁Guerre	-12980
▁inaccep	-12981
▁subdiv	-12982
▁Emploi	-12983
▁Ev	-12984
▁uns	-12985
tisme	-12986
▁Global	-12987
entendre	-12988
▁améliorant	-12989
▁Don	-12990
▁Inv	-12991
▁acide	-12992
▁délim	-12993
▁éclairé	-12994
étalonnage	-12995
▁consortium	-12996
▁Instructions	-12997
efforce	-12998
▁Review	-12999
sans	-13000
▁adaptée	-13001
▁CENT	-13002
▁contrôlé	-13003
▁constituait	-13004
MO	-13005
cular	-13006
▁requiert	-13007
ennal	-13008
▁longs	-13009
▁quotas	-13010
▁dic	-13011
▁hété	-13012
▁expression	-13013
ilaté	-13014
▁finales	-13015
▁effluents	-13016
ava	-13017
cules	-13018
lifération	-13019
▁observation	-13020
▁retrouver	-13021
▁Mur	-13022
▁Clin	-13023
▁Kyoto	-13024
▁interrogées	-13025
▁guich	-13026
▁symbole	-13027
▁employée	-13028
▁surve	-13029
▁audiences	-13030
▁intégrale	-13031
▁Beso	-13032
inguisme	-13033
▁archives	-13034
▁explication	-13035
IDE	-13036
▁>>	-13037
▁AP	-13038
uline	-13039
▁Â	-13040
▁Professe	-13041
▁concertée	-13042
▁Directives	-13043
▁satellites	-13044
▁séries	-13045
▁excédentaire	-13046
abilités	-13047
▁subsistance	-13048
ingrédi	-13049
▁stages	-13050
▁diversification	-13051
▁cosmé	-13052
▁Anderson	-13053
▁pourcent	-13054
implantation	-13055
OUS	-13056
▁pensent	-13057
▁Ban	-13058
avère	-13059
atisf	-13060
phère	-13061
ial	-13062
▁poussée	-13063
soit	-13064
▁FAQ	-13065
▁auxiliaires	-13066
▁Arch	-13067
▁décentral	-13068
▁Atlantique	-13069
now	-13070
▁correctionnel	-13071
▁noy	-13072
armée	-13073
gni	-13074
▁quinze	-13075
▁engager	-13076
▁ouvrant	-13077
fiant	-13078
▁schéma	-13079
ories	-13080
▁citoyen	-13081
▁domestiques	-13082
▁Green	-13083
▁Contacts	-13084
▁espagnol	-13085
▁affections	-13086
▁Conservation	-13087
▁Bio	-13088
▁dévou	-13089
▁amortissement	-13090
'«	-13091
ciaux	-13092
posés	-13093
licites	-13094
▁record	-13095
▁sénateurs	-13096
▁exportées	-13097
▁contrefaçon	-13098
▁CPC	-13099
▁Chem	-13100
▁bibli	-13101
AAC	-13102
▁ved	-13103
▁dettes	-13104
fu	-13105
MANDE	-13106
▁fiche	-13107
▁Thomas	-13108
▁Recettes	-13109
▁Personnel	-13110
▁parallèles	-13111
prof	-13112
▁Control	-13113
▁manufactur	-13114
osoph	-13115
▁sole	-13116
▁spiritueux	-13117
▁visualiser	-13118
▁corporation	-13119
▁divulguer	-13120
pub	-13121
▁AUTRES	-13122
▁Command	-13123
▁Windsor	-13124
▁génomique	-13125
▁XXI	-13126
▁Well	-13127
léments	-13128
▁ensembles	-13129
▁EDC	-13130
École	-13131
▁toxique	-13132
▁acceptés	-13133
SR	-13134
▁leaders	-13135
graphique	-13136
utan	-13137
▁High	-13138
groupes	-13139
Manitoba	-13140
assement	-13141
notamment	-13142
▁statis	-13143
▁laissent	-13144
▁limitent	-13145
▁majeures	-13146
▁PAC	-13147
▁TER	-13148
érale	-13149
ÁÁ	-13150
omètre	-13151
▁prévoyait	-13152
▁inspecteurs	-13153
rey	-13154
▁recul	-13155
▁prononcé	-13156
▁moderniser	-13157
difice	-13158
▁franchise	-13159
▁journalistes	-13160
▁Ser	-13161
hé	-13162
▁cibler	-13163
▁dérogation	-13164
▁mathé	-13165
oe	-13166
enir	-13167
GH	-13168
itude	-13169
▁Étape	-13170
▁civiles	-13171
▁prélèvement	-13172
orn	-13173
▁postd	-13174
▁PUBLIC	-13175
▁arrivée	-13176
élo	-13177
oulée	-13178
▁combinés	-13179
▁thérapie	-13180
UMÉ	-13181
efforts	-13182
▁Anglais	-13183
ANO	-13184
ièrent	-13185
ization	-13186
▁riches	-13187
▁estimée	-13188
▁enregistrer	-13189
▁rén	-13190
▁trouble	-13191
ova	-13192
▁GE	-13193
▁vaut	-13194
vaquie	-13195
attirer	-13196
section	-13197
▁résumés	-13198
▁supports	-13199
▁potentielles	-13200
och	-13201
ritan	-13202
assique	-13203
yr	-13204
▁diffusé	-13205
▁rendements	-13206
rane	-13207
▁morte	-13208
artiste	-13209
▁avoirs	-13210
▁DEMANDE	-13211
▁assume	-13212
▁secret	-13213
▁longitud	-13214
▁passeports	-13215
espoir	-13216
▁press	-13217
Journal	-13218
▁indica	-13219
illus	-13220
acheter	-13221
▁aériennes	-13222
▁suffisants	-13223
▁redressement	-13224
▁déductions	-13225
********	-13226
▁évaluateurs	-13227
DM	-13228
ll	-13229
▁sixième	-13230
ij	-13231
▁dite	-13232
valles	-13233
▁phrase	-13234
▁présum	-13235
▁chlorure	-13236
▁Remboursement	-13237
ERT	-13238
▁dépassant	-13239
Alliance	-13240
▁lourd	-13241
▁riche	-13242
▁rendues	-13243
▁coupable	-13244
▁épreuves	-13245
▁préalables	-13246
▁quotidiens	-13247
canada	-13248
▁circulaire	-13249
▁simultanément	-13250
ularité	-13251
intéresse	-13252
▁absolument	-13253
▁ME	-13254
▁engage	-13255
utilisateurs	-13256
iendront	-13257
▁nutriments	-13258
ope	-13259
▁ingénie	-13260
▁fiduciaire	-13261
olus	-13262
Cl	-13263
réqu	-13264
▁tribu	-13265
▁ajoutés	-13266
▁entraîneurs	-13267
GP	-13268
fac	-13269
roï	-13270
isprudence	-13271
▁machinerie	-13272
▁ml	-13273
alise	-13274
▁Sensi	-13275
▁appuyant	-13276
AGCS	-13277
auth	-13278
diff	-13279
octo	-13280
▁Pérou	-13281
▁Sites	-13282
▁chimie	-13283
▁couleurs	-13284
▁uniformes	-13285
accumulation	-13286
▁Exportateur	-13287
▁coton	-13288
▁Sondage	-13289
▁électro	-13290
▁constituant	-13291
▁_	-13292
▁ralenti	-13293
▁détérioration	-13294
den	-13295
mium	-13296
▁RMR	-13297
incor	-13298
▁faciles	-13299
issantes	-13300
▁viables	-13301
▁vérifiés	-13302
▁Hel	-13303
▁verse	-13304
▁superf	-13305
▁Exemples	-13306
adémie	-13307
▁Autrement	-13308
▁Promouvoir	-13309
aste	-13310
ules	-13311
éter	-13312
▁forums	-13313
osciences	-13314
▁envisagé	-13315
▁Conseiller	-13316
▁Législation	-13317
▁Responsable	-13318
▁Augmentation	-13319
▁Période	-13320
▁dentaire	-13321
élérer	-13322
▁mous	-13323
OIR	-13324
PPT	-13325
emprunt	-13326
▁RENSEIGNEMENT	-13327
nia	-13328
▁annex	-13329
▁remboursable	-13330
▁‘	-13331
ycle	-13332
▁NATION	-13333
▁bovins	-13334
▁suivis	-13335
▁comptait	-13336
▁bruit	-13337
endront	-13338
▁exportés	-13339
rable	-13340
▁BR	-13341
▁Signature	-13342
▁correspondants	-13343
▁copro	-13344
représent	-13345
▁Faites	-13346
▁majeurs	-13347
▁revenir	-13348
▁collectifs	-13349
▁permanence	-13350
▁réunis	-13351
investi	-13352
▁inspir	-13353
▁remercié	-13354
medi	-13355
▁Soins	-13356
▁couvert	-13357
▁clarté	-13358
▁générer	-13359
angle	-13360
▁génériques	-13361
gn	-13362
▁prescrite	-13363
ceau	-13364
tour	-13365
well	-13366
RIP	-13367
ows	-13368
▁absence	-13369
▁féri	-13370
▁syste	-13371
▁exacts	-13372
▁révisions	-13373
▁consistait	-13374
uba	-13375
icie	-13376
▁vide	-13377
▁posées	-13378
▁fonctionnent	-13379
règ	-13380
ruguay	-13381
▁indigènes	-13382
▁Technologie	-13383
▁Mer	-13384
▁Pay	-13385
▁consultés	-13386
▁Éducation	-13387
▁poursuivra	-13388
▁encourageant	-13389
▁grade	-13390
▁venus	-13391
▁enfance	-13392
▁espaces	-13393
risonnement	-13394
▁Fav	-13395
▁devrez	-13396
▁désirez	-13397
▁Fax	-13398
chauff	-13399
▁Govern	-13400
▁charte	-13401
▁débiteur	-13402
GLEMENT	-13403
▁Stockholm	-13404
▁calibre	-13405
▁condu	-13406
▁respectu	-13407
VS	-13408
invent	-13409
▁échang	-13410
▁délivrés	-13411
▁coefficient	-13412
▁lin	-13413
▁Miss	-13414
▁Pièce	-13415
▁congel	-13416
▁oblige	-13417
▁portuaire	-13418
INES	-13419
▁sat	-13420
quets	-13421
▁omis	-13422
aldéhyde	-13423
▁caoutch	-13424
▁constant	-13425
dg	-13426
UNES	-13427
▁universelle	-13428
onal	-13429
▁devenus	-13430
▁soulevé	-13431
liv	-13432
▁RPA	-13433
▁excellente	-13434
SIDA	-13435
apest	-13436
za	-13437
ota	-13438
tacle	-13439
▁câble	-13440
▁immunitaire	-13441
▁largeur	-13442
▁Esc	-13443
▁sommaires	-13444
▁administrer	-13445
anet	-13446
▁permission	-13447
investissements	-13448
▁commercialisés	-13449
DD	-13450
▁boîte	-13451
offrent	-13452
atriques	-13453
▁provisionn	-13454
▁conjoncture	-13455
eum	-13456
▁infanti	-13457
oke	-13458
▁Sum	-13459
document	-13460
essentiel	-13461
▁garantit	-13462
▁obtiennent	-13463
▁créent	-13464
spatiale	-13465
▁révocation	-13466
▁barres	-13467
▁aviaire	-13468
▁salariés	-13469
eci	-13470
osp	-13471
▁organisationnel	-13472
▁surp	-13473
bri	-13474
aies	-13475
osée	-13476
abeth	-13477
Toronto	-13478
▁échéance	-13479
▁structurelles	-13480
▁Porte	-13481
▁Califor	-13482
▁GESTION	-13483
▁couvrant	-13484
▁Photo	-13485
▁mélanges	-13486
▁DC	-13487
▁Français	-13488
ere	-13489
ositions	-13490
incapacité	-13491
échanges	-13492
▁cutan	-13493
▁sportive	-13494
▁structurels	-13495
▁équivalents	-13496
vants	-13497
▁proto	-13498
imposer	-13499
wipo	-13500
▁Ouv	-13501
▁nerv	-13502
▁Résolution	-13503
érosion	-13504
▁causée	-13505
▁développements	-13506
▁agréés	-13507
rans	-13508
ilier	-13509
▁magasin	-13510
immig	-13511
investir	-13512
▁renvois	-13513
▁Jeunesse	-13514
▁fabriquer	-13515
▁alcool	-13516
ypre	-13517
▁Mary	-13518
▁cinéma	-13519
▁Lettonie	-13520
▁faculté	-13521
▁bienvenue	-13522
▁décrivant	-13523
etteur	-13524
def	-13525
▁débuté	-13526
selon	-13527
▁répar	-13528
interne	-13529
▁cohorte	-13530
appliquant	-13531
▁quiconque	-13532
▁patr	-13533
▁avancée	-13534
▁recevront	-13535
▁universel	-13536
▁nourrissons	-13537
▁palier	-13538
▁respecté	-13539
essment	-13540
▁Semaine	-13541
▁Leurs	-13542
▁appré	-13543
▁Instal	-13544
▁nominations	-13545
icaux	-13546
▁tensions	-13547
▁terminologie	-13548
intendance	-13549
▁RENSEIGNEMENTS	-13550
▁qualifications	-13551
▁FOR	-13552
▁PIC	-13553
▁accent	-13554
▁proches	-13555
▁exercées	-13556
▁Alex	-13557
▁Maroc	-13558
▁dispara	-13559
▁réglementer	-13560
oms	-13561
accala	-13562
▁Mach	-13563
▁sel	-13564
▁soleil	-13565
▁voulant	-13566
DO	-13567
▁î	-13568
autant	-13569
▁Inves	-13570
ituanie	-13571
▁MAN	-13572
▁portés	-13573
.;	-13574
▁inex	-13575
▁fluor	-13576
▁Israël	-13577
enquêtes	-13578
▁Mat	-13579
▁remarquable	-13580
▁basse	-13581
énomination	-13582
▁immédiat	-13583
▁semestre	-13584
▁Tendances	-13585
CSA	-13586
▁jud	-13587
▁Scott	-13588
appelant	-13589
autoriser	-13590
▁renforcée	-13591
▁Jim	-13592
▁révéler	-13593
▁bébés	-13594
▁Encour	-13595
ILL	-13596
▁créées	-13597
▁attribuées	-13598
▁multilatérales	-13599
▁avion	-13600
▁cogni	-13601
▁froid	-13602
▁défavor	-13603
▁consacre	-13604
▁motivation	-13605
▁ajustements	-13606
▁explicitement	-13607
▁FORM	-13608
RODUCTION	-13609
▁protéine	-13610
)).	-13611
armac	-13612
housie	-13613
▁agence	-13614
aver	-13615
▁mentorat	-13616
▁efficiente	-13617
kes	-13618
ignez	-13619
▁Moyenne	-13620
▁plaignant	-13621
▁HIV	-13622
▁Jam	-13623
Entente	-13624
▁spécifiés	-13625
▁CSA	-13626
▁mex	-13627
▁̈re	-13628
▁vitamine	-13629
▁Lind	-13630
▁indice	-13631
▁Irlande	-13632
▁Budapest	-13633
administrer	-13634
idés	-13635
▁SYN	-13636
TPSGC	-13637
cro	-13638
▁manus	-13639
▁tenté	-13640
▁sûrs	-13641
▁améliorées	-13642
▁modules	-13643
▁Sociétés	-13644
▁satisfont	-13645
▁Pak	-13646
▁Chypre	-13647
▁Kar	-13648
▁Joseph	-13649
▁Mandat	-13650
▁sperme	-13651
▁précaution	-13652
▁Partenariats	-13653
onération	-13654
▁Lois	-13655
▁catalyse	-13656
▁réservoirs	-13657
▁Kos	-13658
▁Place	-13659
▁envisagées	-13660
▁NS	-13661
obstant	-13662
▁implant	-13663
osant	-13664
heimer	-13665
▁approuve	-13666
▁conces	-13667
▁fiches	-13668
▁modeste	-13669
▁multilatéral	-13670
Armée	-13671
humidité	-13672
▁causées	-13673
▁embry	-13674
▁PB	-13675
▁posé	-13676
▁populaires	-13677
▁rechercher	-13678
▁mesuré	-13679
▁Toxic	-13680
▁problématique	-13681
▁Malheureusement	-13682
▁Road	-13683
figure	-13684
▁consommer	-13685
▁effectuent	-13686
▁herbes	-13687
▁usages	-13688
▁grappes	-13689
taine	-13690
service	-13691
▁termine	-13692
▁gastro	-13693
▁rajustements	-13694
Santé	-13695
▁this	-13696
▁avantageux	-13697
attache	-13698
▁habituelle	-13699
▁prescrites	-13700
▁équitables	-13701
▁phonogrammes	-13702
▁jum	-13703
ORATION	-13704
▁encouragé	-13705
▁intervalles	-13706
leton	-13707
▁correspondante	-13708
▁enzy	-13709
itt	-13710
rég	-13711
▁Orient	-13712
▁souhaité	-13713
écosystème	-13714
▁sinon	-13715
cula	-13716
▁philosoph	-13717
led	-13718
opport	-13719
▁écrits	-13720
accalauréat	-13721
▁Ê	-13722
▁SEBC	-13723
▁précur	-13724
▁mainlevée	-13725
▁Réduire	-13726
▁Contrairement	-13727
ommage	-13728
▁rachat	-13729
Ang	-13730
▁Maur	-13731
▁dign	-13732
▁morbidité	-13733
▁succession	-13734
▁Rev	-13735
▁inutil	-13736
▁retiré	-13737
▁achetés	-13738
▁Facteurs	-13739
▁remplacée	-13740
▁cerc	-13741
injection	-13742
▁Codes	-13743
▁Products	-13744
▁forestiers	-13745
▁mamm	-13746
▁retrans	-13747
▁Lituanie	-13748
▁vocation	-13749
▁Coalition	-13750
TIV	-13751
▁réjou	-13752
▁choisie	-13753
▁suscité	-13754
▁délinquants	-13755
▁poursuivent	-13756
▁œuv	-13757
droit	-13758
▁First	-13759
▁certitude	-13760
▁conscients	-13761
nrc	-13762
mann	-13763
▁exprimée	-13764
▁provoquer	-13765
épidémiologie	-13766
hospitalisation	-13767
▁District	-13768
▁Accroître	-13769
▁substitution	-13770
Inf	-13771
NES	-13772
chette	-13773
▁DOCUM	-13774
▁fluctuations	-13775
▁LIS	-13776
issants	-13777
▁foyers	-13778
▁fun	-13779
▁présentera	-13780
▁CCT	-13781
▁protec	-13782
éricains	-13783
▁Tob	-13784
▁use	-13785
ictions	-13786
▁Produit	-13787
▁abordés	-13788
▁religion	-13789
▁Bosnie	-13790
▁réparations	-13791
▁Rôle	-13792
▁Ra	-13793
▁CCC	-13794
▁Graph	-13795
▁DMV	-13796
UC	-13797
▁municipale	-13798
▁occidental	-13799
enrichissement	-13800
osité	-13801
▁séquence	-13802
▁injection	-13803
▁transparent	-13804
▁SMC	-13805
▁Foire	-13806
▁informateurs	-13807
extr	-13808
▁croyons	-13809
▁habilité	-13810
▁Dalhousie	-13811
▁mécaniques	-13812
▁produisant	-13813
aisie	-13814
▁sensibil	-13815
ita	-13816
▁profits	-13817
▁trouvant	-13818
▁SOCI	-13819
▁PERSONN	-13820
▁»).	-13821
officier	-13822
▁globaux	-13823
orogation	-13824
▁ANN	-13825
▁mexica	-13826
▁dresser	-13827
tinence	-13828
ublement	-13829
▁chargement	-13830
▁concession	-13831
▁évolué	-13832
estivals	-13833
▁panneaux	-13834
▁émission	-13835
▁identifiées	-13836
▁DÉC	-13837
ritanniques	-13838
▁pharmaciens	-13839
▁excédentaires	-13840
éen	-13841
ISES	-13842
▁arr	-13843
▁Côte	-13844
ébauche	-13845
▁classique	-13846
▁génétiquement	-13847
▁Abstra	-13848
▁rehausser	-13849
dan	-13850
▁envoyées	-13851
phén	-13852
▁Slovaquie	-13853
▁maternité	-13854
▁contrairement	-13855
▁Costa	-13856
▁Nice	-13857
opharmaceu	-13858
uclé	-13859
▁analysé	-13860
▁prolongation	-13861
▁LP	-13862
▁compteur	-13863
ecine	-13864
▁nécessitant	-13865
▁Cra	-13866
▁Sun	-13867
▁Ensuite	-13868
vas	-13869
Edmonton	-13870
istantes	-13871
▁subordonn	-13872
▁Pal	-13873
INI	-13874
▁ferait	-13875
▁jurisprudence	-13876
▁café	-13877
Saskat	-13878
▁exprimer	-13879
▁représentait	-13880
▁CF	-13881
▁Enter	-13882
▁limit	-13883
▁expert	-13884
▁parfaitement	-13885
fety	-13886
▁lip	-13887
arter	-13888
▁Bill	-13889
▁Prop	-13890
ustrali	-13891
▁avocat	-13892
occupent	-13893
▁assimil	-13894
MG	-13895
▁bra	-13896
ologue	-13897
▁soustra	-13898
▁recevant	-13899
▁bénévolat	-13900
▁solidarité	-13901
▁préfér	-13902
▁mariage	-13903
▁dynamiques	-13904
▁forfaitaire	-13905
▁reconnaissant	-13906
verbal	-13907
▁renferm	-13908
▁caoutchouc	-13909
émer	-13910
raines	-13911
▁détenir	-13912
▁quartier	-13913
▁rémunérés	-13914
▁significatives	-13915
ual	-13916
▁Amb	-13917
▁Gene	-13918
▁roul	-13919
▁insisté	-13920
▁ERP	-13921
▁Rog	-13922
eutiques	-13923
Su	-13924
ko	-13925
tieux	-13926
▁analogue	-13927
▁félicite	-13928
▁collaborateurs	-13929
▁Priorités	-13930
ÉTÉ	-13931
enciers	-13932
SNG	-13933
▁Diver	-13934
▁exister	-13935
▁dissolution	-13936
▁variabilité	-13937
ÈME	-13938
▁FDA	-13939
▁Camb	-13940
▁matériau	-13941
ACH	-13942
SID	-13943
▁voc	-13944
▁affiches	-13945
▁Procédure	-13946
interventions	-13947
▁Identification	-13948
▁Doma	-13949
▁viser	-13950
▁permanentes	-13951
▁Près	-13952
▁revêt	-13953
▁CONCER	-13954
amines	-13955
▁concurrentiels	-13956
▁via	-13957
iliers	-13958
▁mobiliser	-13959
▁Précisions	-13960
▁exploitant	-13961
▁THE	-13962
visions	-13963
VALUATION	-13964
rine	-13965
tiendra	-13966
▁radioc	-13967
OH	-13968
▁Estim	-13969
▁choisies	-13970
▁relié	-13971
▁demandez	-13972
▁traumatis	-13973
▁nationalité	-13974
▁espère	-13975
▁PRODUITS	-13976
Article	-13977
ratoire	-13978
▁douanière	-13979
ena	-13980
▁Lic	-13981
▁Radi	-13982
▁métier	-13983
génicité	-13984
envisager	-13985
▁comprenaient	-13986
▁souscrit	-13987
▁justificatives	-13988
PRI	-13989
atisation	-13990
directeur	-13991
▁échelons	-13992
▁évidente	-13993
▁Ltée	-13994
▁inorgan	-13995
urn	-13996
orce	-13997
▁Good	-13998
▁affiche	-13999
▁explorer	-14000
▁susmentionnées	-14001
▁exploite	-14002
production	-14003
▁postdocto	-14004
▁remboursables	-14005
▁IPC	-14006
▁counselling	-14007
▁Avez	-14008
▁psychologique	-14009
rome	-14010
çage	-14011
asile	-14012
zheimer	-14013
▁désaccord	-14014
cla	-14015
Comm	-14016
▁féc	-14017
estime	-14018
▁attente	-14019
▁ordonnances	-14020
ye	-14021
▁Black	-14022
▁Alliance	-14023
roalimentaires	-14024
istante	-14025
uil	-14026
▁pêcher	-14027
▁fonctionnelles	-14028
AFE	-14029
▁aidant	-14030
▁acquisitions	-14031
▁Ol	-14032
rigation	-14033
▁intellec	-14034
oung	-14035
ricul	-14036
expert	-14037
▁Choix	-14038
▁guère	-14039
▁rigoureux	-14040
tos	-14041
▁ça	-14042
▁Perm	-14043
▁PROJET	-14044
accompag	-14045
▁faiblesses	-14046
tex	-14047
▁bienfaits	-14048
▁manipulation	-14049
analyses	-14050
▁maximales	-14051
▁inégalités	-14052
Nor	-14053
▁rendez	-14054
▁répert	-14055
▁combiné	-14056
apprendre	-14057
▁FE	-14058
ordon	-14059
▁Ray	-14060
▁Livre	-14061
▁coupe	-14062
▁maintient	-14063
▁fondations	-14064
glas	-14065
▁alphab	-14066
▁RÈ	-14067
▁***	-14068
▁chanti	-14069
▁laissé	-14070
▁mutuellement	-14071
▁DIN	-14072
éreur	-14073
éditeur	-14074
accélérer	-14075
▁Utiliser	-14076
rs	-14077
▁exercée	-14078
yme	-14079
▁RÉFÉR	-14080
▁inconvén	-14081
▁sélectionnés	-14082
endeur	-14083
nergie	-14084
▁ORGAN	-14085
erap	-14086
▁Alan	-14087
fondir	-14088
assadeur	-14089
issaires	-14090
▁Pakistan	-14091
▁GT	-14092
occupation	-14093
présidente	-14094
▁emplacement	-14095
▁abus	-14096
▁visa	-14097
ticiens	-14098
▁confrontés	-14099
yez	-14100
AUCC	-14101
çait	-14102
▁impliquant	-14103
▁catastrophe	-14104
▁sportif	-14105
▁comptabil	-14106
▁organique	-14107
▁Tim	-14108
▁embal	-14109
▁Madame	-14110
▁ambiti	-14111
▁routier	-14112
▁courtiers	-14113
▁configuration	-14114
URCES	-14115
ateliers	-14116
▁Industry	-14117
▁Finalement	-14118
▁Malte	-14119
▁retraits	-14120
yan	-14121
▁Spe	-14122
viation	-14123
▁Charlo	-14124
▁rapporteur	-14125
▁NB	-14126
▁QUE	-14127
autique	-14128
▁véritablement	-14129
Voir	-14130
▁Wil	-14131
▁jeudi	-14132
▁remplie	-14133
▁précautions	-14134
atures	-14135
▁numér	-14136
▁locomo	-14137
▁minimiser	-14138
▁comprendra	-14139
▁significatifs	-14140
▁SIM	-14141
▁familiar	-14142
▁GC	-14143
èles	-14144
▁nocifs	-14145
timisation	-14146
▁domestique	-14147
▁restreindre	-14148
ops	-14149
▁caiss	-14150
▁légitime	-14151
▁Termin	-14152
▁infectées	-14153
▁examinateurs	-14154
ÈS	-14155
▁OP	-14156
LOG	-14157
NANT	-14158
zième	-14159
▁Crédits	-14160
▁transporter	-14161
▁sè	-14162
nier	-14163
Bretagne	-14164
▁Utilisez	-14165
aval	-14166
gents	-14167
▁Rencontre	-14168
▁souffrent	-14169
▁emplacements	-14170
inité	-14171
▁itin	-14172
▁lymph	-14173
▁blessure	-14174
ition	-14175
▁Hall	-14176
▁complété	-14177
ingues	-14178
uraient	-14179
appendice	-14180
▁Confédération	-14181
VEL	-14182
▁Observations	-14183
êts	-14184
▁DÉP	-14185
▁Faculté	-14186
▁neutral	-14187
CRS	-14188
▁XXIe	-14189
▁demain	-14190
▁CLO	-14191
issaient	-14192
▁actualisée	-14193
▁bilinguisme	-14194
TO	-14195
itz	-14196
▁victime	-14197
ogén	-14198
▁attendu	-14199
▁dispensés	-14200
▁volontairement	-14201
▁Six	-14202
interro	-14203
▁Bourse	-14204
▁Examiner	-14205
▁littéraires	-14206
ople	-14207
▁top	-14208
▁Texte	-14209
▁faiblesse	-14210
▁exceptionnelles	-14211
▁policiers	-14212
territorial	-14213
▁générique	-14214
JECTI	-14215
érante	-14216
▁brute	-14217
▁hôpital	-14218
▁nouvellement	-14219
▁méfaits	-14220
▁rapidité	-14221
▁griefs	-14222
▁voitures	-14223
ingénierie	-14224
▁forestière	-14225
▁suivies	-14226
oussi	-14227
▁Laurier	-14228
▁PLT	-14229
ulent	-14230
▁dédouan	-14231
rapp	-14232
side	-14233
▁inchang	-14234
▁explicite	-14235
rist	-14236
▁contractuels	-14237
éria	-14238
échanger	-14239
▁injectables	-14240
FH	-14241
▁appuyée	-14242
▁DEO	-14243
idemment	-14244
▁ouvrage	-14245
▁continuellement	-14246
▁soja	-14247
▁fallu	-14248
▁cinquante	-14249
▁déterminent	-14250
▁refroid	-14251
▁diamètre	-14252
▁survient	-14253
GRR	-14254
▁réag	-14255
default	-14256
▁Cliquez	-14257
▁infirmier	-14258
automa	-14259
▁abouti	-14260
▁décharg	-14261
▁poumon	-14262
▁fiscalité	-14263
xi	-14264
▁Pau	-14265
issau	-14266
ÉNA	-14267
▁SS	-14268
écoute	-14269
▁continus	-14270
▁urgences	-14271
▁Fal	-14272
▁russe	-14273
▁plaques	-14274
▁portail	-14275
▁Gouvern	-14276
▁sonores	-14277
▁intéressé	-14278
chez	-14279
▁aidants	-14280
▁constitués	-14281
▁horizontale	-14282
▁procréation	-14283
▁Î	-14284
▁Dom	-14285
▁Etat	-14286
épreuve	-14287
▁incomb	-14288
▁cardiaques	-14289
Mont	-14290
▁Studies	-14291
▁couvrent	-14292
▁collaboré	-14293
▁remplissez	-14294
▁émergentes	-14295
Donald	-14296
▁Plans	-14297
▁détax	-14298
Ukraine	-14299
▁harmonisée	-14300
$)	-14301
ount	-14302
ueill	-14303
▁préférences	-14304
urances	-14305
▁Mobil	-14306
▁inond	-14307
▁affichés	-14308
▁assurances	-14309
ARM	-14310
▁Jack	-14311
▁routière	-14312
The	-14313
▁humides	-14314
▁visuels	-14315
▁éducatifs	-14316
▁commercialiser	-14317
[...]
