<pad>	0
<s>	0
</s>	0
<unk>	0
▁de	-3.16681
,	-3.18749
'	-3.23575
.	-3.5073
▁la	-3.66436
▁et	-3.94899
▁l	-3.95582
▁le	-4.09069
▁à	-4.16633
▁les	-4.17948
▁des	-4.21196
▁d	-4.32164
▁que	-4.36225
▁	-4.3806
▁en	-4.5832
’	-4.76031
s	-4.7649
▁du	-4.82932
▁dans	-4.9659
▁nous	-4.97645
▁pour	-4.98551
▁qui	-5.00334
▁une	-5.12592
▁un	-5.17123
▁ce	-5.19117
▁est	-5.2027
-	-5.24188
▁pas	-5.27604
▁sur	-5.29163
▁au	-5.29621
▁a	-5.45239
▁ne	-5.45465
▁par	-5.45496
0	-5.46489
▁qu	-5.47668
▁plus	-5.65792
▁je	-5.70857
est	-5.72447
▁-	-5.8428
▁n	-5.87093
▁Je	-5.91489
▁cette	-5.92306
▁aux	-5.92873
▁Commission	-5.97881
▁il	-5.99166
2	-5.99611
▁européenne	-5.99854
▁sont	-6.0132
▁s	-6.01779
1	-6.05886
il	-6.07409
▁avec	-6.13153
▁Nous	-6.18733
▁Il	-6.19273
Union	-6.21179
▁se	-6.21212
une	-6.21472
▁mais	-6.24098
▁pays	-6.2416
▁Monsieur	-6.25143
▁être	-6.28062
un	-6.29302
▁ces	-6.31404
▁rapport	-6.3294
▁Parlement	-6.33249
▁été	-6.3389
▁ont	-6.34371
▁La	-6.36302
▁États	-6.38307
▁fait	-6.40307
▁Le	-6.40458
▁Président	-6.41327
▁vous	-6.42916
▁politique	-6.42945
▁C	-6.43963
▁c	-6.47437
▁comme	-6.47998
a	-6.48125
▁tout	-6.49095
e	-6.49259
▁Conseil	-6.49295
▁membres	-6.49695
9	-6.5318
▁européen	-6.53967
▁(	-6.54733
)	-6.55174
▁également	-6.55729
▁ou	-6.56299
▁aussi	-6.62695
▁M	-6.62947
▁faire	-6.67827
▁notre	-6.6886
▁si	-6.71661
▁leur	-6.74932
▁avons	-6.74984
▁doit	-6.75816
▁tous	-6.76795
▁bien	-6.778
▁L	-6.79658
▁très	-6.79786
▁question	-6.80326
▁son	-6.8141
▁Les	-6.81455
▁même	-6.81918
ai	-6.81943
▁y	-6.83568
▁En	-6.85036
▁j	-6.86569
▁entre	-6.87497
▁peut	-6.87572
5	-6.90156
▁devons	-6.91611
:	-6.95485
▁droits	-6.96384
▁nos	-6.97069
▁J	-7.01849
3	-7.04211
▁contre	-7.04327
Europe	-7.06406
▁voudrais	-7.07238
▁non	-7.08875
▁cela	-7.09619
▁donc	-7.11846
▁travail	-7.13312
▁développement	-7.13431
▁proposition	-7.13465
on	-7.15393
▁dont	-7.15465
4	-7.16354
UE	-7.16831
▁soit	-7.16954
▁sans	-7.17575
▁encore	-7.19206
es	-7.20892
▁deux	-7.21114
hui	-7.21523
en	-7.21589
▁ainsi	-7.23575
▁commission	-7.23752
?	-7.24466
▁sécurité	-7.26144
▁cas	-7.26714
▁ses	-7.26895
▁faut	-7.26939
▁suis	-7.28451
▁sa	-7.28583
▁me	-7.29319
▁point	-7.29475
▁marché	-7.30642
elle	-7.30751
▁matière	-7.31001
▁mesures	-7.31027
▁situation	-7.31448
7	-7.3184
▁citoyens	-7.33474
▁pense	-7.34758
▁Ce	-7.35232
▁elle	-7.35353
8	-7.35422
6	-7.35779
▁dire	-7.35858
nt	-7.36481
▁leurs	-7.3728
▁groupe	-7.37315
▁doivent	-7.38171
▁cet	-7.38547
▁afin	-7.38632
autres	-7.39713
r	-7.40088
▁sommes	-7.4048
▁déjà	-7.40804
▁manière	-7.41459
▁politiques	-7.41815
▁débat	-7.42101
▁cadre	-7.4214
t	-7.42425
▁où	-7.4247
▁car	-7.43102
▁important	-7.43563
▁droit	-7.44267
▁mon	-7.44323
▁aujourd	-7.44424
▁économique	-7.44616
▁concerne	-7.45083
à	-7.45453
▁"	-7.45547
▁Madame	-7.46243
ont	-7.4736
y	-7.48642
être	-7.49056
▁niveau	-7.51037
▁directive	-7.51353
▁tant	-7.51476
▁sera	-7.51834
▁temps	-7.51879
▁problème	-7.53135
▁part	-7.55312
/	-7.55797
▁personnes	-7.56267
ils	-7.58054
agit	-7.5873
▁lors	-7.59543
▁dit	-7.59921
▁on	-7.60484
▁toute	-7.61864
▁Dan	-7.62556
▁fois	-7.62749
▁questions	-7.63244
▁concernant	-7.64731
▁parce	-7.64803
▁certains	-7.65622
▁toutes	-7.65729
▁sein	-7.65758
▁autres	-7.65862
▁domaine	-7.65909
▁coopération	-7.66341
▁Europe	-7.66652
;	-7.66745
accord	-7.66983
▁protection	-7.67145
▁vue	-7.67411
▁Mme	-7.67555
homme	-7.68692
"	-7.68711
▁système	-7.68913
▁moins	-7.68964
▁monde	-7.70929
▁seulement	-7.72408
ci	-7.73055
▁problèmes	-7.73253
▁raison	-7.7382
▁mettre	-7.74014
▁compte	-7.74331
▁ceux	-7.74509
▁pourquoi	-7.75286
▁mise	-7.75665
ons	-7.75899
▁européens	-7.75939
ment	-7.76369
▁programme	-7.76475
▁nom	-7.76528
▁secteur	-7.78006
▁résolution	-7.78015
▁savoir	-7.78504
▁rapporteur	-7.78728
▁nombre	-7.78802
▁Pour	-7.79511
▁processus	-7.7952
▁lieu	-7.79737
▁particulier	-7.79785
▁avoir	-7.8049
▁Si	-7.80624
▁m	-7.80677
▁possible	-7.80719
er	-7.8075
▁base	-7.81073
▁grande	-7.81218
▁avant	-7.81339
▁Mais	-7.81398
▁exemple	-7.81554
▁toujours	-7.81601
▁vote	-7.8201
▁devrait	-7.82557
▁Commissaire	-7.83831
▁beaucoup	-7.83846
▁demande	-7.84147
▁sujet	-7.84244
ait	-7.84613
▁règlement	-7.85008
▁entreprises	-7.85013
▁notamment	-7.85501
▁laquelle	-7.85654
▁À	-7.8578
▁jour	-7.85787
▁cours	-7.85904
▁gouvernement	-7.86592
▁commune	-7.86685
ette	-7.86915
▁rôle	-7.86955
▁prendre	-7.8698
▁services	-7.87419
▁partie	-7.87784
▁Cela	-7.88207
▁faveur	-7.88848
▁collègues	-7.89798
▁mesure	-7.89806
▁sous	-7.90192
▁propositions	-7.90337
▁effet	-7.90923
▁santé	-7.90996
▁besoin	-7.91415
▁pouvons	-7.91624
▁soutien	-7.9178
▁accord	-7.92171
▁soient	-7.92526
▁votre	-7.92602
é	-7.93185
▁femmes	-7.93798
▁position	-7.94651
▁président	-7.94674
▁serait	-7.95128
▁traité	-7.9532
▁nouvelle	-7.96014
▁décision	-7.96126
▁nécessaire	-7.96291
▁années	-7.96537
▁amendements	-7.96829
▁pouvoir	-7.97653
▁objectifs	-7.9781
▁nouveau	-7.99369
▁place	-8.00043
▁peuvent	-8.0043
▁lui	-8.00629
▁peu	-8.00692
▁ici	-8.00725
▁autre	-8.00757
▁était	-8.00766
▁%	-8.0083
▁budget	-8.01099
▁présent	-8.01418
▁commissaire	-8.02222
▁conditions	-8.03312
ès	-8.03374
▁produits	-8.03837
▁depuis	-8.05111
▁contrôle	-8.05432
ant	-8.05887
▁façon	-8.0596
l	-8.06136
▁alors	-8.06268
▁crois	-8.06566
▁crise	-8.06638
▁vie	-8.07041
▁après	-8.0733
environnement	-8.07853
▁stratégie	-8.08166
▁principe	-8.08464
▁ans	-8.08765
▁sociale	-8.09393
▁présidence	-8.09729
▁quelques	-8.09739
▁députés	-8.10162
emploi	-8.1025
▁Messieurs	-8.10476
▁ils	-8.10608
▁plan	-8.10687
▁première	-8.1079
▁:	-8.11176
▁D	-8.11572
▁règles	-8.1175
▁eu	-8.11874
▁régions	-8.12213
▁fin	-8.12823
▁recherche	-8.12923
▁Mesdames	-8.13268
▁Par	-8.13553
▁Présidente	-8.13592
espère	-8.13774
▁bonne	-8.1381
▁projet	-8.14231
avenir	-8.14245
▁fonds	-8.14314
▁grand	-8.14876
▁moi	-8.1491
▁institutions	-8.15645
▁mes	-8.15838
▁nouveaux	-8.1616
particulièrement	-8.16235
▁De	-8.16476
▁qualité	-8.16502
▁là	-8.16686
▁garantir	-8.17201
▁ni	-8.1756
▁législation	-8.17577
▁millions	-8.17901
▁lutte	-8.18421
▁terme	-8.18436
▁trois	-8.18633
aide	-8.19011
▁sens	-8.19521
▁négociations	-8.19544
▁selon	-8.19998
▁va	-8.20043
▁clairement	-8.20241
▁communautaire	-8.20472
▁bon	-8.20569
▁pourrait	-8.21072
▁remercier	-8.21274
▁ma	-8.21324
énergie	-8.2155
▁procédure	-8.21677
▁nouvelles	-8.22086
▁consommateurs	-8.2274
▁vers	-8.22938
▁nombreux	-8.2301
▁moment	-8.23307
▁?	-8.23407
▁européennes	-8.23545
▁œuvre	-8.2357
▁mois	-8.23626
▁seront	-8.23762
▁nécessité	-8.24498
▁pêche	-8.24518
▁voté	-8.25034
Unis	-8.25091
▁celle	-8.25755
c	-8.26102
▁celui	-8.26229
abord	-8.26418
▁voir	-8.2659
▁respect	-8.27043
▁région	-8.27175
▁Assemblée	-8.27545
autre	-8.27826
haque	-8.27879
▁maintenant	-8.2799
▁chose	-8.28209
▁trop	-8.28424
▁plusieurs	-8.29119
▁membre	-8.2928
▁société	-8.29697
▁autorités	-8.30442
▁efforts	-8.30766
▁premier	-8.31083
▁visant	-8.31878
▁points	-8.32265
▁reste	-8.32634
▁prix	-8.3268
▁aucun	-8.33216
▁démocratie	-8.3326
▁surtout	-8.33272
▁juridique	-8.33299
▁ressources	-8.33528
▁liberté	-8.33621
▁certaines	-8.33993
▁Une	-8.34024
▁donner	-8.35231
État	-8.35408
▁conséquent	-8.35849
▁Ces	-8.35962
▁voulons	-8.36442
ordre	-8.36536
▁tiens	-8.36695
article	-8.36739
▁réponse	-8.36795
▁avez	-8.37006
▁importante	-8.37029
▁solution	-8.37126
▁Elle	-8.37234
▁responsabilité	-8.37277
ensemble	-8.38185
▁économiques	-8.38526
▁croissance	-8.3869
▁jusqu	-8.38717
▁elles	-8.38759
action	-8.38858
▁semble	-8.39198
▁concurrence	-8.39587
▁travailleurs	-8.39843
▁davantage	-8.3991
▁donné	-8.40035
▁Et	-8.40245
▁soutenir	-8.40341
▁relations	-8.40967
▁dernier	-8.41552
▁Comme	-8.42126
▁internationale	-8.42156
▁actuellement	-8.42923
▁Au	-8.42933
▁lorsque	-8.43214
▁sorte	-8.43242
▁création	-8.43843
▁souligner	-8.44348
ra	-8.44425
▁face	-8.44807
▁constitue	-8.44942
▁progrès	-8.45708
▁outre	-8.4587
▁État	-8.45986
▁différents	-8.46641
▁paix	-8.46905
▁domaines	-8.47098
▁dernière	-8.47254
▁propos	-8.47269
elles	-8.47352
▁transport	-8.47409
▁mis	-8.47417
▁programmes	-8.47692
▁On	-8.47775
amendement	-8.47901
▁texte	-8.47929
▁souvent	-8.47964
▁production	-8.48559
▁toutefois	-8.48598
▁écrit	-8.48672
▁termes	-8.48923
mi	-8.48983
▁avait	-8.48998
▁S	-8.49049
▁avis	-8.49205
▁aura	-8.49268
z	-8.4958
▁rien	-8.49668
▁long	-8.49747
▁affaires	-8.49763
▁gestion	-8.5013
▁mieux	-8.50307
▁égard	-8.51019
▁population	-8.51046
▁données	-8.51239
▁efficace	-8.51561
même	-8.51678
▁demander	-8.51967
▁compris	-8.52014
▁décisions	-8.5204
▁aucune	-8.52311
▁dialogue	-8.52494
▁possibilité	-8.52656
▁telle	-8.52733
▁Un	-8.52754
▁existe	-8.52999
▁lequel	-8.53093
▁Lisbonne	-8.53283
▁résultats	-8.53418
▁renforcer	-8.53468
▁enfants	-8.53696
▁souhaite	-8.53719
▁sûr	-8.54017
▁Toutefois	-8.54034
▁étant	-8.54059
▁commerce	-8.54059
▁moyens	-8.54277
▁pris	-8.54355
▁créer	-8.54604
▁voie	-8.54624
▁ait	-8.54662
▁nécessaires	-8.55434
▁période	-8.55455
▁justice	-8.55567
▁permettre	-8.55577
▁choses	-8.55685
▁objectif	-8.55857
▁financement	-8.55896
▁général	-8.56258
moi	-8.56455
application	-8.56495
▁majorité	-8.56799
▁nombreuses	-8.56998
▁actuelle	-8.57309
▁devraient	-8.57356
▁unique	-8.5755
▁trouver	-8.57893
▁normes	-8.57994
▁quelque	-8.58357
importance	-8.58675
EN	-8.58691
▁pu	-8.5873
information	-8.59368
▁année	-8.59396
▁groupes	-8.59567
▁deuxième	-8.59677
ent	-8.59725
▁certain	-8.59805
▁publique	-8.59938
▁Enfin	-8.60567
▁projets	-8.60761
économie	-8.60901
▁réforme	-8.60951
aient	-8.60955
▁international	-8.60972
▁accords	-8.61024
▁devrions	-8.61234
▁compromis	-8.61273
▁juste	-8.61526
▁social	-8.61737
le	-8.6198
▁Turquie	-8.62361
▁entendu	-8.62491
industrie	-8.62509
▁simplement	-8.62512
▁nationaux	-8.6286
année	-8.63281
▁titre	-8.63347
▁essentiel	-8.63368
adhésion	-8.64032
▁Russie	-8.64058
▁eux	-8.65218
▁marchés	-8.65236
▁public	-8.65303
▁contexte	-8.65874
▁démocratique	-8.66228
▁libre	-8.66275
▁stabilité	-8.66416
▁intérêts	-8.66652
▁intérieur	-8.66939
A	-8.67064
▁tiers	-8.67265
objectif	-8.68055
▁dispositions	-8.68114
▁réalité	-8.68141
▁ensemble	-8.68411
▁vraiment	-8.6862
▁ailleurs	-8.68763
▁cependant	-8.68837
▁suite	-8.69014
▁difficile	-8.69439
▁propre	-8.69516
▁seule	-8.69834
▁actions	-8.69862
▁raisons	-8.69925
▁risque	-8.69983
élargissement	-8.69999
▁changement	-8.70072
▁jamais	-8.70279
▁clair	-8.70415
▁principes	-8.70497
▁convient	-8.70549
utilisation	-8.7057
▁Vous	-8.70628
▁approche	-8.70724
▁Cour	-8.7073
avoir	-8.70758
nous	-8.71063
▁quant	-8.71216
an	-8.71667
▁financière	-8.71778
▁tel	-8.7228
▁plutôt	-8.72565
▁quand	-8.72581
▁activités	-8.72593
au	-8.72632
▁extrêmement	-8.72774
▁font	-8.7329
n	-8.7346
▁rendre	-8.73486
▁mondiale	-8.73531
▁informations	-8.74005
▁transparence	-8.74238
égalité	-8.74352
▁volonté	-8.74468
▁communication	-8.74605
▁budgétaire	-8.74665
heure	-8.74685
▁rapidement	-8.74765
▁répondre	-8.74793
euros	-8.74909
▁parler	-8.75047
▁remercie	-8.75121
▁dernières	-8.75134
intérêt	-8.75354
▁doute	-8.75367
▁cause	-8.75556
▁durable	-8.75918
▁conséquences	-8.76126
▁celles	-8.76235
▁aide	-8.76298
▁nationales	-8.7723
▁tels	-8.77418
▁Cependant	-8.7744
▁réduire	-8.77461
▁puisse	-8.77559
▁déclaration	-8.77602
▁lorsqu	-8.77968
▁parties	-8.78059
avons	-8.78393
▁différentes	-8.78407
▁preuve	-8.78485
▁devant	-8.78568
▁collègue	-8.79054
▁solidarité	-8.79602
o	-8.79616
▁moyen	-8.79863
▁chers	-8.79912
▁Fonds	-8.80099
▁fondamentaux	-8.80291
▁comment	-8.80295
ici	-8.8041
▁meilleure	-8.80456
▁aspects	-8.80522
▁peux	-8.80561
▁systèmes	-8.81196
".	-8.81407
▁Nations	-8.81472
▁jeunes	-8.81942
▁gouvernements	-8.8195
▁appelle	-8.82232
▁vu	-8.82398
és	-8.82401
▁formation	-8.82483
▁Communauté	-8.82527
d	-8.82568
▁Tout	-8.82705
▁savons	-8.82718
▁cohésion	-8.82752
▁adopté	-8.82856
▁sommet	-8.82902
▁pendant	-8.82989
▁grâce	-8.83167
▁frontières	-8.83339
▁forme	-8.83654
▁commun	-8.83667
▁importance	-8.83766
▁féliciter	-8.84041
▁régime	-8.84163
accès	-8.84464
▁attention	-8.84637
▁assurer	-8.84749
▁confiance	-8.84772
▁seul	-8.84823
▁personne	-8.84877
ions	-8.85008
▁représente	-8.85221
▁agricole	-8.85324
▁inter	-8.85405
▁demain	-8.85518
▁critères	-8.85831
▁aurait	-8.85849
objet	-8.86069
▁réduction	-8.86095
▁taux	-8.86138
▁résultat	-8.86379
▁vigueur	-8.86617
agriculture	-8.86773
▁véritable	-8.87208
▁énergétique	-8.87312
▁ministre	-8.87346
▁unies	-8.87358
▁passé	-8.87366
▁telles	-8.87379
▁rapports	-8.87458
▁signifie	-8.87466
▁large	-8.87683
▁type	-8.87906
entre	-8.87923
▁trouve	-8.88185
▁relative	-8.88386
▁exercice	-8.88401
▁procédures	-8.88813
▁terrorisme	-8.89374
in	-8.89421
▁valeurs	-8.89628
intégration	-8.89755
DE	-8.89964
▁sociaux	-8.90128
▁;	-8.90399
▁prises	-8.90512
▁contraire	-8.90735
adoption	-8.91036
▁importants	-8.91252
▁in	-8.91273
occasion	-8.9131
▁financières	-8.91323
▁parti	-8.91436
▁propres	-8.91561
▁pratique	-8.91859
▁réellement	-8.91977
▁enfin	-8.92031
▁uniquement	-8.92385
▁présente	-8.92496
▁élections	-8.92693
▁victimes	-8.92739
▁rappeler	-8.92775
▁prise	-8.92996
▁certainement	-8.93167
i	-8.934
▁promouvoir	-8.93964
▁améliorer	-8.94355
▁A	-8.94416
▁relatives	-8.9448
▁veut	-8.94527
était	-8.94844
▁Bien	-8.94903
ce	-8.95274
▁tenir	-8.95429
▁manque	-8.95843
▁début	-8.95902
▁discussion	-8.96059
argent	-8.96135
▁respecter	-8.96185
▁participation	-8.9644
▁guerre	-8.96445
ée	-8.96477
dire	-8.9648
▁protéger	-8.96587
ailleurs	-8.96697
▁défense	-8.9678
▁autant	-8.97115
▁culture	-8.97337
▁parvenir	-8.97428
▁financiers	-8.97523
▁but	-8.97657
▁Union	-8.97851
▁évidemment	-8.98068
▁service	-8.98368
u	-8.98609
▁centrale	-8.98629
▁priorité	-8.98679
▁coûts	-8.98696
▁dois	-8.98732
▁Des	-8.98762
▁Ils	-8.98963
▁vrai	-8.99018
▁présenter	-8.99247
▁grandes	-8.99376
▁organisations	-8.99824
efficacité	-8.99856
estime	-8.99907
éducation	-8.99936
▁pauvreté	-8.99969
▁zone	-9.00007
▁demandé	-9.00087
m	-9.00152
▁national	-9.00189
▁transports	-9.00449
▁éléments	-9.00589
▁référence	-9.00792
▁petites	-9.00808
▁financier	-9.00845
▁Chine	-9.0097
▁propose	-9.01113
▁priorités	-9.01168
▁veiller	-9.01207
▁continuer	-9.01368
vous	-9.01489
▁absolument	-9.02005
▁publics	-9.02017
▁communautaires	-9.02711
▁précisément	-9.02869
▁étaient	-9.02886
▁travailler	-9.03122
▁hommes	-9.03525
▁accepter	-9.03588
origine	-9.03946
avis	-9.04096
▁loin	-9.04102
▁voter	-9.04134
it	-9.04262
▁réunion	-9.04518
▁totalement	-9.04551
▁dépenses	-9.04557
ation	-9.04648
▁paragraphe	-9.04648
▁générale	-9.04767
▁G	-9.04942
▁parole	-9.05045
initiative	-9.05097
▁développer	-9.05274
▁sociales	-9.05434
▁amendement	-9.05662
▁contribution	-9.05749
vis	-9.05845
▁tenu	-9.05863
▁traitement	-9.06078
▁réformes	-9.06245
▁prochaine	-9.06256
ne	-9.06351
▁peuple	-9.06398
▁secteurs	-9.06454
égard	-9.06465
▁proposé	-9.0648
▁partenaires	-9.06689
▁gens	-9.06795
▁violence	-9.06824
is	-9.07243
▁considération	-9.07387
▁produit	-9.07515
▁statut	-9.07593
h	-9.07809
▁pratiques	-9.08054
▁résoudre	-9.0827
▁re	-9.08335
immigration	-9.08913
▁capacité	-9.08935
▁valeur	-9.09168
▁coordination	-9.09266
▁difficultés	-9.09275
▁importantes	-9.09344
▁document	-9.09407
▁quatre	-9.09499
▁présenté	-9.09634
▁pleinement	-9.09654
▁quel	-9.09782
▁action	-9.09926
▁grands	-9.09948
▁instruments	-9.09995
▁semaine	-9.10168
▁B	-9.10323
▁climatique	-9.10604
▁lecture	-9.1061
▁mondial	-9.10744
▁monétaire	-9.10839
▁lesquels	-9.10949
▁travers	-9.11549
▁fort	-9.11594
idée	-9.11667
▁côté	-9.1167
▁succès	-9.11696
▁commencer	-9.11705
▁zones	-9.11827
▁félicite	-9.1203
▁partenariat	-9.12058
▁pourra	-9.12274
▁permettant	-9.12426
▁force	-9.12426
▁porte	-9.12429
▁puissent	-9.12846
▁procès	-9.12874
▁ré	-9.13142
attention	-9.13159
euro	-9.13182
▁venir	-9.13327
▁partage	-9.13442
▁vos	-9.13496
▁considère	-9.13636
▁Notre	-9.13663
▁communauté	-9.13976
▁jouer	-9.14315
f	-9.14371
▁sais	-9.1455
▁exigences	-9.14561
▁passer	-9.14681
▁renforcement	-9.14696
▁quoi	-9.14707
▁risques	-9.14794
▁initiatives	-9.14879
▁pourraient	-9.15388
▁poursuivre	-9.15544
▁compétences	-9.15545
▁contribuer	-9.15564
▁vient	-9.15609
▁réglementation	-9.15702
▁travaux	-9.15804
▁conférence	-9.15846
▁alimentaire	-9.15947
▁apporter	-9.16205
▁personnel	-9.16343
▁compétitivité	-9.16405
▁parlementaire	-9.16408
▁besoins	-9.16447
▁euro	-9.16555
▁conclusion	-9.16616
▁série	-9.1682
▁initiative	-9.16833
▁chômage	-9.16851
▁direction	-9.17029
▁cinq	-9.17054
▁permis	-9.1717
▁discussions	-9.17349
▁dû	-9.1745
▁mandat	-9.17616
▁spécifiques	-9.17696
▁permet	-9.17739
▁nature	-9.17753
▁civile	-9.18072
▁ensuite	-9.18336
▁malheureusement	-9.18388
▁possibilités	-9.18455
▁peine	-9.18548
▁longtemps	-9.18588
▁Deuxièmement	-9.18632
▁heures	-9.18677
▁éviter	-9.18752
▁candidats	-9.18851
▁promotion	-9.19106
▁révision	-9.19206
▁choix	-9.19234
▁séance	-9.19348
▁ministres	-9.19384
▁modèle	-9.19528
▁décidé	-9.19538
▁loi	-9.19546
▁simple	-9.19889
▁assez	-9.19892
▁vis	-9.19893
▁jours	-9.1992
▁permettra	-9.20026
esprit	-9.20112
ez	-9.20344
▁Convention	-9.20519
▁pression	-9.20637
aimerais	-9.20648
▁solutions	-9.20878
al	-9.20934
▁lutter	-9.2117
▁déclaré	-9.21384
▁quelle	-9.21685
▁aides	-9.21748
▁derniers	-9.21881
Assemblée	-9.21955
re	-9.22042
▁mal	-9.22229
les	-9.22275
assurer	-9.22282
▁fonctionnement	-9.2229
▁collaboration	-9.2236
▁défis	-9.22474
p	-9.22495
▁comprendre	-9.22578
▁responsables	-9.22612
▁effets	-9.22859
▁aider	-9.22928
▁représentants	-9.23275
▁près	-9.23378
▁milliards	-9.23526
▁chacun	-9.23537
▁instrument	-9.23566
▁vont	-9.23579
▁ayant	-9.23696
▁décembre	-9.23968
▁adopter	-9.24425
▁puisque	-9.24513
▁plupart	-9.2467
▁réjouis	-9.24702
▁constituent	-9.2478
▁devoir	-9.25007
ur	-9.25054
▁circulation	-9.2527
▁mort	-9.25377
eau	-9.25576
▁lesquelles	-9.25618
▁constater	-9.25899
▁P	-9.26011
▁investissements	-9.26047
▁France	-9.26087
▁dé	-9.26511
▁conclusions	-9.2687
▁troisième	-9.26996
▁Traité	-9.27002
ir	-9.27165
▁nationale	-9.27186
▁fournir	-9.27453
mêmes	-9.27466
im	-9.27473
▁conclure	-9.27596
▁yeux	-9.27661
innovation	-9.27808
▁liste	-9.27846
▁souligné	-9.27911
ées	-9.27934
améliorer	-9.27993
▁nucléaire	-9.28078
▁conflit	-9.28104
▁conformément	-9.28307
▁construction	-9.28454
▁actuel	-9.28741
%	-9.28843
▁émissions	-9.29085
▁territoire	-9.29142
C	-9.29162
asile	-9.29347
▁Permettez	-9.29643
▁emplois	-9.29747
▁agriculteurs	-9.29775
cadre	-9.29803
▁changements	-9.29969
▁devra	-9.29974
▁an	-9.29984
▁engagement	-9.3
▁vise	-9.30031
la	-9.30152
▁pensons	-9.3018
▁responsabilités	-9.30223
▁certaine	-9.30286
▁condition	-9.30342
▁rapide	-9.30437
Uni	-9.30484
▁dix	-9.30545
évaluation	-9.31005
ou	-9.31029
▁favorable	-9.31189
▁puis	-9.3146
▁Royaume	-9.31486
▁mer	-9.31664
▁structurels	-9.3175
▁mener	-9.31755
▁récemment	-9.31775
▁République	-9.31921
▁animaux	-9.31949
▁allons	-9.32014
▁internationales	-9.32062
▁effectivement	-9.32115
▁soutiens	-9.32127
▁suivi	-9.32369
▁producteurs	-9.32584
▁responsable	-9.32677
▁montre	-9.32682
▁forte	-9.32855
▁convention	-9.32988
▁positif	-9.3312
▁veux	-9.33136
▁perspectives	-9.33168
▁caractère	-9.33184
▁Or	-9.33205
▁fonction	-9.33353
▁désormais	-9.33428
▁claire	-9.33521
▁donne	-9.33594
▁supplémentaires	-9.33597
▁élément	-9.33711
▁souhaiterais	-9.33959
▁sérieux	-9.34103
▁gaz	-9.34265
▁train	-9.34351
▁savez	-9.34353
▁passe	-9.34634
▁forces	-9.3469
▁occasion	-9.34734
urgence	-9.34797
échange	-9.34964
▁déchets	-9.35077
▁suivre	-9.35293
▁comptes	-9.35387
▁mêmes	-9.35423
▁publiques	-9.35607
▁grave	-9.35674
▁adoptée	-9.35767
▁permettez	-9.35983
intention	-9.36155
▁juin	-9.3618
▁libéralisation	-9.36181
▁ligne	-9.3623
▁conséquence	-9.36274
amélioration	-9.36462
▁prévention	-9.36499
▁Constitution	-9.36504
▁intervention	-9.36557
▁parfois	-9.36803
▁libertés	-9.36983
▁maintenir	-9.37006
▁atteindre	-9.37065
▁biais	-9.37245
▁reçu	-9.37254
▁paquet	-9.37263
▁juridiques	-9.37364
▁Voilà	-9.3738
▁suffisamment	-9.37431
▁présence	-9.37533
▁consiste	-9.37548
▁mission	-9.37619
(	-9.37682
▁message	-9.37782
▁niveaux	-9.37789
▁engagements	-9.37809
▁réaliser	-9.37817
▁partir	-9.37904
▁évident	-9.37995
▁sociétés	-9.38135
OMC	-9.38234
▁technologies	-9.38274
aujourd	-9.38306
▁voix	-9.38457
té	-9.38514
te	-9.38519
▁malgré	-9.38527
▁disposition	-9.3866
▁relatif	-9.38782
▁étrangères	-9.38801
▁haut	-9.39032
▁étrangère	-9.39112
▁importe	-9.39454
▁déclarations	-9.39558
▁dimension	-9.39616
▁techniques	-9.39641
▁rester	-9.39713
▁Nord	-9.39721
▁défi	-9.398
▁Aujourd	-9.39981
ri	-9.40065
encontre	-9.40132
▁événements	-9.40151
▁indispensable	-9.40176
opinion	-9.40182
impact	-9.40357
▁meilleur	-9.40383
▁agir	-9.4042
▁tard	-9.40645
▁Présidence	-9.40893
▁prévoit	-9.4091
delà	-9.40985
▁excellent	-9.40996
▁six	-9.4101
aux	-9.41112
▁discrimination	-9.41116
▁genre	-9.41123
verbal	-9.41157
▁poser	-9.41207
▁obtenir	-9.41591
▁contenu	-9.41633
▁liés	-9.41728
▁tâche	-9.41926
▁Merci	-9.41973
▁utile	-9.4237
▁directement	-9.42421
▁veulent	-9.42509
▁intérêt	-9.42636
▁Banque	-9.42777
▁sanctions	-9.42813
▁particulière	-9.42816
x	-9.43059
▁participer	-9.43164
▁clos	-9.43327
▁agricoles	-9.43392
▁Sud	-9.43428
▁continue	-9.43511
▁Bruxelles	-9.43532
▁élevé	-9.43842
▁pourrons	-9.43897
▁Sur	-9.4395
▁lignes	-9.43961
▁réfugiés	-9.44099
▁faisant	-9.44459
▁soi	-9.44479
▁auquel	-9.44516
▁technique	-9.44544
▁définition	-9.44568
▁débats	-9.44577
après	-9.44782
▁peuples	-9.44818
▁graves	-9.45335
▁fondamental	-9.45561
▁documents	-9.45868
▁accès	-9.45982
▁Kosovo	-9.4608
▁positive	-9.46174
▁prochain	-9.46212
absence	-9.46243
rait	-9.46438
▁utiliser	-9.465
▁reconnaissance	-9.46654
▁bonnes	-9.46699
▁préoccupations	-9.4684
ront	-9.46943
▁parle	-9.47085
▁Premièrement	-9.47089
▁tirer	-9.47106
▁dossier	-9.47139
▁devenir	-9.47331
▁envers	-9.47373
▁aller	-9.47542
▁perspective	-9.47782
▁réseaux	-9.47979
▁consommation	-9.48158
▁défendre	-9.4819
▁britannique	-9.48198
▁surveillance	-9.48202
▁spécifique	-9.48401
▁garantie	-9.48528
▁menace	-9.48544
▁trafic	-9.48559
engagement	-9.48691
▁néanmoins	-9.48731
▁principaux	-9.48921
▁naturellement	-9.49045
▁sait	-9.4905
▁crédits	-9.49073
▁janvier	-9.49074
▁connaissance	-9.49163
▁reconnaître	-9.49187
▁dis	-9.49676
▁ceci	-9.49944
▁date	-9.49986
▁charge	-9.50023
▁délégation	-9.50055
▁budgétaires	-9.50235
▁montrer	-9.50318
▁humains	-9.5035
introduction	-9.50393
▁augmentation	-9.50446
▁exprimer	-9.50474
▁traiter	-9.50547
▁semaines	-9.50558
▁comité	-9.50661
▁pose	-9.50677
▁militaire	-9.50708
▁pauvres	-9.50738
▁démocratiques	-9.50792
▁espérons	-9.51057
ti	-9.51098
emplois	-9.51284
▁laisser	-9.51316
▁soumis	-9.51406
▁R	-9.51589
▁parlé	-9.51906
g	-9.52549
▁communes	-9.52556
▁pacte	-9.526
▁Selon	-9.52853
▁tourisme	-9.53016
▁procéder	-9.53173
▁contrôles	-9.53498
▁médias	-9.53514
▁salue	-9.54004
▁Ceci	-9.54043
▁réseau	-9.54265
M	-9.54411
▁partis	-9.54477
B	-9.54508
▁compétence	-9.54694
▁humanitaire	-9.54696
▁économie	-9.55014
▁pouvoirs	-9.55078
▁inacceptable	-9.55126
▁budgets	-9.55187
▁pourtant	-9.55607
▁économies	-9.55657
age	-9.55795
▁moyennes	-9.55844
▁mot	-9.55909
▁mai	-9.55916
état	-9.55964
▁professionnelle	-9.55973
▁proposer	-9.55982
ré	-9.56029
▁conflits	-9.56154
▁affaire	-9.56236
élaboration	-9.56266
ouverture	-9.56268
▁Néanmoins	-9.56368
▁conscience	-9.5645
investissement	-9.56504
▁mérite	-9.56532
▁alimentaires	-9.56626
▁largement	-9.56637
▁Mon	-9.56788
▁directives	-9.5682
▁député	-9.56825
▁dispose	-9.56907
▁actes	-9.56916
or	-9.56949
Afrique	-9.57083
▁heureux	-9.57091
▁pourront	-9.57278
▁humaine	-9.57306
▁consensus	-9.57443
▁nouvel	-9.57665
▁régionale	-9.57668
▁mars	-9.57782
▁uvre	-9.57795
▁encourager	-9.57816
▁chez	-9.57883
▁fond	-9.57985
▁parfaitement	-9.58054
▁efficaces	-9.58111
▁PME	-9.58335
▁session	-9.5836
▁parlementaires	-9.58432
évolution	-9.58619
▁réalisation	-9.58779
▁maintien	-9.58834
▁Grèce	-9.58866
▁aient	-9.59111
▁discuter	-9.59171
▁critique	-9.59227
▁soins	-9.59238
▁obligations	-9.59289
▁mondialisation	-9.59657
▁internationaux	-9.59756
▁Cet	-9.5982
▁recours	-9.59916
ie	-9.59969
▁Elles	-9.59988
▁durant	-9.60001
▁mécanisme	-9.60228
▁définir	-9.60271
▁avaient	-9.6033
rons	-9.60332
▁Ainsi	-9.60353
▁aspect	-9.60562
▁Après	-9.60687
▁traite	-9.60936
▁prévu	-9.60957
▁appel	-9.61133
▁modification	-9.61486
▁Conférence	-9.6158
▁impossible	-9.61698
▁accompli	-9.61701
▁monnaie	-9.61755
▁faudrait	-9.61765
▁recommandations	-9.61789
us	-9.61965
▁plénière	-9.62036
▁main	-9.62088
▁septembre	-9.62319
▁faisons	-9.62325
▁considérable	-9.62342
▁liées	-9.62471
▁souligne	-9.62527
▁chance	-9.62562
▁Ma	-9.62677
▁décharge	-9.62735
▁Malheureusement	-9.62888
▁méthode	-9.63158
▁devront	-9.63174
▁PPE	-9.63307
▁Européens	-9.63323
▁matin	-9.63509
▁négociation	-9.63535
▁souhaitons	-9.63636
▁coût	-9.63692
▁faudra	-9.63714
▁rapporteurs	-9.63806
▁met	-9.63928
adopter	-9.64134
▁armes	-9.64207
▁législatif	-9.64207
qu	-9.64231
entrée	-9.64353
▁avantages	-9.64439
▁supplémentaire	-9.64453
▁Roumanie	-9.6457
éviter	-9.64639
▁constitutionnel	-9.64696
▁substances	-9.64724
▁aborder	-9.64758
▁discours	-9.64771
près	-9.64812
▁décider	-9.64859
▁évaluation	-9.64922
ch	-9.64986
accent	-9.65017
▁capital	-9.65157
▁avions	-9.65207
▁atteint	-9.65213
▁avenir	-9.65233
▁seraient	-9.65252
approche	-9.65266
▁reprises	-9.65538
▁populaire	-9.65566
▁disposer	-9.65637
▁soir	-9.65664
▁application	-9.65672
▁concernés	-9.65877
▁profit	-9.65932
▁populations	-9.65954
▁soutenu	-9.65978
et	-9.66024
▁représentent	-9.66151
▁globale	-9.66184
▁essentielle	-9.66185
▁presque	-9.66238
ais	-9.66256
S	-9.66309
▁modifier	-9.66416
▁équilibre	-9.66508
▁presse	-9.6654
▁Ne	-9.66547
▁estime	-9.66655
▁parlons	-9.66707
▁court	-9.66761
▁demandons	-9.66782
▁mécanismes	-9.66802
▁principal	-9.66805
Orient	-9.66935
▁milliers	-9.66973
▁route	-9.66983
▁stratégique	-9.6705
▁novembre	-9.67056
▁futur	-9.6711
espace	-9.6718
▁sources	-9.67433
ar	-9.67668
augmentation	-9.67808
▁thème	-9.67931
▁auxquels	-9.67976
▁concentrer	-9.68059
intervention	-9.68089
▁implique	-9.68191
organisation	-9.68281
▁protocole	-9.68403
▁médicaments	-9.68445
▁vais	-9.68514
▁départ	-9.68562
▁p	-9.6868
▁total	-9.68808
▁longue	-9.68977
histoire	-9.69078
exprimer	-9.69137
▁Premier	-9.69174
▁fera	-9.6919
▁consommateur	-9.69265
▁famille	-9.69265
▁principalement	-9.69521
▁entièrement	-9.69659
▁potentiel	-9.69662
pprovisionnement	-9.69709
▁faible	-9.69807
▁minorités	-9.69841
▁rural	-9.69853
▁ai	-9.69898
▁final	-9.69915
k	-9.69937
▁montré	-9.70001
▁flexibilité	-9.70099
▁idée	-9.701
▁montant	-9.70134
ité	-9.70189
ro	-9.70237
▁stade	-9.70359
▁concrètes	-9.70394
▁délai	-9.70435
▁réelle	-9.70662
informations	-9.7072
Irlande	-9.70795
je	-9.70894
▁confrontés	-9.7107
▁retard	-9.71107
▁climat	-9.71123
▁oeuvre	-9.71211
▁fondamentales	-9.71229
▁F	-9.71345
I	-9.71453
▁remarques	-9.71585
▁considérer	-9.71669
▁diversité	-9.71674
▁lumière	-9.7174
ter	-9.71755
▁acteurs	-9.71797
▁mots	-9.71803
▁maladies	-9.7185
▁contient	-9.71932
▁bénéficier	-9.72007
▁probablement	-9.72016
▁locales	-9.72016
▁phase	-9.7202
▁prêts	-9.7202
v	-9.72037
appliquer	-9.72125
▁co	-9.72405
▁réalisé	-9.7245
▁hier	-9.72521
▁concitoyens	-9.72874
▁parlements	-9.73037
▁indiqué	-9.73092
▁gouvernance	-9.73139
▁accorder	-9.73284
▁traités	-9.73424
▁finalement	-9.73509
▁Pourquoi	-9.73549
▁judiciaire	-9.73876
▁état	-9.73912
▁limites	-9.74011
▁concept	-9.74087
▁limiter	-9.74524
▁petits	-9.74534
Applaudissements	-9.74537
▁prochaines	-9.74601
▁suivante	-9.74617
▁scientifiques	-9.74657
▁convaincu	-9.74742
P	-9.74746
▁consultation	-9.74795
▁commerciales	-9.74911
▁remarque	-9.75018
de	-9.75197
▁préparation	-9.75204
PL	-9.75376
▁appliquer	-9.75382
ner	-9.75446
établissement	-9.75479
▁exprimé	-9.75522
▁oublier	-9.75559
▁femme	-9.75594
▁Même	-9.75677
▁emploi	-9.75816
b	-9.75819
▁efficacement	-9.75998
▁police	-9.76029
▁etc	-9.76041
▁critiques	-9.76063
▁représentant	-9.76135
D	-9.76156
▁faciliter	-9.76193
▁criminalité	-9.76303
▁pro	-9.76333
▁plans	-9.76446
exécution	-9.7646
▁méthodes	-9.76623
▁Que	-9.76671
▁coup	-9.76753
▁Comment	-9.76847
▁quotas	-9.76907
▁totale	-9.76931
▁équitable	-9.76945
▁voisins	-9.77014
agir	-9.77016
▁f	-9.77076
▁demandes	-9.77079
▁subsidiarité	-9.77084
▁chances	-9.77235
▁établir	-9.77319
▁soutient	-9.77391
gouvernementale	-9.77508
▁véhicules	-9.77509
▁disposons	-9.7754
▁orientations	-9.77612
avez	-9.77634
▁recommandation	-9.77676
exploitation	-9.77874
▁extérieure	-9.78008
▁conclu	-9.78252
▁structures	-9.78382
▁formes	-9.78428
▁logique	-9.78492
▁tient	-9.78537
▁garanties	-9.7855
▁réserve	-9.78572
▁conduite	-9.78617
▁faites	-9.78747
▁N	-9.7899
▁vision	-9.79073
▁intérieures	-9.79171
▁r	-9.79285
▁attirer	-9.79291
▁changer	-9.79449
▁revenir	-9.79491
expression	-9.79729
activité	-9.79814
▁nucléaires	-9.79817
▁Schengen	-9.79854
▁passagers	-9.79984
▁Depuis	-9.80036
▁structure	-9.80052
▁terrain	-9.80218
▁approuvé	-9.80238
ement	-9.8029
▁bas	-9.8042
▁voire	-9.80519
▁divers	-9.80613
▁penser	-9.80715
▁navires	-9.80733
Le	-9.80786
▁servir	-9.80848
▁rappelle	-9.80894
▁mobilité	-9.80925
▁faits	-9.81073
▁idées	-9.81173
▁maritime	-9.81203
▁empêcher	-9.81222
▁citoyen	-9.81277
▁Alors	-9.81426
▁limite	-9.81444
▁note	-9.81535
▁fraude	-9.81591
▁profiter	-9.81593
▁terroristes	-9.81767
▁échanges	-9.81918
▁sujets	-9.82079
lo	-9.8213
▁continent	-9.82275
échelle	-9.82359
unanimité	-9.82408
▁étape	-9.82663
isme	-9.82674
▁renouvelables	-9.82878
▁vertu	-9.8288
▁offre	-9.82925
▁extérieures	-9.82939
▁scientifique	-9.82992
uvre	-9.82995
▁Certains	-9.83024
obtenir	-9.83063
▁champ	-9.83078
▁examiner	-9.83095
▁circonstances	-9.83246
▁chefs	-9.83293
▁évidence	-9.83305
▁agences	-9.83398
▁danger	-9.83398
▁précédent	-9.83399
entreprise	-9.83433
▁durée	-9.83447
▁relever	-9.83535
existe	-9.83569
▁justement	-9.83597
▁moindre	-9.836
▁campagne	-9.83623
établir	-9.83646
▁prend	-9.83778
▁obtenu	-9.83781
▁faite	-9.83988
▁commerciaux	-9.8413
▁relatifs	-9.84161
▁quelles	-9.84196
▁haute	-9.84269
▁chiffres	-9.84272
existence	-9.84401
▁véritablement	-9.84514
▁pied	-9.8455
▁ajouter	-9.84575
▁concernées	-9.84605
▁analyse	-9.84607
ex	-9.84635
▁attitude	-9.84652
▁source	-9.8469
▁disponibles	-9.84732
exercice	-9.84819
▁régional	-9.84892
▁Portugal	-9.84893
▁regrette	-9.84912
▁déterminer	-9.8494
▁pré	-9.8498
▁future	-9.84981
▁infrastructures	-9.84993
di	-9.84998
▁estimons	-9.8503
▁technologie	-9.85091
ONU	-9.85093
▁règlements	-9.85137
▁produire	-9.85194
▁législative	-9.8527
association	-9.85292
▁progresser	-9.85403
utiliser	-9.85435
agissant	-9.85437
▁favoriser	-9.85473
▁situations	-9.85526
▁T	-9.85679
▁délais	-9.85686
▁historique	-9.85713
▁insister	-9.85775
▁modifications	-9.85782
▁centre	-9.85823
▁immédiatement	-9.85958
▁Balkans	-9.85993
administration	-9.86127
▁militaires	-9.86263
▁dirigeants	-9.86268
▁essentiels	-9.86308
▁devait	-9.86383
IT	-9.86414
▁entier	-9.86415
▁petit	-9.86438
▁Lorsque	-9.86622
▁contrôler	-9.86664
▁sentiment	-9.86698
▁pourrions	-9.86769
▁juillet	-9.86826
▁relation	-9.86916
▁réponses	-9.86969
▁calendrier	-9.87
autant	-9.8707
▁fondamentale	-9.87178
▁attendre	-9.8727
opposition	-9.87427
▁retour	-9.87454
▁fins	-9.87474
▁fiscale	-9.87498
▁vite	-9.87537
▁chemin	-9.87553
▁impact	-9.87597
eux	-9.87704
▁mises	-9.87756
▁Avec	-9.88089
▁mentionné	-9.88141
▁avancer	-9.88244
▁puissions	-9.88373
▁votes	-9.88391
▁langues	-9.884
▁catastrophe	-9.88468
▁français	-9.88603
▁violations	-9.88642
▁différences	-9.88661
able	-9.88682
am	-9.88756
▁puisqu	-9.8883
▁auront	-9.88835
expérience	-9.89041
▁compagnies	-9.89053
Allemagne	-9.89087
▁signal	-9.89147
▁Pologne	-9.89225
▁devrons	-9.89254
▁soutenons	-9.89282
▁utilisés	-9.8929
▁diverses	-9.89306
▁subventions	-9.89328
▁réussi	-9.89516
▁octobre	-9.89527
▁tour	-9.89539
▁ambitieux	-9.89708
▁ouverte	-9.89746
que	-9.89849
▁porter	-9.89863
▁aurons	-9.89906
▁eaux	-9.89907
▁lois	-9.89972
▁conciliation	-9.89999
▁viande	-9.89999
▁statistiques	-9.90017
▁Isra	-9.90095
▁complète	-9.90171
▁jeu	-9.90278
▁Troisièmement	-9.90293
▁environnement	-9.90303
▁réflexion	-9.90324
là	-9.90381
▁lancer	-9.90499
▁portant	-9.90599
▁seuls	-9.90677
▁marchandises	-9.90854
▁revenus	-9.90902
▁maladie	-9.90987
▁accepté	-9.91242
▁Pays	-9.91274
▁socialiste	-9.91332
▁H	-9.914
▁portée	-9.91549
▁suffit	-9.9157
▁correctement	-9.91588
▁Suède	-9.91594
▁poids	-9.91624
O	-9.91742
▁précis	-9.91791
obligation	-9.91813
▁banques	-9.91849
▁familles	-9.91902
▁premières	-9.91988
▁combien	-9.92005
▁vert	-9.92007
harmonisation	-9.92048
▁utilisé	-9.92061
▁positions	-9.92077
▁exactement	-9.92101
▁Moyen	-9.9221
Amérique	-9.92316
▁fasse	-9.92384
▁pollution	-9.92387
▁essentiellement	-9.9254
▁augmenter	-9.92541
▁double	-9.92805
▁réussite	-9.92812
▁financer	-9.92911
▁langue	-9.93068
exemple	-9.93274
▁réalisés	-9.93317
▁préparer	-9.93357
environnementale	-9.93526
▁règle	-9.93535
▁facile	-9.93659
▁trouvent	-9.93665
▁environ	-9.93846
▁Bulgarie	-9.94112
▁adoptées	-9.94117
Ukraine	-9.94122
examen	-9.94141
▁Tous	-9.94174
tandis	-9.94202
H	-9.94266
▁parlement	-9.94316
▁préserver	-9.9442
con	-9.94529
▁frais	-9.94535
▁parvenus	-9.94576
▁ACP	-9.94579
at	-9.94608
▁constitution	-9.94685
▁institution	-9.94787
▁global	-9.94799
OTAN	-9.94804
▁Barroso	-9.94864
▁rendu	-9.94911
▁fermement	-9.95324
intérieur	-9.95374
▁fortement	-9.9541
▁obstacles	-9.95475
▁garde	-9.95481
▁anti	-9.95509
R	-9.95548
époque	-9.95683
▁réaction	-9.9569
▁hausse	-9.95714
Agence	-9.95807
▁Car	-9.9589
▁Verts	-9.95959
ge	-9.96021
▁crédibilité	-9.96111
▁certes	-9.96142
Organisation	-9.96172
▁voulu	-9.96203
▁meilleures	-9.96276
Amsterdam	-9.96302
▁restent	-9.96343
▁destinés	-9.96752
▁entreprise	-9.96819
▁comprends	-9.97067
▁êtes	-9.9718
assistance	-9.97208
▁I	-9.97321
▁étude	-9.97346
▁viens	-9.97401
▁annuel	-9.97475
▁positifs	-9.97526
▁mauvaise	-9.97631
▁signaler	-9.97644
▁cœur	-9.97683
▁accrue	-9.97715
▁tabac	-9.97735
Est	-9.97962
indépendance	-9.97992
▁réfléchir	-9.98025
▁interventions	-9.98359
▁combattre	-9.98374
lé	-9.98472
▁connaît	-9.9856
▁établi	-9.98612
▁complexe	-9.98638
interdiction	-9.98752
isation	-9.98972
▁siècle	-9.98993
▁suppression	-9.99123
équilibre	-9.99328
exclusion	-9.9933
▁relève	-9.99334
PT	-9.99355
▁commentaires	-9.99374
▁difficiles	-9.9938
▁entend	-9.99396
▁vice	-9.99535
▁raisonnable	-9.99581
▁revêt	-9.99584
enseignement	-9.99672
▁exige	-9.99714
▁dehors	-9.99746
▁cohérence	-9.99819
▁UE	-9.99828
▁culturelle	-9.99913
▁lettre	-10.0001
▁payer	-10.0004
▁proposée	-10.0006
▁précise	-10.0008
CE	-10.001
el	-10.0012
▁évoqué	-10.0013
▁attendons	-10.0014
▁principales	-10.0021
▁actuelles	-10.0027
▁considérables	-10.0029
▁commerciale	-10.0031
▁Chypre	-10.0052
▁vaste	-10.0059
▁trouvé	-10.0076
Bas	-10.0084
▁tôt	-10.0097
▁Livre	-10.0103
▁souhaitent	-10.011
E	-10.0116
▁réserves	-10.0124
▁utilisation	-10.0127
▁préoccupation	-10.0127
▁reprise	-10.0129
▁connu	-10.013
▁revient	-10.0133
▁contribué	-10.0136
▁communautés	-10.0141
▁capable	-10.0153
▁entière	-10.0157
▁fonctionnaires	-10.0167
▁Quelle	-10.017
▁ratification	-10.0171
▁effort	-10.0178
▁paiement	-10.0189
▁catastrophes	-10.0191
▁terminer	-10.0194
▁constituer	-10.02
▁transition	-10.0205
▁ouvert	-10.0217
atteindre	-10.0218
▁constate	-10.0218
▁permettent	-10.022
▁garder	-10.0226
▁violation	-10.0228
▁étroite	-10.0236
ag	-10.0243
▁vaut	-10.0245
ing	-10.0247
▁rend	-10.0253
▁paraît	-10.0255
▁auxquelles	-10.0262
▁acte	-10.0269
▁aérien	-10.0276
▁interne	-10.0292
▁corruption	-10.0298
▁Copenhague	-10.0298
▁cesse	-10.0315
institutionnelle	-10.0322
▁déposé	-10.0325
▁Charte	-10.0328
▁tenter	-10.0331
▁sud	-10.0341
▁actuels	-10.0345
▁poursuite	-10.0364
▁entendre	-10.0367
▁proposés	-10.0386
▁moitié	-10.0387
gu	-10.039
▁opérations	-10.0392
▁fixer	-10.0392
▁supprimer	-10.0398
▁législatives	-10.0401
▁régionales	-10.0423
▁élevés	-10.0426
▁tendance	-10.0437
▁offrir	-10.0439
▁erreur	-10.0442
▁évolution	-10.045
▁vivre	-10.0457
▁Strasbourg	-10.046
▁référendum	-10.046
▁Aussi	-10.0467
▁euros	-10.0468
▁codécision	-10.0473
▁Éta	-10.0479
▁plein	-10.048
avant	-10.0495
▁ex	-10.0496
tte	-10.0499
▁dépend	-10.0505
end	-10.0511
▁choisi	-10.0511
vironnementales	-10.0517
▁adéquate	-10.0518
assurance	-10.0539
mé	-10.0543
▁claires	-10.0544
▁imposer	-10.0556
▁vouloir	-10.056
▁pêcheurs	-10.0569
▁nations	-10.0572
▁blanc	-10.0574
▁matières	-10.058
ut	-10.0586
▁vivent	-10.0595
▁minimum	-10.0604
▁sérieusement	-10.062
▁fer	-10.0627
▁via	-10.0628
exportation	-10.0634
▁débattre	-10.0641
▁espace	-10.0644
impression	-10.0652
▁études	-10.066
▁nan	-10.0689
dé	-10.0694
▁personnellement	-10.0702
▁recevoir	-10.0716
▁vingt	-10.0719
▁pétrole	-10.072
▁crucial	-10.0731
▁ordre	-10.0732
▁code	-10.0737
▁possibles	-10.0738
▁fut	-10.0738
▁tchèque	-10.0747
▁différence	-10.0757
▁Méditerranée	-10.0761
▁expérience	-10.0762
vi	-10.0768
▁taxe	-10.0782
▁connaître	-10.0785
apporter	-10.0793
▁énorme	-10.0795
▁acceptable	-10.0805
ique	-10.0814
▁résolutions	-10.0814
▁concernent	-10.0817
▁II	-10.0822
▁active	-10.0822
▁CO	-10.0822
▁facteurs	-10.0823
▁capacités	-10.0829
▁courage	-10.0831
▁préciser	-10.0834
▁commissaires	-10.0842
▁Quant	-10.0847
▁phénomène	-10.0847
▁aliments	-10.0854
ot	-10.0854
▁destinées	-10.0859
▁joue	-10.0873
▁activité	-10.0884
▁propriété	-10.0889
autorité	-10.0899
▁partout	-10.0905
▁communs	-10.0914
▁lien	-10.0926
▁démocrates	-10.0931
▁Avant	-10.0937
▁fondée	-10.0944
▁transfert	-10.0945
▁mentionner	-10.0954
▁dangereux	-10.0956
▁présentée	-10.0968
ic	-10.1002
▁avril	-10.1002
▁serons	-10.1006
▁clé	-10.1008
▁réunions	-10.1011
▁arriver	-10.1015
▁naturelles	-10.1021
▁irlandais	-10.1027
▁paiements	-10.1027
▁amélioration	-10.1029
▁fais	-10.1032
▁administratives	-10.1053
▁commercial	-10.1058
▁majeure	-10.1058
▁prête	-10.106
▁dignité	-10.106
▁appropriée	-10.1065
▁favorables	-10.1071
▁orientale	-10.1084
Italie	-10.1084
considérablement	-10.1089
F	-10.1108
avais	-10.1111
▁quels	-10.1114
▁pilier	-10.1116
▁industrielle	-10.1118
▁réel	-10.1118
▁dépit	-10.1121
▁clause	-10.1123
▁centrales	-10.1126
▁capables	-10.1131
om	-10.1132
▁no	-10.1134
▁complètement	-10.114
▁relativement	-10.1149
tra	-10.1153
▁institutionnel	-10.1153
▁sortir	-10.1157
▁privé	-10.1164
▁prévue	-10.1166
▁petite	-10.1167
▁fonctionne	-10.1167
▁apporté	-10.117
▁formuler	-10.1181
▁conscients	-10.1195
▁ajoutée	-10.1197
▁permettrait	-10.1214
▁vois	-10.1214
ables	-10.1214
Espagne	-10.124
▁compter	-10.1247
appelle	-10.1255
▁ferme	-10.1256
▁Qu	-10.1262
▁crimes	-10.1278
▁esprit	-10.1285
▁PAC	-10.1286
▁inquiétudes	-10.1293
▁proposées	-10.1295
▁intervenir	-10.1297
▁pouvait	-10.1304
tant	-10.1309
▁commissions	-10.1313
▁envisager	-10.1322
ab	-10.1324
▁principale	-10.1327
▁autour	-10.1328
▁Plus	-10.1329
▁détermination	-10.1339
▁organes	-10.135
aider	-10.1368
▁réglementations	-10.1379
me	-10.1381
as	-10.1382
▁restrictions	-10.1387
▁orateurs	-10.1388
ta	-10.1389
▁février	-10.1391
▁patients	-10.1391
▁cohérente	-10.141
▁sport	-10.1413
▁organisation	-10.1416
avait	-10.1419
▁baisse	-10.1419
▁cycle	-10.1421
▁Irlande	-10.1423
▁mutuelle	-10.1424
▁publicité	-10.1431
▁figure	-10.1431
▁regrettable	-10.1439
Iran	-10.1443
▁répéter	-10.1443
▁perdre	-10.1451
▁reconstruction	-10.1461
▁organisée	-10.1477
▁Ensuite	-10.1492
engager	-10.1493
▁influence	-10.1494
▁vérité	-10.1498
▁pouvez	-10.1502
▁prévenir	-10.1502
▁convergence	-10.1505
▁générales	-10.151
▁mauvais	-10.1511
▁villes	-10.1516
▁plaisir	-10.1516
président	-10.152
pé	-10.153
▁textes	-10.1531
▁second	-10.1561
▁humain	-10.1583
ma	-10.1592
▁auraient	-10.1592
che	-10.1597
iste	-10.1597
▁Sans	-10.1598
environnementaux	-10.1598
▁simplification	-10.1602
▁détail	-10.1604
▁croire	-10.1609
▁adhésion	-10.1613
ns	-10.1622
▁répartition	-10.1624
▁réagir	-10.1626
▁directrices	-10.1629
accepter	-10.1642
affaire	-10.1642
▁existent	-10.1643
▁ONG	-10.1653
raient	-10.1653
▁soumettre	-10.1658
▁remarquer	-10.1662
▁détails	-10.1663
▁répond	-10.1668
▁capitaux	-10.1677
▁facteur	-10.1684
▁régimes	-10.1695
▁Concernant	-10.1711
▁suivant	-10.1719
▁américain	-10.1721
▁incombe	-10.1723
union	-10.1738
▁ressort	-10.1739
octroi	-10.1748
▁créé	-10.175
▁perdu	-10.1754
▁article	-10.1762
▁organisé	-10.1765
▁degré	-10.1772
▁existantes	-10.1775
▁commencé	-10.1779
▁visite	-10.1783
ques	-10.1789
▁h	-10.1794
▁voisinage	-10.1798
▁b	-10.1808
▁obligatoire	-10.181
Irak	-10.1814
▁spécial	-10.1823
L	-10.1824
dessus	-10.1827
ph	-10.1832
▁hors	-10.184
▁lancé	-10.1846
▁Lors	-10.1847
▁montrent	-10.1855
▁majeur	-10.1857
▁futures	-10.1858
▁présidents	-10.186
pe	-10.1861
algré	-10.1863
▁dynamique	-10.187
▁importations	-10.1871
ill	-10.1879
▁seconde	-10.1887
▁table	-10.1891
▁revanche	-10.1894
▁travaillé	-10.1895
ES	-10.1897
▁information	-10.1899
▁prêt	-10.1899
▁améliorations	-10.1913
▁terre	-10.1919
to	-10.1921
▁souveraineté	-10.1921
▁proche	-10.1923
▁différente	-10.1926
▁répète	-10.1928
iez	-10.193
▁reconnu	-10.1935
▁autrement	-10.1947
▁prennent	-10.1952
▁respecte	-10.1954
▁combat	-10.1955
▁Pourtant	-10.1956
ion	-10.1957
▁construire	-10.1959
▁touche	-10.1959
▁passage	-10.1967
▁contribue	-10.1971
▁arrive	-10.1971
▁motion	-10.1974
▁tâches	-10.1977
écus	-10.1977
▁prospérité	-10.1982
sse	-10.1987
examiner	-10.2018
▁reconnaît	-10.2022
▁privée	-10.2024
▁ferroviaire	-10.2032
▁citer	-10.2032
▁meilleurs	-10.2038
▁française	-10.2041
▁approprié	-10.2041
▁causes	-10.2042
▁joué	-10.2048
▁souci	-10.2049
▁gérer	-10.206
▁crises	-10.2062
espoir	-10.2072
▁signé	-10.2084
aurais	-10.2085
▁Prodi	-10.2092
▁bientôt	-10.2099
▁conseil	-10.2103
T	-10.2104
▁expliquer	-10.2122
▁invite	-10.2123
▁continuent	-10.2126
▁bout	-10.2136
▁urgent	-10.2146
▁prévoir	-10.2151
▁conduit	-10.2154
▁culturel	-10.2165
▁existants	-10.2166
▁viennent	-10.2171
▁chef	-10.2174
▁Est	-10.2174
▁Croatie	-10.2182
▁préalable	-10.2194
▁entrer	-10.2196
▁organismes	-10.2198
internet	-10.22
▁tentative	-10.2206
▁maximum	-10.221
▁régler	-10.221
▁crédit	-10.2223
▁diminution	-10.2246
▁E	-10.2251
transfrontalière	-10.2254
arrêt	-10.2256
électricité	-10.2266
▁ayons	-10.227
▁contact	-10.227
▁crime	-10.2275
▁considéré	-10.2284
▁médiateur	-10.2285
instrument	-10.2291
▁stocks	-10.2292
urs	-10.2303
▁semblent	-10.2305
▁introduit	-10.2309
aire	-10.2309
▁essentielles	-10.2313
▁capitale	-10.2313
▁présents	-10.2316
▁travaillent	-10.2319
vo	-10.2319
▁menées	-10.232
▁g	-10.2321
iser	-10.2332
▁sept	-10.2336
▁tête	-10.2354
▁sincèrement	-10.2354
ad	-10.2359
▁conforme	-10.2366
▁satisfaction	-10.2374
▁conserver	-10.2381
agissait	-10.2387
▁écologique	-10.2388
invite	-10.2394
▁mode	-10.2396
▁aurions	-10.2396
▁marge	-10.24
▁nécessite	-10.2408
enquête	-10.2414
▁activement	-10.2415
▁sensible	-10.2416
▁destruction	-10.2422
▁mouvement	-10.2424
▁menée	-10.2428
instant	-10.2436
▁local	-10.2441
▁livre	-10.2458
li	-10.2466
▁intéressant	-10.2468
▁courant	-10.2469
NL	-10.2485
▁considérons	-10.25
▁énergies	-10.2501
▁réduit	-10.2505
Inde	-10.2506
▁déficit	-10.2506
▁dés	-10.2523
▁humaines	-10.2532
▁liée	-10.2536
▁abus	-10.254
▁ressortissants	-10.2551
▁assumer	-10.2552
▁finances	-10.2555
▁environnemental	-10.2565
▁paroles	-10.2571
V	-10.2571
▁laisse	-10.2573
La	-10.2602
▁arguments	-10.2604
▁fixé	-10.2604
▁types	-10.2606
▁restructuration	-10.2606
▁vivement	-10.2616
▁visas	-10.2618
▁Afrique	-10.262
ance	-10.2624
▁comprend	-10.2626
▁biens	-10.2627
▁moyenne	-10.2628
▁locaux	-10.2644
▁comportement	-10.2648
accorder	-10.2657
▁technologique	-10.2681
▁constaté	-10.2683
▁opinion	-10.2685
▁ville	-10.269
▁cultures	-10.2693
▁abordé	-10.2694
▁V	-10.2694
augmenter	-10.2701
▁efficacité	-10.2701
encourager	-10.2703
▁saluer	-10.2703
▁avancées	-10.2712
▁équilibrée	-10.2714
▁exportations	-10.2716
▁renforcée	-10.2721
▁énergétiques	-10.2733
▁généralement	-10.2757
▁équilibré	-10.2758
▁denrées	-10.2759
▁socialistes	-10.276
▁enquête	-10.2764
ca	-10.2764
▁réside	-10.2766
né	-10.2768
▁visent	-10.277
▁retraite	-10.2772
▁récente	-10.2783
▁Grande	-10.2785
▁cent	-10.2786
▁définitive	-10.2786
▁bases	-10.2789
all	-10.2799
▁centaines	-10.2804
▁repose	-10.2809
▁intégrée	-10.281
▁discuté	-10.2813
▁excellente	-10.2819
▁nord	-10.282
▁exemples	-10.2833
▁gros	-10.2833
▁perte	-10.2834
▁démarche	-10.2842
▁convenu	-10.2848
▁partenaire	-10.285
analyse	-10.2851
▁rurales	-10.2854
▁trait	-10.2856
où	-10.2885
▁solide	-10.2893
▁stratégies	-10.2894
▁prévues	-10.2898
▁taille	-10.2901
▁conventions	-10.2904
ler	-10.2919
▁apporte	-10.2925
▁premiers	-10.2932
▁britanniques	-10.2937
▁présentation	-10.2939
▁élargissement	-10.294
approbation	-10.2944
▁concrète	-10.2945
▁Nos	-10.2957
ig	-10.2964
▁répercussions	-10.2968
▁Peut	-10.2969
▁indépendants	-10.2973
▁postes	-10.2976
▁disposent	-10.2977
if	-10.2978
▁frontière	-10.2979
▁adopte	-10.2982
▁directe	-10.2986
ign	-10.2996
inclusion	-10.3009
▁utilisées	-10.301
▁examen	-10.3014
entendre	-10.3025
▁homme	-10.3027
N	-10.3028
um	-10.3029
▁accroître	-10.3038
pa	-10.304
lu	-10.3051
▁brièvement	-10.3054
▁comporte	-10.3057
RO	-10.3057
étiquetage	-10.3058
▁revenu	-10.3062
démocrates	-10.3068
eurs	-10.307
avec	-10.3076
▁faibles	-10.308
▁bénéfices	-10.3082
▁concrets	-10.3087
▁Non	-10.3087
▁regard	-10.3089
▁électronique	-10.3094
▁remarquable	-10.3097
▁provenant	-10.3102
▁connaissons	-10.3106
▁fil	-10.311
applique	-10.3112
▁provenance	-10.3114
▁constructive	-10.3123
▁illégale	-10.3125
▁tellement	-10.3128
▁industrie	-10.3137
▁basée	-10.3138
▁fonctionner	-10.3146
▁rédigé	-10.3153
adresse	-10.3159
importe	-10.316
attitude	-10.3168
▁prononcer	-10.3171
ver	-10.3174
op	-10.3177
▁Roms	-10.3181
▁électeurs	-10.3184
▁significative	-10.3184
▁choisir	-10.3189
▁habitants	-10.3202
nes	-10.3203
▁soyons	-10.3206
▁reprendre	-10.3211
▁complet	-10.3224
▁K	-10.323
iers	-10.3232
Bretagne	-10.3232
▁télévision	-10.3237
▁drogue	-10.3237
na	-10.3246
▁taxes	-10.3246
▁Serbie	-10.325
▁TVA	-10.325
▁accordée	-10.3255
▁opportun	-10.3266
▁Géorgie	-10.3268
États	-10.327
▁distribution	-10.3272
▁exercer	-10.3279
▁essayer	-10.3281
▁Quand	-10.3281
▁experts	-10.3285
▁attend	-10.3287
▁opinions	-10.3297
▁étroitement	-10.33
▁Comité	-10.3307
▁problématique	-10.3322
▁suppose	-10.3322
▁pleine	-10.3325
ier	-10.3326
▁approuver	-10.3329
▁attentes	-10.3331
▁remplacer	-10.334
ia	-10.334
▁refus	-10.3348
▁donnée	-10.3349
▁clairs	-10.3352
▁somme	-10.336
▁remettre	-10.3376
▁représentation	-10.3379
▁usage	-10.3385
▁reflète	-10.3386
▁devient	-10.3386
▁levée	-10.3391
▁pratiquement	-10.3391
▁ravi	-10.3399
▁informer	-10.3401
▁Rapport	-10.3402
▁adoptés	-10.3437
▁version	-10.3444
▁duquel	-10.3455
▁introduire	-10.3461
▁signe	-10.3464
non	-10.3469
honorable	-10.3474
▁confirmer	-10.3475
j	-10.3482
▁derrière	-10.3486
▁connaissances	-10.3488
▁avancée	-10.3488
▁déposés	-10.3506
▁tenue	-10.3516
instar	-10.3522
excellent	-10.3524
▁civiles	-10.3526
▁O	-10.3528
▁quantité	-10.3537
▁formulation	-10.3545
▁précédente	-10.3546
▁ports	-10.3547
▁retirer	-10.3557
▁catégorie	-10.3566
effet	-10.357
▁souhait	-10.3572
▁strictes	-10.3577
aucune	-10.3582
▁coopérer	-10.3591
▁bons	-10.3591
aucun	-10.3599
amendements	-10.3599
▁voit	-10.36
▁chercher	-10.3601
▁chiffre	-10.3603
▁Luxembourg	-10.3609
▁libéraux	-10.3609
▁fruits	-10.361
▁évaluer	-10.361
▁lié	-10.3613
ard	-10.3617
▁inclure	-10.3623
ive	-10.3641
▁élaborer	-10.3654
▁pacifique	-10.3659
▁apparaît	-10.3659
▁opérateurs	-10.3664
▁gagner	-10.3667
▁augmenté	-10.3677
▁participé	-10.3677
▁contrats	-10.369
▁privés	-10.3692
▁Belarus	-10.3705
▁régionaux	-10.3716
avère	-10.3717
▁permettront	-10.3719
▁Ceux	-10.372
▁internes	-10.3731
▁Donc	-10.3733
▁central	-10.3737
▁amis	-10.374
▁thèmes	-10.3742
▁civils	-10.3742
▁satisfaire	-10.3746
▁anciens	-10.3752
▁mené	-10.3755
▁liens	-10.3762
▁mains	-10.3769
▁change	-10.3769
▁aériennes	-10.3769
▁russe	-10.377
armes	-10.377
appel	-10.3775
▁jeudi	-10.3781
▁oui	-10.3784
étais	-10.3785
▁salaires	-10.3789
va	-10.3789
▁susceptibles	-10.3795
▁urgence	-10.3797
▁profondément	-10.3797
▁missions	-10.3806
▁clarté	-10.3811
▁Finlande	-10.3816
cul	-10.3817
ve	-10.3819
▁démontré	-10.3825
▁légitime	-10.3832
▁destiné	-10.3833
émission	-10.3834
▁croissante	-10.3842
▁rejet	-10.3848
▁annoncé	-10.385
▁bureaucratie	-10.3853
offre	-10.3856
▁voitures	-10.3861
empêcher	-10.3867
id	-10.3875
EL	-10.3885
▁rapporteure	-10.3887
▁chapitre	-10.3888
▁saisir	-10.3888
▁difficulté	-10.3897
▁Allemagne	-10.3909
▁gauche	-10.3916
bi	-10.3917
▁fixés	-10.392
▁trouvons	-10.3924
▁rappelé	-10.3928
introduire	-10.393
▁Kyoto	-10.3933
▁flux	-10.3943
▁intentions	-10.3947
aborder	-10.3948
ul	-10.3952
▁déclare	-10.3961
▁van	-10.397
▁normal	-10.3971
▁finale	-10.3973
▁industries	-10.3978
▁marque	-10.3983
mer	-10.3984
midi	-10.3988
tent	-10.3988
man	-10.3989
▁port	-10.3989
Isra	-10.3993
ka	-10.3996
os	-10.3997
▁contribuera	-10.4011
accroître	-10.4012
▁chimiques	-10.4014
agisse	-10.4018
▁vulnérables	-10.4018
▁âgées	-10.4029
▁mettent	-10.4037
▁Quel	-10.4051
▁défaut	-10.4055
▁déclarer	-10.4055
▁bilan	-10.4057
▁énergie	-10.4064
▁vérifier	-10.4073
▁articles	-10.4074
▁conduire	-10.4076
▁pénal	-10.4079
▁contribuables	-10.4099
▁cher	-10.4105
▁compréhension	-10.4105
▁demeure	-10.4108
istes	-10.4109
▁effectué	-10.4109
essentiel	-10.4114
ations	-10.4114
co	-10.4116
▁Nice	-10.4119
th	-10.4126
▁détriment	-10.4133
▁transatlantique	-10.4133
institutionnel	-10.4139
▁intention	-10.415
▁tenant	-10.4157
▁PIB	-10.4172
▁é	-10.4174
▁crains	-10.4177
▁pétitions	-10.418
▁dette	-10.4182
▁structurelles	-10.4182
▁disant	-10.4184
▁permanent	-10.4187
▁exclusivement	-10.4188
▁rejeter	-10.42
▁automobile	-10.421
▁Bosnie	-10.421
COM	-10.4218
▁contacts	-10.4219
▁territoires	-10.422
▁suffisant	-10.4226
▁venu	-10.4227
imposer	-10.4238
▁erreurs	-10.4244
▁vente	-10.4246
▁histoire	-10.4247
▁Sa	-10.4266
étaient	-10.4275
▁échange	-10.4276
▁négocier	-10.4279
▁installations	-10.4284
▁poste	-10.4299
ba	-10.4302
▁premièrement	-10.4312
▁Sommet	-10.4313
▁relance	-10.4318
enfants	-10.4325
▁quinze	-10.4332
▁aboutir	-10.4335
▁respectent	-10.4337
âge	-10.434
▁riches	-10.4341
▁Japon	-10.4347
▁époque	-10.4357
entreprises	-10.4359
▁Tel	-10.4361
▁forêts	-10.4363
▁professionnels	-10.4364
▁soulevé	-10.437
▁Barcelone	-10.4381
▁scène	-10.4386
purement	-10.4387
▁attendent	-10.4394
▁répondu	-10.4398
ose	-10.4399
▁minutes	-10.44
▁régulièrement	-10.4407
▁ouvrir	-10.4408
▁accomplis	-10.4415
▁prisonniers	-10.4418
▁Corée	-10.442
▁remplir	-10.4426
▁pénale	-10.4433
▁pressions	-10.4439
▁souhaitable	-10.444
▁lacunes	-10.4441
se	-10.4442
▁agit	-10.445
▁serre	-10.4452
▁futurs	-10.4452
▁chargé	-10.4455
▁surmonter	-10.4466
▁envisage	-10.4469
▁motifs	-10.4483
apprécie	-10.449
▁retrait	-10.4492
▁planète	-10.4501
▁irlandaise	-10.4503
▁dirais	-10.4505
▁convaincre	-10.4506
▁latine	-10.4511
▁distinction	-10.4512
▁siège	-10.4513
▁sexuelle	-10.4513
▁appropriées	-10.4517
air	-10.4524
▁différent	-10.453
▁hauteur	-10.4531
▁conception	-10.4532
▁bénéficient	-10.4535
orientation	-10.4545
▁patrimoine	-10.4545
▁interdiction	-10.456
▁discutons	-10.456
▁allemande	-10.4562
fi	-10.4569
ère	-10.4576
▁Re	-10.458
▁continuera	-10.4584
▁handicapées	-10.4586
▁suffisante	-10.4588
▁formulées	-10.4589
▁posé	-10.4593
▁huit	-10.4594
▁dommages	-10.4596
▁milieu	-10.46
▁peur	-10.4601
▁centres	-10.4612
▁positives	-10.4614
▁visa	-10.4615
élimination	-10.4621
▁satisfait	-10.4622
▁affirmé	-10.4626
▁pencher	-10.4629
▁pire	-10.4634
▁prétexte	-10.4636
▁justifier	-10.4636
▁pertes	-10.464
▁débattons	-10.464
▁racisme	-10.4641
iv	-10.4658
▁bienvenue	-10.466
▁intégrer	-10.4661
▁méritent	-10.4672
▁indépendante	-10.4688
▁appliquées	-10.469
▁Pakistan	-10.4692
▁refuser	-10.4693
▁commis	-10.47
▁menaces	-10.4705
instauration	-10.4707
▁précédemment	-10.4717
humanité	-10.4722
ise	-10.4723
▁américaine	-10.4727
▁légitimité	-10.4727
▁conviction	-10.4731
accueil	-10.4741
▁Hongrie	-10.4743
tu	-10.4744
G	-10.4745
▁consacré	-10.4746
▁remerciements	-10.4748
▁utilisée	-10.4752
▁contributions	-10.4752
ine	-10.4754
▁tenté	-10.4759
▁facilement	-10.4765
▁obligation	-10.4769
▁faute	-10.4772
▁volontaire	-10.4773
▁revoir	-10.4774
è	-10.4775
par	-10.4793
▁notion	-10.4794
▁véritables	-10.4796
▁engagés	-10.4799
agenda	-10.4824
approuve	-10.4825
Agenda	-10.4825
▁auparavant	-10.4826
▁sert	-10.4836
▁Van	-10.484
▁intégration	-10.4847
▁rejeté	-10.4848
▁CE	-10.4853
ESB	-10.4857
▁connaissent	-10.4862
▁désir	-10.4875
aires	-10.4878
▁minorité	-10.4887
▁argent	-10.4892
▁Belgique	-10.4892
▁Cuba	-10.4892
▁commence	-10.4909
▁initiale	-10.4911
▁dépendance	-10.4913
▁élus	-10.4916
▁clarifier	-10.4917
▁indique	-10.4922
▁clés	-10.4928
▁PSE	-10.4934
▁savent	-10.4948
▁Objet	-10.4949
▁carbone	-10.4949
▁administrative	-10.495
▁imp	-10.4951
▁crée	-10.4953
▁existant	-10.4959
▁législations	-10.496
▁mi	-10.4962
▁prie	-10.4967
▁Toutes	-10.497
étendre	-10.4982
▁effective	-10.4982
▁extraordinaire	-10.4983
nant	-10.4985
do	-10.4986
▁finir	-10.4989
▁génération	-10.499
▁modernisation	-10.4991
▁observations	-10.4993
ssant	-10.4993
▁présentent	-10.5002
▁signature	-10.5003
▁destinée	-10.5004
▁suivants	-10.5017
▁présentés	-10.5021
aspect	-10.5024
ure	-10.5027
▁substance	-10.5029
bo	-10.5034
▁encourageant	-10.5035
▁direct	-10.504
▁Qui	-10.5047
▁sensibles	-10.5052
com	-10.5057
▁simplifier	-10.5068
▁couvrir	-10.5068
▁stratégiques	-10.5072
▁intérieure	-10.5082
▁appartient	-10.5083
▁moderne	-10.5088
autorisation	-10.5088
▁constructif	-10.5091
▁minute	-10.5098
▁satisfaisante	-10.51
▁adresser	-10.5101
▁nettement	-10.5104
▁affirmer	-10.5104
▁lire	-10.5108
▁inutile	-10.511
▁engagée	-10.5112
▁souhaité	-10.5113
▁écoles	-10.5119
▁tonnes	-10.5121
▁fonctions	-10.5122
▁Certes	-10.5128
orateur	-10.5136
▁prenne	-10.5143
▁harmonisation	-10.5147
mo	-10.5155
▁dossiers	-10.5156
▁dangereuses	-10.5161
▁demandent	-10.5161
eur	-10.5163
▁MM	-10.5164
▁allemand	-10.5166
▁accidents	-10.5172
▁rencontre	-10.5174
ications	-10.5179
extérieur	-10.5185
▁fiscales	-10.5189
▁recettes	-10.5198
▁dites	-10.5198
▁BCE	-10.52
▁élu	-10.5204
oc	-10.5204
▁suédoise	-10.5213
▁Baltique	-10.5219
▁acquis	-10.5219
▁espagnole	-10.5219
▁correspond	-10.5223
▁vivant	-10.5227
Autriche	-10.5234
échec	-10.5239
extension	-10.5245
élaborer	-10.525
▁naturel	-10.5253
▁Traités	-10.5262
▁preuves	-10.5266
▁recommande	-10.5266
▁applicables	-10.5271
▁retrouver	-10.5272
▁préjudice	-10.5273
▁recourir	-10.5273
▁suivantes	-10.5287
▁subi	-10.5288
ép	-10.5295
▁transformation	-10.5295
▁jeunesse	-10.5297
▁outil	-10.5298
▁confirmé	-10.5301
▁Irak	-10.5304
si	-10.5307
▁légale	-10.5309
ancien	-10.5312
▁possède	-10.5315
▁laissé	-10.5317
▁%.	-10.5318
▁atteinte	-10.5318
rai	-10.533
▁exiger	-10.5332
▁assistance	-10.5334
▁quelqu	-10.534
ru	-10.5343
▁absolue	-10.5344
▁disent	-10.5345
▁Italie	-10.5355
▁entraîne	-10.5359
▁espérer	-10.5371
gouvernementales	-10.5372
▁religion	-10.5375
▁quelconque	-10.5376
▁fourni	-10.5381
▁appliquée	-10.5383
▁drogues	-10.5386
▁considérée	-10.5389
▁sort	-10.539
art	-10.5391
Alliance	-10.5392
▁chaîne	-10.5396
▁bénéficiaires	-10.5401
▁parents	-10.5427
▁devenu	-10.5428
adapter	-10.5432
▁télécommun	-10.5441
▁temporaire	-10.5447
▁Bureau	-10.5458
and	-10.5458
unité	-10.5462
▁qualifiée	-10.5463
▁sûre	-10.5468
acquis	-10.5476
▁séjour	-10.5485
oublions	-10.5486
▁défend	-10.5486
▁concrètement	-10.5491
▁Danemark	-10.5496
▁Son	-10.5497
▁tenus	-10.5506
▁voudrions	-10.5507
▁soumise	-10.551
▁charges	-10.5518
alcool	-10.5524
▁leçons	-10.5526
▁consacrer	-10.5527
▁stimuler	-10.553
▁présentées	-10.5533
▁élaboré	-10.5535
▁défini	-10.5547
▁mettant	-10.5547
▁limitée	-10.5555
▁réaliste	-10.5557
▁exprimées	-10.5559
▁inquiétude	-10.5559
▁instamment	-10.5568
▁cancer	-10.5579
▁convaincue	-10.5586
▁candidat	-10.5594
▁repris	-10.5602
▁Maastricht	-10.5607
▁remédier	-10.5608
▁garantissant	-10.5613
alimentation	-10.5622
▁étrangers	-10.5624
▁prochains	-10.5639
▁Quoi	-10.5641
▁indiquer	-10.5643
▁merci	-10.5651
apprentissage	-10.5674
▁chaleureusement	-10.5674
▁changé	-10.5674
▁engager	-10.5676
▁tente	-10.5677
▁sûreté	-10.5681
aurait	-10.5683
▁durabilité	-10.5691
▁supérieur	-10.5693
▁pourcentage	-10.5697
▁pensent	-10.5697
▁pouvant	-10.5708
▁fixe	-10.571
▁profonde	-10.5716
▁croissant	-10.5728
▁accordé	-10.5733
▁corps	-10.5738
▁contribuent	-10.574
ser	-10.5742
adaptation	-10.5753
▁négatif	-10.5761
▁espèces	-10.5763
▁fermeture	-10.5764
évaluer	-10.578
isant	-10.5781
▁voyage	-10.5782
▁sauvegarde	-10.5785
▁expériences	-10.579
▁considérations	-10.5791
▁développés	-10.5791
▁catégories	-10.5794
▁citoyenneté	-10.5799
▁cesser	-10.58
▁manifestement	-10.5802
▁seuil	-10.5807
▁appris	-10.581
▁Etats	-10.5811
▁minimales	-10.5811
▁heureuse	-10.5812
▁pensions	-10.5815
ante	-10.5822
▁élargie	-10.5827
▁approfondie	-10.5834
▁Ta	-10.5835
▁permanente	-10.5836
▁utiles	-10.584
▁appliqué	-10.5847
ampleur	-10.585
▁voulais	-10.5855
▁bref	-10.5858
▁évoquer	-10.5859
▁Berlin	-10.5861
▁guère	-10.5861
▁actif	-10.5868
▁fallait	-10.5884
issue	-10.5891
actions	-10.5891
tro	-10.5894
▁démontre	-10.5905
▁voyons	-10.5907
▁Jusqu	-10.5907
▁cruciale	-10.5907
▁territoriale	-10.5908
▁intellectuelle	-10.5913
▁criminels	-10.5915
▁librement	-10.5919
▁cherche	-10.5922
▁renforcé	-10.5923
▁obstacle	-10.5932
▁traduit	-10.5936
ac	-10.5936
▁occidentaux	-10.5941
BC	-10.5945
▁judiciaires	-10.5946
ale	-10.5947
aller	-10.595
▁limité	-10.5958
inflation	-10.5959
▁bord	-10.5959
▁informé	-10.5964
Asie	-10.5967
▁transit	-10.5969
▁aéroports	-10.5971
▁vital	-10.5971
▁portent	-10.5977
auteur	-10.5979
▁réglementaire	-10.598
▁su	-10.598
▁No	-10.5988
importation	-10.5992
▁charte	-10.5999
lement	-10.6011
▁résistance	-10.6011
▁volume	-10.6011
▁répression	-10.6011
exception	-10.6013
no	-10.6018
▁Ha	-10.6019
▁signalé	-10.6023
▁universel	-10.6024
▁retire	-10.6024
ajustement	-10.6027
▁Députés	-10.6029
▁Al	-10.6034
▁flotte	-10.6035
▁alternatives	-10.6037
occurrence	-10.604
ajouter	-10.6042
ouvrir	-10.6046
▁élevées	-10.605
▁extérieur	-10.605
▁Grâce	-10.6052
▁réels	-10.6054
▁climatiques	-10.6056
▁neuf	-10.6065
▁indépendant	-10.607
▁juge	-10.6071
▁prendra	-10.6074
attaquer	-10.6078
ue	-10.6078
▁appelé	-10.6079
▁rapprocher	-10.6092
▁investir	-10.6093
▁manifeste	-10.6093
▁opposition	-10.6096
hier	-10.6098
▁Déclaration	-10.6104
▁veille	-10.6109
▁promesses	-10.6111
▁tiendra	-10.6115
▁carte	-10.6125
▁côtés	-10.6133
▁Telle	-10.6142
ég	-10.6143
▁générations	-10.6144
▁cite	-10.6148
▁Macédoine	-10.6151
▁étions	-10.6152
▁reconnaissant	-10.6153
▁transparente	-10.6154
qui	-10.6159
▁affirme	-10.6161
▁Chaque	-10.6164
ants	-10.6164
▁espagnol	-10.6164
▁prenons	-10.6169
app	-10.618
▁Palestiniens	-10.6198
▁voies	-10.6199
▁autorité	-10.6202
▁décennies	-10.6207
▁Parti	-10.621
▁débattu	-10.6213
étude	-10.6216
▁moteur	-10.6217
der	-10.622
▁engagé	-10.6223
▁partageons	-10.6229
▁conservation	-10.6234
ol	-10.6234
▁coordonner	-10.6238
▁feront	-10.6244
▁diminuer	-10.6246
▁partager	-10.6249
▁impliqués	-10.6252
▁similaires	-10.6259
▁brevets	-10.626
ger	-10.6262
▁campagnes	-10.6268
▁puissance	-10.6268
▁libres	-10.6269
▁constamment	-10.6275
▁publié	-10.6278
▁transactions	-10.6285
▁posée	-10.6287
échelon	-10.6299
▁critère	-10.63
▁collaborer	-10.6304
▁suit	-10.6316
▁Américains	-10.6317
▁conscient	-10.6327
▁adéquat	-10.6329
influence	-10.6331
des	-10.6334
▁Slovaquie	-10.6335
▁dirai	-10.6336
▁nuit	-10.6336
▁associations	-10.6337
▁voient	-10.6338
▁électorale	-10.6339
▁attentivement	-10.6342
▁journalistes	-10.6346
▁pension	-10.6354
▁planification	-10.6355
▁intégré	-10.6357
▁posent	-10.6361
opportunité	-10.6361
tes	-10.6364
▁réductions	-10.6367
▁considérant	-10.6379
▁progressivement	-10.6381
▁salariés	-10.6381
▁agence	-10.6385
▁indispensables	-10.6392
ni	-10.6399
▁printemps	-10.6407
intégrer	-10.6408
▁tests	-10.6411
▁biodiversité	-10.6413
ssons	-10.6418
▁transfrontalier	-10.6427
œuvre	-10.6433
▁oral	-10.6438
▁torture	-10.6439
▁belge	-10.644
attends	-10.6443
▁collecte	-10.6449
▁applicable	-10.6451
▁accorde	-10.6465
▁fiscalité	-10.6468
▁locale	-10.647
▁écrites	-10.648
▁correcte	-10.6481
▁représenter	-10.6491
▁palestinien	-10.6494
▁spécifiquement	-10.6506
▁concret	-10.6507
▁entraîner	-10.6513
▁Compte	-10.6517
▁transmettre	-10.6523
▁modalités	-10.6523
▁test	-10.6535
▁journée	-10.6536
▁simples	-10.6541
▁jouent	-10.6546
▁précaution	-10.6553
ancienne	-10.6561
▁fassent	-10.6566
▁organiser	-10.6572
étranger	-10.6576
▁législature	-10.6578
▁américains	-10.6578
▁libération	-10.6578
▁italien	-10.6579
organiser	-10.6583
▁Maroc	-10.6584
▁politiquement	-10.659
▁inclus	-10.6594
▁socio	-10.6604
▁opposés	-10.6605
▁stable	-10.6609
ougoslavie	-10.6615
imposition	-10.6615
▁sucre	-10.6621
▁droite	-10.6624
▁attaques	-10.6638
SV	-10.6649
▁rétablir	-10.6651
▁entraîné	-10.6652
du	-10.6659
▁brevet	-10.6662
ven	-10.6665
▁formule	-10.6669
▁avantage	-10.6673
▁tragédie	-10.6674
▁instaurer	-10.6676
▁soulever	-10.6677
▁Parmi	-10.6684
go	-10.6689
bab	-10.669
▁garantit	-10.6694
omp	-10.6698
▁assisté	-10.6708
▁immédiate	-10.6717
▁ad	-10.6718
▁informés	-10.6723
▁suédois	-10.6727
po	-10.6728
▁Bo	-10.6751
▁montants	-10.6759
gi	-10.676
▁retards	-10.6763
ins	-10.6766
▁demandeurs	-10.6772
▁fourniture	-10.6778
▁devienne	-10.6782
▁contrairement	-10.6783
▁plaintes	-10.6789
▁Genève	-10.6789
nel	-10.6791
▁proposons	-10.6803
▁quatrième	-10.6803
rions	-10.6813
▁doter	-10.6824
▁promis	-10.6838
ateur	-10.6844
▁milliard	-10.6845
Autorité	-10.6845
▁conseils	-10.6853
▁modifié	-10.6854
▁écouté	-10.6858
pi	-10.6859
▁condamner	-10.6859
▁Gaza	-10.6864
▁vin	-10.6866
▁assemblée	-10.6869
▁estimé	-10.6873
▁Afin	-10.6878
▁prévus	-10.6887
▁secrétaire	-10.6894
▁consolider	-10.6896
out	-10.6901
impose	-10.6902
▁mainte	-10.6904
▁compensation	-10.6906
▁doutes	-10.6917
str	-10.692
▁contradiction	-10.6927
▁récents	-10.6929
▁sérieuse	-10.6937
▁précédents	-10.6939
CEE	-10.6945
▁donnent	-10.6946
▁million	-10.6949
▁mène	-10.6952
affaires	-10.6955
▁progressive	-10.6962
▁Rome	-10.6969
▁outils	-10.6969
▁opportunités	-10.6972
▁accepte	-10.6974
▁îles	-10.6975
▁respecté	-10.6978
int	-10.6983
▁Espagne	-10.6983
▁bâtiments	-10.6986
mar	-10.6986
▁récentes	-10.6997
▁mondiaux	-10.6998
aviation	-10.6998
▁porté	-10.7007
actualité	-10.7011
▁voilà	-10.7017
▁italienne	-10.7019
▁demi	-10.7019
▁transformer	-10.702
▁échelle	-10.7023
▁dégâts	-10.7024
▁Oui	-10.7025
▁industriels	-10.703
▁décisif	-10.703
▁programmation	-10.703
▁renforce	-10.703
▁deuxièmement	-10.7039
▁culturels	-10.705
occupation	-10.7053
▁souffrent	-10.7066
▁permette	-10.7071
▁portugaise	-10.7073
appui	-10.7073
▁stabilisation	-10.7075
▁particuliers	-10.708
▁Lituanie	-10.7082
▁morts	-10.7088
▁culturelles	-10.709
été	-10.7091
▁consolidation	-10.7094
▁insiste	-10.7101
▁communications	-10.7103
▁silence	-10.7107
ateurs	-10.7109
▁opportunité	-10.7114
▁Du	-10.7123
▁dollars	-10.7124
▁discriminations	-10.7127
▁imposées	-10.7132
▁devenue	-10.7133
▁nomination	-10.714
▁prioritaires	-10.7147
armée	-10.715
▁ferons	-10.7155
ommercialisation	-10.7162
▁confirme	-10.7169
▁bilatéraux	-10.7172
▁tribunaux	-10.7172
▁libéral	-10.7175
▁précises	-10.7176
▁tribunal	-10.7179
▁rejette	-10.7188
▁géographique	-10.7189
élevage	-10.7192
▁conclus	-10.7199
▁hommage	-10.7205
▁Internet	-10.721
▁justifie	-10.7211
▁animale	-10.7215
exercer	-10.7224
▁humanitaires	-10.7225
ALE	-10.7228
▁êtres	-10.7228
▁transposition	-10.7231
▁législatifs	-10.7233
▁génétiquement	-10.7233
▁disons	-10.7236
▁rubrique	-10.7243
▁officielle	-10.725
ali	-10.7251
▁sites	-10.7256
▁venons	-10.7271
▁privées	-10.7273
▁éventuellement	-10.7275
ores	-10.7276
▁spécialement	-10.7282
▁provoqué	-10.7283
▁fiscaux	-10.7284
▁mention	-10.7287
▁diffusion	-10.729
▁félicitations	-10.7297
▁circonscription	-10.7304
▁impliquant	-10.7304
effort	-10.7315
OLAF	-10.7317
▁démocratisation	-10.7317
▁primordial	-10.7318
▁orale	-10.7326
▁mouvements	-10.7333
att	-10.7336
▁prison	-10.7336
▁allant	-10.7343
▁personnelle	-10.7345
▁concentration	-10.7346
▁correct	-10.735
▁auteurs	-10.7359
▁expliqué	-10.7361
▁massive	-10.7362
dit	-10.7364
infrastructure	-10.7376
▁report	-10.7378
▁présidente	-10.7379
▁susceptible	-10.7387
▁établissant	-10.739
▁compétentes	-10.7391
▁alternative	-10.7393
éc	-10.7393
▁Canada	-10.7396
▁confusion	-10.7397
aff	-10.7401
▁occasions	-10.7404
▁ça	-10.741
▁chute	-10.741
ction	-10.7413
▁heure	-10.7415
▁détention	-10.7417
ient	-10.7417
▁accomplir	-10.7425
▁tentatives	-10.7429
▁faux	-10.7432
▁bureau	-10.7442
▁étudiants	-10.7443
▁sûrs	-10.7447
▁soutenue	-10.7451
▁parvenu	-10.7452
▁bénéfice	-10.7456
▁cinquième	-10.7457
▁routes	-10.7459
▁rendent	-10.7462
▁publication	-10.7463
▁décisive	-10.7463
▁vol	-10.7464
ts	-10.7471
▁périodes	-10.7477
▁admettre	-10.748
▁profondeur	-10.7481
▁Afghanistan	-10.7483
▁complémentaire	-10.7488
▁bénéficie	-10.7489
▁soutiennent	-10.7489
▁Birmanie	-10.749
▁devaient	-10.7504
▁exploitations	-10.7508
▁utilisateurs	-10.7511
▁occupe	-10.7514
▁rec	-10.7517
▁modèles	-10.7519
identité	-10.752
▁employés	-10.7526
▁dégager	-10.7526
ski	-10.7529
▁sinon	-10.7535
▁éliminer	-10.7537
▁Parallèlement	-10.7544
▁entamer	-10.7546
▁absurde	-10.755
usage	-10.7564
▁allusion	-10.7564
▁touchés	-10.7565
cu	-10.7567
▁Toute	-10.7569
▁déployés	-10.7572
▁refusé	-10.7574
▁turc	-10.7576
▁argument	-10.7579
▁couvre	-10.7579
▁Mes	-10.7585
▁constatons	-10.7588
▁insisté	-10.7592
▁reçoivent	-10.7593
▁envoyer	-10.7596
▁nécessairement	-10.7599
école	-10.7602
▁convaincus	-10.7602
▁résolu	-10.7604
enfant	-10.7609
▁ratifié	-10.7609
▁compléter	-10.7612
▁généraux	-10.7619
▁tort	-10.7619
▁prenant	-10.7625
▁examiné	-10.763
▁brut	-10.7632
experts	-10.7642
▁quotidienne	-10.7644
instaurer	-10.7645
rie	-10.7645
▁contraintes	-10.7646
▁foi	-10.7646
▁partant	-10.7649
▁récent	-10.765
▁refuse	-10.7651
▁communiste	-10.7654
▁concrétiser	-10.7656
▁surveiller	-10.7662
nu	-10.7664
▁rémunération	-10.7667
▁directeur	-10.7675
▁lancement	-10.7677
▁structurelle	-10.7685
▁disponible	-10.7686
▁polonais	-10.7687
▁compétitive	-10.7693
▁destination	-10.7696
▁salaire	-10.77
▁rejoindre	-10.7701
▁constante	-10.7705
▁organe	-10.7705
oui	-10.771
▁encourage	-10.7714
▁deviennent	-10.7715
▁fondement	-10.7719
▁tenons	-10.7722
▁chrétiens	-10.7724
▁particulières	-10.7728
▁espoir	-10.7733
▁rencontré	-10.7738
▁inégalités	-10.7743
ages	-10.7761
adresser	-10.7762
▁pièces	-10.7762
▁rythme	-10.7763
use	-10.7773
▁réussir	-10.7777
▁soumises	-10.7783
▁enquêtes	-10.7792
ssent	-10.7793
tre	-10.7801
U	-10.7816
▁travaille	-10.7819
ade	-10.782
▁amélioré	-10.7827
insiste	-10.7833
▁bois	-10.7833
▁pa	-10.784
▁routière	-10.7846
▁syndicats	-10.7853
image	-10.7857
▁routier	-10.7861
issant	-10.7874
▁combler	-10.7875
od	-10.7876
▁impose	-10.788
temps	-10.7888
▁figurent	-10.7893
▁troupes	-10.7895
▁physique	-10.7896
institution	-10.7899
▁ultrapériphéri	-10.79
▁recherches	-10.7906
nés	-10.791
▁seules	-10.7914
UEM	-10.7915
▁rencontrer	-10.7915
▁entrée	-10.792
▁requiert	-10.7923
interprétation	-10.7925
▁désaccord	-10.7925
▁définis	-10.7926
▁échec	-10.7932
▁néerlandais	-10.7942
▁tradition	-10.7945
▁Leur	-10.7946
avérer	-10.7951
pro	-10.7952
▁sang	-10.7956
▁accélérer	-10.7977
hi	-10.7978
▁utilisant	-10.798
▁voulez	-10.798
rais	-10.798
▁complexes	-10.7997
▁soviétique	-10.8008
▁suscité	-10.8008
▁risquent	-10.801
▁électroniques	-10.8016
débat	-10.8018
inscrit	-10.8019
▁développements	-10.8019
▁marche	-10.802
▁terres	-10.8021
▁suggère	-10.8023
▁relèvent	-10.8029
▁demandant	-10.8029
lusieurs	-10.803
▁parallèlement	-10.8039
ren	-10.8042
▁banque	-10.8046
▁sauf	-10.8047
attendre	-10.8055
▁manifestations	-10.8061
▁éventuelle	-10.8065
bu	-10.8066
▁administration	-10.8066
enregistrement	-10.8066
▁déplore	-10.807
ui	-10.8071
▁investisseurs	-10.8072
▁énormes	-10.8077
▁adéquates	-10.8079
▁multinationales	-10.8082
av	-10.8085
▁jugement	-10.8108
▁dizaines	-10.8112
▁traditions	-10.8113
▁entrepris	-10.8114
▁multiples	-10.8114
approuver	-10.8121
▁renoncer	-10.8122
intégrité	-10.8123
▁passant	-10.8124
▁forum	-10.8125
▁compétente	-10.8126
▁prétend	-10.8128
achat	-10.8136
▁Tchétchénie	-10.8136
▁options	-10.814
▁basé	-10.8141
▁quotidien	-10.8142
▁longues	-10.8142
iens	-10.8142
▁juger	-10.8143
▁vitesse	-10.8148
honneur	-10.8148
▁conformité	-10.8148
▁personnelles	-10.8153
▁impératif	-10.8154
▁or	-10.8168
ché	-10.8168
▁migrants	-10.8168
▁majeurs	-10.817
ind	-10.817
▁spéciale	-10.8178
▁consistant	-10.8179
▁approuve	-10.818
▁réjouir	-10.8188
▁préoccupe	-10.8189
▁maritimes	-10.819
▁frappé	-10.8199
▁masse	-10.82
▁souhaiter	-10.8205
▁décisionnel	-10.8205
ed	-10.8208
▁matériel	-10.8219
▁négative	-10.8219
▁Cher	-10.822
▁ambitions	-10.822
▁individuels	-10.8221
▁fondé	-10.8225
▁numérique	-10.8234
▁décrit	-10.8238
▁poisson	-10.8241
▁aborde	-10.8248
▁démontrer	-10.8254
▁CIG	-10.8254
▁palestinienne	-10.8257
▁ta	-10.8261
▁événement	-10.8263
▁stipule	-10.8266
vers	-10.8272
offrir	-10.8272
HU	-10.8275
iques	-10.8276
▁ami	-10.8277
▁participent	-10.8278
▁Ministre	-10.8281
▁suggestions	-10.8281
▁hongroise	-10.8284
▁restera	-10.8292
▁négatifs	-10.8293
▁ethniques	-10.8293
▁régulation	-10.8296
▁obligatoires	-10.8301
▁relevant	-10.831
▁écrite	-10.832
▁monétaires	-10.832
▁envoyé	-10.8323
intervenir	-10.8324
▁rigueur	-10.8325
▁feuille	-10.8325
▁systématique	-10.8331
▁serais	-10.8337
inclure	-10.8339
▁américaines	-10.8341
▁fortes	-10.8344
▁opposé	-10.8344
▁produisent	-10.8356
expliquer	-10.8357
▁respectés	-10.8366
▁indépendance	-10.8369
▁norme	-10.8374
ay	-10.8375
be	-10.8379
▁br	-10.8381
▁augmente	-10.8383
▁complémentaires	-10.8386
▁comprennent	-10.8392
gue	-10.8393
▁tiennent	-10.8395
▁essayé	-10.8398
▁contenter	-10.8403
▁bateaux	-10.8406
▁employeurs	-10.8406
▁GUE	-10.8407
▁exprimée	-10.841
▁obtenus	-10.8418
▁communiquer	-10.8426
efforts	-10.8431
▁similaire	-10.8433
systématiquement	-10.8433
emb	-10.8434
nelle	-10.8438
bas	-10.8446
▁écologiques	-10.8446
▁sauver	-10.8457
Afghanistan	-10.8458
▁fournit	-10.8463
▁substantielle	-10.8471
animaux	-10.8473
▁fournisseurs	-10.8478
mon	-10.8479
abolition	-10.848
▁durables	-10.8485
▁mépris	-10.8487
▁devions	-10.8487
ga	-10.8489
em	-10.8489
▁utilisent	-10.849
▁sol	-10.8491
▁tolérance	-10.8494
▁mobilisation	-10.8495
▁poissons	-10.8498
nce	-10.8498
▁division	-10.85
économique	-10.8503
▁légitimes	-10.8507
éli	-10.8508
▁concerné	-10.8508
▁hautement	-10.8508
▁Mar	-10.8527
▁victime	-10.853
chi	-10.8534
▁uniforme	-10.8538
▁détaillée	-10.8542
▁transeuropéens	-10.8545
▁unanime	-10.8545
rent	-10.8546
br	-10.8551
▁hémicycle	-10.856
▁interdit	-10.8563
▁modes	-10.8564
▁Ch	-10.8569
▁énormément	-10.8569
▁ministère	-10.8576
▁taxation	-10.8576
ist	-10.8578
▁rédaction	-10.8584
▁violences	-10.8584
▁limitation	-10.8604
▁craintes	-10.8604
▁significatif	-10.8606
▁valable	-10.8614
▁devez	-10.8616
▁espère	-10.8616
▁prioritaire	-10.8617
▁indépendamment	-10.8618
▁navigation	-10.8621
▁arrivé	-10.8627
FR	-10.8635
▁résulte	-10.864
▁identité	-10.864
▁grec	-10.8643
intérêts	-10.8648
▁définies	-10.8649
cc	-10.8671
▁chinois	-10.8674
▁désire	-10.8677
▁croyons	-10.8682
▁démographique	-10.8682
▁nommé	-10.8684
▁exception	-10.8685
▁respectant	-10.8686
▁prouvé	-10.8689
up	-10.8691
▁proches	-10.8693
accords	-10.8695
▁coordonnée	-10.8696
▁Londres	-10.8697
▁Doha	-10.8697
▁divergences	-10.8707
▁confrontée	-10.8715
▁consultations	-10.8724
ib	-10.8725
▁rares	-10.8726
▁Celui	-10.8727
▁Palestine	-10.8727
▁lieux	-10.873
▁voterons	-10.8731
▁aériens	-10.8738
▁textile	-10.8744
▁condamnation	-10.8744
dre	-10.8744
▁Deux	-10.8745
▁faim	-10.8751
▁aérienne	-10.8754
▁collective	-10.8755
▁prouve	-10.8761
▁fermer	-10.877
▁OGM	-10.877
▁dépendent	-10.8785
▁ferai	-10.8788
▁ferait	-10.88
▁travaillons	-10.88
▁proportion	-10.8805
▁congé	-10.8805
▁règne	-10.8805
▁clandestine	-10.8807
▁réduite	-10.881
▁russes	-10.8811
▁prudence	-10.8812
▁marqué	-10.8812
▁qualifications	-10.8813
ha	-10.8814
▁anniversaire	-10.8824
NGL	-10.8827
▁préconise	-10.8827
▁individus	-10.8832
▁Tunisie	-10.8835
▁effectuer	-10.8837
▁vide	-10.8841
agence	-10.8841
▁discipline	-10.8842
▁composition	-10.8847
io	-10.8852
▁Affaire	-10.8852
ana	-10.8852
▁noter	-10.8854
tor	-10.8855
▁contraignant	-10.886
▁nation	-10.8861
▁feu	-10.8865
▁incontestable	-10.8865
▁profite	-10.8871
▁péril	-10.8881
▁réformer	-10.8881
▁mille	-10.8882
▁adhérer	-10.8886
▁étudier	-10.8888
▁crédible	-10.8891
▁participants	-10.8901
▁clauses	-10.8907
▁regret	-10.891
▁hui	-10.8919
▁négocié	-10.892
▁Outre	-10.892
▁dangers	-10.8926
▁ethnique	-10.8928
CS	-10.8933
▁émis	-10.8936
▁rapprochement	-10.8937
ap	-10.8943
▁genres	-10.895
▁immigrants	-10.8951
▁précédentes	-10.8951
▁assurément	-10.8962
▁soulève	-10.8964
alité	-10.8966
envisager	-10.8968
▁négatives	-10.897
ang	-10.8974
▁révolution	-10.8974
▁favorablement	-10.8979
▁commentaire	-10.898
▁digne	-10.8983
▁post	-10.8994
▁pensée	-10.8999
▁prouver	-10.9004
▁plafond	-10.9008
▁inviter	-10.9011
▁inondations	-10.9013
▁définitif	-10.9015
▁posées	-10.9016
▁prochainement	-10.9026
▁Dublin	-10.9037
oppose	-10.9038
▁survie	-10.9038
exprime	-10.9042
▁traduction	-10.9045
arrêter	-10.9045
tons	-10.9047
avaient	-10.9048
res	-10.9048
▁Bar	-10.9049
▁touchées	-10.9051
▁considérés	-10.9051
▁Certaines	-10.9052
▁autrichienne	-10.9055
▁hélas	-10.9068
▁barrières	-10.907
▁considèrent	-10.9074
▁site	-10.9076
▁In	-10.9081
▁Malte	-10.9084
▁établies	-10.9086
▁mineurs	-10.909
▁suffisantes	-10.9092
imposent	-10.9093
▁constitué	-10.9096
identification	-10.91
▁certitude	-10.91
▁approfondi	-10.9102
▁arrêter	-10.9105
▁dumping	-10.911
▁Brésil	-10.9116
▁immigrés	-10.9117
▁mentionne	-10.9123
▁intérimaire	-10.9123
▁signer	-10.913
▁verte	-10.9136
▁délégations	-10.9139
▁incendies	-10.914
lle	-10.9142
▁ambigu	-10.9143
▁comparaison	-10.9147
▁stockage	-10.9156
▁approuvée	-10.9157
▁conjointement	-10.9159
▁migration	-10.916
▁classe	-10.916
aura	-10.916
▁judicieux	-10.9163
▁ch	-10.9172
▁exposé	-10.9178
▁option	-10.9179
▁Personne	-10.9179
▁passée	-10.9181
▁Tant	-10.9181
▁chargée	-10.9183
▁modifiant	-10.9187
▁prends	-10.9192
▁lever	-10.9199
▁examine	-10.9202
▁volet	-10.9209
▁mines	-10.921
▁Penda	-10.921
▁implications	-10.9212
▁exprimés	-10.9213
▁charbon	-10.9219
▁préférable	-10.9219
▁préservation	-10.9227
▁ouverture	-10.9228
▁fi	-10.9231
▁poursuit	-10.9237
▁explicitement	-10.9247
▁soin	-10.9247
▁partisans	-10.9257
▁établit	-10.9258
annexe	-10.9262
▁étapes	-10.9268
▁directs	-10.9273
ière	-10.9274
▁fallu	-10.9275
FI	-10.9275
▁tensions	-10.928
▁réservé	-10.9286
▁remise	-10.9286
▁indicateurs	-10.9287
▁rechercher	-10.9296
▁échéant	-10.9299
▁appeler	-10.9304
▁actifs	-10.9306
▁BEI	-10.9308
▁Europol	-10.9311
▁intervenants	-10.9312
▁victoire	-10.9315
▁universités	-10.9316
▁avéré	-10.9317
▁tiré	-10.9319
▁richesse	-10.9322
▁suggéré	-10.9323
▁vague	-10.9324
amp	-10.9325
▁réconciliation	-10.9332
▁vérification	-10.9332
▁chemins	-10.9336
lam	-10.9343
▁auteur	-10.9344
▁appelons	-10.9348
▁Rien	-10.9348
▁Liban	-10.9356
▁contenues	-10.9357
▁Sch	-10.9359
▁bancaire	-10.9362
▁complexité	-10.9364
▁piliers	-10.9367
▁pair	-10.9372
▁faille	-10.9381
▁légal	-10.9381
▁totalité	-10.9394
▁papier	-10.9397
▁entreprendre	-10.94
▁concertation	-10.94
▁atteints	-10.9404
▁arrière	-10.9405
▁assure	-10.9408
▁Ba	-10.941
▁religieuses	-10.9411
▁stricte	-10.9411
▁chômeurs	-10.9413
▁Patten	-10.9413
▁camp	-10.9419
exemption	-10.9431
▁danois	-10.9436
▁recul	-10.9437
▁ignorer	-10.9441
▁urgente	-10.9442
da	-10.9443
▁avancé	-10.9446
ten	-10.9448
▁quasi	-10.9449
▁agriculture	-10.9452
▁grandement	-10.9453
▁gravité	-10.9454
▁phrase	-10.9454
▁globalement	-10.9462
▁réunir	-10.9468
▁.-	-10.9471
▁entamé	-10.9472
▁exigence	-10.948
▁dépasse	-10.949
▁Syrie	-10.9495
▁vendredi	-10.9495
▁agi	-10.9497
▁excessive	-10.9498
▁sentir	-10.9502
▁dangereuse	-10.9503
▁expressément	-10.9503
▁naissance	-10.9503
▁nourriture	-10.9503
▁apportée	-10.9512
▁provoquer	-10.9518
▁impliquées	-10.9521
▁invité	-10.9524
▁cur	-10.9525
abandon	-10.9525
▁réjouissons	-10.9528
▁fictifs	-10.9536
▁Entre	-10.9537
▁déterminant	-10.9537
▁explications	-10.954
▁juridiquement	-10.9544
▁distance	-10.9552
▁notation	-10.9552
▁Iran	-10.9553
▁regarder	-10.9553
▁placer	-10.9554
▁observer	-10.9558
ambition	-10.956
▁saluons	-10.9561
vote	-10.9567
▁donnera	-10.9568
▁douze	-10.9569
▁camps	-10.9571
â	-10.958
engage	-10.9585
▁bel	-10.9596
▁issus	-10.9596
▁appels	-10.9599
▁concert	-10.96
▁délicate	-10.9601
so	-10.9602
▁flexible	-10.9602
▁disparition	-10.961
▁modifiés	-10.9612
▁compagnie	-10.9619
euse	-10.9625
▁dictature	-10.9627
▁présentant	-10.9629
▁agents	-10.9635
▁pesticides	-10.9635
▁voudrait	-10.9636
▁brève	-10.9638
▁fiscal	-10.9639
▁mercredi	-10.9644
▁africaine	-10.9644
▁mette	-10.9648
▁traduire	-10.9652
▁instances	-10.9657
▁oublié	-10.9662
▁extrême	-10.9663
▁parvenue	-10.9676
attribution	-10.9676
arriver	-10.9685
▁partiellement	-10.9688
▁Suisse	-10.9694
▁secret	-10.9695
▁registre	-10.9695
▁courte	-10.9697
▁consciente	-10.9697
▁Celle	-10.9698
▁saurait	-10.9699
▁adoptant	-10.9702
▁Se	-10.9703
▁tragique	-10.9703
▁ambitieuse	-10.9703
entends	-10.9711
▁terroriste	-10.9722
immunité	-10.9726
OSCE	-10.9727
▁vivons	-10.9727
▁rêve	-10.9732
ach	-10.9732
écart	-10.9741
▁attentats	-10.9743
▁subir	-10.9743
▁conservateurs	-10.9745
▁biologique	-10.9746
▁apportées	-10.9746
▁perd	-10.975
▁dérogation	-10.9754
▁potentiels	-10.9755
ième	-10.9756
▁cap	-10.9758
inter	-10.9761
avancer	-10.9771
▁servent	-10.9772
▁biocarburants	-10.9774
ork	-10.9775
ry	-10.9784
▁réglementer	-10.9786
intermédiaire	-10.9788
▁satisfaits	-10.979
▁disposé	-10.9791
▁sou	-10.9793
tion	-10.9796
▁science	-10.9797
▁procédé	-10.9797
▁Solana	-10.9803
implication	-10.9806
▁triste	-10.9807
abus	-10.9812
▁délicat	-10.9813
▁Maintenant	-10.982
▁recyclage	-10.9821
▁Vi	-10.9823
▁quantités	-10.9823
▁provisoire	-10.9825
élève	-10.983
▁familiale	-10.9832
▁mémoire	-10.9837
▁faisait	-10.9838
▁étendre	-10.9845
▁fossé	-10.9846
▁bruit	-10.9846
▁historiques	-10.9846
▁corriger	-10.9854
▁déficits	-10.9857
▁injuste	-10.9867
▁eau	-10.9868
ord	-10.987
▁viable	-10.9874
▁saine	-10.9877
▁disait	-10.9881
▁développé	-10.9881
▁vitale	-10.9882
▁administrations	-10.9889
▁fabricants	-10.9891
▁occidentale	-10.9893
▁privatisation	-10.9897
▁ALDE	-10.9897
avance	-10.9897
▁productivité	-10.9906
▁garanti	-10.9908
▁union	-10.9909
▁équipe	-10.991
▁technologiques	-10.9914
▁enceinte	-10.9915
▁instant	-10.9931
▁Bush	-10.9931
▁chercheurs	-10.9932
▁diplomatique	-10.9934
▁contrat	-10.9934
▁morale	-10.9935
▁continuerons	-10.9949
▁reconnais	-10.9952
▁vies	-10.996
▁supervision	-10.9966
▁sérieuses	-10.9975
▁élevée	-10.9979
▁vit	-10.9982
▁oriental	-10.9986
argument	-10.9988
▁Pas	-10.9991
▁rang	-10.9997
▁Moldavie	-11
▁censure	-11
évidence	-11.0005
entrer	-11.0005
▁mobiliser	-11.0006
Votre	-11.0007
▁révélé	-11.0009
exigence	-11.001
▁résolus	-11.0011
))	-11.0012
ble	-11.0017
▁lundi	-11.0019
vé	-11.002
▁supporter	-11.0021
▁Ka	-11.0022
▁Beaucoup	-11.0026
▁associés	-11.0029
▁justifié	-11.003
inquiétude	-11.0031
▁contenant	-11.0035
▁précision	-11.0049
▁Vu	-11.0049
▁arrêt	-11.005
▁pourrais	-11.0058
auto	-11.0063
chrétiens	-11.0065
▁logement	-11.0065
▁témoigne	-11.0066
▁comités	-11.0067
▁disposée	-11.0076
▁enfant	-11.0077
▁améliorée	-11.0084
▁écouter	-11.0086
▁strictement	-11.0092
infraction	-11.0094
▁souvenir	-11.0096
▁examinons	-11.0105
▁modifiée	-11.0112
▁absence	-11.0115
▁unie	-11.0121
▁suscite	-11.0121
▁intégrante	-11.0122
▁Gr	-11.0125
▁ratifier	-11.0129
▁disposés	-11.0138
Herzégovine	-11.014
▁comitologie	-11.014
ell	-11.0142
▁portugais	-11.0143
▁Fischler	-11.0148
▁disparités	-11.0149
disant	-11.015
▁fiables	-11.0159
instruments	-11.0159
▁profond	-11.016
lant	-11.0167
▁serai	-11.0168
▁inciter	-11.0173
▁soldats	-11.0176
▁interprétation	-11.0177
LT	-11.0177
rés	-11.0181
▁modernes	-11.0181
▁externes	-11.0185
ttes	-11.0185
▁pertinentes	-11.0186
▁âge	-11.0188
▁réalisées	-11.0193
▁immense	-11.0193
ois	-11.02
▁explication	-11.0208
▁dépasser	-11.0208
▁Ashton	-11.021
▁Libye	-11.021
▁résumé	-11.021
▁donnant	-11.021
Ie	-11.0221
rm	-11.0226
▁expression	-11.0226
▁équitables	-11.0226
▁joindre	-11.0228
▁sévères	-11.0229
▁utilise	-11.0232
per	-11.0234
nom	-11.0235
environ	-11.0236
observation	-11.0236
▁actives	-11.0237
▁prévisions	-11.0237
gr	-11.0245
▁v	-11.0248
cour	-11.0252
élection	-11.0253
▁dramatique	-11.026
insister	-11.0261
▁numéro	-11.0263
▁impôts	-11.0265
▁figurer	-11.0267
aboutir	-11.0271
▁établis	-11.0274
▁Stockholm	-11.029
▁quitter	-11.0292
▁exigeant	-11.0295
▁démantèlement	-11.0299
▁transparent	-11.03
nent	-11.0301
▁défendu	-11.0301
évoquer	-11.0301
▁empêche	-11.0303
▁équipements	-11.0307
▁turque	-11.0314
▁réelles	-11.0315
▁Verheugen	-11.0317
▁décide	-11.0317
ux	-11.0319
▁fruit	-11.0323
aménagement	-11.0326
▁Aucun	-11.0332
▁détenus	-11.0335
▁terrible	-11.0337
pol	-11.0341
▁cri	-11.0341
▁appui	-11.0343
▁tomber	-11.0347
▁présentera	-11.0348
▁suspension	-11.0348
ov	-11.035
▁Schulz	-11.0352
▁spéculation	-11.0356
▁nationalité	-11.0357
▁autorisés	-11.0359
▁Brok	-11.0361
▁condamné	-11.0364
▁rédiger	-11.0365
▁respectées	-11.0373
▁explique	-11.0374
actuelle	-11.0375
▁inscrit	-11.0377
▁satisfaisant	-11.0381
▁universelle	-11.0386
▁précieux	-11.0388
▁Congo	-11.0388
▁viabilité	-11.0388
▁grecque	-11.0393
tés	-11.0395
vent	-11.0396
▁remis	-11.0399
▁évaluations	-11.0403
▁annuelle	-11.0405
▁sanitaires	-11.0408
▁formulé	-11.0409
▁assister	-11.0415
▁objet	-11.042
occuper	-11.0423
▁préparé	-11.0425
▁traditionnelle	-11.043
▁promesse	-11.0431
▁évidente	-11.0437
emp	-11.0438
▁col	-11.0442
▁pluriannuel	-11.0442
▁exprime	-11.0443
▁vols	-11.0446
▁partenariats	-11.0448
▁décès	-11.0451
▁semestre	-11.046
née	-11.0462
▁présentes	-11.0468
▁voisin	-11.0469
▁football	-11.047
▁dégagé	-11.047
▁suivie	-11.0473
▁Tampere	-11.0479
▁enregistré	-11.0482
ide	-11.0483
▁envisagé	-11.0484
▁linguistique	-11.0486
abri	-11.0487
▁mentionnés	-11.0491
▁réclame	-11.0494
▁dommage	-11.0494
▁probable	-11.0502
▁touchent	-11.0502
appliquent	-11.0512
▁abouti	-11.052
▁interdire	-11.0521
▁ouvre	-11.0524
▁égards	-11.0529
▁traitées	-11.0532
▁voici	-11.0534
▁lourds	-11.0538
fondamentalement	-11.0547
▁exigent	-11.0551
▁Face	-11.0552
▁financements	-11.0554
investir	-11.0557
▁cofinancement	-11.0561
▁livres	-11.0564
▁prononcé	-11.0565
▁cohérent	-11.0565
▁Naturellement	-11.057
▁Médiateur	-11.0579
énormes	-11.058
ç	-11.0581
île	-11.0582
▁exact	-11.0582
▁observateurs	-11.0584
caractéristiques	-11.0587
▁égalité	-11.0588
▁vues	-11.0591
▁illégaux	-11.0597
▁sensibilisation	-11.0597
▁protégés	-11.0603
▁étendu	-11.0604
▁fabrication	-11.0606
▁constat	-11.0607
▁maximale	-11.0615
▁Slovénie	-11.0616
▁soulevées	-11.0617
▁bande	-11.0625
▁agenda	-11.0627
▁surpris	-11.0627
▁traitements	-11.0629
▁participe	-11.063
▁assuré	-11.0633
▁déterminée	-11.0636
▁conformer	-11.0639
▁Ré	-11.064
▁exploiter	-11.0641
▁paragraphes	-11.0647
▁civil	-11.0649
▁adapter	-11.0651
objectifs	-11.0652
▁rapides	-11.0654
▁relancer	-11.0661
▁tourner	-11.0667
importantes	-11.0669
▁parviendrons	-11.0669
▁sub	-11.067
▁caractéristique	-11.0673
▁industriel	-11.0674
▁bovine	-11.0676
▁persuadé	-11.068
▁appropriés	-11.0683
▁bataille	-11.0686
▁ventes	-11.0686
▁séparation	-11.0689
▁créant	-11.0691
▁reposer	-11.0692
▁So	-11.0692
▁évolutions	-11.0703
▁sensiblement	-11.0708
▁gravement	-11.0713
▁inutiles	-11.0723
▁représentante	-11.0736
▁télé	-11.0737
▁élargi	-11.0738
▁accru	-11.0742
▁attaque	-11.0743
▁réalisée	-11.0747
▁Galileo	-11.0764
▁micro	-11.0765
▁requête	-11.0765
SK	-11.0767
▁moral	-11.0779
▁établie	-11.0781
▁connais	-11.0786
▁explicite	-11.0788
forme	-11.0788
affirmer	-11.0798
▁pourparlers	-11.0801
▁prévoyant	-11.0801
▁infractions	-11.0803
▁avance	-11.0807
▁commises	-11.0808
▁Tibet	-11.0811
▁rouge	-11.0811
▁enjeux	-11.0811
▁Santer	-11.0811
▁néerlandaise	-11.0814
▁publier	-11.082
▁handicap	-11.0828
Atlantique	-11.0829
▁sensibilité	-11.083
▁formulée	-11.0837
▁déposer	-11.0845
▁dispositif	-11.085
▁bananes	-11.0852
antes	-11.0854
▁officiellement	-11.0854
▁transmission	-11.0858
▁tri	-11.0859
▁transitoire	-11.0859
▁Autrement	-11.086
▁opération	-11.0863
▁résolument	-11.0863
autonomie	-11.0865
▁adoption	-11.0867
▁civilisation	-11.0869
bl	-11.0873
effectuer	-11.0874
▁disparu	-11.0878
▁mur	-11.0879
▁trente	-11.0886
▁définitivement	-11.0886
Institut	-11.0886
▁i	-11.0888
▁africains	-11.0888
▁pénales	-11.0889
▁constituera	-11.0892
▁conviendrait	-11.0896
▁cité	-11.0897
informer	-11.0903
▁approbation	-11.0912
▁facilité	-11.0914
▁détruit	-11.0916
▁illégal	-11.0917
▁label	-11.0918
▁issue	-11.0919
▁Vienne	-11.0924
▁avancés	-11.0925
▁ferroviaires	-11.0926
émissions	-11.0928
▁Vo	-11.0929
nne	-11.093
▁inadmissible	-11.0933
▁pouvaient	-11.0933
▁solidaire	-11.0933
▁image	-11.0934
▁Quatrièmement	-11.0934
▁préférence	-11.0936
▁reprend	-11.0939
▁relevé	-11.0943
▁U	-11.0943
):	-11.0946
▁Br	-11.0948
▁profits	-11.0948
▁strict	-11.0951
▁autorisé	-11.0952
▁Timor	-11.0952
▁dénoncer	-11.0953
▁sexe	-11.0955
entamer	-11.0956
▁rail	-11.0957
▁directes	-11.096
▁cellules	-11.096
▁disponibilité	-11.0962
▁front	-11.0964
▁détaillé	-11.0968
▁exceptions	-11.0973
atif	-11.0973
▁apparemment	-11.0981
▁fixation	-11.0981
▁bureaucratique	-11.0984
ud	-11.0991
▁effectués	-11.1003
▁exceptionnelle	-11.1003
▁suspens	-11.1005
▁jeux	-11.1007
▁intelligente	-11.1009
ho	-11.1015
▁affronter	-11.1016
oli	-11.1019
▁nul	-11.1021
rit	-11.1022
▁existante	-11.103
avortement	-11.1038
▁lourde	-11.1043
▁opérationnel	-11.1046
opposer	-11.1051
▁solides	-11.1053
▁Deuxième	-11.1063
▁orientation	-11.1068
▁réduits	-11.107
▁remboursement	-11.1077
▁inférieur	-11.1079
▁signes	-11.1081
▁légiférer	-11.1086
▁permanence	-11.1086
acceptation	-11.1086
▁vraie	-11.1088
▁remplacement	-11.1088
▁tableau	-11.1109
▁calcul	-11.1112
obtention	-11.1115
▁découlant	-11.1115
▁félicitons	-11.1115
▁lance	-11.1117
▁faillite	-11.1117
▁définit	-11.1123
▁conjointe	-11.1125
▁poursuivi	-11.113
▁Lorsqu	-11.1131
▁puissances	-11.1134
▁rendue	-11.1138
▁Martin	-11.1142
▁discriminatoire	-11.1143
▁desquels	-11.1144
extrême	-11.1145
▁ambition	-11.1148
▁condamne	-11.1159
▁volontiers	-11.1164
▁verts	-11.1167
▁arabe	-11.1178
présidente	-11.1178
incitation	-11.1182
▁Communautés	-11.1182
▁Actuellement	-11.1183
▁chypriote	-11.1183
▁naturelle	-11.1198
installation	-11.12
▁xénophobie	-11.1203
▁intéressante	-11.1204
▁dépassé	-11.1204
▁consulter	-11.1209
▁accident	-11.122
▁apprendre	-11.1221
▁secrétariat	-11.1222
▁alloués	-11.1224
▁ravie	-11.1225
▁dérogations	-11.123
▁transferts	-11.1239
▁jouets	-11.1242
aides	-11.1243
Albanie	-11.1244
▁vieux	-11.1245
▁partagent	-11.1249
épargne	-11.1251
▁génocide	-11.1251
▁gr	-11.1254
▁espoirs	-11.1255
▁majeures	-11.1255
▁deviendra	-11.1257
▁réflexions	-11.1258
teur	-11.126
apparition	-11.1261
▁fructueuse	-11.1261
▁crainte	-11.1262
▁découle	-11.1264
▁dépens	-11.1264
▁impliquer	-11.1266
▁concilier	-11.1271
▁vieillissement	-11.1281
▁dépensé	-11.1285
▁É	-11.1286
▁occuper	-11.1288
▁estiment	-11.1289
▁kurde	-11.1291
▁allait	-11.1291
▁optique	-11.1297
attirer	-11.13
ces	-11.1301
▁égal	-11.1302
▁réactions	-11.1315
▁tendances	-11.132
envoyer	-11.1323
▁appuyer	-11.1324
▁heureusement	-11.1328
▁motif	-11.1328
actuel	-11.133
▁pl	-11.1332
▁administratifs	-11.1333
▁bénéfique	-11.1336
▁PESC	-11.134
▁requises	-11.1343
for	-11.1344
▁radio	-11.135
Parce	-11.135
accélérer	-11.1354
▁content	-11.1354
▁Co	-11.1362
ec	-11.1364
▁cour	-11.1372
▁bénéficié	-11.138
instabilité	-11.138
▁admis	-11.1386
essence	-11.139
▁défavorisées	-11.139
▁pierre	-11.1396
▁requis	-11.1397
▁échoué	-11.14
car	-11.14
▁thon	-11.1401
land	-11.1403
▁offrent	-11.1404
investissements	-11.1411
▁douanière	-11.1416
▁possèdent	-11.1421
tique	-11.1426
isse	-11.1434
▁contenus	-11.1436
▁moratoire	-11.1439
▁fixées	-11.1441
▁démarches	-11.1446
▁Saddam	-11.1449
impôt	-11.1456
▁évoluer	-11.1457
▁Ou	-11.146
▁amener	-11.1461
▁accessibles	-11.1461
▁servi	-11.1462
▁prêter	-11.148
▁inclut	-11.1482
▁carburants	-11.1488
▁Hamas	-11.1489
▁bureaux	-11.1491
▁hasard	-11.1499
▁extension	-11.1502
inspection	-11.1509
▁souffre	-11.1513
▁travaillant	-11.1519
inquiète	-11.1521
▁protectionnisme	-11.1522
élément	-11.1534
cher	-11.1535
▁jeter	-11.1538
▁inévitable	-11.1555
▁méditerranéenne	-11.156
▁obligés	-11.1562
▁nullement	-11.1564
▁exploitation	-11.1564
annonce	-11.1569
▁ampleur	-11.1569
fr	-11.1569
▁investissement	-11.1569
ong	-11.157
importants	-11.1583
▁Ukraine	-11.1587
▁Ra	-11.1589
▁exigé	-11.159
▁franchement	-11.1602
▁venez	-11.1602
▁traditionnelles	-11.1603
▁religieux	-11.1608
▁valoir	-11.1611
ban	-11.1615
▁sanitaire	-11.1619
▁engendré	-11.1619
▁consulté	-11.1619
▁pr	-11.1621
▁réagi	-11.1625
onformément	-11.1626
▁fédérale	-11.1631
▁voulait	-11.1631
Estonie	-11.1634
▁donateurs	-11.1637
▁transporteurs	-11.1642
▁coûte	-11.1647
éni	-11.1647
▁Tr	-11.1648
ki	-11.1649
▁récession	-11.1651
▁parvenons	-11.1651
ues	-11.1652
mu	-11.1658
▁rendus	-11.1658
▁concessions	-11.1664
▁parallèle	-11.1666
▁affectés	-11.167
▁repos	-11.1672
▁résultant	-11.1692
▁émanant	-11.1692
▁arrivés	-11.1692
▁ét	-11.1693
▁entendons	-11.1706
habitude	-11.1711
▁immédiat	-11.1711
▁Biélorussie	-11.1713
▁réfère	-11.1713
▁serions	-11.1715
▁équivoque	-11.1723
▁teneur	-11.1723
▁soutiendra	-11.1724
▁continu	-11.173
▁Lettonie	-11.1733
▁zéro	-11.1733
▁prévoient	-11.1735
▁industrielles	-11.1738
armement	-11.1741
Européens	-11.1742
accident	-11.1742
▁douane	-11.1743
▁justification	-11.1744
▁répondent	-11.1752
▁honte	-11.1752
▁irresponsable	-11.1754
▁libérer	-11.1755
ob	-11.1757
▁Soudan	-11.1757
▁inacceptables	-11.1762
▁créée	-11.1763
▁hongrois	-11.1766
▁exister	-11.1774
▁rappel	-11.1774
▁leçon	-11.1774
isé	-11.1782
AR	-11.1784
▁consacrée	-11.1784
▁millénaire	-11.1785
▁israélien	-11.1793
▁chacune	-11.1796
▁développe	-11.1797
▁couverture	-11.1801
▁apprécié	-11.1803
▁suggestion	-11.1805
▁Amérique	-11.181
▁établissements	-11.181
▁San	-11.1813
▁po	-11.1814
▁pragmatique	-11.1816
▁allez	-11.1816
accroissement	-11.1826
▁réciproque	-11.1826
ast	-11.1836
▁compréhensible	-11.1837
▁sélection	-11.1837
▁placé	-11.1838
▁fermeté	-11.1839
▁consultatif	-11.1847
▁couverts	-11.1847
▁raisonnables	-11.1849
▁retraités	-11.185
▁Euro	-11.1852
▁ouvertement	-11.1854
▁évoque	-11.1856
▁pensez	-11.1859
▁Di	-11.1859
▁investi	-11.1859
▁tienne	-11.1861
▁connue	-11.1874
insécurité	-11.1874
▁dûment	-11.1879
▁attendu	-11.1884
▁analyses	-11.1885
▁conducteurs	-11.1887
▁disparaître	-11.1889
éliminer	-11.1889
nd	-11.1894
▁électriques	-11.1895
▁prestations	-11.1896
▁cherchent	-11.19
identifier	-11.19
▁Aucune	-11.1902
▁faiblesse	-11.1902
▁carrière	-11.1903
▁Pr	-11.1904
▁impatience	-11.1907
▁souple	-11.1909
ber	-11.1916
▁causés	-11.1919
▁abandonner	-11.1919
▁concentre	-11.192
▁abordés	-11.1921
▁fondées	-11.1922
▁légales	-11.1923
▁reporter	-11.1927
▁imposé	-11.193
▁insuffisante	-11.1935
lis	-11.1942
sch	-11.1943
essayer	-11.1943
ev	-11.1946
▁honorables	-11.1949
ous	-11.1951
▁contrefaçon	-11.1952
▁restriction	-11.1953
éro	-11.1953
▁fournies	-11.1955
▁plate	-11.1955
▁axée	-11.1961
inverse	-11.1962
▁tentent	-11.1963
▁finlandaise	-11.1964
▁favorise	-11.1968
▁Asie	-11.1969
▁tend	-11.1969
▁maison	-11.197
▁coupables	-11.1971
▁geste	-11.1974
▁août	-11.1977
▁difficilement	-11.1982
▁symbolique	-11.1983
▁ressource	-11.1984
auront	-11.1986
accepte	-11.1994
attente	-11.1995
▁référendums	-11.2003
▁carburant	-11.2006
Internet	-11.2006
▁acceptée	-11.2006
tar	-11.2023
▁régissant	-11.2026
▁manifester	-11.2026
▁riche	-11.2027
▁attaquer	-11.2027
▁billets	-11.2028
ire	-11.2035
▁désastre	-11.2036
▁tolérer	-11.2036
▁terminé	-11.2037
▁monopole	-11.2038
▁consacrés	-11.2039
▁plainte	-11.2041
activités	-11.2043
▁ouverts	-11.2052
ombre	-11.2053
entend	-11.2053
▁fusion	-11.2055
▁profil	-11.2057
log	-11.2059
▁souffrance	-11.2059
▁forts	-11.2066
▁intéressés	-11.2069
▁qualifiés	-11.2069
arrivée	-11.2071
▁confi	-11.2076
ative	-11.2077
▁précisé	-11.2078
▁désarmement	-11.2079
▁continuons	-11.2083
nons	-11.2087
▁transmis	-11.2088
avancement	-11.209
▁défenseurs	-11.2093
uer	-11.2097
tiques	-11.2101
apprendre	-11.2103
éco	-11.2107
mant	-11.2108
▁noir	-11.211
rg	-11.211
▁drame	-11.2112
discrimination	-11.2114
▁résolue	-11.2115
▁supérieure	-11.212
men	-11.212
▁estimations	-11.2122
▁religieuse	-11.2124
▁lait	-11.2135
▁lu	-11.2138
▁clarification	-11.2153
▁soutenant	-11.2153
associer	-11.2154
▁suspendue	-11.2155
ements	-11.2161
attend	-11.2163
▁phénomènes	-11.2163
▁philosophie	-11.2164
▁renforçant	-11.2164
▁éducation	-11.2172
▁fonctionnent	-11.2173
▁Ar	-11.2176
▁entré	-11.2176
▁candidature	-11.218
hé	-11.2188
▁tr	-11.2192
▁élan	-11.2192
▁lendemain	-11.2196
▁fonde	-11.2204
▁montagne	-11.2207
▁autorise	-11.221
▁mondiales	-11.221
exposition	-11.2212
auraient	-11.2212
▁côtes	-11.2215
▁origine	-11.2219
▁anglais	-11.2219
incertitude	-11.2222
▁imaginer	-11.2223
attaque	-11.2228
▁réchauffement	-11.2229
▁Eh	-11.2232
▁venue	-11.2232
▁Vice	-11.2242
▁voiture	-11.2244
▁réalités	-11.2247
har	-11.2248
▁précoce	-11.225
▁slovaque	-11.225
▁déclin	-11.225
▁souhaits	-11.2253
su	-11.2253
▁distorsions	-11.2255
▁Kinnock	-11.2261
▁Madrid	-11.2261
▁Mexique	-11.2261
▁justifiée	-11.2272
▁situe	-11.2275
ino	-11.2277
▁géographiques	-11.2279
▁détaillées	-11.2282
▁guise	-11.2283
▁migratoires	-11.2285
▁dépense	-11.2286
▁Po	-11.2289
Office	-11.2294
▁aidera	-11.2295
▁identique	-11.2298
▁compatible	-11.2298
▁annuels	-11.2302
▁soulevée	-11.2309
embargo	-11.231
▁Pa	-11.2313
▁jeune	-11.2314
▁septième	-11.2316
▁Puis	-11.2318
▁trouvée	-11.232
▁dure	-11.2321
▁cru	-11.2321
Europol	-11.2321
▁mauvaises	-11.2323
▁traçabilité	-11.2326
▁Ni	-11.2327
▁contraignante	-11.233
▁réglementaires	-11.233
▁chasse	-11.2335
▁bras	-11.2337
▁proposant	-11.2338
▁Monti	-11.2339
▁ouvertes	-11.2339
▁mutuel	-11.2346
ales	-11.2347
opt	-11.235
▁insuffisant	-11.2352
▁islamique	-11.2353
▁inquiétant	-11.2354
▁fréquemment	-11.2359
▁surface	-11.2359
▁messages	-11.2364
▁préféré	-11.2366
▁retrouve	-11.2369
▁satisfaite	-11.2374
▁autonome	-11.2375
J	-11.2375
▁mettra	-11.2376
iller	-11.2378
▁attendant	-11.2378
▁langage	-11.2381
▁apparaître	-11.2383
▁identiques	-11.2388
▁commenter	-11.2394
▁rétablissement	-11.2395
▁attiré	-11.2395
émo	-11.24
▁délits	-11.2402
our	-11.2404
▁prime	-11.2404
▁susciter	-11.2408
▁révèle	-11.2408
▁doive	-11.2408
▁renouvelable	-11.2408
▁identifier	-11.2408
▁exposés	-11.2408
▁Caucase	-11.2414
▁dépôt	-11.2416
▁tarifs	-11.2422
OCDE	-11.2425
▁proximité	-11.2425
▁unitaire	-11.2425
▁clients	-11.2428
▁sixième	-11.2429
▁autoriser	-11.2429
▁sphère	-11.2436
▁accéder	-11.2436
bre	-11.244
▁réexamen	-11.244
respect	-11.2443
▁opérationnelle	-11.2446
▁super	-11.2447
▁préparatifs	-11.2447
▁sols	-11.245
▁considérées	-11.2459
▁traitée	-11.2464
▁apportera	-11.2468
▁vendre	-11.2469
excellence	-11.2469
▁étrange	-11.2471
issent	-11.2476
▁Colombie	-11.248
COD	-11.2482
impliquer	-11.2483
▁manifestation	-11.2486
▁nôtre	-11.2486
efforce	-11.2488
▁sexes	-11.2489
▁initial	-11.2491
▁céréales	-11.2491
initiatives	-11.2501
▁continuité	-11.2503
▁misère	-11.251
▁retenue	-11.2511
▁étudié	-11.2514
utilité	-11.2514
▁fuite	-11.2516
▁rempli	-11.2518
▁policière	-11.252
rez	-11.252
▁fausse	-11.2522
▁consentis	-11.2522
▁pénurie	-11.2525
alerte	-11.2534
▁rejoins	-11.2536
▁sachant	-11.2536
inscrire	-11.2545
▁unité	-11.2546
▁honnête	-11.2554
▁diplomatiques	-11.2554
▁prépare	-11.2555
▁Haye	-11.2558
▁man	-11.2562
▁concernée	-11.2564
▁assurée	-11.2566
▁per	-11.2567
▁essayons	-11.2569
▁fournis	-11.257
▁sida	-11.2574
▁contraints	-11.2574
▁observe	-11.2577
▁conformes	-11.2578
▁monopoles	-11.2579
▁professionnel	-11.2579
fa	-11.2579
▁dépenser	-11.258
▁économiquement	-11.2581
▁détruire	-11.2583
▁close	-11.2587
▁endroits	-11.2598
▁signale	-11.2602
éléments	-11.2603
▁Blair	-11.2603
audit	-11.2604
▁bilatérales	-11.2605
▁blocage	-11.2607
▁demanderai	-11.2608
▁rassembler	-11.2613
)).	-11.2613
▁progressé	-11.2614
▁frein	-11.262
▁reconnaissons	-11.2625
▁guerres	-11.2626
▁parlent	-11.2628
▁réparation	-11.2637
▁Autriche	-11.264
▁Pro	-11.2646
▁préoccupés	-11.2651
▁unilatérale	-11.2655
▁adressée	-11.2658
▁pluralisme	-11.2659
▁prospère	-11.267
▁ridicule	-11.267
▁Chacun	-11.267
▁juridiction	-11.2677
▁dotée	-11.2682
▁doigt	-11.2682
▁fièvre	-11.2682
riez	-11.2692
parcours	-11.2692
▁yougoslave	-11.2693
▁indiquent	-11.2696
aéroport	-11.2703
▁journaux	-11.2704
▁irakien	-11.2704
▁reflètent	-11.2709
ori	-11.2714
ème	-11.2716
▁limitées	-11.2719
▁travailliste	-11.2719
▁forêt	-11.2723
▁portes	-11.2725
efforcer	-11.273
▁dur	-11.273
▁vo	-11.2731
▁brefs	-11.2733
▁Milosevic	-11.2738
▁parviennent	-11.2741
avions	-11.2743
▁abord	-11.2745
▁rejoint	-11.275
▁république	-11.275
▁renvoi	-11.2755
▁empêché	-11.2761
▁individuelle	-11.2762
▁mettons	-11.2762
▁définie	-11.2766
▁aspirations	-11.2773
▁lancée	-11.2779
▁proprement	-11.2783
▁irrégularités	-11.2788
▁administratif	-11.2792
▁pousser	-11.2796
▁partiel	-11.2799
▁incapables	-11.2807
▁fondements	-11.2808
▁analyser	-11.2811
▁bar	-11.2814
▁Noire	-11.2819
faire	-11.2819
▁dos	-11.2824
▁Ho	-11.2827
▁biologiques	-11.284
pr	-11.2843
▁observation	-11.285
▁surcroît	-11.2853
▁Gu	-11.2857
▁palestiniens	-11.286
▁concevoir	-11.2864
▁sympathie	-11.2864
étant	-11.2865
isons	-11.2867
▁armées	-11.287
▁prolonger	-11.2874
▁Là	-11.2874
▁résidence	-11.2876
▁Haut	-11.2879
▁Aux	-11.288
▁officiel	-11.2882
bes	-11.2884
▁préférences	-11.2884
▁affecte	-11.2885
▁Hong	-11.2888
▁oblige	-11.289
▁Jean	-11.2893
nal	-11.2896
▁exemplaire	-11.2899
▁primaire	-11.2899
▁voulions	-11.2899
▁restaurer	-11.291
▁acceptables	-11.2911
▁respectifs	-11.2913
▁acceptés	-11.2915
▁partagée	-11.2919
▁accessible	-11.292
▁postaux	-11.2923
▁accueillir	-11.2923
▁alloué	-11.2924
▁critiquer	-11.2926
ip	-11.2926
▁étendue	-11.2929
▁Fédération	-11.2934
▁maternité	-11.2934
▁suffisants	-11.2935
▁coeur	-11.2937
▁DG	-11.294
▁loyale	-11.2945
▁mixte	-11.2947
▁listes	-11.2952
▁médecins	-11.2952
▁députée	-11.2952
ich	-11.2962
▁durement	-11.2963
euses	-11.2963
▁déloyale	-11.2968
▁adressées	-11.2968
▁danoise	-11.297
▁abordée	-11.2975
▁scandale	-11.2977
▁fiable	-11.2979
▁réalistes	-11.298
▁désignation	-11.298
▁déposée	-11.2985
ification	-11.2995
▁...	-11.2996
▁passent	-11.2996
▁adaptée	-11.3002
▁coalition	-11.3003
▁beau	-11.3004
▁normalisation	-11.3005
▁to	-11.3005
▁prétendre	-11.3005
▁von	-11.301
▁officielles	-11.3012
▁touché	-11.3015
▁déroule	-11.3017
▁fier	-11.3021
▁opposer	-11.3021
▁impulsion	-11.3021
▁contraignantes	-11.3022
▁adressé	-11.3027
▁Michel	-11.3027
▁automatiquement	-11.3031
▁assistons	-11.3039
▁impliqué	-11.3039
▁adultes	-11.3039
▁contiennent	-11.3041
▁ajouté	-11.3046
▁FMI	-11.305
▁progression	-11.305
▁bâtiment	-11.3051
▁assurant	-11.3053
▁compenser	-11.3054
dis	-11.3056
▁éthique	-11.3067
▁développées	-11.3074
▁haine	-11.3075
élargir	-11.3076
▁nécessitent	-11.308
aucuns	-11.3082
▁complément	-11.3085
▁indiquant	-11.3085
▁intensive	-11.3085
▁volontaires	-11.3088
▁quart	-11.3097
▁Tribunal	-11.3097
▁confère	-11.3097
▁intense	-11.3097
▁informel	-11.3097
▁ton	-11.3101
ayant	-11.3101
igne	-11.3104
▁former	-11.3109
▁réclamer	-11.3116
▁incapable	-11.312
▁biotechnologie	-11.3121
▁peser	-11.3121
▁ordinaires	-11.313
▁certification	-11.313
▁offrant	-11.3133
▁couvert	-11.3133
▁propriétaires	-11.3136
▁iranien	-11.3137
ssé	-11.314
▁distribué	-11.3144
▁intégrées	-11.3144
▁éleveurs	-11.3145
▁émettre	-11.3145
opération	-11.315
▁licenciements	-11.3152
▁absent	-11.3152
économiques	-11.3155
▁rapidité	-11.3156
équité	-11.3156
▁Frontex	-11.3157
▁Hier	-11.3158
▁individuelles	-11.3161
▁intégrés	-11.3166
▁soulevés	-11.3167
▁faiblesses	-11.3168
oboda	-11.3168
▁fonder	-11.3169
▁revêtent	-11.3175
▁ancien	-11.3176
▁pavillon	-11.318
▁jugé	-11.3182
▁publiquement	-11.3185
▁multilatéral	-11.3189
▁sache	-11.3189
ienne	-11.3194
▁sanction	-11.3194
▁maintenu	-11.3194
▁Paris	-11.3195
▁normalement	-11.3197
▁profondes	-11.3199
▁légalement	-11.3202
▁cercle	-11.3204
indique	-11.3204
▁entrepreneurs	-11.3204
▁nordique	-11.3205
▁évoquée	-11.3212
▁atteintes	-11.3212
▁plaide	-11.3214
▁souffrances	-11.3214
▁initialement	-11.3214
▁desquelles	-11.3216
▁réglé	-11.3217
▁rep	-11.3221
avantage	-11.3225
▁électoral	-11.3226
▁diplomatie	-11.3228
▁rejetée	-11.323
▁confronté	-11.323
▁marquer	-11.3231
spir	-11.3235
▁pure	-11.3237
ajoute	-11.325
▁Personnellement	-11.3252
alisation	-11.3261
allocation	-11.3263
▁retraites	-11.3278
estimer	-11.328
organes	-11.328
▁manifesté	-11.3285
ult	-11.3285
▁liaison	-11.3289
▁noire	-11.3292
▁constant	-11.3292
exiger	-11.3293
▁compliqué	-11.3296
interdire	-11.3297
▁revue	-11.3298
▁Guerre	-11.33
▁exergue	-11.33
▁mutuellement	-11.3302
▁Ro	-11.3304
▁annonce	-11.3307
▁exclus	-11.3308
▁approuvés	-11.3308
▁dégradation	-11.3312
DA	-11.3327
ifs	-11.3328
▁déposées	-11.3329
uff	-11.333
isée	-11.3332
▁Hussein	-11.3336
▁tu	-11.3338
achèvement	-11.3338
▁fournissent	-11.3338
▁causé	-11.3339
▁créent	-11.3339
appuyer	-11.3344
▁traditionnels	-11.3346
▁afghan	-11.3348
▁mercure	-11.3348
▁manqué	-11.3348
▁simultanément	-11.3349
▁modeste	-11.3351
▁cou	-11.3351
▁demeurent	-11.3352
og	-11.3352
▁apportent	-11.3355
▁Ko	-11.3357
isés	-11.3358
ashington	-11.3372
▁déception	-11.3372
▁souplesse	-11.3372
▁observé	-11.3374
▁démocraties	-11.3374
▁imparti	-11.3375
▁gré	-11.3383
▁comprenons	-11.3384
▁profession	-11.3385
▁transférer	-11.3385
▁refléter	-11.3386
▁déterminé	-11.3388
▁reconnue	-11.3396
▁troubles	-11.3396
▁comparables	-11.3399
aurons	-11.3405
▁collège	-11.3408
▁signification	-11.3408
▁voterai	-11.3409
lan	-11.341
▁viol	-11.3411
ition	-11.3412
▁Proche	-11.3421
▁protège	-11.3426
▁malades	-11.3427
▁voyageurs	-11.3434
▁essaie	-11.3441
▁fléau	-11.3444
▁optimiste	-11.3446
embo	-11.3453
▁filière	-11.3455
▁répété	-11.3463
étend	-11.3463
▁nette	-11.3465
▁autrichien	-11.3465
▁éventail	-11.3467
▁médicaux	-11.3469
▁amène	-11.347
▁contamination	-11.3482
▁filles	-11.3484
quer	-11.349
▁scandaleux	-11.3494
▁véhicule	-11.3497
Ouest	-11.3499
▁sortie	-11.3501
▁chargés	-11.3503
▁réduisant	-11.3507
▁laitiers	-11.3508
▁introduites	-11.3509
▁pertinente	-11.351
▁illustre	-11.351
ê	-11.3511
▁radicale	-11.3516
▁occidental	-11.3521
▁transparentes	-11.353
▁minimal	-11.3533
gl	-11.3534
▁fraudes	-11.3534
▁harmoniser	-11.3538
opposent	-11.354
▁troisièmement	-11.354
mat	-11.3541
effondrement	-11.3544
▁salle	-11.3544
▁ciel	-11.3545
▁fini	-11.3548
▁appliqués	-11.355
ini	-11.3555
▁Laeken	-11.3555
▁quiconque	-11.3555
▁Où	-11.3555
▁déséquilibres	-11.3556
▁SIS	-11.3557
▁satellite	-11.3559
▁intéressées	-11.356
venant	-11.3567
▁clonage	-11.3568
agira	-11.3571
▁examinée	-11.3573
▁découlent	-11.3576
inégalité	-11.3579
▁arrivée	-11.3579
isent	-11.3579
▁effectuées	-11.358
années	-11.3592
▁diminué	-11.3593
▁financés	-11.3595
▁préoccupant	-11.3598
▁automatique	-11.3601
▁fédéral	-11.3602
CNS	-11.3605
▁élargir	-11.3608
▁abstenu	-11.3609
▁garantissent	-11.3609
▁macro	-11.361
▁symbole	-11.3621
▁extérieurs	-11.3623
▁trans	-11.3624
▁normale	-11.3631
▁indications	-11.3631
▁navire	-11.3634
▁spéciales	-11.3636
ort	-11.3637
▁accueilli	-11.3637
▁intensifier	-11.364
▁journal	-11.3643
▁prestation	-11.3646
accéder	-11.3654
▁spéciaux	-11.3655
▁veto	-11.3655
▁préoccupante	-11.3662
▁concepts	-11.3664
éradication	-11.3667
▁III	-11.367
▁créés	-11.3679
▁proposent	-11.368
▁rendra	-11.3683
▁rou	-11.3683
▁pétition	-11.3684
▁constituerait	-11.3685
▁quasiment	-11.3686
feu	-11.369
▁adéquats	-11.369
▁exhaustive	-11.3692
▁fiers	-11.3695
trait	-11.3696
▁exclusive	-11.3701
▁renouvellement	-11.3705
▁rendement	-11.3708
▁stock	-11.3708
▁compétitif	-11.3709
explique	-11.3712
▁mentionnée	-11.3712
acte	-11.3713
▁animal	-11.3713
▁bloc	-11.3717
▁informelle	-11.3721
▁ministérielle	-11.3724
▁minimale	-11.3724
emblée	-11.3725
▁exclure	-11.3726
▁offertes	-11.3727
▁organisme	-11.3728
▁proviennent	-11.373
▁favorisant	-11.373
ju	-11.3732
▁soutenus	-11.3737
▁Dieu	-11.3741
▁vécu	-11.3743
▁mesurer	-11.3746
▁Darfour	-11.3755
▁suspendre	-11.3755
▁pensé	-11.3756
▁cessé	-11.3757
▁différends	-11.3757
▁interrompue	-11.3758
▁flottes	-11.3758
essai	-11.376
acquisition	-11.3761
▁acteur	-11.3763
▁tire	-11.3765
▁subvention	-11.3768
▁laissent	-11.3773
▁belles	-11.3778
assassinat	-11.3779
Occident	-11.378
▁jurisprudence	-11.378
▁gagné	-11.378
▁lourd	-11.3783
▁précieuse	-11.3785
▁résumer	-11.3787
▁surprise	-11.3789
▁parfait	-11.379
▁viser	-11.3791
▁requise	-11.3791
▁comptent	-11.3792
▁intolérable	-11.3793
▁sauvegarder	-11.3796
▁Millénaire	-11.3805
▁Moscou	-11.3805
▁dioxyde	-11.3805
abattage	-11.3805
▁évoqués	-11.3806
uf	-11.3806
▁finance	-11.3807
▁manœuvre	-11.3807
ries	-11.3815
gre	-11.3816
▁négligé	-11.3818
▁recommandé	-11.3818
▁mentionnées	-11.3822
▁générer	-11.3831
▁invitons	-11.3831
pu	-11.3831
▁entraînera	-11.3832
▁linguistiques	-11.3833
▁continueront	-11.3834
▁commencent	-11.3846
▁recommander	-11.3847
act	-11.3848
▁détérioration	-11.3856
▁bio	-11.3857
▁éthiques	-11.3858
▁compétents	-11.3859
▁poursuivent	-11.3859
▁livrer	-11.386
▁combustibles	-11.3862
▁Ici	-11.3862
▁instance	-11.3863
▁références	-11.3867
horizon	-11.3868
▁réalisable	-11.3874
nç	-11.3874
empêche	-11.3875
▁touchant	-11.3881
▁croit	-11.3881
▁acheter	-11.3885
▁pèse	-11.3888
▁privilégié	-11.389
▁plaît	-11.3893
▁An	-11.3894
▁soigneusement	-11.3894
▁mélange	-11.3894
▁handicapés	-11.3896
▁inévitablement	-11.39
infrastructures	-11.3901
SE	-11.3902
▁tunnel	-11.3907
▁assurances	-11.3907
▁intermédiaire	-11.3909
▁Voici	-11.3922
▁Amsterdam	-11.393
▁concurrents	-11.3931
interopérabilité	-11.3933
▁bétail	-11.3933
▁réviser	-11.3933
▁théorie	-11.3933
▁anciennes	-11.3935
▁remplacé	-11.3937
▁distorsion	-11.3939
▁Pékin	-11.3945
▁subissent	-11.3946
▁visible	-11.3948
▁arrêté	-11.3948
▁calme	-11.3948
▁réaffirmer	-11.3951
▁réuni	-11.3951
ât	-11.3958
teborg	-11.3958
▁Frattini	-11.3958
▁formidable	-11.3958
▁structurel	-11.3959
▁alliés	-11.3959
huile	-11.3963
usine	-11.3967
▁endroit	-11.397
▁cubain	-11.3971
▁enregistrés	-11.3973
▁débouché	-11.3979
▁cible	-11.3984
▁basées	-11.399
▁musulmans	-11.399
▁nulle	-11.3991
▁réexaminer	-11.3991
ja	-11.3998
hu	-11.3999
▁rationnelle	-11.4005
▁Bolkestein	-11.401
▁Danube	-11.401
▁trilogue	-11.401
affectation	-11.4011
▁génétique	-11.4013
▁doté	-11.4019
▁survenus	-11.402
ath	-11.4033
▁cor	-11.4044
▁connus	-11.4045
▁contraignants	-11.4045
▁propagande	-11.4049
▁cinquante	-11.4052
▁subsiste	-11.4058
▁institutionnels	-11.406
don	-11.406
Observatoire	-11.4062
▁Barnier	-11.4062
stitu	-11.4062
▁jouissent	-11.4062
▁décennie	-11.4069
▁bureaucratiques	-11.4071
▁textiles	-11.4073
▁blanchiment	-11.4075
▁réclamé	-11.4075
▁licences	-11.4082
▁réparti	-11.4083
▁méditerranéens	-11.4084
émergence	-11.4088
▁inhumain	-11.4088
ik	-11.4089
▁critiqué	-11.409
▁performances	-11.4091
▁néfastes	-11.4092
▁intéressantes	-11.4092
▁déplacées	-11.4093
entretien	-11.4098
sta	-11.4098
▁illégales	-11.4099
tif	-11.4102
▁approches	-11.4107
accuse	-11.4108
▁frappe	-11.4109
▁fermes	-11.4113
atmosphère	-11.4114
incompréhensible	-11.4114
organisations	-11.4117
▁produite	-11.4118
▁habitant	-11.4122
pre	-11.4126
▁craindre	-11.4127
▁reçoit	-11.4127
▁moderniser	-11.4128
▁rassurer	-11.4134
▁traîne	-11.414
▁automobiles	-11.4142
eek	-11.4142
▁statu	-11.4151
ET	-11.4151
▁rendant	-11.4152
▁Poettering	-11.4153
▁REACH	-11.4153
▁attache	-11.4154
envoi	-11.4156
anda	-11.4157
▁concours	-11.416
▁indépendantes	-11.4161
û	-11.4164
nation	-11.4165
▁St	-11.4169
▁introduite	-11.4171
bé	-11.4173
▁dispositifs	-11.4177
▁réunis	-11.4177
nées	-11.4179
équipe	-11.4182
▁honneur	-11.4184
Égypte	-11.4185
▁offerte	-11.4186
apporte	-11.4189
▁restant	-11.4189
▁nominal	-11.4193
▁fixée	-11.4196
étudier	-11.4199
▁dirigée	-11.4199
▁caractérise	-11.42
oll	-11.4214
méditerranéenne	-11.4216
▁dite	-11.4216
option	-11.4223
▁prisons	-11.4223
harmoniser	-11.4225
▁sincères	-11.4228
▁Congrès	-11.4232
▁Encore	-11.4232
▁associé	-11.4232
▁inspections	-11.4233
▁Centre	-11.4235
▁dépendra	-11.4235
▁efforcer	-11.4237
▁adaptées	-11.424
aurions	-11.4243
▁moments	-11.4243
jo	-11.4246
▁bancaires	-11.4248
▁manquer	-11.4248
▁engendrer	-11.4249
▁encouragé	-11.4254
▁figurant	-11.4258
▁jouir	-11.4259
▁terminerai	-11.4272
▁hoc	-11.4277
assumer	-11.4281
▁dérive	-11.4285
▁venant	-11.4285
▁compétent	-11.4286
▁poursuites	-11.4286
atoire	-11.4289
▁éco	-11.4291
▁performance	-11.4295
▁routiers	-11.4297
ko	-11.4297
▁diversification	-11.4299
▁diriger	-11.4299
ologie	-11.4299
entente	-11.4301
▁parvient	-11.4303
▁reconnus	-11.4304
cal	-11.4305
▁usagers	-11.4311
▁inférieure	-11.4313
projet	-11.4319
▁Monténégro	-11.4324
▁animales	-11.4328
▁déboucher	-11.433
▁équivalent	-11.4333
▁Roth	-11.4333
▁halieutiques	-11.4336
▁tremblement	-11.4338
▁tribune	-11.4338
▁meurent	-11.4338
▁secours	-11.4338
rer	-11.4345
▁absolu	-11.4346
▁vain	-11.4347
▁céder	-11.4351
▁financé	-11.4352
▁chère	-11.4357
djan	-11.4363
▁extrémistes	-11.4363
▁controverse	-11.4365
▁monsieur	-11.4365
▁fardeau	-11.4365
▁matériaux	-11.4365
▁allé	-11.4371
▁compétitifs	-11.4373
incapacité	-11.4373
▁pur	-11.4374
▁verrons	-11.4378
▁formelle	-11.4379
▁passons	-11.4382
▁objections	-11.4383
issement	-11.4388
ton	-11.439
iel	-11.439
▁apparu	-11.4393
▁côtières	-11.4394
▁classique	-11.4399
▁témoins	-11.44
eb	-11.4401
▁belle	-11.4402
lée	-11.4403
▁battre	-11.4405
▁permets	-11.4405
gan	-11.4406
▁concurrentiel	-11.4415
▁opposée	-11.4416
idées	-11.4417
▁magnifique	-11.4418
▁Fa	-11.4421
▁conteste	-11.4426
▁obligé	-11.4428
liqu	-11.4435
▁déroulement	-11.4437
▁chantiers	-11.4438
▁Seule	-11.444
ies	-11.4443
▁réputation	-11.4445
▁vastes	-11.4445
▁rencontrent	-11.4448
▁verra	-11.4449
▁préfère	-11.4452
▁négligeable	-11.4455
▁entités	-11.4457
gen	-11.4457
▁légumes	-11.4459
▁VIH	-11.4459
▁commencerai	-11.4472
▁marquée	-11.4472
▁souffert	-11.4472
▁prenantes	-11.4474
▁sain	-11.4474
▁armée	-11.4477
▁inscrits	-11.4478
▁flagrante	-11.4479
udi	-11.4479
▁externe	-11.4484
▁grève	-11.4486
▁désigné	-11.4494
▁qualifier	-11.4494
extradition	-11.4499
▁significatifs	-11.45
▁qualifié	-11.4502
êt	-11.4503
▁familial	-11.4504
impunité	-11.4507
excellente	-11.4509
▁exercée	-11.4512
▁surprenant	-11.4513
▁courrier	-11.4513
▁payé	-11.4518
AS	-11.452
▁développée	-11.4522
▁Député	-11.4525
proportionnalité	-11.4526
▁progressiste	-11.4526
▁province	-11.4526
▁sortes	-11.453
▁englobe	-11.4532
▁chapitres	-11.4536
▁Palacio	-11.454
▁indirectement	-11.4544
▁sombre	-11.4546
érer	-11.4547
▁envisagée	-11.4547
▁collectives	-11.4552
▁na	-11.4553
▁vent	-11.4553
▁ultérieurement	-11.4557
▁restreint	-11.4557
ira	-11.4559
van	-11.4559
▁optimale	-11.4562
▁sentiments	-11.4564
▁appelée	-11.4564
▁instituant	-11.4567
▁sagesse	-11.4568
▁démontrent	-11.4569
▁retenu	-11.4569
▁Guinée	-11.4572
▁franchi	-11.4573
▁paie	-11.4574
▁circuler	-11.4578
▁constructeurs	-11.4579
▁pourriez	-11.4579
▁tragiques	-11.458
▁suggérer	-11.4581
▁bassin	-11.4581
Ex	-11.4584
▁minoritaires	-11.4584
ak	-11.4585
▁richesses	-11.4585
▁citerai	-11.4586
K	-11.4589
▁aphteuse	-11.4595
▁représenté	-11.4598
▁forcément	-11.4598
▁éventuelles	-11.4602
ène	-11.4605
▁forestière	-11.4608
▁imposée	-11.4613
▁communiqué	-11.4614
▁implication	-11.4616
▁amené	-11.4616
▁toxiques	-11.4625
tin	-11.4628
▁contente	-11.4628
▁accordées	-11.463
▁rejets	-11.4632
▁dérivés	-11.4633
▁placée	-11.4633
fer	-11.4634
▁déplorable	-11.4636
col	-11.464
▁devenus	-11.464
▁compliquée	-11.464
▁cessez	-11.4644
▁préventive	-11.4649
▁déployer	-11.465
▁occupés	-11.4652
autoriser	-11.4656
▁déséquilibre	-11.4661
▁déplacement	-11.4663
▁Mugabe	-11.4663
▁infraction	-11.4664
▁résident	-11.467
▁financièrement	-11.4674
sur	-11.4676
installer	-11.4677
▁approuvons	-11.4677
▁nier	-11.4683
▁confrontées	-11.4685
▁Cotonou	-11.4691
gar	-11.4697
▁marins	-11.4701
actes	-11.4702
prolifération	-11.4704
isolement	-11.4705
▁rigoureux	-11.4705
▁soulignant	-11.4705
▁regrettons	-11.4705
▁garantis	-11.4708
▁UEN	-11.4709
gag	-11.4716
impasse	-11.4719
▁construit	-11.4721
oir	-11.4723
▁gratitude	-11.4732
enjeu	-11.4733
▁convictions	-11.4736
appuie	-11.4743
▁annoncer	-11.4747
ole	-11.4747
ham	-11.4755
▁passées	-11.4759
▁créativité	-11.476
▁coexistence	-11.4763
▁baisser	-11.4767
▁arrivent	-11.4769
▁bienvenu	-11.4771
▁opposants	-11.4775
▁perçu	-11.4782
▁fournie	-11.4785
▁engagées	-11.4787
automne	-11.4789
▁turcs	-11.4791
▁découvert	-11.4794
▁remonte	-11.4803
▁cartes	-11.4805
▁accueille	-11.4811
▁remarqué	-11.4816
▁sécheresse	-11.4816
▁votons	-11.4816
▁virus	-11.4817
ke	-11.482
▁respectueux	-11.483
▁Puisque	-11.4834
▁peines	-11.4838
▁Ben	-11.484
arrestation	-11.4843
université	-11.4843
▁affecter	-11.4847
▁pertinent	-11.4851
ran	-11.4851
naire	-11.4851
▁noté	-11.4851
▁sûrement	-11.4852
▁the	-11.4852
bou	-11.4859
axe	-11.486
▁familiales	-11.4863
▁attire	-11.4867
▁dirigeant	-11.4867
▁retarder	-11.4871
▁slovène	-11.4872
▁dotation	-11.4873
▁rencontrés	-11.4873
▁menacés	-11.4878
▁exercé	-11.4878
exploit	-11.4883
▁applique	-11.4887
▁refusent	-11.4891
excuser	-11.4892
ifier	-11.4894
▁conçu	-11.4894
▁primordiale	-11.4897
▁mien	-11.4897
▁marquage	-11.49
▁psychologique	-11.49
▁contribuable	-11.4902
▁émises	-11.4908
▁bloquer	-11.4912
▁cabillaud	-11.4915
off	-11.4916
▁délit	-11.4921
ô	-11.4922
▁professions	-11.4927
tour	-11.4928
▁accusations	-11.493
ifié	-11.493
▁composante	-11.4931
▁horizontale	-11.4935
▁introduction	-11.4935
▁voyages	-11.4937
▁ELDR	-11.4943
▁invités	-11.4944
cha	-11.4945
az	-11.4947
implique	-11.4953
▁fret	-11.4957
égo	-11.4958
za	-11.4958
hémicycle	-11.496
organe	-11.4963
▁différemment	-11.4971
▁allégations	-11.4972
▁contradictoires	-11.4972
▁louable	-11.4974
▁juges	-11.4974
▁exécution	-11.4978
▁réacteurs	-11.4986
fin	-11.4987
unification	-11.4987
▁enseignements	-11.4987
▁portuaires	-11.4988
▁bilatéral	-11.4989
▁espèce	-11.4989
▁saisi	-11.4992
vie	-11.4999
▁rare	-11.4999
▁Espérons	-11.5
▁Heureusement	-11.5
▁Sakharov	-11.5
▁combinaison	-11.5
lés	-11.5009
voir	-11.5013
▁sensibiliser	-11.5014
▁mardi	-11.5016
ina	-11.5016
▁idéal	-11.5016
▁Per	-11.5016
▁terminée	-11.5018
▁pointe	-11.5024
▁perception	-11.5028
▁réciprocité	-11.5028
▁laissant	-11.503
habitants	-11.5032
▁Sous	-11.5032
▁macroéconomique	-11.5036
aille	-11.5038
▁incidents	-11.504
▁poussé	-11.5042
▁gazoduc	-11.5043
assemblée	-11.5046
imp	-11.5048
▁armés	-11.5048
exploiter	-11.5051
abilité	-11.5052
▁messieurs	-11.5057
▁capitales	-11.5057
▁Saint	-11.5058
▁condamnés	-11.5061
▁déb	-11.5061
▁dise	-11.5063
▁allemands	-11.5065
▁judicieuse	-11.5067
▁courageuse	-11.5067
▁rom	-11.5068
▁autorisée	-11.5068
▁appartenant	-11.5071
▁notable	-11.5072
▁parlant	-11.5072
▁assassiné	-11.5072
▁formellement	-11.5076
▁enthousiasme	-11.5081
▁multi	-11.5083
▁objective	-11.5085
▁Mercosur	-11.5086
annulation	-11.5086
▁accusé	-11.5087
▁sûres	-11.5088
▁dresser	-11.5095
▁votera	-11.5096
▁avérée	-11.5097
ontrairement	-11.5099
▁rentabilité	-11.51
▁excessif	-11.5103
▁négliger	-11.5106
viv	-11.5108
▁retourner	-11.5109
▁exécutif	-11.5111
appareil	-11.5113
▁dirigé	-11.5121
▁incidences	-11.5125
▁conférences	-11.5131
▁suivent	-11.5131
accompagne	-11.5133
▁év	-11.5136
▁dimensions	-11.5136
rice	-11.5139
éprouve	-11.5139
▁périphériques	-11.5143
▁pouvions	-11.5143
▁nuire	-11.5143
▁criminelles	-11.5145
▁originale	-11.5146
ignore	-11.5155
▁signaux	-11.5158
▁partisan	-11.5159
atrice	-11.5162
▁marin	-11.5162
▁connues	-11.5162
▁diagnostic	-11.5172
accompagnement	-11.5177
▁autorisation	-11.5183
▁préalables	-11.5186
bon	-11.5187
méditerranéen	-11.5188
éthique	-11.5192
▁prérogatives	-11.5197
▁accroissement	-11.5202
▁moteurs	-11.5204
▁côte	-11.5206
▁scénario	-11.5206
▁correspondant	-11.5206
Année	-11.5207
cinq	-11.5212
adhère	-11.5216
▁classification	-11.5216
OP	-11.5216
▁erronée	-11.5218
▁toucher	-11.522
▁plantes	-11.5224
vert	-11.5225
▁Finalement	-11.523
▁existence	-11.5233
▁exclu	-11.5234
eu	-11.5234
▁potentiellement	-11.5235
octobre	-11.5237
ah	-11.524
▁gel	-11.5241
erreur	-11.5247
▁terribles	-11.5249
accidents	-11.5251
port	-11.5253
▁infrastructure	-11.5259
▁rigoureuse	-11.526
émotion	-11.5261
▁urbaines	-11.5262
▁Poutine	-11.5274
▁spectre	-11.5274
ug	-11.5275
▁course	-11.5276
▁méditerranéen	-11.528
▁redevances	-11.5283
▁conviens	-11.5289
OCM	-11.5289
écoute	-11.5292
vons	-11.5296
▁renvoyer	-11.5306
oi	-11.5306
▁rarement	-11.5308
▁modifie	-11.5313
▁prostitution	-11.5318
▁acquise	-11.5321
appartenance	-11.5322
▁positivement	-11.5322
▁statistique	-11.5324
nie	-11.5331
▁visibilité	-11.5334
▁indirecte	-11.5336
▁chaînes	-11.5336
▁comparer	-11.5336
▁incidence	-11.5338
▁polluants	-11.5339
▁neutre	-11.5348
acier	-11.5348
▁maternelle	-11.5349
▁déploiement	-11.535
▁exerce	-11.5351
▁organisées	-11.5354
▁provoque	-11.5359
▁conférer	-11.5363
▁USA	-11.5363
▁appliquent	-11.5366
▁renforcera	-11.5367
▁procureur	-11.5367
▁reconnaissent	-11.5367
▁agissant	-11.537
apport	-11.5372
▁remet	-11.5373
▁retiré	-11.5374
▁étiquetage	-11.5376
char	-11.5378
▁représentés	-11.5379
▁correspondent	-11.5382
▁profitent	-11.5387
▁reconnues	-11.5389
▁adapté	-11.5391
▁affectées	-11.5392
issi	-11.5392
▁MEDA	-11.5392
ssions	-11.5395
▁sièges	-11.5401
important	-11.5401
▁concrétisation	-11.5407
▁défavorable	-11.5422
▁propice	-11.5422
▁tro	-11.5424
pot	-11.5425
▁participant	-11.5428
era	-11.5432
▁courante	-11.5433
vit	-11.5433
▁décidée	-11.5434
▁comporter	-11.5435
▁souffrir	-11.5437
▁essais	-11.5438
▁fondations	-11.544
▁compatibles	-11.5446
▁présidé	-11.5446
▁inquiétante	-11.5448
▁page	-11.5449
▁renseignements	-11.5449
équipement	-11.5451
▁flexibles	-11.5452
▁déplacer	-11.5452
▁potable	-11.5452
▁répondant	-11.5453
mes	-11.5455
▁kilomètres	-11.5456
écu	-11.5458
▁témoigner	-11.5463
ologique	-11.5463
▁préoccuper	-11.5464
▁prédécesseur	-11.5467
élections	-11.5468
▁révisée	-11.547
▁Na	-11.5473
▁Évidemment	-11.5482
▁passés	-11.5482
▁manquent	-11.5491
hor	-11.5491
lli	-11.5491
▁admet	-11.5493
▁poursuivra	-11.5497
▁découvrir	-11.5497
▁égale	-11.5506
▁conjoint	-11.5511
▁comportements	-11.5512
▁additionnel	-11.5512
▁légère	-11.5514
▁lourdes	-11.5515
▁éventuel	-11.5518
▁retrouvent	-11.5521
▁pertinents	-11.5525
habit	-11.5526
▁disposant	-11.5527
AP	-11.5527
▁agissent	-11.5532
▁décent	-11.5532
▁limités	-11.5533
▁précédé	-11.5536
▁synonyme	-11.5542
▁siècles	-11.5546
▁contribueront	-11.5547
▁semblerait	-11.5547
▁Da	-11.5555
encouragement	-11.5555
▁mers	-11.5555
Angleterre	-11.5557
▁rectificatif	-11.5557
▁vacances	-11.5557
Islande	-11.5557
▁réalisations	-11.556
▁PHARE	-11.5572
▁définitions	-11.5577
▁aveugle	-11.558
ule	-11.5582
▁pacifiques	-11.5588
▁âgés	-11.559
pprofondissement	-11.5594
▁industrialisés	-11.5595
imagine	-11.5596
▁engendre	-11.5599
intéresse	-11.5599
▁recherché	-11.5602
▁tir	-11.5604
▁vaccination	-11.5605
arz	-11.5606
▁capitaliste	-11.5606
▁naturels	-11.5609
tions	-11.5609
▁alliance	-11.5611
▁impression	-11.5613
▁Norvège	-11.5617
▁influencer	-11.562
entreprendre	-11.5629
transfrontaliers	-11.5629
▁baser	-11.5633
▁midi	-11.5642
▁angulaire	-11.5647
▁recrutement	-11.5647
▁spectaculaire	-11.5647
hésit	-11.5653
▁personnalité	-11.5656
▁préadhésion	-11.5657
▁effectif	-11.5663
▁traverse	-11.5667
ros	-11.5667
▁mobiles	-11.5667
▁pilotes	-11.5668
▁innovations	-11.5673
tout	-11.5674
▁termine	-11.5674
▁Posselt	-11.5678
▁navale	-11.5678
▁intégralement	-11.568
▁chinoises	-11.5685
▁fragile	-11.5686
accompagner	-11.5692
Azerba	-11.5693
▁envergure	-11.5694
▁salariale	-11.5696
▁turques	-11.5698
atson	-11.5699
pp	-11.5701
▁impliquent	-11.5704
▁luxembourgeoise	-11.571
▁produites	-11.5713
▁menacée	-11.5714
▁contrainte	-11.5717
▁serbe	-11.5717
▁support	-11.5718
▁Celles	-11.572
exposé	-11.5722
▁Tchernobyl	-11.5724
▁appuyé	-11.5724
▁réitérer	-11.5724
▁obliger	-11.5725
▁contraint	-11.5726
▁ignoré	-11.573
fe	-11.5734
▁importés	-11.5735
▁physiques	-11.5736
▁soutiendrons	-11.5739
espèce	-11.5747
▁fréquent	-11.5747
attache	-11.5752
▁valables	-11.5755
▁évoquées	-11.5759
▁écoute	-11.5761
▁massif	-11.5764
▁effectuée	-11.5765
▁aucunement	-11.5766
▁visage	-11.5767
▁paramètres	-11.5768
▁réjouit	-11.5771
▁respectée	-11.5773
ly	-11.5773
▁légèrement	-11.5774
▁terreur	-11.5774
▁exceptionnel	-11.5779
▁collectif	-11.5779
sk	-11.578
▁auto	-11.5783
▁augmentent	-11.5783
accessibilité	-11.5785
▁insistons	-11.5785
▁prévisible	-11.5785
gén	-11.5787
▁mortalité	-11.5787
▁mariage	-11.5794
▁affectent	-11.5794
▁PCP	-11.5801
▁Viêt	-11.5801
▁renforcées	-11.5803
▁axé	-11.5806
engagent	-11.5806
▁promet	-11.5809
▁primes	-11.581
▁banane	-11.581
▁consentement	-11.5816
▁franchir	-11.5825
▁idéologique	-11.5826
▁comprenant	-11.5832
▁vocation	-11.5832
▁paritaire	-11.5832
bor	-11.5833
▁pilote	-11.5837
▁audition	-11.5839
asser	-11.584
associe	-11.5843
▁vœux	-11.5847
▁gaspillage	-11.5848
▁controversé	-11.5848
▁bi	-11.585
lin	-11.585
▁états	-11.5851
lez	-11.5853
▁réfléchi	-11.5853
▁élection	-11.5856
▁pauvre	-11.5858
▁hauts	-11.5858
incidence	-11.5862
▁mènent	-11.5863
austérité	-11.5863
▁tarder	-11.5865
ouest	-11.5867
▁transnationale	-11.5868
▁Natura	-11.5878
▁joie	-11.5878
▁devoirs	-11.588
▁compromettre	-11.5881
▁cacher	-11.5881
ajouterai	-11.5882
gra	-11.5883
▁déroulent	-11.5887
▁étroit	-11.589
▁simplifiée	-11.5893
▁décrire	-11.5895
▁consacre	-11.5896
▁attentifs	-11.59
ayons	-11.5904
▁opérationnels	-11.5904
▁acceptons	-11.5909
immense	-11.5909
▁Groupe	-11.5909
▁fixant	-11.5909
▁penche	-11.5915
▁revendications	-11.5918
▁écho	-11.5923
▁mère	-11.5925
▁leadership	-11.5925
oppression	-11.5925
▁Be	-11.5925
▁Bref	-11.5925
▁présidences	-11.5934
lent	-11.5937
▁exposer	-11.5939
issons	-11.594
▁logistique	-11.5941
▁planétaire	-11.5941
▁indubitablement	-11.5942
▁bloqué	-11.5942
▁coûteux	-11.5945
▁partagé	-11.5945
▁puissant	-11.595
▁section	-11.5951
▁manipulation	-11.5956
▁recevront	-11.5956
▁suffisent	-11.5956
rin	-11.5962
unique	-11.5963
rain	-11.5964
cité	-11.5966
▁célèbre	-11.5972
▁notification	-11.5972
▁prône	-11.5972
▁scrutin	-11.5972
alternative	-11.5973
he	-11.5975
▁spatiale	-11.5975
▁démission	-11.5976
exige	-11.5976
▁radicalement	-11.5978
▁octroyer	-11.5979
▁passera	-11.5981
▁libérale	-11.5983
▁Français	-11.5988
▁stabiliser	-11.5988
▁sentent	-11.5988
OIT	-11.5999
▁reproche	-11.6001
▁présidentielles	-11.6002
agression	-11.6003
▁douter	-11.6003
▁polonaise	-11.6004
intensification	-11.6004
▁prolifération	-11.6004
analyser	-11.6004
val	-11.6005
abstenir	-11.6005
ures	-11.6008
▁reposant	-11.6009
▁Mo	-11.6014
▁cache	-11.6019
▁dynamisme	-11.6019
▁harcèlement	-11.6019
▁parcourir	-11.6019
▁lettres	-11.602
▁restreindre	-11.602
▁spécialistes	-11.6021
▁justifiées	-11.6028
▁comparable	-11.6031
ani	-11.6031
▁associer	-11.6031
▁suprême	-11.6035
▁déf	-11.604
▁législateur	-11.6042
▁confier	-11.6043
▁Su	-11.6043
▁bâtir	-11.6044
▁To	-11.6044
▁préoccupé	-11.6049
▁brutale	-11.6053
inviter	-11.6055
▁Ses	-11.6057
▁productions	-11.6061
▁froide	-11.6061
▁forcé	-11.6065
▁médical	-11.6066
▁abordées	-11.6067
▁subsistent	-11.6075
▁radical	-11.6075
▁dettes	-11.6076
▁autorisées	-11.6076
indiquer	-11.6078
▁unités	-11.6081
▁généreuse	-11.6083
▁prononcée	-11.6089
▁incroyable	-11.6092
▁empêchent	-11.6094
llstr	-11.6096
accélération	-11.6099
▁souscris	-11.6099
arrange	-11.6099
▁baltes	-11.6099
▁votant	-11.6099
▁affirment	-11.61
▁délocalisations	-11.6102
▁arbitraire	-11.6103
▁collaborateurs	-11.6105
▁éventuels	-11.6107
▁maximal	-11.6108
▁seuils	-11.6108
▁envoie	-11.6108
▁disposions	-11.6115
▁balance	-11.6115
▁tarifaires	-11.6116
▁conseiller	-11.6116
▁garantira	-11.6118
▁soutienne	-11.6123
▁mères	-11.6124
▁forcée	-11.6125
aliments	-11.6127
▁condoléances	-11.613
▁opportune	-11.6137
▁intitulé	-11.614
▁vif	-11.614
▁Trois	-11.6147
▁suivra	-11.6147
▁couvrant	-11.6147
▁tombe	-11.6147
▁tourne	-11.6148
indemnisation	-11.6149
▁onze	-11.6151
▁perçue	-11.6154
▁honnêtes	-11.6154
ines	-11.6157
uve	-11.6158
intensifier	-11.6159
▁litiges	-11.6161
▁apparaissent	-11.6163
▁améliore	-11.6166
▁class	-11.6168
▁douanières	-11.6168
vol	-11.6169
▁exposées	-11.6171
▁larges	-11.6171
▁servira	-11.6178
élever	-11.6178
▁fût	-11.6178
▁paradis	-11.6179
affirme	-11.6179
▁copie	-11.618
▁milieux	-11.6181
▁menacent	-11.6184
▁Très	-11.6184
▁contrôlée	-11.6187
▁secrets	-11.6193
▁croient	-11.6195
▁pharmaceutiques	-11.6197
utodétermination	-11.6202
entraîne	-11.6204
▁maintient	-11.6208
▁compétition	-11.6211
▁contribuant	-11.6212
ite	-11.6213
▁vins	-11.6214
expérimentation	-11.6214
écouter	-11.6219
▁adresse	-11.6219
▁procède	-11.622
▁prolongation	-11.6227
▁citoyenne	-11.623
▁discute	-11.6235
▁dominante	-11.6235
ères	-11.6238
êtes	-11.624
▁longuement	-11.624
▁Israéliens	-11.6243
▁souches	-11.6243
▁parfaite	-11.6243
eff	-11.6246
▁restée	-11.6248
clé	-11.6253
▁attribuer	-11.6255
▁vieille	-11.6257
▁leader	-11.6258
▁Agence	-11.6258
▁frontaliers	-11.6259
▁généré	-11.6259
▁devise	-11.6263
▁financées	-11.6266
▁déçu	-11.6268
▁arabes	-11.6268
▁formations	-11.6269
lons	-11.627
▁chimique	-11.6273
▁pharmaceutique	-11.6273
▁donnons	-11.6275
▁voyager	-11.6276
bri	-11.6279
▁originaires	-11.6283
▁assorti	-11.6287
nis	-11.6288
▁menacées	-11.6289
▁réglée	-11.6289
▁morte	-11.6292
▁constatation	-11.6293
▁sommets	-11.6295
▁séparément	-11.6295
▁identifié	-11.6299
▁resteront	-11.63
▁sévère	-11.6301
▁transitoires	-11.6305
▁PE	-11.6306
▁ultime	-11.6308
▁contradictions	-11.6308
▁médecine	-11.6314
▁rendez	-11.6315
▁immigration	-11.6316
▁producteur	-11.6322
ice	-11.6324
▁perpétu	-11.6324
hygiène	-11.6324
▁Sarkozy	-11.6324
optimisme	-11.6326
▁mou	-11.6326
enthousiasme	-11.6329
▁intervenus	-11.6333
▁maîtrise	-11.6337
▁chargées	-11.6339
▁fiabilité	-11.634
▁regroupement	-11.6341
▁insulaires	-11.6342
▁étonnant	-11.6342
▁clandestins	-11.6343
duc	-11.6345
▁dramatiques	-11.6346
iz	-11.6347
▁révéler	-11.6348
▁souhaiterions	-11.6349
▁témoignent	-11.6352
▁prématuré	-11.6354
▁déployé	-11.6355
▁Nigeria	-11.6356
▁confrontation	-11.6356
▁ramener	-11.6357
▁mini	-11.6359
appeler	-11.6359
▁préparatoires	-11.6366
injustice	-11.6367
▁réglementée	-11.6369
▁privilège	-11.6371
▁multilatérale	-11.6372
▁souviens	-11.6373
▁septentrionale	-11.6383
▁désigner	-11.6384
▁Helsinki	-11.6384
▁ressemble	-11.6385
offres	-11.6388
▁analysé	-11.6389
▁tuberculose	-11.6389
▁aisément	-11.6393
▁composé	-11.6394
accueillir	-11.6395
▁patient	-11.6404
▁installé	-11.6406
▁protectionniste	-11.641
ières	-11.6411
affirmation	-11.6412
▁renvoyé	-11.6412
▁médicale	-11.6414
▁désavantage	-11.6418
architecture	-11.6422
innombrables	-11.6422
▁logiciels	-11.6425
▁destin	-11.6426
▁dispens	-11.6431
▁informée	-11.6434
▁rhétorique	-11.6438
▁illégalement	-11.6439
▁rentrer	-11.644
gouvernemental	-11.6444
▁introduits	-11.645
▁déroulé	-11.6451
▁conc	-11.6453
▁entrave	-11.6454
▁appareils	-11.6456
▁promu	-11.6456
ute	-11.6459
▁modifiées	-11.6466
ck	-11.6467
▁angle	-11.647
▁prononce	-11.6471
▁fictif	-11.6471
▁Cambodge	-11.6471
▁épuisé	-11.6471
▁agréable	-11.6471
▁préventives	-11.6472
▁regarde	-11.648
▁résister	-11.6485
▁fassions	-11.6488
▁fidèle	-11.65
▁provient	-11.6505
▁réglementé	-11.6508
han	-11.651
▁dérouler	-11.6515
▁aurez	-11.6519
▁Bon	-11.6519
▁tardive	-11.652
▁démographiques	-11.652
▁illicite	-11.6521
▁Jérusalem	-11.6521
▁douanes	-11.6522
▁comptons	-11.6523
études	-11.6526
uti	-11.6536
payeur	-11.6538
▁opérer	-11.654
▁ancienne	-11.6543
▁dirige	-11.6544
▁transféré	-11.6545
▁forment	-11.6549
▁urbain	-11.655
▁serez	-11.6552
▁contraires	-11.6554
▁délibérations	-11.6554
▁traitons	-11.6555
▁quota	-11.6555
▁souscrire	-11.6557
▁italiens	-11.6563
▁fossiles	-11.6565
▁colonies	-11.657
exhorte	-11.657
▁mentale	-11.6571
▁livré	-11.6571
▁prestataires	-11.6572
▁espagnols	-11.6572
▁moyennant	-11.6576
▁tenues	-11.6577
▁pétroliers	-11.6581
▁alternatifs	-11.6582
▁déterminés	-11.6585
▁Lu	-11.6587
▁théorique	-11.6588
▁Chambre	-11.6588
▁légaux	-11.6588
▁urgentes	-11.6588
▁permettraient	-11.6591
▁officiels	-11.6591
▁réalise	-11.6591
▁signataires	-11.6594
▁personnels	-11.66
rise	-11.6601
▁françaises	-11.6602
parole	-11.6614
▁révisé	-11.6617
by	-11.662
▁gigantesque	-11.6621
Iraq	-11.6622
▁venus	-11.6623
▁association	-11.6625
accorde	-11.6627
▁stricts	-11.6633
▁garant	-11.6634
▁pénible	-11.6638
▁montrant	-11.6638
▁améliorant	-11.6639
▁décideurs	-11.6639
▁abusive	-11.6639
▁extra	-11.6641
▁assiste	-11.6643
▁rurale	-11.6643
▁signifier	-11.6644
▁guider	-11.6651
▁entrent	-11.6656
▁élaborée	-11.6667
ôt	-11.6668
▁Eurostat	-11.6668
aime	-11.667
▁contaminé	-11.6672
▁inspecteurs	-11.6672
▁libéré	-11.6676
▁orateur	-11.6679
octroyer	-11.6681
▁rejetons	-11.6687
▁abattu	-11.6688
▁rigide	-11.6688
▁communistes	-11.6696
▁posés	-11.6697
▁grippe	-11.6705
▁propagation	-11.6705
vel	-11.6708
▁semblables	-11.6709
▁vivants	-11.6713
▁choisie	-11.6713
▁compatibilité	-11.6722
▁Lomé	-11.6722
▁original	-11.6728
▁acceptées	-11.6729
▁réguliers	-11.673
obligations	-11.673
▁sportives	-11.6731
▁adaptés	-11.6733
▁offert	-11.6736
▁sage	-11.6738
▁Reding	-11.6739
ate	-11.674
▁professeur	-11.6741
▁rues	-11.6752
▁images	-11.6755
aquaculture	-11.6756
▁aimerions	-11.6756
▁animé	-11.6757
▁composée	-11.6759
tend	-11.676
▁marges	-11.6765
▁Égypte	-11.6765
▁réduites	-11.6767
▁accompagnée	-11.677
▁bénéficiant	-11.6773
▁pertinence	-11.6773
▁restauration	-11.6773
▁synthèse	-11.6773
▁égaux	-11.6773
▁raisonnement	-11.6773
▁perdent	-11.6777
▁approuvées	-11.6778
▁aimé	-11.6779
Euro	-11.6785
▁for	-11.6785
ei	-11.6789
▁Oomen	-11.679
▁situés	-11.679
▁encouragée	-11.6791
▁fa	-11.6793
▁paient	-11.6795
gh	-11.6796
▁exigeons	-11.6797
occupe	-11.6798
▁sexuel	-11.6801
▁menés	-11.6806
▁séances	-11.6807
▁renforcent	-11.6807
impossibilité	-11.6807
uranium	-11.6807
▁famine	-11.6807
▁folle	-11.6807
▁incluant	-11.6808
▁oublie	-11.6812
▁divisé	-11.682
▁voulaient	-11.6824
▁exécuté	-11.6834
inscription	-11.6841
▁affirmant	-11.6841
▁usines	-11.6843
▁secondaire	-11.6846
▁Cara	-11.6851
apparaît	-11.6854
▁demanderais	-11.6858
▁Soyons	-11.6859
▁comparé	-11.6859
▁connaissez	-11.6859
▁Jo	-11.6871
▁néglige	-11.6873
▁chambre	-11.6876
▁massacre	-11.6879
▁basque	-11.6883
▁souverain	-11.6886
▁problématiques	-11.6888
▁filets	-11.6889
▁franc	-11.6891
▁persécution	-11.6896
▁dénoncé	-11.6896
▁Dé	-11.6905
▁énergique	-11.6906
étendue	-11.6906
▁examinées	-11.6907
▁affecté	-11.6908
▁Somalie	-11.691
▁spécificités	-11.6914
▁avocats	-11.6922
Écosse	-11.6924
▁classes	-11.6926
▁proportionnelle	-11.6927
▁intègre	-11.6927
▁marginal	-11.6927
▁contenir	-11.6928
▁devriez	-11.6928
▁respectives	-11.6928
▁ob	-11.693
▁passion	-11.6936
institutions	-11.6937
ico	-11.6937
cep	-11.6938
▁préparée	-11.6939
▁cigarettes	-11.6942
▁individuel	-11.6943
▁supprimé	-11.6944
▁Corbett	-11.6945
▁réhabilitation	-11.6945
▁médiation	-11.6945
▁reconstitution	-11.6945
▁enseignants	-11.6945
▁Nombre	-11.6946
▁inquiets	-11.6946
▁pratiquer	-11.6954
▁mari	-11.6955
▁office	-11.6956
Démocrates	-11.6958
inquiéter	-11.6959
▁longueur	-11.696
▁occupent	-11.6964
▁Moi	-11.6965
EC	-11.6966
▁scolaire	-11.6966
▁blessés	-11.6968
▁nationalisme	-11.697
vient	-11.6975
iennes	-11.6978
escalade	-11.698
▁Journée	-11.698
▁TACIS	-11.698
▁réadmission	-11.698
énorme	-11.6981
onstitutionnelle	-11.6984
▁journaliste	-11.6984
ER	-11.6984
▁enseignement	-11.6987
▁El	-11.6988
▁territoriales	-11.6991
▁équipes	-11.6993
▁racines	-11.6993
acheter	-11.6994
espérer	-11.6994
▁cités	-11.6994
▁FED	-11.6997
tage	-11.7
▁accordés	-11.7006
▁vive	-11.7009
▁incident	-11.7012
▁hypocrite	-11.7014
▁fou	-11.7015
▁transmet	-11.7018
▁intensif	-11.702
▁éligibles	-11.7031
▁atmosphérique	-11.7032
▁imposant	-11.7032
▁géopolitique	-11.7032
▁réalisme	-11.7033
▁noms	-11.7033
▁arrêtés	-11.7043
▁rem	-11.7044
Al	-11.7046
▁bouche	-11.7046
▁retenir	-11.7049
▁négligence	-11.7049
▁répondrai	-11.705
▁uniformes	-11.7051
▁survivre	-11.7052
▁exercent	-11.7057
insertion	-11.7066
arqu	-11.7068
▁accordons	-11.7068
▁débarrasser	-11.7069
▁camions	-11.707
▁Sh	-11.7071
▁motivé	-11.7071
▁ordinaire	-11.7071
▁vétérinaire	-11.7071
▁Cor	-11.7074
étique	-11.7077
sme	-11.7079
nait	-11.708
ller	-11.7083
▁provoquée	-11.7085
▁orientée	-11.7088
▁autonomie	-11.7089
ano	-11.709
▁ajout	-11.7093
▁Nam	-11.7097
▁description	-11.7102
▁distances	-11.7103
aise	-11.7104
▁urbaine	-11.7105
▁entraînent	-11.7105
▁assurance	-11.7106
▁adaptation	-11.7106
emprunt	-11.7106
endroit	-11.7107
▁correction	-11.7108
ED	-11.7108
▁assume	-11.7108
▁achevé	-11.7109
▁appartiennent	-11.711
▁invitation	-11.7111
▁ha	-11.7111
▁audit	-11.7122
▁échéance	-11.7123
▁FEM	-11.7125
▁atténuer	-11.7125
▁auditions	-11.7128
▁consenti	-11.7131
▁combiné	-11.7132
▁applications	-11.7137
▁grecs	-11.7137
▁extrêmes	-11.7138
▁risquons	-11.7139
▁Pacte	-11.7139
▁instauré	-11.714
ze	-11.7141
▁maisons	-11.7141
▁excuses	-11.7142
▁reviendrai	-11.7144
▁réponde	-11.7148
▁Sahara	-11.7155
▁démonstration	-11.7155
▁fournissant	-11.7156
▁législateurs	-11.7159
EU	-11.7175
▁appellent	-11.7182
▁rue	-11.7183
olive	-11.7183
▁opérationnelles	-11.7184
▁crédibles	-11.7185
▁signée	-11.7187
▁censée	-11.719
▁ciblée	-11.719
▁Liikanen	-11.719
▁méfiance	-11.719
▁tactique	-11.719
▁déplorer	-11.7195
▁meurtre	-11.7197
▁regretter	-11.7199
▁coupable	-11.7199
pré	-11.7202
▁sensée	-11.7205
▁pollueur	-11.7206
assister	-11.7208
Ruijten	-11.7208
▁délivrance	-11.7208
▁frustration	-11.7208
▁souffrant	-11.7208
▁boule	-11.7208
▁Pack	-11.7209
▁frontalières	-11.7209
▁délibérément	-11.7209
erie	-11.7211
▁directeurs	-11.7213
▁fonctionné	-11.7214
▁rentable	-11.7214
▁gratuit	-11.7218
écho	-11.7219
effectue	-11.7219
oratrice	-11.722
▁reposent	-11.722
▁résulter	-11.722
▁Vitorino	-11.7226
▁comptabilité	-11.7226
▁montée	-11.7227
▁rappellerai	-11.7229
nder	-11.7229
▁saisie	-11.7235
▁réclament	-11.7238
Algérie	-11.7243
▁Jacques	-11.7244
▁portefeuille	-11.7244
▁éliminé	-11.7244
▁existait	-11.7245
RE	-11.7246
▁arme	-11.7247
▁Fi	-11.7249
▁tension	-11.725
▁bilatérale	-11.7254
▁renvoie	-11.7255
voyant	-11.7257
▁Pen	-11.7261
▁sauvetage	-11.7262
▁Forum	-11.7262
▁harmonisé	-11.7262
▁placés	-11.7263
▁viendra	-11.7263
lot	-11.7263
gie	-11.7264
▁aviez	-11.7268
▁pousse	-11.7277
▁entraînerait	-11.7277
éligibilité	-11.7279
▁souscrit	-11.7279
▁validité	-11.7279
▁salué	-11.728
▁pires	-11.7287
▁titres	-11.7291
▁organisés	-11.7294
▁fondateurs	-11.7296
▁évitant	-11.7297
échéance	-11.7298
▁condamnons	-11.7298
▁distinguer	-11.7307
▁dépassent	-11.7312
▁patience	-11.7315
▁voyez	-11.7315
▁navals	-11.7316
▁scandaleuse	-11.7318
▁protégées	-11.732
▁arrêtée	-11.7328
▁élémentaires	-11.7328
aval	-11.7339
▁téléphone	-11.734
interroge	-11.7348
▁stupéfiants	-11.735
Arménie	-11.7351
▁déclarée	-11.7351
▁cherché	-11.7352
export	-11.7354
▁dollar	-11.7356
▁approfondir	-11.7357
▁préparatoire	-11.7358
▁justes	-11.7359
▁déplacé	-11.7362
▁pages	-11.7363
▁prescriptions	-11.7364
▁exceptionnelles	-11.7365
▁appelés	-11.7367
▁soyez	-11.7369
▁toxicomanie	-11.7369
▁Lehne	-11.7369
Bendit	-11.737
égide	-11.737
▁lentement	-11.7373
▁israélienne	-11.7379
▁signatures	-11.7384
mètre	-11.7386
▁Go	-11.7387
éventualité	-11.7387
▁Ferrero	-11.7388
expansion	-11.7389
inspire	-11.7396
▁tibétain	-11.7406
oeuvre	-11.7408
▁innovantes	-11.7409
▁entraver	-11.7412
angle	-11.7413
▁manifestants	-11.7418
▁fédéraliste	-11.742
▁intervenu	-11.742
▁tournant	-11.7421
▁Cohn	-11.7424
▁Irlandais	-11.7424
▁consentir	-11.7424
▁progresse	-11.7425
▁formel	-11.7427
ari	-11.7428
▁dépensés	-11.7435
▁nourrir	-11.7435
▁significatives	-11.7441
lit	-11.7442
▁vigilance	-11.7442
▁assurés	-11.7442
▁sportifs	-11.7444
chose	-11.7447
▁idéale	-11.7449
▁alimentation	-11.7449
▁aisé	-11.745
▁passeport	-11.7451
▁favorisé	-11.7453
▁violent	-11.7454
▁erroné	-11.7458
▁envisagées	-11.7459
obscur	-11.746
▁Costa	-11.746
▁descend	-11.7462
▁féminine	-11.7465
▁effectifs	-11.7469
anti	-11.7469
hésite	-11.747
itt	-11.7471
▁socialement	-11.7471
▁partielle	-11.7471
▁contrepartie	-11.7478
▁Jeux	-11.7483
▁licence	-11.7487
▁insistance	-11.7488
▁séparée	-11.749
▁engage	-11.7493
gardant	-11.7496
▁Quinze	-11.7497
▁comptables	-11.7497
▁intéresse	-11.7498
déréglementation	-11.7503
▁reli	-11.7505
▁coupes	-11.751
▁récolte	-11.7512
▁décrite	-11.7513
Australie	-11.7515
▁entraves	-11.7516
▁aidant	-11.7516
▁permanents	-11.7518
plus	-11.7519
individuellement	-11.7519
arrive	-11.752
▁fête	-11.7531
▁confidentialité	-11.7533
▁recevra	-11.7533
▁inquiète	-11.7534
▁pieds	-11.754
▁lier	-11.7544
▁accompagné	-11.7545
avion	-11.7548
accusation	-11.7551
▁Russes	-11.7552
▁poussée	-11.7553
▁capitalisme	-11.7556
▁utilité	-11.7556
▁variété	-11.756
▁originaire	-11.7561
▁insuffisantes	-11.7563
▁paysage	-11.7564
▁respectueuse	-11.7565
▁poursuivie	-11.7565
▁imposent	-11.7565
▁demeurer	-11.7567
▁vir	-11.7569
▁persuader	-11.757
▁jouit	-11.757
▁courageux	-11.7571
ouvre	-11.7573
▁ukrainien	-11.7574
viendrait	-11.7574
▁apportés	-11.7574
▁puissante	-11.7578
▁séparé	-11.7581
▁finalité	-11.7582
ling	-11.7583
▁adoptons	-11.7589
▁bateau	-11.7589
▁Quelques	-11.7589
▁avouer	-11.7589
▁urgents	-11.7589
▁substitution	-11.7589
gène	-11.7592
▁soumet	-11.7595
écrire	-11.7597
IC	-11.7605
▁apport	-11.7606
▁travailleur	-11.7606
▁complaisance	-11.7607
▁neutralité	-11.7607
▁préférentiel	-11.7607
▁paraissent	-11.7607
aldner	-11.7607
▁priver	-11.761
▁régulière	-11.7612
▁barre	-11.7618
▁associée	-11.7619
rn	-11.7623
▁augmentant	-11.7626
▁connexion	-11.7626
▁protéines	-11.7626
cons	-11.7626
▁inverse	-11.7627
nez	-11.7629
▁cessent	-11.7629
▁réserver	-11.7631
▁Erasmus	-11.7631
▁ambitieuses	-11.7642
▁Berlusconi	-11.7644
▁constructives	-11.7645
ération	-11.7647
▁puissants	-11.765
▁défendent	-11.765
fou	-11.7659
▁superficie	-11.7662
▁souhaitez	-11.7663
lais	-11.7664
droit	-11.7664
▁envoyée	-11.7668
▁reviendrait	-11.7671
▁maîtriser	-11.7675
▁attentive	-11.7677
esclavage	-11.7681
▁constituait	-11.7681
▁remercions	-11.7681
▁Serbes	-11.7681
▁ingrédients	-11.7682
▁bovins	-11.7682
▁accordant	-11.7682
▁IV	-11.7687
▁Inde	-11.7694
▁ultérieur	-11.7696
inst	-11.7696
▁habituelle	-11.7696
▁Sinon	-11.7698
▁semblait	-11.77
▁honteux	-11.77
▁Autre	-11.7702
▁israéliennes	-11.7712
▁produise	-11.7712
entraîner	-11.7718
els	-11.7721
accueille	-11.7721
▁décentralisée	-11.7725
adhérer	-11.7727
▁combustible	-11.7729
▁inefficace	-11.7729
▁Mann	-11.7731
▁fructueux	-11.7737
▁performant	-11.7737
▁progressif	-11.7737
ras	-11.7738
▁transposer	-11.7739
▁caractérisée	-11.7743
optique	-11.7745
▁combiner	-11.775
▁controversée	-11.7755
▁appréciation	-11.7755
▁of	-11.7756
▁Canaries	-11.7756
▁tabagisme	-11.7756
▁voudraient	-11.7756
▁publiée	-11.7757
▁Chili	-11.776
▁productif	-11.7761
▁opéré	-11.7764
▁attentif	-11.7767
▁régulier	-11.7767
▁compens	-11.7769
▁évolué	-11.7775
enfance	-11.7777
▁menacé	-11.7783
▁affaibli	-11.7783
onde	-11.7783
▁insuffisants	-11.7786
▁préoccupent	-11.7792
▁varie	-11.7798
▁évité	-11.7801
OGM	-11.7801
▁désirer	-11.7802
▁touristique	-11.7805
ifiant	-11.7809
▁sciences	-11.7809
▁International	-11.7812
▁compensations	-11.7814
fo	-11.7816
▁conserve	-11.7819
▁traitent	-11.782
alliance	-11.782
▁embargo	-11.7822
▁soutenues	-11.7825
▁ajoute	-11.7827
▁vaccins	-11.7831
expulsion	-11.7831
▁tangibles	-11.7831
▁désireux	-11.7834
aggraver	-11.7835
▁recueillir	-11.7836
▁codes	-11.7837
▁goût	-11.7838
niste	-11.7839
amène	-11.7842
▁faciles	-11.7845
▁indéniable	-11.7846
▁enjeu	-11.785
▁délivré	-11.785
▁indemnités	-11.7851
▁ultérieure	-11.7854
▁avion	-11.7857
étape	-11.7858
▁aidé	-11.7863
▁maintenue	-11.7867
▁demandée	-11.7867
▁encouragement	-11.7868
▁John	-11.7869
▁cruciaux	-11.7869
▁tentation	-11.787
▁rencontrées	-11.7871
▁criminel	-11.7873
▁ignore	-11.7878
attacher	-11.7884
interruption	-11.7888
▁utilisons	-11.7888
▁jouera	-11.7889
▁politiciens	-11.7896
▁homosexuels	-11.7898
▁commande	-11.7903
▁soulignent	-11.7905
IS	-11.7906
▁diffuser	-11.7911
▁prendront	-11.7913
▁intéressants	-11.7914
▁communisme	-11.7918
▁défendons	-11.7923
▁protestations	-11.7923
▁protester	-11.7924
▁authentique	-11.7927
▁ciblées	-11.7927
▁objection	-11.7933
▁diminue	-11.7939
▁motivation	-11.7939
▁débuter	-11.7943
▁fur	-11.7943
▁Bi	-11.7944
▁signifierait	-11.7945
▁pistes	-11.7945
▁mobilisé	-11.7946
▁produira	-11.7946
▁schéma	-11.7946
▁renferme	-11.7946
▁aval	-11.795
bles	-11.7953
avril	-11.7955
▁Hu	-11.7956
▁quarante	-11.7965
applaudissements	-11.7965
▁écosystèmes	-11.7966
▁franchise	-11.7966
▁basés	-11.7967
▁stables	-11.7974
▁affaiblir	-11.7975
▁dessous	-11.7982
▁insistant	-11.7984
▁opposons	-11.7984
▁remède	-11.7984
sept	-11.7994
▁consacrées	-11.7994
▁Ti	-11.8
emballage	-11.8002
intolérance	-11.8003
▁puni	-11.8004
hypocrisie	-11.8013
▁bouc	-11.8016
▁malentendu	-11.8017
▁arrêts	-11.8018
imaginer	-11.8021
▁concernait	-11.8023
▁dépistage	-11.8023
▁convenir	-11.8023
▁Durant	-11.8023
▁interculturel	-11.8023
▁renationalis	-11.8023
▁naître	-11.8023
▁diffusé	-11.8023
▁obligée	-11.8024
▁reconnaisse	-11.8027
▁profitable	-11.803
▁attendue	-11.804
▁ayez	-11.804
▁possession	-11.8042
▁axes	-11.8044
démocratiquement	-11.805
▁vache	-11.805
▁adoptent	-11.8051
▁excuse	-11.8057
▁proportions	-11.8058
▁conféré	-11.8061
▁Harbour	-11.8061
▁écarts	-11.8063
▁étend	-11.8066
▁potentielle	-11.8066
▁vagues	-11.8067
naires	-11.8069
iff	-11.8071
aine	-11.8074
▁synergies	-11.8078
▁requièrent	-11.8081
▁assistants	-11.8081
▁résidents	-11.8081
▁tempête	-11.8082
▁olympiques	-11.8086
▁entrera	-11.8088
▁précipit	-11.8089
▁nôtres	-11.809
▁standard	-11.8091
développement	-11.8091
accomplir	-11.8092
▁intermédiaires	-11.8093
▁mobile	-11.8095
explosion	-11.81
▁qualitatif	-11.81
▁boissons	-11.81
oud	-11.8107
▁rétabli	-11.8108
ley	-11.811
▁évidentes	-11.8111
▁comprendra	-11.8113
▁confond	-11.8116
▁SPG	-11.8119
▁invoqué	-11.8119
▁répandue	-11.8121
▁débattue	-11.8124
▁caractérisé	-11.8127
▁sauvages	-11.8131
▁dictateur	-11.8134
ssez	-11.8135
▁confié	-11.8136
▁Pacifique	-11.8139
▁multitude	-11.8139
▁vraisemblable	-11.8139
▁entretenu	-11.8139
ria	-11.8139
▁compétitives	-11.8141
▁trompe	-11.8143
▁employé	-11.8149
▁Heure	-11.8149
▁majoritaire	-11.8154
▁garantisse	-11.8155
▁préoccupée	-11.8155
▁He	-11.8156
intimidation	-11.8158
▁typique	-11.8158
▁innocents	-11.8159
▁habitudes	-11.8159
▁personnalités	-11.8167
DEM	-11.8172
▁semblable	-11.8173
▁conjoncture	-11.8178
décentralisation	-11.8178
▁tentons	-11.8178
▁jette	-11.8178
▁payés	-11.818
▁ECHO	-11.8183
▁débloquer	-11.8183
alarme	-11.8186
▁électorales	-11.8187
▁restitutions	-11.8192
▁justifient	-11.8197
▁reconversion	-11.8198
▁redoubler	-11.8198
▁ruine	-11.8198
▁volaille	-11.8198
▁impérativement	-11.8199
▁quitté	-11.8199
▁incluent	-11.8201
▁soupçon	-11.8204
ek	-11.8206
▁pèsent	-11.8207
▁rencontres	-11.8209
emprisonnement	-11.8211
▁irréaliste	-11.8217
▁prudente	-11.8218
encourage	-11.8222
▁lenteur	-11.8226
▁ordinateur	-11.8226
▁laissez	-11.8227
▁attente	-11.8228
▁Bangemann	-11.8237
▁stimulant	-11.8237
▁artistes	-11.8237
▁talent	-11.8237
▁œuvrer	-11.8238
observer	-11.8238
▁annexe	-11.8242
▁remplit	-11.8247
▁qualification	-11.8253
▁délocalisation	-11.8253
▁gagne	-11.8255
▁péri	-11.8256
▁Thessalonique	-11.8257
▁dominé	-11.8257
oublier	-11.8257
▁amendes	-11.8258
▁actionnaires	-11.8258
▁temporaires	-11.8259
▁faisaient	-11.8267
▁matériels	-11.8268
▁menons	-11.827
▁vives	-11.8272
▁spécificité	-11.8272
▁préjudiciable	-11.8273
▁coutume	-11.8276
▁fameux	-11.8276
▁réparer	-11.8276
big	-11.8279
gor	-11.8279
▁ajustements	-11.828
▁égales	-11.8282
▁collectifs	-11.8284
▁inscrite	-11.8286
▁sexuels	-11.8294
▁remerciant	-11.8296
▁reproduction	-11.8296
▁slogan	-11.8296
▁Lamy	-11.8296
▁touristes	-11.8298
▁identifiés	-11.8299
▁songe	-11.8299
▁remplace	-11.8306
aggrave	-11.8314
▁matérielle	-11.8316
▁acceptent	-11.8316
▁Sharon	-11.8316
▁exploitants	-11.8316
▁chaos	-11.8316
▁déplacements	-11.8317
▁médiatique	-11.8318
▁laissons	-11.8327
Affaire	-11.833
▁visites	-11.8332
▁trace	-11.8333
▁refusons	-11.8335
▁débuté	-11.8336
▁Rehn	-11.8336
▁nutrition	-11.8336
OMS	-11.8336
▁variable	-11.8336
▁tuer	-11.834
▁rapproche	-11.8342
▁renforcés	-11.8344
gel	-11.8349
▁isolé	-11.835
▁capture	-11.8353
▁jeté	-11.8353
▁votée	-11.8353
▁chocolat	-11.8356
▁confirmation	-11.8356
intéressent	-11.836
▁verser	-11.8361
▁africain	-11.8362
▁rejetés	-11.8363
▁conservé	-11.8365
▁refonte	-11.8366
expertise	-11.8371
▁Bâle	-11.8376
▁envisageable	-11.8377
▁racistes	-11.8384
▁bénéficieront	-11.8386
▁souveraine	-11.8386
▁parviendra	-11.8388
Arctique	-11.8396
aligner	-11.8396
▁horrible	-11.8399
▁averti	-11.8401
▁internet	-11.8403
▁additifs	-11.8405
ats	-11.8408
▁plafonds	-11.8408
▁concertée	-11.8413
extrémisme	-11.8416
intelligence	-11.8416
▁reconstruire	-11.8416
▁José	-11.8416
▁fragmentation	-11.8416
étiquette	-11.8416
▁apte	-11.8417
▁réunification	-11.8417
▁supposer	-11.8421
▁prétendent	-11.8421
▁multilatérales	-11.843
▁substantiel	-11.8431
▁inutilement	-11.8432
▁envie	-11.8432
▁souhaitait	-11.8433
▁coordonné	-11.8434
▁situées	-11.8434
▁PNR	-11.8436
▁autoritaire	-11.8436
▁boîte	-11.8436
▁imputable	-11.8436
▁commettre	-11.8436
employeur	-11.8441
▁transparents	-11.8442
);	-11.8443
▁occupé	-11.8446
arc	-11.8449
▁symboles	-11.845
▁Do	-11.8451
▁lacune	-11.8453
▁prévaloir	-11.8456
▁mentalité	-11.8456
▁acquérir	-11.8457
▁inconvénients	-11.8457
▁précisions	-11.8457
▁pères	-11.8459
▁Justice	-11.8461
▁tués	-11.8464
ennemi	-11.8467
œ	-11.8471
▁géré	-11.8472
explication	-11.8472
▁choc	-11.8475
▁réfugié	-11.8475
▁désolé	-11.8475
▁atomique	-11.8476
▁radioactifs	-11.8476
▁éducatifs	-11.8477
▁saisis	-11.848
▁Kar	-11.8483
indice	-11.8486
▁directions	-11.8486
SL	-11.8487
enveloppe	-11.8493
▁nommer	-11.8495
▁IND	-11.8496
▁Loukachenko	-11.8496
▁biomasse	-11.8496
▁penché	-11.8496
livraison	-11.8496
▁injustifiée	-11.8499
▁apprécier	-11.8503
éclair	-11.8509
▁jalon	-11.851
▁décident	-11.8511
▁facilite	-11.8512
▁transmises	-11.8513
▁échapper	-11.8515
▁rupture	-11.8517
▁réaffirmé	-11.8517
▁limitations	-11.8518
▁guide	-11.8521
ange	-11.8526
▁excessivement	-11.8527
▁vétérinaires	-11.8532
étonne	-11.8536
▁autrefois	-11.8537
▁hostile	-11.8537
▁veillant	-11.8537
▁équipé	-11.8537
▁km	-11.8537
arrête	-11.8537
▁père	-11.8538
her	-11.8539
ost	-11.854
▁comprise	-11.854
▁inscrire	-11.8541
▁religions	-11.8542
▁conjoints	-11.8548
▁clôture	-11.8551
▁orales	-11.8553
commission	-11.8554
▁machine	-11.8556
▁aperçu	-11.8557
▁liquide	-11.8557
▁ralentissement	-11.8557
DC	-11.856
▁criminelle	-11.8564
▁relâche	-11.8567
▁indication	-11.8568
▁domestique	-11.8576
▁couvrent	-11.8576
▁armateurs	-11.8578
▁catholique	-11.8578
▁enfreint	-11.8578
▁entraînant	-11.8578
▁incorporé	-11.8578
▁insensé	-11.8578
▁pont	-11.8579
estimation	-11.858
accomplissement	-11.8583
outil	-11.8584
▁invitée	-11.8586
▁quo	-11.8586
▁menacer	-11.8596
are	-11.8597
▁laitier	-11.8598
expiration	-11.8598
▁Chypriotes	-11.8598
▁craignent	-11.8598
▁séminaire	-11.8598
▁Herman	-11.8598
endettement	-11.8599
▁tendre	-11.8601
▁recouvrement	-11.8601
▁privilégier	-11.8601
fait	-11.8607
▁viables	-11.8613
▁David	-11.8619
▁drastique	-11.8619
▁végétales	-11.8619
▁Mart	-11.8624
▁affiche	-11.8624
▁accroît	-11.8625
ann	-11.8629
▁traitant	-11.8632
▁examinera	-11.8632
▁Accord	-11.8634
▁quartier	-11.8634
▁serve	-11.8635
▁élue	-11.8635
▁conservateur	-11.8638
▁maître	-11.8639
▁facto	-11.8639
▁amenés	-11.864
▁parcours	-11.8641
tives	-11.8646
▁intensité	-11.8654
▁déterminante	-11.8657
▁individu	-11.8659
▁Madère	-11.866
▁introduisant	-11.866
▁couleur	-11.866
▁catégoriquement	-11.8662
▁enveloppe	-11.8663
▁exécutions	-11.8665
étal	-11.8672
▁poursuivis	-11.8674
▁allié	-11.8674
oubli	-11.8676
▁harmonisées	-11.8678
▁modestes	-11.8679
▁terr	-11.8679
▁irakienne	-11.868
appuyant	-11.868
▁impatient	-11.868
▁él	-11.8683
▁Sri	-11.8686
ajout	-11.8688
▁productive	-11.8694
▁censé	-11.8694
▁diplômes	-11.8695
▁excessifs	-11.8696
▁prudents	-11.8697
▁laissée	-11.87
▁catastrophique	-11.87
▁contradictoire	-11.87
▁Finances	-11.8701
▁Fondation	-11.8701
▁PNB	-11.8701
▁attaqué	-11.8701
▁demandait	-11.8701
▁Gonz	-11.8701
ncide	-11.8703
▁reçues	-11.8709
ien	-11.871
▁exempt	-11.8711
▁résume	-11.8711
yn	-11.8713
insuffisance	-11.872
alors	-11.8721
▁précaire	-11.8721
▁éducatif	-11.8721
▁comptable	-11.8721
▁Venezuela	-11.8721
▁trafiquants	-11.8721
▁Robert	-11.8722
▁licenciés	-11.8722
mme	-11.8728
hiver	-11.8729
▁heurt	-11.8733
▁supérieurs	-11.8737
vin	-11.8738
▁intra	-11.8741
▁interdite	-11.8741
aggravation	-11.8742
insérer	-11.8743
logique	-11.8743
▁associées	-11.8743
▁forcer	-11.8744
▁discutée	-11.8753
▁défenseur	-11.876
opérer	-11.8762
illusion	-11.8763
▁Secrétaire	-11.8763
▁étonné	-11.8763
▁coordinateur	-11.8763
oreille	-11.8763
▁horaires	-11.8764
ambassadeur	-11.8764
▁mus	-11.8767
▁vendu	-11.8769
▁durer	-11.8773
▁marques	-11.8773
▁fière	-11.8773
▁révèlent	-11.8775
▁généralisée	-11.8775
▁grecques	-11.8776
▁and	-11.8779
eg	-11.878
▁bal	-11.8781
▁dimanche	-11.8784
▁foyer	-11.8784
▁conçue	-11.8785
▁captures	-11.8787
zi	-11.879
▁phases	-11.8791
▁comportent	-11.8793
▁appliquant	-11.8794
▁reconnaissante	-11.8796
▁vaccin	-11.8801
espérance	-11.8803
Angola	-11.8805
▁interprètes	-11.8805
▁souterraines	-11.8807
ivité	-11.8807
▁attribué	-11.8809
▁reporté	-11.8809
▁charger	-11.8815
▁sexuelles	-11.8818
▁tombé	-11.8819
▁champs	-11.8821
▁villages	-11.8824
▁éradiquer	-11.8824
▁varié	-11.8825
▁restrictive	-11.8826
▁roumain	-11.8826
▁tangible	-11.8826
▁remplissent	-11.8827
tic	-11.8831
▁idéologie	-11.8831
émettre	-11.8831
▁accueil	-11.8832
▁sépare	-11.8834
AN	-11.8835
▁Malm	-11.8835
ala	-11.8837
▁bat	-11.8842
ozone	-11.8842
immigrants	-11.8843
▁Chinois	-11.8846
▁couvertes	-11.8851
▁contribuerait	-11.8853
Jeunesse	-11.8857
▁octroyée	-11.8859
▁génère	-11.8861
▁suivies	-11.8863
▁réussie	-11.8863
▁sanctionner	-11.8868
▁divisions	-11.887
▁prétendu	-11.8871
▁offres	-11.8881
▁inférieurs	-11.8882
invasion	-11.8888
appréciation	-11.889
▁limitent	-11.8897
nov	-11.8901
▁persiste	-11.8908
▁Barrot	-11.8909
▁redistribution	-11.8909
▁chantage	-11.8911
▁adoptera	-11.8911
▁bombes	-11.8917
cadres	-11.8925
▁décevant	-11.8927
▁veuille	-11.8928
▁Ligue	-11.893
▁écart	-11.8936
▁pourrez	-11.8937
ovi	-11.894
adéquation	-11.894
▁exacte	-11.8941
▁pervers	-11.8942
▁contr	-11.8945
▁composantes	-11.8949
▁écrasante	-11.8951
▁néo	-11.8951
approfondir	-11.8954
▁assortie	-11.8957
écr	-11.8962
▁Euratom	-11.8965
écri	-11.8967
▁Troisième	-11.8969
▁bleu	-11.8969
▁encouragent	-11.8971
▁Séville	-11.8973
▁Lanka	-11.8973
▁Côte	-11.8973
▁Algérie	-11.8973
▁prononcés	-11.8974
▁pièce	-11.8974
▁substantiels	-11.8976
▁fermé	-11.8976
▁substantielles	-11.8977
▁dépendre	-11.8979
▁facilitera	-11.8982
▁trouvera	-11.8982
▁tourné	-11.8988
▁débouche	-11.8991
incohérence	-11.8994
▁contourner	-11.8994
▁gamme	-11.8994
▁valorisation	-11.8994
▁Force	-11.8996
islam	-11.8997
▁améliorent	-11.9003
▁secondes	-11.9006
▁carences	-11.9007
▁assis	-11.901
Église	-11.9015
▁semences	-11.9015
▁agisse	-11.9015
▁concurrentielle	-11.9018
▁dégage	-11.9019
▁luttent	-11.9019
▁issues	-11.902
▁pan	-11.9021
avèrent	-11.9023
▁contenue	-11.9024
audition	-11.903
▁Prenons	-11.9037
▁gardienne	-11.9038
▁intervient	-11.9041
▁terrestres	-11.9043
allons	-11.9048
▁ménages	-11.9053
lig	-11.9054
adapt	-11.9054
▁souverains	-11.9054
alléger	-11.9055
considér	-11.9058
▁Laissez	-11.9058
habillement	-11.9059
▁apportant	-11.9062
ef	-11.9062
▁perpétrés	-11.9064
berg	-11.9065
▁menant	-11.9065
▁défauts	-11.9066
▁rallier	-11.9067
▁visité	-11.9067
culture	-11.9069
▁quotidiennement	-11.9071
▁défendue	-11.9074
▁conduira	-11.9078
▁cherchons	-11.9079
▁modulation	-11.9079
▁pesant	-11.908
échanges	-11.908
▁visibles	-11.909
jacent	-11.9093
▁étranger	-11.9098
▁Florence	-11.9101
▁Fontaine	-11.9101
▁témoignage	-11.9101
▁suspect	-11.9104
▁préparés	-11.9105
▁disposerons	-11.9106
▁hôpitaux	-11.9112
▁collectivités	-11.9112
parti	-11.9114
équipements	-11.9116
sol	-11.9118
isées	-11.9121
envisage	-11.9121
Ivoire	-11.9122
afflux	-11.9122
▁Annan	-11.9122
▁Crespo	-11.9122
▁McCreevy	-11.9122
▁Prestige	-11.9122
▁domination	-11.9122
▁évite	-11.9124
▁privilèges	-11.9124
▁financée	-11.9128
▁tue	-11.9141
incinération	-11.9144
▁Delors	-11.9144
▁Kurdes	-11.9144
▁sollicité	-11.9144
sens	-11.9145
outre	-11.9145
▁jusque	-11.9146
▁synergie	-11.9147
▁tissu	-11.9147
ita	-11.9151
▁forums	-11.9156
▁populaires	-11.9157
ood	-11.9158
▁confirmée	-11.916
essaye	-11.9163
▁jugés	-11.9165
ysfonctionnement	-11.9165
▁référer	-11.9165
▁limitant	-11.9167
▁fournira	-11.9169
▁entité	-11.9172
▁félicité	-11.9173
acquitter	-11.9182
▁résolues	-11.9184
▁ressenti	-11.9186
▁ciblé	-11.9187
assainissement	-11.9187
▁antibiotiques	-11.9187
▁annulé	-11.9187
▁race	-11.9189
▁incitations	-11.9189
▁inspiré	-11.9191
▁violé	-11.9194
▁moindres	-11.92
▁hypothèse	-11.9202
ves	-11.9204
▁expansion	-11.9207
aurai	-11.9207
▁augmentations	-11.9208
▁Tchad	-11.9209
▁transplantation	-11.9209
▁Bonino	-11.9209
nisme	-11.9209
▁croître	-11.9209
▁créées	-11.921
▁Rio	-11.9211
▁prudent	-11.9212
▁interdisant	-11.9212
▁excès	-11.9214
émen	-11.9216
▁oppose	-11.9217
ric	-11.9221
gro	-11.9223
▁prouvent	-11.9227
▁massacres	-11.9227
▁conclurai	-11.9228
▁radicaux	-11.9231
▁refuge	-11.9231
▁Socrates	-11.9231
ingérence	-11.9236
épidémie	-11.9236
Russie	-11.9236
▁incapacité	-11.9238
▁traditionnel	-11.9239
▁allouées	-11.9245
élèvent	-11.9247
▁guidé	-11.925
excédent	-11.9251
ANASE	-11.9252
▁Açores	-11.9252
▁hâte	-11.9252
amitié	-11.9252
▁fournisseur	-11.9257
▁appauvri	-11.9257
▁abandonné	-11.926
▁cohérentes	-11.9261
▁prier	-11.9264
▁infligé	-11.9267
▁potentielles	-11.9268
▁épidémie	-11.9269
▁condamnations	-11.9272
▁vigilants	-11.9274
Chrétiens	-11.9274
▁exportateurs	-11.9274
▁prévaut	-11.9274
ian	-11.9274
▁visiteurs	-11.9276
▁Nul	-11.9277
▁noble	-11.9277
▁contrer	-11.9277
▁évolue	-11.9278
▁protestation	-11.9279
▁conviendra	-11.9281
▁causer	-11.9282
abandonner	-11.9282
▁confiée	-11.9284
▁viole	-11.9288
▁sages	-11.9289
▁abstenus	-11.9289
▁prévoyait	-11.9296
▁suffrage	-11.9296
▁créative	-11.9296
▁faisabilité	-11.9297
▁vérifié	-11.9297
élite	-11.9299
▁borne	-11.93
achever	-11.9302
hypothèse	-11.9303
Helsinki	-11.9303
espérons	-11.9303
dou	-11.9308
▁militants	-11.931
▁espaces	-11.9315
interconnexion	-11.9317
▁choquant	-11.9318
▁frappant	-11.9318
BG	-11.9322
▁migrations	-11.9328
▁abordons	-11.9329
▁lancés	-11.9332
▁acheté	-11.9332
▁saper	-11.9334
▁restés	-11.9334
▁allocations	-11.9342
▁révélée	-11.9346
Com	-11.9346
▁bénéfiques	-11.9349
admission	-11.9349
▁évalué	-11.9352
incendie	-11.9361
embryon	-11.9361
▁rationalisation	-11.9362
▁continuellement	-11.9362
▁exploité	-11.9366
exclure	-11.937
▁portera	-11.9377
▁espagnoles	-11.9378
▁résultent	-11.9381
▁envisageons	-11.9381
▁incluses	-11.9382
▁restrictives	-11.9384
▁exécutive	-11.9384
▁récupérer	-11.9384
▁ladite	-11.9386
▁domestiques	-11.9386
▁homologues	-11.9387
▁Seuls	-11.9387
▁devenues	-11.9387
▁transeuropéen	-11.939
indication	-11.9392
▁remplies	-11.9399
▁Albanie	-11.9401
▁méthodologie	-11.9406
▁style	-11.9406
▁émane	-11.9407
▁thématique	-11.9412
▁postal	-11.9412
Indonésie	-11.9414
▁réservée	-11.9421
▁cosmétiques	-11.9425
▁autorisations	-11.9427
▁superflu	-11.9427
▁Velzen	-11.9428
▁photo	-11.9428
asseoir	-11.9428
▁empreintes	-11.9433
▁douaniers	-11.9438
▁dénonce	-11.944
▁trains	-11.9447
▁Johannesburg	-11.9451
▁susmentionné	-11.9451
▁Berg	-11.9452
ogau	-11.9454
▁exporté	-11.9457
▁entretenir	-11.9459
▁Eu	-11.9459
▁retrouvé	-11.946
interrompre	-11.9463
▁réunies	-11.9464
▁aille	-11.9465
▁appuie	-11.9469
▁fusions	-11.947
▁barbare	-11.9473
▁domicile	-11.9473
▁dorénavant	-11.9473
▁impasse	-11.9473
▁sincère	-11.9475
▁examinés	-11.9476
▁détour	-11.948
▁accompagner	-11.9482
▁interprété	-11.9486
▁cruciales	-11.9487
▁subit	-11.9487
activ	-11.9488
▁multiplication	-11.9495
▁naufrage	-11.9495
▁réception	-11.9495
européenne	-11.9495
▁Garc	-11.9497
▁Cox	-11.9497
▁Démocrates	-11.95
▁cré	-11.9505
▁alarmante	-11.9507
▁chaleur	-11.9517
Alzheimer	-11.9518
apprête	-11.9518
▁Belgrade	-11.9518
▁détachement	-11.9518
▁température	-11.9518
▁thérapeutique	-11.9518
▁restons	-11.9518
▁excessives	-11.952
▁signés	-11.952
▁déçus	-11.9521
observateur	-11.9524
africain	-11.9527
▁supprime	-11.9534
▁Kong	-11.9543
▁soutiendrai	-11.9543
▁passation	-11.9546
représentant	-11.955
atrices	-11.9554
▁tirent	-11.9554
▁massivement	-11.9554
▁sessions	-11.9556
çons	-11.9561
▁Medina	-11.9562
▁fédération	-11.9562
▁reconsidérer	-11.9562
▁malheureux	-11.9563
▁resté	-11.9563
▁censés	-11.9563
▁divisée	-11.9568
▁annexes	-11.957
▁contrôlé	-11.9572
▁régulières	-11.9574
▁incluse	-11.9579
▁Seconde	-11.9585
▁distinct	-11.9587
pour	-11.9588
dés	-11.9591
▁techniquement	-11.9592
▁créera	-11.9593
admettre	-11.9596
▁pratiquée	-11.96
▁attribuée	-11.9601
individu	-11.9604
inquiètent	-11.9604
▁choqué	-11.9608
▁renouveler	-11.9608
▁Galice	-11.9608
▁manquements	-11.9608
▁Tha	-11.961
▁form	-11.9614
▁intégralité	-11.9614
huit	-11.9619
▁jugements	-11.9621
▁iranienne	-11.9622
▁spécul	-11.9622
absorption	-11.963
Éthiopie	-11.963
▁Combien	-11.963
▁autorisant	-11.963
▁tarification	-11.9631
▁levier	-11.9632
▁négociateurs	-11.964
épreuve	-11.9641
invitation	-11.9641
impulsion	-11.9641
eh	-11.9643
aliment	-11.9645
▁indemnisation	-11.9649
▁Act	-11.965
ignorer	-11.9651
▁Lulling	-11.9653
▁marocain	-11.9653
▁provocation	-11.9653
▁Nouvelle	-11.9653
▁retombées	-11.9653
▁huis	-11.9654
observateurs	-11.9656
éclaircissements	-11.9658
▁composent	-11.966
▁passeports	-11.9666
▁émett	-11.9667
▁coups	-11.9668
▁blessures	-11.9669
▁néolibérale	-11.9669
▁défavorisés	-11.9671
attarder	-11.9676
INI	-11.9678
ada	-11.9679
emporte	-11.9685
amender	-11.9693
▁résidus	-11.9694
▁ravis	-11.9695
▁Byrne	-11.9698
▁Oostlander	-11.9698
▁déplorons	-11.9698
▁plomb	-11.9698
▁fondés	-11.9703
▁formulés	-11.9703
▁forcés	-11.9704
▁coordonnées	-11.9705
▁balle	-11.9708
▁représentée	-11.9708
améliore	-11.971
ssait	-11.9713
▁dignes	-11.9715
▁dates	-11.9717
coup	-11.9721
▁respectivement	-11.9721
▁libéraliser	-11.9722
dant	-11.9723
arme	-11.9725
▁fondamentalisme	-11.9728
▁solaire	-11.9728
▁ingérence	-11.9738
▁sanctionné	-11.9739
▁libéralisé	-11.9741
cle	-11.9743
▁minimiser	-11.9747
▁suscitent	-11.9761
▁mènera	-11.9761
▁augmentera	-11.9763
▁connexes	-11.9763
▁reproduire	-11.9767
▁suivons	-11.9767
▁abstention	-11.9767
▁immédiates	-11.9768
▁mètres	-11.9768
▁enregistre	-11.9771
▁arrêtées	-11.9774
▁survenue	-11.9778
atteindr	-11.9781
agirait	-11.9781
▁inconditionnel	-11.9784
▁Gauche	-11.9788
indignation	-11.979
▁Kazakhstan	-11.979
▁discrédit	-11.979
▁fatal	-11.9791
munitions	-11.9792
▁gestionnaires	-11.9792
▁héritage	-11.9795
ature	-11.9797
▁sauvage	-11.9799
▁protégé	-11.98
▁annoncée	-11.9803
▁impliquée	-11.9805
habituel	-11.9811
▁Cologne	-11.9813
▁Mulder	-11.9813
▁Nielson	-11.9813
▁achètent	-11.9813
▁élèves	-11.9816
▁désirent	-11.9818
▁farines	-11.9822
▁unilatéralement	-11.9822
▁rappelons	-11.9823
▁plaider	-11.983
▁poursuive	-11.983
▁portait	-11.9832
▁régulateurs	-11.9833
empreinte	-11.9834
▁homogène	-11.9836
▁apprécions	-11.9836
égal	-11.984
▁expose	-11.9841
▁étroits	-11.9844
▁comprendrez	-11.9846
▁multiplier	-11.9848
▁profité	-11.985
pêche	-11.9851
▁accusés	-11.9854
▁coque	-11.9858
opérateur	-11.9859
▁médecin	-11.9859
▁qualitative	-11.9859
▁rectifier	-11.9859
uses	-11.9865
▁sine	-11.9866
▁fausses	-11.9871
▁équivalente	-11.9872
▁Européen	-11.9872
▁favorisent	-11.9873
▁tournée	-11.9879
▁imposés	-11.9881
▁bafoué	-11.9882
▁visait	-11.9883
enlèvement	-11.9883
▁définissant	-11.9884
▁aigu	-11.9885
istique	-11.9886
garde	-11.9888
▁fragiles	-11.9893
▁Pré	-11.9894
rio	-11.9899
▁feraient	-11.9903
▁écarté	-11.9905
▁Golfe	-11.9906
▁complémentarité	-11.9906
▁efforçons	-11.9906
▁Nobel	-11.9906
▁mûr	-11.9906
▁convenablement	-11.9909
▁enrichi	-11.9912
▁raisonnablement	-11.9913
▁développent	-11.9921
▁artificielle	-11.9927
▁ère	-11.9927
▁confirment	-11.9928
▁consul	-11.9929
▁curieux	-11.9929
▁métier	-11.9929
▁pluri	-11.9929
▁coton	-11.9931
extraction	-11.9931
▁sains	-11.9936
▁incertitudes	-11.9936
▁accrues	-11.9938
▁inhérent	-11.9939
▁électrique	-11.9939
▁violents	-11.9942
▁pénaliser	-11.9946
▁revêtir	-11.9949
▁italiennes	-11.9952
▁Mandelson	-11.9952
▁soudanais	-11.9952
▁donnerait	-11.9953
amende	-11.9953
amour	-11.9957
▁fonctionnaire	-11.9964
plan	-11.997
▁secondaires	-11.9974
▁remporté	-11.9976
▁honorable	-11.9976
▁comm	-11.9976
▁achats	-11.9979
▁bulgare	-11.9987
▁évalue	-11.999
▁exhaustif	-11.9999
▁génésique	-11.9999
▁conversion	-11.9999
▁opèrent	-11.9999
organismes	-12
orienter	-12
▁incitants	-12.0003
▁chrétienne	-12.0011
▁Explication	-12.0023
▁décret	-12.0023
Islam	-12.0023
▁chauffage	-12.0023
▁écossais	-12.0025
▁exagéré	-12.0031
▁évaluée	-12.0036
▁centralisée	-12.0036
▁Programme	-12.0038
▁dépassée	-12.0044
chev	-12.0044
Behrendt	-12.0046
▁dioxine	-12.0046
▁Rothley	-12.0047
▁éprouvent	-12.0048
▁citoyennes	-12.0053
▁intelligents	-12.0056
▁distingue	-12.0063
institut	-12.0068
océan	-12.0069
▁lobby	-12.0069
▁patron	-12.007
existent	-12.0071
▁agro	-12.0071
▁délégués	-12.0073
▁rat	-12.0077
▁conclut	-12.0078
▁complètes	-12.0083
▁marine	-12.0084
▁contrôlés	-12.0088
▁spécialisés	-12.009
▁Merkel	-12.0094
▁polémique	-12.0094
▁protégeant	-12.0094
▁affectant	-12.0094
▁CIA	-12.0094
▁record	-12.0094
▁anglaise	-12.0094
▁vienne	-12.0096
▁structuré	-12.0097
▁nets	-12.0099
▁innovants	-12.0102
▁quoique	-12.0103
▁visés	-12.0107
accumul	-12.011
▁assurent	-12.0112
▁volontairement	-12.0113
▁sape	-12.0114
▁instants	-12.0116
instruction	-12.0116
▁confédéral	-12.0117
▁Ad	-12.0121
▁pratiqué	-12.0124
▁punir	-12.0126
employ	-12.0126
▁idéologiques	-12.0126
excuse	-12.0129
amin	-12.013
▁étudie	-12.0131
▁sectorielles	-12.0133
▁enceintes	-12.0134
idéologie	-12.0135
▁chancelier	-12.0141
▁indifférent	-12.0141
▁trahi	-12.0141
▁culte	-12.0142
▁avertissement	-12.0146
▁mine	-12.0147
▁intitulée	-12.0159
▁clubs	-12.0162
▁Cardiff	-12.0165
▁Obama	-12.0165
▁généreux	-12.0165
▁madame	-12.0165
▁rebelles	-12.0165
▁équivaut	-12.0165
▁Evans	-12.0165
▁affirmation	-12.0167
▁montrée	-12.017
éno	-12.017
▁asiatiques	-12.0171
▁harmonisée	-12.0174
▁chinoise	-12.0178
▁antérieure	-12.0178
▁sports	-12.0179
▁blocs	-12.018
▁convaincante	-12.0181
productif	-12.0183
Nous	-12.0185
interroger	-12.0188
▁automne	-12.0188
▁Hélas	-12.0189
duction	-12.019
▁reviennent	-12.0193
héritage	-12.0208
▁privilégiée	-12.0211
▁tunisien	-12.0213
▁désertification	-12.0213
▁déclarant	-12.0215
▁visé	-12.0217
▁exporter	-12.0219
▁Jan	-12.0219
▁dépourvu	-12.022
▁persistent	-12.022
fondé	-12.0221
▁alarmant	-12.0224
alisme	-12.0226
▁chantier	-12.0226
▁EUR	-12.0227
▁réaffirme	-12.0231
UCLAF	-12.0237
▁Kyi	-12.0237
▁Rappelons	-12.0237
▁mécontentement	-12.0238
▁israéliens	-12.0238
▁courir	-12.0239
▁vigoureusement	-12.024
▁transposée	-12.024
▁manger	-12.0241
cent	-12.0243
▁ratifiée	-12.0246
▁autonomes	-12.0251
▁retirée	-12.0252
▁initiales	-12.0252
exerce	-12.0257
étonner	-12.0261
▁continents	-12.0261
▁Mauritanie	-12.0261
Ankara	-12.0261
▁colère	-12.0262
▁revu	-12.0264
attire	-12.0265
▁Unies	-12.0266
▁lancées	-12.0267
▁loisir	-12.0269
▁divergent	-12.027
▁lourdement	-12.0273
▁battu	-12.0276
▁finlandais	-12.028
▁renonce	-12.0284
▁indigènes	-12.0284
▁meurt	-12.0284
Plath	-12.0285
officier	-12.0285
▁Bangladesh	-12.0285
▁libellé	-12.0285
▁modération	-12.0285
apparente	-12.0285
édulcor	-12.0285
▁entrant	-12.0288
old	-12.03
▁meurtres	-12.0302
▁débloqu	-12.0303
amener	-12.0305
▁drapeau	-12.0309
▁soudain	-12.0309
Ouzbékistan	-12.031
▁contraindre	-12.0312
▁intégrant	-12.0313
▁rive	-12.0314
▁trompeuse	-12.0315
▁débit	-12.0315
▁régi	-12.0321
▁facture	-12.0324
▁sois	-12.0325
▁pêcher	-12.0328
▁décidées	-12.033
▁perdus	-12.0332
opposant	-12.0333
▁bombard	-12.0334
▁Récemment	-12.0334
▁hiérarchie	-12.0334
▁nordiques	-12.0334
▁poche	-12.0335
opère	-12.0335
▁procurer	-12.0336
▁préférer	-12.0338
▁coûté	-12.0339
▁Écofin	-12.0341
▁pain	-12.0341
ust	-12.0353
▁Bourlanges	-12.0358
▁corrompu	-12.0358
▁croyance	-12.0358
▁dénomination	-12.0358
ld	-12.0359
▁détourner	-12.0359
bert	-12.0363
▁opérant	-12.0364
▁nouveauté	-12.0366
▁préside	-12.0367
▁concentrations	-12.0371
ète	-12.0373
▁tromper	-12.0382
▁Randzio	-12.0383
▁générosité	-12.0383
▁mourir	-12.0383
▁résoudra	-12.0383
▁civique	-12.0383
▁Bonn	-12.0383
▁universitaires	-12.0383
▁proactive	-12.0383
▁préalablement	-12.0384
▁superflue	-12.0384
▁Suu	-12.0387
▁Dell	-12.039
▁touristiques	-12.0392
▁Britanniques	-12.0394
clés	-12.0398
▁bénéficiera	-12.0399
▁examinerons	-12.04
▁empêchant	-12.0407
▁mesdames	-12.0407
▁enchères	-12.0407
▁géant	-12.0407
▁douce	-12.0407
▁donneurs	-12.0408
dans	-12.0408
▁grossesse	-12.0409
▁formalités	-12.041
▁égo	-12.041
▁consultés	-12.0411
▁combinée	-12.0414
essor	-12.0415
▁titulaires	-12.0415
▁sensé	-12.0417
▁provoquent	-12.0417
▁épreuve	-12.042
olf	-12.0421
och	-12.0424
▁mérites	-12.0431
▁persécuté	-12.0432
▁soixante	-12.0432
▁Langen	-12.0433
▁rassemblé	-12.0433
value	-12.0435
inscrivent	-12.0436
▁présider	-12.044
▁orienter	-12.0441
▁applaudi	-12.0441
▁biométriques	-12.0443
▁accélérée	-12.0444
▁monter	-12.0444
▁bombe	-12.0447
▁scolaires	-12.0451
▁Peu	-12.0451
politique	-12.0454
Kong	-12.0454
▁supposé	-12.0456
pel	-12.0456
▁irréversible	-12.0456
▁vôtre	-12.0456
▁opté	-12.0456
enquêter	-12.046
▁Cro	-12.0462
▁albanais	-12.0464
▁dixième	-12.0465
▁formules	-12.0465
▁logements	-12.0469
▁levé	-12.0471
érie	-12.0475
européen	-12.0479
▁dilemme	-12.0481
▁idéaux	-12.0481
▁influencé	-12.0481
▁égyptien	-12.0481
▁rendues	-12.0483
▁cents	-12.0484
indi	-12.0485
ack	-12.0485
▁conseillers	-12.0486
eign	-12.0491
▁consolidée	-12.0492
▁profitera	-12.0498
▁Ru	-12.0498
envergure	-12.0504
▁sembler	-12.0505
▁induit	-12.0505
▁répétition	-12.0506
▁machines	-12.0508
▁dommageable	-12.0508
▁intelligent	-12.0515
▁indien	-12.0516
▁convenus	-12.0517
bour	-12.0519
▁rentables	-12.0522
▁parlez	-12.0528
parlementaire	-12.0529
▁unifiée	-12.0529
▁Polonais	-12.053
▁servant	-12.053
▁cohérents	-12.0532
▁arrestations	-12.0532
offrent	-12.0538
▁varient	-12.0539
▁exercées	-12.0546
▁foyers	-12.0555
▁présumé	-12.0555
▁domine	-12.0555
aventure	-12.0556
▁réduisent	-12.0557
▁énergiquement	-12.0561
▁élabore	-12.0566
▁néfaste	-12.0571
▁globales	-12.0574
▁occupée	-12.0575
▁Trop	-12.0581
▁promouvant	-12.0581
ndez	-12.0582
avantages	-12.0584
▁autobus	-12.0588
▁visiblement	-12.0588
▁cibles	-12.0591
▁belges	-12.0597
▁réorganisation	-12.0601
Etat	-12.0603
▁dictatures	-12.0604
▁boycott	-12.0605
▁constituant	-12.0605
▁découplage	-12.0605
▁radiodiffusion	-12.0605
▁chaud	-12.0605
annuler	-12.0605
▁prononcées	-12.0606
uch	-12.0608
▁distribuer	-12.0608
▁traversons	-12.0612
ical	-12.0613
▁inadéquate	-12.0614
▁Ford	-12.0614
EP	-12.0614
▁accordent	-12.0614
▁réunit	-12.0617
▁violente	-12.0617
▁constituée	-12.0617
▁désastreuses	-12.0617
▁informatique	-12.0622
▁issu	-12.0623
▁échéances	-12.0624
imagination	-12.063
▁Coelho	-12.063
▁subsistance	-12.063
▁fameuse	-12.063
▁réitéré	-12.063
▁normales	-12.0636
▁bis	-12.0639
▁Mal	-12.0643
▁rende	-12.0644
▁fréquence	-12.0647
▁incompatible	-12.0647
utilisateur	-12.0654
▁quatorze	-12.0655
▁théâtre	-12.0655
▁timide	-12.0655
▁atrocités	-12.0655
avocat	-12.0655
établi	-12.0665
▁affirmations	-12.0669
▁améliorées	-12.067
▁remplacée	-12.0671
▁souhaitant	-12.0672
▁traverser	-12.0675
▁arrangements	-12.068
▁conditionnalité	-12.068
▁médiocre	-12.068
▁pandémie	-12.068
▁rapatriement	-12.068
▁adhéré	-12.068
▁arctique	-12.068
▁désastreux	-12.068
▁vendus	-12.068
▁Cinquièmement	-12.0681
▁supérieures	-12.0682
▁île	-12.0686
bel	-12.0686
▁couche	-12.0687
▁paraître	-12.0688
▁clôturer	-12.0688
▁honnêtement	-12.069
▁Va	-12.069
▁consisterait	-12.0696
gal	-12.0698
▁considérants	-12.0699
▁persécutions	-12.0701
▁interdictions	-12.0701
▁liaisons	-12.0703
▁interrogé	-12.0705
▁miracle	-12.0705
Athènes	-12.0705
arrache	-12.0706
rate	-12.0714
jacentes	-12.0714
▁expulsé	-12.0714
▁volets	-12.0715
▁démocrate	-12.0715
▁Canc	-12.0715
▁Am	-12.0722
▁refusant	-12.0723
▁correctes	-12.0724
▁octroyé	-12.0726
▁policiers	-12.0729
Honorable	-12.073
▁multilinguisme	-12.073
▁importateurs	-12.0731
▁interlocuteurs	-12.0731
interviens	-12.0731
▁armements	-12.0733
▁octroyés	-12.0738
fre	-12.0739
expériences	-12.0747
▁partagées	-12.0747
▁médicament	-12.0749
achève	-12.0752
indemnité	-12.0755
Association	-12.0756
▁inventions	-12.0757
▁Écosse	-12.0762
▁Pourriez	-12.0765
▁concession	-12.0768
▁accises	-12.0769
▁proie	-12.0771
▁améliorera	-12.0772
▁circonstance	-12.0774
annu	-12.0776
▁publiés	-12.0779
interprète	-12.078
▁trajet	-12.0781
▁clore	-12.0781
▁revers	-12.0785
▁souhaitée	-12.0795
▁éprouvé	-12.0798
▁objectives	-12.0801
▁Arafat	-12.0801
▁employer	-12.0803
▁monnaies	-12.0806
assentiment	-12.0807
▁Burundi	-12.0807
▁souffle	-12.0807
▁déchir	-12.0807
▁péage	-12.0808
▁leaders	-12.081
▁accumulé	-12.0813
tiens	-12.0814
▁condamnée	-12.0817
▁perpétré	-12.082
force	-12.0821
▁demandez	-12.0821
allis	-12.0822
▁grosses	-12.0822
rage	-12.0824
agriculteur	-12.0825
▁divergence	-12.0826
▁comprenne	-12.0826
▁préjugés	-12.0828
ado	-12.0828
incorporer	-12.0831
▁agressive	-12.0832
▁espéré	-12.0832
▁tsunami	-12.0832
▁réitère	-12.0832
atch	-12.0832
▁densité	-12.0832
▁désespoir	-12.0835
▁Soit	-12.0835
▁globalisation	-12.0836
▁plateforme	-12.0837
▁habituellement	-12.0838
▁protocoles	-12.0846
▁publiées	-12.0849
▁régul	-12.085
▁piège	-12.0851
▁négociée	-12.0858
▁poursuivons	-12.0858
▁représentative	-12.0858
▁substituer	-12.0858
avoue	-12.0859
▁inscrites	-12.0859
▁prendrons	-12.0864
▁tué	-12.0864
▁supranationale	-12.0864
▁déçue	-12.0866
▁assument	-12.0867
▁atout	-12.0871
▁occasionné	-12.0875
▁respectons	-12.0875
▁client	-12.0877
▁Guantanamo	-12.0883
▁réclamons	-12.0883
mir	-12.0885
▁Bel	-12.0885
Ab	-12.0891
▁recueilli	-12.0896
▁essaient	-12.0897
▁oiseaux	-12.0899
▁asiatique	-12.09
▁attachés	-12.0903
▁Nabucco	-12.0909
▁Népal	-12.0909
▁Schreyer	-12.0909
▁digitales	-12.0909
▁démanteler	-12.0909
▁tenais	-12.0909
▁lobbyistes	-12.0909
▁déloyales	-12.0914
ssaient	-12.0917
AT	-12.0921
▁rallie	-12.0924
PE	-12.0929
▁parental	-12.0929
▁ordres	-12.0931
estimé	-12.0933
▁libérés	-12.0933
▁pensais	-12.0935
assiette	-12.0935
▁conceptions	-12.0938
▁pareille	-12.0942
▁incertitude	-12.0942
▁séparer	-12.0942
▁remett	-12.0943
▁répartir	-12.0945
efforcent	-12.0949
▁interprétations	-12.095
ensuit	-12.0954
affecter	-12.0954
▁aident	-12.096
▁rétention	-12.0961
▁commençant	-12.0961
▁Sierra	-12.0961
▁interdites	-12.0962
attentat	-12.0965
▁nationalistes	-12.0966
the	-12.0967
▁Ant	-12.097
▁ferions	-12.0972
▁tranche	-12.0976
▁procédés	-12.0982
▁handicaps	-12.0982
▁Juncker	-12.0987
▁commençons	-12.0987
▁venait	-12.0987
▁Karas	-12.0988
▁Air	-12.0988
▁divergentes	-12.0995
▁quantitative	-12.0995
▁Rapporteur	-12.0997
▁unanimement	-12.1001
namo	-12.1004
▁recueille	-12.1004
▁côtière	-12.1007
▁élaborés	-12.1012
▁réussites	-12.1012
▁Chirac	-12.1012
▁déclenché	-12.1012
illusions	-12.1013
▁usé	-12.1015
éloge	-12.1017
▁consister	-12.1018
▁attitudes	-12.1025
▁chrétiennes	-12.1027
▁Sal	-12.1029
esse	-12.1034
erreurs	-12.1034
carton	-12.1035
vez	-12.1036
▁négocie	-12.1037
▁exprimant	-12.1038
▁Collège	-12.1039
▁cherchant	-12.1039
▁suicide	-12.1039
enrichissement	-12.104
amiante	-12.104
▁conjointes	-12.1041
▁liquidités	-12.1041
▁supporté	-12.1041
affaiblissement	-12.1042
▁sévèrement	-12.1045
▁cabinet	-12.1046
▁morales	-12.1051
▁massives	-12.1051
▁appelant	-12.1059
▁énumér	-12.1061
▁professeurs	-12.1062
▁APE	-12.1064
▁récurrent	-12.1065
▁Allemands	-12.1065
éventuelles	-12.1065
▁emballages	-12.1066
▁fonctionnera	-12.1067
▁pétrolières	-12.1077
▁impérialistes	-12.1079
▁calculs	-12.108
▁déploie	-12.1087
américain	-12.1088
▁incontournable	-12.1091
▁tchétchène	-12.1091
▁trouvant	-12.1091
▁percevoir	-12.1091
▁redonner	-12.1092
▁proposez	-12.1096
▁diffèrent	-12.1097
▁informatiques	-12.11
▁impressionnant	-12.1101
cho	-12.1103
▁freiner	-12.1103
▁confiant	-12.1104
tta	-12.1105
▁rigoureuses	-12.1109
bli	-12.1116
▁chronique	-12.1117
▁croate	-12.1117
▁globaux	-12.1117
▁observons	-12.1117
▁rattraper	-12.1117
isoler	-12.1117
▁canaux	-12.1117
▁dopage	-12.1117
▁caisse	-12.1117
▁révél	-12.1119
▁banc	-12.1119
▁Guant	-12.1124
▁dotés	-12.1129
▁bus	-12.1131
▁laps	-12.1135
▁obtenues	-12.1139
▁versement	-12.114
Amnesty	-12.1143
mmunautarisation	-12.1143
▁antipersonnel	-12.1143
▁codification	-12.1143
▁persuadée	-12.1144
▁panel	-12.1146
▁possédant	-12.1148
▁Pi	-12.1151
▁pénalisé	-12.1152
▁éloignées	-12.1153
▁Liste	-12.1154
▁consolidé	-12.1158
▁situent	-12.1159
venu	-12.1159
▁saines	-12.1163
▁trou	-12.1163
▁différend	-12.1166
▁délocalis	-12.1168
▁artistique	-12.117
▁sécuritaire	-12.117
▁saumon	-12.117
▁basse	-12.1175
▁occidentales	-12.1178
▁médicales	-12.1184
▁souhaiterait	-12.1185
▁thématiques	-12.119
▁CECA	-12.1191
▁peau	-12.1191
▁désirons	-12.1192
leur	-12.1193
▁intellectuel	-12.1193
▁collaboré	-12.1196
▁Fern	-12.1196
▁nuisibles	-12.1199
▁bourses	-12.1204
▁feux	-12.1204
démocrate	-12.1207
▁diviser	-12.1208
▁Indonésie	-12.1213
▁miné	-12.1213
uit	-12.1213
▁perturb	-12.1218
COS	-12.122
thérapie	-12.1223
▁doctrine	-12.1223
▁détresse	-12.1223
▁complice	-12.1223
▁étiez	-12.1224
▁amont	-12.1224
▁reconnaissants	-12.1225
illi	-12.1226
▁transmise	-12.123
obstacles	-12.1234
▁bonnement	-12.1237
▁lente	-12.1238
nage	-12.1239
▁supprimée	-12.1243
▁roms	-12.1245
▁Seul	-12.1248
hom	-12.1248
▁croyez	-12.1249
▁prenions	-12.1249
▁joins	-12.1249
▁acceptant	-12.1249
▁touchée	-12.1253
Les	-12.1255
▁interroger	-12.1256
incident	-12.1257
position	-12.126
▁intervenue	-12.1267
▁admissible	-12.1276
▁cotisations	-12.1276
▁réformateurs	-12.1276
▁facilitation	-12.1277
▁enlevé	-12.1277
▁causée	-12.1279
▁impôt	-12.128
part	-12.1283
ibilité	-12.1288
▁chat	-12.1288
▁préliminaire	-12.13
▁Florenz	-12.1303
▁Seattle	-12.1303
▁segment	-12.1303
▁Question	-12.1306
ynn	-12.1306
disproportionnée	-12.1307
▁emprunter	-12.1312
▁anticipée	-12.1314
▁Bali	-12.1314
Qu	-12.1315
▁échouer	-12.1316
▁aspire	-12.1317
échappe	-12.132
▁décourager	-12.1322
▁orienté	-12.1323
▁extraordinaires	-12.1325
▁maire	-12.1326
▁mouton	-12.1326
▁subventionné	-12.1327
circuit	-12.133
▁Buiten	-12.133
▁proclamé	-12.133
▁particules	-12.133
impuissance	-12.133
▁illicites	-12.133
▁douteuse	-12.133
▁prolongement	-12.1332
▁versions	-12.1333
▁mienne	-12.1338
▁envoyés	-12.1339
▁sacrifices	-12.1342
Je	-12.1343
▁épouvantable	-12.1346
▁films	-12.1347
▁sectoriel	-12.1348
▁emploie	-12.135
▁placement	-12.135
▁traversent	-12.1352
▁convenable	-12.1352
▁requêtes	-12.1354
▁rémunéré	-12.1354
▁réticence	-12.1354
▁affront	-12.1354
▁deviendront	-12.1356
▁primauté	-12.1356
▁précarité	-12.1356
▁appréciable	-12.1356
▁contracté	-12.1358
▁ira	-12.1359
▁suspendu	-12.1363
▁arbitraires	-12.1363
▁rendons	-12.1365
▁graduelle	-12.1367
▁approfondies	-12.1369
exister	-12.138
ny	-12.1381
▁totalitaire	-12.1381
▁génériques	-12.1381
▁encouragera	-12.1383
▁bébé	-12.1383
▁divorce	-12.1383
▁douloureuse	-12.1383
▁piraterie	-12.1383
objectivité	-12.1383
▁instable	-12.1384
▁coûteuse	-12.1384
stes	-12.1385
▁Demain	-12.1385
▁octroie	-12.1386
▁craint	-12.1388
▁élaborées	-12.1391
ssement	-12.1393
exposer	-12.1393
admets	-12.1402
▁Pouvez	-12.141
▁consistait	-12.141
▁consommé	-12.141
▁scepticisme	-12.141
allégement	-12.141
écosystème	-12.1411
▁composants	-12.1411
▁évènements	-12.1411
▁intéressé	-12.1412
▁continué	-12.1414
▁Erika	-12.1415
▁changent	-12.142
GA	-12.1426
▁birman	-12.1428
▁Rocard	-12.1438
▁joint	-12.1438
eaux	-12.1439
▁musique	-12.1439
▁méridionale	-12.144
▁foule	-12.1443
In	-12.1444
nations	-12.1448
▁obtenue	-12.1448
▁palestiniennes	-12.145
▁antérieures	-12.1452
▁esprits	-12.1453
nen	-12.1454
prime	-12.1455
▁chauffeurs	-12.1463
liste	-12.1464
▁Castro	-12.1465
▁Cisjordanie	-12.1465
▁toléré	-12.1465
enrayer	-12.1465
inventaire	-12.1465
▁soufre	-12.1465
achète	-12.1465
▁instructions	-12.1466
intervienne	-12.1469
▁rappelant	-12.1473
▁entravent	-12.1475
▁quête	-12.1478
▁contingent	-12.1491
▁inquiet	-12.1491
▁successeur	-12.1492
▁piles	-12.1492
▁parlait	-12.1493
▁incite	-12.1494
▁retenus	-12.1494
SA	-12.1502
▁protègent	-12.1506
▁prévision	-12.1506
▁contrôlées	-12.1507
éclaircir	-12.1514
▁Eurojust	-12.1519
Arabie	-12.1519
électorat	-12.1519
▁soulignons	-12.1519
▁stipulé	-12.1519
▁Berès	-12.1519
▁hormones	-12.152
▁précité	-12.152
▁réinstallation	-12.1522
▁suisse	-12.1523
▁sac	-12.1528
affronter	-12.1531
▁fondation	-12.1534
emporter	-12.1539
interaction	-12.154
▁prolongé	-12.1545
▁Ver	-12.1546
échanger	-12.1546
invoquer	-12.1547
obésité	-12.1547
▁dévastateur	-12.1547
Eurodac	-12.1547
▁prétendue	-12.1548
▁beaux	-12.1549
▁systématiques	-12.1555
▁née	-12.1555
▁atteignent	-12.1558
chemin	-12.156
IE	-12.1562
▁persistante	-12.1563
▁répondra	-12.1564
▁suppos	-12.1565
▁vulnérable	-12.1574
effroyable	-12.1574
▁congrès	-12.1574
▁novatrice	-12.1574
▁acharné	-12.1575
▁aboli	-12.1581
▁octroyées	-12.1581
ium	-12.1585
▁ressortir	-12.1589
▁achevée	-12.1591
rap	-12.1594
iné	-12.16
onna	-12.1601
▁exclues	-12.1601
Ecofin	-12.1602
▁espérant	-12.1602
▁maturité	-12.1602
▁stupide	-12.1602
▁Dimas	-12.1602
▁antiterroriste	-12.1602
▁supprimant	-12.1603
▁Adam	-12.1604
▁situé	-12.1607
▁concentrée	-12.1609
▁rends	-12.161
▁solde	-12.1613
élan	-12.1615
lia	-12.1624
▁instaurée	-12.1625
▁clarifié	-12.1626
horreur	-12.1628
▁Albanais	-12.1629
▁Daphné	-12.1629
▁soja	-12.1629
▁vigilant	-12.163
omposition	-12.1632
▁minime	-12.1638
▁entendues	-12.1638
▁disproportionné	-12.1642
▁vitesses	-12.1644
mot	-12.1651
▁adoptions	-12.1651
▁universitaire	-12.1651
pprobation	-12.1654
▁Att	-12.1656
▁Titley	-12.1657
▁soulager	-12.1657
▁vulnérabilité	-12.1657
coréen	-12.1657
▁simplifié	-12.1658
▁pêcheries	-12.1663
▁planifier	-12.1663
▁généralisées	-12.1666
idéal	-12.1671
▁commercialisé	-12.1675
▁albanaise	-12.1676
▁Ki	-12.1677
▁Sterckx	-12.1685
▁contrebande	-12.1685
▁promeut	-12.1685
▁sélective	-12.1685
▁urbains	-12.1685
▁mafia	-12.1685
▁bombardements	-12.1685
▁précisant	-12.1687
▁visées	-12.1692
peuplé	-12.1693
▁file	-12.1694
▁distincte	-12.17
▁nuisances	-12.1704
▁constitueront	-12.171
exigences	-12.1712
ignorance	-12.1713
▁littéralement	-12.1713
▁perçoivent	-12.1713
▁représentons	-12.1713
▁cynique	-12.1713
▁vaincre	-12.1713
▁verront	-12.1713
▁tabou	-12.1714
▁offrira	-12.1728
▁collectivement	-12.1728
▁enregistrées	-12.1736
dra	-12.1738
▁adaptations	-12.1738
▁Hongrois	-12.1741
▁libanais	-12.1741
▁surviennent	-12.1741
▁périodique	-12.1741
érosion	-12.1741
▁baignade	-12.1741
▁militarisation	-12.1741
▁conduisent	-12.1742
▁riz	-12.1742
▁interdits	-12.1743
▁composés	-12.1744
▁restants	-12.175
▁fabriqués	-12.1752
intéresser	-12.1754
▁élargissements	-12.1757
▁aideront	-12.1761
▁bénévoles	-12.1767
▁tirées	-12.1768
▁douleur	-12.1769
▁prépondérant	-12.1769
▁Suite	-12.1769
▁facilitant	-12.177
▁étroites	-12.1775
▁entr	-12.1776
▁jugée	-12.1776
▁poli	-12.1777
▁pratiquent	-12.1793
hectare	-12.1796
▁Ortega	-12.1797
▁Quatre	-12.1797
▁multilatéraux	-12.1797
▁spectacle	-12.1797
▁trouvait	-12.1797
▁aviaire	-12.1797
▁retourne	-12.1798
▁rouvrir	-12.18
▁solennelle	-12.18
▁notions	-12.1801
▁tragédies	-12.1807
idi	-12.1809
régional	-12.1812
guerre	-12.1812
▁creuse	-12.1813
▁précieuses	-12.1813
▁protégée	-12.1816
▁œil	-12.1818
▁vides	-12.1819
▁Pensez	-12.1825
IFT	-12.1825
▁Kaliningrad	-12.1825
▁Service	-12.1825
▁Singapour	-12.1825
▁Verhofstadt	-12.1825
▁renverser	-12.1825
▁sacrifié	-12.1825
▁Broek	-12.1825
▁roumaine	-12.1825
posé	-12.1825
▁allaient	-12.1825
entoure	-12.1826
▁fierté	-12.1828
▁dépendants	-12.1831
▁doublement	-12.1837
▁fondent	-12.1838
▁aisée	-12.1839
zo	-12.1839
▁séparés	-12.1841
appartient	-12.1841
multilatéralisme	-12.1841
▁transformé	-12.1842
▁parvienne	-12.1847
▁ukrainienne	-12.1848
Espace	-12.1853
▁institué	-12.1853
▁correspondance	-12.1855
▁lâche	-12.1855
implantation	-12.1861
▁devises	-12.1864
▁fonctionnel	-12.1868
▁encourageons	-12.1871
▁formé	-12.1873
▁chrétien	-12.1874
▁Ros	-12.1877
▁comble	-12.1877
▁fille	-12.1877
▁Tu	-12.1879
▁clôturé	-12.1881
▁agissements	-12.1881
▁compos	-12.1882
▁village	-12.1883
▁cruellement	-12.1885
▁habitude	-12.1886
▁veillera	-12.1887
▁réexamin	-12.1888
ETA	-12.1895
▁sachent	-12.1897
▁concentrent	-12.1899
PS	-12.19
▁insulte	-12.1908
▁Blokland	-12.191
▁Parfois	-12.191
▁comportant	-12.191
▁rayonnement	-12.191
obtient	-12.191
▁tentant	-12.1911
▁rembourser	-12.1911
version	-12.1912
▁rédigée	-12.1913
▁attributions	-12.1913
▁occupant	-12.1917
▁éminent	-12.1929
▁verre	-12.1937
▁Feira	-12.1938
▁dissiper	-12.1938
▁Hautala	-12.1939
▁insuffisances	-12.194
▁briser	-12.194
▁inappropriée	-12.1942
▁éclairé	-12.1945
▁honorer	-12.195
▁certificats	-12.1953
▁Fr	-12.1954
▁modérée	-12.1955
▁diffère	-12.1961
indifférence	-12.1967
▁résout	-12.1967
▁Vigo	-12.1968
assouplissement	-12.1968
▁prélèvement	-12.197
▁émergentes	-12.1971
▁contester	-12.1979
▁Pri	-12.1979
entretenir	-12.1985
▁consistent	-12.1987
▁devrais	-12.1988
▁reproduise	-12.1989
▁conçus	-12.1992
nions	-12.1993
SP	-12.1993
▁corrections	-12.1994
Agriculture	-12.1996
▁Cashman	-12.1996
▁reviens	-12.1996
Ossétie	-12.1996
▁colégislateur	-12.1996
▁frère	-12.1996
▁cerveaux	-12.1996
▁parcouru	-12.1996
▁envahi	-12.1996
▁litige	-12.1999
▁joueurs	-12.1999
▁fumer	-12.1999
▁tendent	-12.2009
Argentine	-12.2024
▁préventif	-12.2024
▁cinéma	-12.2024
▁rationaliser	-12.2024
Oslo	-12.2025
▁froid	-12.2026
▁Hans	-12.2026
▁correspondantes	-12.2027
▁fuir	-12.2028
▁parlerai	-12.2028
▁suffira	-12.2031
hôtel	-12.2032
▁gagnent	-12.2034
▁agissons	-12.2034
▁département	-12.2034
▁révolutionnaire	-12.2036
èrent	-12.2037
▁restreinte	-12.2046
▁raccourci	-12.2053
▁treize	-12.2053
▁exprimons	-12.2053
▁soumettra	-12.2053
▁supermarché	-12.2053
▁compose	-12.2054
▁visiter	-12.2055
▁particularités	-12.2055
▁club	-12.2057
▁paysans	-12.2059
▁passages	-12.2062
▁qualifie	-12.2064
▁tombent	-12.2065
accompagnent	-12.2066
▁relier	-12.2067
▁informe	-12.2071
▁proposait	-12.2073
▁afférent	-12.2075
▁pou	-12.2078
hôpital	-12.2082
▁Lannoye	-12.2082
▁Mitchell	-12.2082
▁invitant	-12.2082
▁minutieux	-12.2082
▁RTE	-12.2082
honnêteté	-12.2083
tti	-12.2085
▁préservé	-12.2089
▁Er	-12.2089
appliquera	-12.2092
▁expertise	-12.2093
▁disais	-12.2093
▁confort	-12.2094
▁émergents	-12.2096
ainsi	-12.2102
▁inapproprié	-12.2107
atténuer	-12.2109
▁ménager	-12.2109
▁désavantagé	-12.2111
▁précède	-12.2111
▁décente	-12.2113
▁vieilles	-12.2115
▁Ste	-12.2115
▁isolés	-12.2116
▁exclusif	-12.2121
▁japonais	-12.2128
aboutissement	-12.2129
agriculteurs	-12.2138
▁Caire	-12.214
▁Hezbollah	-12.214
▁Jordanie	-12.214
▁soigner	-12.214
▁café	-12.214
▁Proposition	-12.214
▁nécessitera	-12.2142
AL	-12.2145
▁calculé	-12.2148
▁tendant	-12.2153
▁offensive	-12.2153
donne	-12.2154
▁Année	-12.2158
▁contrôl	-12.2159
▁motivée	-12.2162
kh	-12.2166
importante	-12.2166
▁aggraver	-12.2166
éclat	-12.2168
▁perdants	-12.2168
▁gouverneurs	-12.2169
▁corridor	-12.2169
▁essayant	-12.2169
▁rénovation	-12.2169
▁témoigné	-12.2169
▁éducative	-12.2169
▁ouvrant	-12.2169
instituer	-12.2169
apaiser	-12.217
▁roi	-12.217
▁étendues	-12.2171
▁mutation	-12.2174
▁comptez	-12.2174
▁couches	-12.2178
▁banal	-12.2186
▁convaincant	-12.2186
influencer	-12.2187
lande	-12.2187
▁civilisations	-12.2193
équipage	-12.2197
▁LIFE	-12.2198
▁barbarie	-12.2198
▁nécessitant	-12.2198
exonération	-12.2198
▁manoeuvre	-12.2199
▁fleur	-12.2199
▁passive	-12.2201
▁finaliser	-12.2203
▁conducteur	-12.2203
▁compliquer	-12.2204
▁branches	-12.2209
▁islamiques	-12.2216
événements	-12.2219
▁malheur	-12.2222
▁soumission	-12.2223
▁inconcevable	-12.2228
▁réticent	-12.2228
IP	-12.2229
▁désignés	-12.2232
▁scandales	-12.2232
▁envisagent	-12.2236
▁rendrait	-12.2237
▁pierres	-12.2238
communautaires	-12.2239
tendent	-12.224
▁représenterait	-12.2241
▁lamentable	-12.2243
▁passif	-12.2243
▁anticiper	-12.2244
▁équitablement	-12.2247
éventuelle	-12.2248
▁rassemble	-12.2249
élu	-12.2254
▁interrompu	-12.2255
inconvénient	-12.2256
▁compassion	-12.2257
▁enthousiaste	-12.2257
▁gêne	-12.2257
▁sanglant	-12.2258
▁prolongée	-12.2259
▁polluantes	-12.2261
▁minière	-12.2265
▁finissent	-12.2266
▁détermine	-12.2266
▁réalisent	-12.227
▁zu	-12.2271
annoncer	-12.2272
▁frapper	-12.2282
antidémocratique	-12.2283
▁paradoxal	-12.2286
▁scrupule	-12.2287
▁masculin	-12.2287
▁rompre	-12.2287
▁Faisons	-12.2287
▁répét	-12.2302
▁flot	-12.2302
approuv	-12.2309
vari	-12.2309
affaiblir	-12.2311
▁construite	-12.2311
▁présentons	-12.2314
▁Lamfalussy	-12.2316
▁doublé	-12.2316
▁nettoyage	-12.2316
▁contraste	-12.2316
▁abordables	-12.2317
▁célébrer	-12.2318
▁permanentes	-12.2318
▁entendent	-12.2319
▁match	-12.2321
▁partagés	-12.2325
▁rage	-12.2326
▁semblé	-12.2328
▁libérales	-12.2329
▁assigné	-12.2332
▁impartiale	-12.2335
▁satellites	-12.2338
service	-12.234
▁sacrifier	-12.2344
ald	-12.2344
▁dira	-12.2344
▁raciale	-12.2346
▁patrie	-12.2346
hydrogène	-12.2346
▁Galles	-12.2347
▁TIC	-12.2347
▁instituts	-12.2347
▁apportons	-12.2353
▁découverte	-12.2354
▁dissimuler	-12.236
▁dépassement	-12.2363
▁supprimés	-12.237
▁réduis	-12.2371
▁représentera	-12.2374
▁suivront	-12.2376
▁montagneuses	-12.2376
▁novateur	-12.2376
▁natalité	-12.2376
▁banni	-12.2376
▁traduisent	-12.2377
▁attribués	-12.2379
▁posséder	-12.238
▁compatriotes	-12.2381
▁faune	-12.2383
▁mineur	-12.2387
▁coupe	-12.2387
▁attaché	-12.239
▁transforme	-12.2391
deux	-12.2399
▁minimis	-12.2401
▁chaussures	-12.2403
aptitude	-12.2405
▁canal	-12.2405
▁Almunia	-12.2406
▁Leonardo	-12.2406
▁analogue	-12.2406
▁centraux	-12.2406
▁démarrage	-12.2406
▁reprenant	-12.2406
▁soustraire	-12.2406
▁prometteur	-12.2406
▁Leinen	-12.2406
▁manifestent	-12.2408
▁clarifie	-12.2413
▁objectivement	-12.2414
▁sceptiques	-12.2415
▁maximales	-12.242
▁unilatérales	-12.2422
▁qualifiées	-12.2424
inefficacité	-12.2427
▁filet	-12.2429
immédiat	-12.243
▁franche	-12.2432
▁risquerait	-12.2432
▁audiovisuel	-12.2433
▁versées	-12.2435
▁canadien	-12.2436
▁Concrètement	-12.2436
▁lauréat	-12.2436
▁paradoxe	-12.2436
▁surmonté	-12.2436
▁habilité	-12.2436
▁embryons	-12.2437
▁inclusive	-12.2437
▁réinsertion	-12.2437
▁circulent	-12.2438
▁serré	-12.2438
▁ressentir	-12.2449
plo	-12.2451
ON	-12.2453
▁favorisera	-12.2456
ink	-12.2457
▁francs	-12.246
Erika	-12.2461
▁apprend	-12.2461
sida	-12.2464
▁Doyle	-12.2466
▁pluraliste	-12.2466
▁régression	-12.2466
▁éminemment	-12.2466
▁promettre	-12.2466
▁incité	-12.2468
▁groupements	-12.247
occupent	-12.2471
▁manifestée	-12.2473
▁attentat	-12.2474
▁reviendra	-12.2476
lla	-12.2478
eber	-12.2479
▁préfèrent	-12.248
entité	-12.2485
▁achever	-12.2487
▁féminin	-12.2488
▁maintenus	-12.2495
▁Pat	-12.2495
interdépendance	-12.2496
▁magistrat	-12.2496
mini	-12.2497
▁cruel	-12.2497
attendent	-12.2497
▁perpétrées	-12.2505
▁numériques	-12.2509
▁isolées	-12.2509
vée	-12.2518
ecteur	-12.2519
▁voteront	-12.252
▁couronné	-12.252
avancée	-12.2522
▁Prague	-12.2526
▁craignons	-12.2526
▁dénominateur	-12.2526
▁recevons	-12.2526
▁subsides	-12.2526
▁systémique	-12.2526
▁stress	-12.2526
▁détection	-12.2526
▁spécialisées	-12.2526
▁catastrophiques	-12.2527
▁fervent	-12.2527
▁furent	-12.2529
américaine	-12.2532
▁complété	-12.2532
▁absente	-12.2536
▁porc	-12.2537
▁téléphones	-12.2544
▁survenu	-12.2547
▁Peter	-12.2547
▁obtiennent	-12.2556
▁stigmatis	-12.2556
▁Baringdorf	-12.2556
▁allocution	-12.2556
▁catalogue	-12.2556
▁détient	-12.2556
▁résidant	-12.2556
▁gâch	-12.2556
▁gratuite	-12.2565
▁ménage	-12.2573
▁durablement	-12.2574
line	-12.2574
▁fluctuations	-12.2577
▁Cancun	-12.2578
▁syndical	-12.2579
▁allemandes	-12.2583
▁découler	-12.2583
▁légitimement	-12.2584
▁abstenir	-12.2585
▁chien	-12.2585
hydrocarbures	-12.2587
▁anonyme	-12.2587
▁escient	-12.2587
▁vaudrait	-12.2587
▁influent	-12.2588
▁développant	-12.2589
▁dernièrement	-12.259
éloignement	-12.259
▁versés	-12.2597
▁musulmane	-12.2598
▁changera	-12.2598
▁Val	-12.2601
▁inadéquat	-12.2604
▁sondages	-12.2607
mall	-12.2608
automobile	-12.2614
▁assumé	-12.2616
▁prompt	-12.2617
alignement	-12.2617
▁Aznar	-12.2617
▁dévasté	-12.2617
▁initié	-12.2617
▁téléphonie	-12.2617
▁Ayant	-12.2617
▁importé	-12.2618
▁For	-12.2625
▁déclarent	-12.2627
suite	-12.2633
▁bulgares	-12.2634
▁consacr	-12.2637
enrichir	-12.2639
▁sorti	-12.264
▁offerts	-12.2645
Il	-12.2645
▁accrus	-12.2645
▁échecs	-12.2647
indicateurs	-12.2648
▁satisfont	-12.2648
▁artisanale	-12.2648
▁arrivons	-12.2648
▁doubler	-12.2648
▁pluriannuels	-12.2653
▁créons	-12.2654
▁fumée	-12.2656
▁vaches	-12.2657
▁Fin	-12.2658
▁rationnel	-12.266
▁génétiques	-12.2661
▁atteler	-12.2672
existait	-12.2676
▁GATT	-12.2678
▁beurre	-12.2678
▁exerçant	-12.2678
▁insupportable	-12.2678
▁prorogation	-12.2678
▁répressif	-12.2678
▁nuisent	-12.2678
▁intensifié	-12.2678
exporter	-12.2683
▁inspirer	-12.2683
▁bleue	-12.2684
▁expert	-12.2685
▁restitution	-12.2687
▁SIDA	-12.269
▁déterminées	-12.2698
▁coins	-12.2701
▁roumains	-12.2708
Burton	-12.2709
illustration	-12.2709
▁Lampedusa	-12.2709
▁adhérents	-12.2709
▁comparative	-12.2709
▁détournement	-12.2709
▁recourant	-12.2712
▁gérés	-12.2713
▁plaidé	-12.2716
▁encouragés	-12.2718
▁rangs	-12.2728
▁scénarios	-12.2731
▁temporairement	-12.2733
▁laboratoires	-12.2736
▁registres	-12.2737
▁priori	-12.2739
arrogance	-12.274
▁annexé	-12.274
▁destinataire	-12.274
▁faculté	-12.274
▁parvenions	-12.274
▁précaires	-12.2741
▁blanche	-12.2741
▁disparaissent	-12.2741
▁manquera	-12.2746
▁prescription	-12.275
▁Plan	-12.2751
▁dresse	-12.2751
▁inefficaces	-12.2753
▁respectueuses	-12.2755
acquérir	-12.277
▁comblé	-12.2771
▁cultivé	-12.2771
▁représentait	-12.2771
▁rivière	-12.2771
▁ravage	-12.2771
▁régissent	-12.2771
▁Daul	-12.2772
▁alinéa	-12.2774
▁signifient	-12.2775
▁déroulée	-12.2778
▁objets	-12.2778
▁pièges	-12.2779
▁miel	-12.2779
▁flou	-12.2795
▁abandonnée	-12.2798
▁budgét	-12.2801
▁compréhensibles	-12.2802
▁Graefe	-12.2802
▁incohérent	-12.2802
▁Aung	-12.2802
▁proposera	-12.2807
▁réguler	-12.2808
▁rigoureusement	-12.2811
▁bénéficiaire	-12.2812
▁compromet	-12.2813
▁cibler	-12.2818
▁échanger	-12.2826
▁convenues	-12.2826
adress	-12.2826
allouer	-12.2833
▁McKenna	-12.2833
▁cérémonie	-12.2833
▁intrinsèque	-12.2833
▁entretient	-12.2833
▁juif	-12.2834
▁gérée	-12.2835
▁avocat	-12.2842
▁audiovisuelle	-12.2843
▁ressortissant	-12.2846
▁grosse	-12.2847
▁hypocrisie	-12.2849
attribu	-12.2849
▁annuelles	-12.285
fumeurs	-12.2851
Qa	-12.2852
inciter	-12.2852
ST	-12.2856
intervalle	-12.2863
apparence	-12.2864
pidla	-12.2864
édifice	-12.2864
▁indicatif	-12.2864
▁stimulation	-12.2864
région	-12.2866
▁coopèrent	-12.2868
▁enclin	-12.2868
▁Droit	-12.287
▁légères	-12.2881
ker	-12.2884
bit	-12.2889
▁sienne	-12.289
▁senti	-12.289
▁Theato	-12.2896
▁reportée	-12.2896
▁perdue	-12.2897
enfer	-12.29
honor	-12.2908
tienne	-12.2913
▁distincts	-12.2917
▁exploités	-12.2919
▁ultérieures	-12.292
▁tissus	-12.2923
▁située	-12.2924
immatriculation	-12.2927
▁Collins	-12.2927
▁Nigéria	-12.2927
▁déforestation	-12.2927
▁démunis	-12.2927
▁reflet	-12.2927
▁indigne	-12.2927
▁suppl	-12.2927
▁Haug	-12.2928
hm	-12.2928
▁avantageux	-12.2928
▁voeux	-12.2929
▁fouet	-12.293
▁organisationnel	-12.2931
▁immédiats	-12.2931
▁noyau	-12.2932
▁Leone	-12.2932
▁Front	-12.2943
▁ignorée	-12.2946
nchez	-12.2947
▁otage	-12.295
acteur	-12.2951
▁écarter	-12.2951
▁complique	-12.2953
▁concrétise	-12.2957
disciplinaire	-12.2958
▁instaurant	-12.2959
▁lucratif	-12.2959
▁thèse	-12.2959
▁coordinateurs	-12.2959
▁dogme	-12.2959
ajuster	-12.2959
▁bibliothèques	-12.296
▁luxe	-12.296
▁préservant	-12.296
▁aimable	-12.2961
▁adressés	-12.2962
▁film	-12.2966
affichage	-12.2966
▁spécifications	-12.2976
▁limiterai	-12.2977
▁coin	-12.2989
▁Plutôt	-12.299
▁caduque	-12.299
▁différenciation	-12.299
▁discutable	-12.299
▁jachère	-12.299
▁prestige	-12.299
▁surveillé	-12.299
▁vidéo	-12.299
▁diesel	-12.299
▁abeilles	-12.2991
▁junte	-12.2991
▁rencontrons	-12.2992
▁imminente	-12.2994
▁trouveront	-12.2996
▁manuel	-12.2996
▁déverse	-12.2997
▁radicales	-12.2998
▁dictateurs	-12.2999
▁décourage	-12.2999
assum	-12.3015
▁compare	-12.3015
▁murs	-12.3017
Abkhazie	-12.3022
Myanmar	-12.3022
interminable	-12.3022
▁catalyseur	-12.3022
▁dressé	-12.3022
éradiquer	-12.3024
▁assassinats	-12.3025
▁rempliss	-12.3031
▁contractuelles	-12.3032
▁témoin	-12.3034
▁couples	-12.3035
▁rabais	-12.304
▁roues	-12.3041
impartialité	-12.3042
▁Quelqu	-12.3045
tenant	-12.3045
explorer	-12.3047
▁abolir	-12.3053
▁Gebhardt	-12.3054
▁Pirker	-12.3054
▁consécutive	-12.3054
▁fleuve	-12.3054
▁préambule	-12.3054
▁récupération	-12.3054
▁mettions	-12.3055
▁mettrait	-12.3059
▁standards	-12.3062
▁émise	-12.3063
▁trouverons	-12.3064
▁pétrolier	-12.3067
▁licenciement	-12.3067
▁sectorielle	-12.3075
▁exécuter	-12.3077
encadrement	-12.308
▁distributeurs	-12.3086
▁pallier	-12.3086
▁électoraux	-12.3086
▁sourd	-12.3088
brouill	-12.3088
conventionnelles	-12.3089
étudiants	-12.3089
▁désert	-12.3089
▁parallèles	-12.309
▁accueillie	-12.3091
▁vend	-12.3092
▁pause	-12.3092
▁apparus	-12.3092
▁opter	-12.3094
▁prive	-12.3097
▁marchandise	-12.3099
▁expriment	-12.31
▁adolescents	-12.3103
▁ponctuelle	-12.3105
▁retirés	-12.3106
▁dissidents	-12.3108
élire	-12.3109
▁four	-12.3111
▁demie	-12.3111
▁déten	-12.3112
▁Première	-12.3114
▁Green	-12.3114
▁bloquée	-12.3115
autorégulation	-12.3118
▁biélorusse	-12.3118
▁fracture	-12.3118
▁prescrit	-12.3118
▁rumeurs	-12.3118
▁colombien	-12.3118
▁exclut	-12.3118
▁rude	-12.3118
crates	-12.3121
▁couronnée	-12.3124
▁incompatibles	-12.3128
▁gain	-12.3133
▁identifiées	-12.3133
▁Lange	-12.3137
formes	-12.3139
▁paneuropéen	-12.3143
▁Trans	-12.3144
avènement	-12.315
▁Transnistrie	-12.315
▁cacao	-12.315
▁samedi	-12.315
▁volatilité	-12.315
▁nuance	-12.315
▁réfut	-12.315
▁soleil	-12.315
▁contingents	-12.3152
▁condamnées	-12.3153
▁versé	-12.3153
allemand	-12.3154
▁déroulées	-12.3155
▁recouvre	-12.3157
▁violer	-12.3159
▁bâti	-12.316
▁couverte	-12.3172
▁suspects	-12.3178
▁tripartite	-12.3182
fasciste	-12.3182
▁congestion	-12.3182
Rouge	-12.3182
▁expliquant	-12.3183
▁acquises	-12.3184
▁ponts	-12.3186
▁surcharge	-12.3187
▁exposée	-12.3192
▁Har	-12.3194
▁contrôleurs	-12.3194
comme	-12.3197
stan	-12.3201
▁facilités	-12.3207
▁reculer	-12.3209
▁abstenue	-12.3214
▁Fischer	-12.3215
▁Jackson	-12.3215
▁renoncé	-12.3215
▁ultra	-12.3215
▁allouer	-12.3215
▁panique	-12.3216
▁sortant	-12.3216
▁décidera	-12.3223
▁Kh	-12.3226
▁affichée	-12.3226
▁interprétée	-12.3228
▁fé	-12.3229
▁emprisonnés	-12.3229
▁avertissements	-12.3232
▁disparaît	-12.3233
▁alimenter	-12.3233
▁arrivera	-12.3234
▁rejetées	-12.3234
▁impliquerait	-12.324
▁écoulée	-12.3242
ajoutent	-12.3244
AD	-12.3245
appellation	-12.3246
▁rigidité	-12.3247
▁spéculatifs	-12.3247
ASEM	-12.3247
▁pluie	-12.3247
▁autocar	-12.3247
US	-12.3248
▁impérialiste	-12.325
vingt	-12.3252
▁satisfaisants	-12.3255
▁consacrent	-12.3262
▁affiché	-12.3264
▁intervenant	-12.3265
▁faisable	-12.3272
▁concentré	-12.3276
▁Duisenberg	-12.328
▁Nassauer	-12.328
▁successifs	-12.328
▁spirale	-12.328
▁défaite	-12.328
▁résolv	-12.328
audace	-12.328
ours	-12.3281
ram	-12.3281
nam	-12.3281
▁couronne	-12.3282
▁Tand	-12.3287
échapper	-12.3289
▁évoluent	-12.3289
▁distinctes	-12.329
▁donateur	-12.3295
▁correspondante	-12.3297
▁décisionnels	-12.3297
▁élémentaire	-12.3302
éloigner	-12.3307
▁Schr	-12.3312
▁Ferber	-12.3312
▁Ludford	-12.3312
▁appuyons	-12.3312
▁dérisoire	-12.3312
▁forteresse	-12.3312
▁frauduleuse	-12.3312
▁infantile	-12.3312
▁amplement	-12.3312
évasion	-12.3312
▁bâton	-12.3312
▁valide	-12.3313
▁finit	-12.3321
▁dépos	-12.3325
▁présenterons	-12.3325
▁serbes	-12.3326
clav	-12.3327
▁focaliser	-12.3328
pédopornographie	-12.333
▁sévi	-12.3339
▁couper	-12.3344
extinction	-12.3345
épuration	-12.3345
▁baissé	-12.3345
▁diligence	-12.3345
▁pénétrer	-12.3345
▁tiendront	-12.3345
▁planifiée	-12.3345
▁détecter	-12.3347
▁pourvu	-12.335
▁miner	-12.335
Eurostat	-12.3352
▁écoulés	-12.3353
CO	-12.3355
▁souhaitions	-12.3356
▁revendication	-12.3361
▁caractérisent	-12.3362
▁planche	-12.3362
▁perdons	-12.3362
espèces	-12.3363
▁investis	-12.3363
▁contrôleur	-12.3365
▁malade	-12.3365
▁certificat	-12.3369
▁violentes	-12.3369
org	-12.3378
▁Kenya	-12.3378
▁plaindre	-12.3378
▁engins	-12.3379
▁violés	-12.3379
▁diversifier	-12.3379
▁excédents	-12.338
▁maintiennent	-12.3381
▁soumette	-12.3382
▁coûteuses	-12.3383
▁renouvelé	-12.3383
atteler	-12.3385
pied	-12.3386
horaire	-12.3387
ulation	-12.3387
▁affectée	-12.3389
▁Européenne	-12.339
affection	-12.3391
▁répandu	-12.3393
▁tonne	-12.3393
liba	-12.3402
âme	-12.3405
uvrer	-12.3407
▁Haarder	-12.3411
▁contenait	-12.3411
▁onéreuse	-12.3411
▁tranquille	-12.3411
▁veillé	-12.3411
▁parlions	-12.3412
▁resserre	-12.3412
▁thé	-12.3412
▁vraies	-12.3412
▁autoroutes	-12.3412
▁néant	-12.3412
▁interpréter	-12.3414
▁obligatoirement	-12.3415
▁reflété	-12.3415
▁énoncés	-12.3419
▁lève	-12.3419
▁transposé	-12.3421
▁détourné	-12.3424
▁régie	-12.3425
▁provisoirement	-12.3428
LE	-12.3429
▁talibans	-12.3431
▁finaux	-12.3433
▁Grossetête	-12.3444
▁trésor	-12.3444
▁Croix	-12.3444
▁persévérance	-12.3444
ifie	-12.3446
Alba	-12.345
▁annoncées	-12.3451
Pour	-12.3454
arro	-12.3457
▁instaure	-12.3458
▁recour	-12.346
▁précipitation	-12.3463
▁contienne	-12.3471
colonial	-12.3474
▁traduis	-12.3476
oxyde	-12.3477
▁compensatoires	-12.3477
▁délivrer	-12.3477
▁spontané	-12.3477
▁infiniment	-12.3477
▁retrouvons	-12.3479
mission	-12.3482
▁confondre	-12.3482
▁révélateur	-12.3483
▁courent	-12.3484
▁réutilisation	-12.3486
▁pomme	-12.3494
▁maîtris	-12.3495
▁désastreuse	-12.3495
▁structurée	-12.3501
▁dépourvue	-12.3502
attaques	-12.3504
▁modernis	-12.3505
▁combattu	-12.3506
▁catégorique	-12.3507
interférence	-12.3511
inématographique	-12.3511
▁Maghreb	-12.3511
▁dérivant	-12.3511
▁préparons	-12.3511
▁scrupuleusement	-12.3511
▁Méndez	-12.3511
▁arménien	-12.3511
ouvrage	-12.3511
▁entourant	-12.3511
▁possédons	-12.3514
▁bloque	-12.3517
▁représentées	-12.3517
Accord	-12.3519
exécutif	-12.3519
▁intégrale	-12.3534
▁attachée	-12.3535
▁Ser	-12.3537
▁Dala	-12.3542
antisémitisme	-12.3544
onfédération	-12.3544
▁Quiconque	-12.3544
▁cabotage	-12.3544
▁colossal	-12.3544
▁inéquitable	-12.3544
▁vecteur	-12.3544
▁citation	-12.3545
▁plonge	-12.3545
▁buf	-12.3545
opérations	-12.3549
▁Reste	-12.355
▁Kr	-12.3551
▁malentendus	-12.3555
▁préconisée	-12.3558
héro	-12.3559
▁saura	-12.3561
▁économiser	-12.3568
▁correspondants	-12.357
▁fragmenté	-12.3571
▁ouvrier	-12.3578
▁pensant	-12.3578
▁sucrière	-12.3578
▁éolienne	-12.3578
▁gardé	-12.3578
▁aggravée	-12.3578
▁lobbying	-12.3578
▁condamnant	-12.3579
▁POP	-12.358
OMI	-12.358
objection	-12.3581
▁montrera	-12.3583
▁user	-12.3584
▁amendé	-12.3585
▁atouts	-12.3587
intensité	-12.3587
▁frappés	-12.3589
▁obtiendrons	-12.359
▁lituanien	-12.3598
▁organise	-12.3605
influer	-12.3606
exprim	-12.361
▁aéronautique	-12.361
▁xénophobes	-12.3611
▁Rompuy	-12.3611
▁fantastique	-12.3611
▁probabilité	-12.3611
▁verdict	-12.3611
accroch	-12.3611
▁FAO	-12.3611
▁cumul	-12.3612
▁battent	-12.3612
▁gratuitement	-12.3617
▁découvertes	-12.3623
▁exploitées	-12.3623
▁formelles	-12.3623
▁exceptionnels	-12.3625
▁honnêteté	-12.3625
▁policières	-12.3627
▁exclue	-12.3627
▁répercut	-12.363
▁communique	-12.3631
▁pareil	-12.3635
▁vérifi	-12.3641
▁inégale	-12.3644
▁Pouvons	-12.3645
▁orphelin	-12.3645
▁transmissibles	-12.3645
▁ennemis	-12.3647
▁blocus	-12.3647
▁musulman	-12.3648
▁centralisation	-12.3649
▁minutieusement	-12.3649
▁artificiel	-12.3651
▁ajoutant	-12.3651
avertissement	-12.3656
▁sections	-12.3656
fond	-12.3659
▁Faute	-12.3659
▁inform	-12.366
▁pétrolière	-12.3664
▁transformée	-12.3664
européens	-12.3665
▁otages	-12.3668
▁réduira	-12.3671
archa	-12.3679
▁Salafranca	-12.3679
▁formés	-12.3679
▁minimaux	-12.3679
▁pornographie	-12.3679
▁dérange	-12.3679
▁collecter	-12.3681
▁réticences	-12.3682
▁deçà	-12.3683
▁indésirables	-12.3686
▁supranational	-12.3689
▁ancrée	-12.3691
archi	-12.3695
quant	-12.3695
▁émet	-12.3706
▁harmonie	-12.371
fusion	-12.371
entame	-12.371
▁Clinton	-12.3713
▁Savary	-12.3713
▁pillage	-12.3713
▁tiendrons	-12.3713
▁cède	-12.3713
embauche	-12.3713
inspiration	-12.3713
▁fenêtre	-12.3713
▁phare	-12.3713
▁accueillons	-12.3713
▁éclaté	-12.3714
just	-12.372
amis	-12.3721
accentuer	-12.3722
▁Maria	-12.3727
lov	-12.3728
▁origines	-12.3732
▁emprisonné	-12.3732
▁douanier	-12.3732
Acte	-12.3737
▁anéanti	-12.3739
▁pacifiquement	-12.3745
interlocuteur	-12.3746
▁Helms	-12.3747
▁baronne	-12.3747
▁bonheur	-12.3747
▁facultatif	-12.3747
▁prenez	-12.3747
▁soutenable	-12.3747
▁intimement	-12.3747
Eurogroupe	-12.3748
▁Klaus	-12.3748
▁taire	-12.3749
▁harmonieuse	-12.3749
▁totalitaires	-12.375
▁enregistrer	-12.3755
▁centralisé	-12.3757
productive	-12.3758
▁réjouissant	-12.3759
▁motivations	-12.3759
implant	-12.3765
▁juristes	-12.3765
▁coopér	-12.3775
▁atlantique	-12.3777
▁Rad	-12.3781
▁militar	-12.3781
flexicurité	-12.3782
▁Gibraltar	-12.3782
▁Morillon	-12.3782
▁PVC	-12.3782
▁Souhait	-12.3782
▁décédé	-12.3782
▁paperasserie	-12.3782
▁poulet	-12.3782
▁regagner	-12.3782
▁ordonné	-12.3782
▁plongé	-12.3782
▁trompé	-12.3782
▁triple	-12.3782
▁dépassant	-12.3783
▁passionné	-12.3783
actualiser	-12.3785
▁souhaitais	-12.3787
▁concis	-12.3787
▁fabriquer	-12.379
▁alimente	-12.379
▁rapproché	-12.3799
accordent	-12.3802
▁rédige	-12.3802
▁apparue	-12.3805
▁jugeons	-12.3807
adressent	-12.3809
▁audiovisuels	-12.3809
▁amendée	-12.3811
Ouganda	-12.3816
▁Brittan	-12.3816
▁Politique	-12.3816
▁Tajani	-12.3816
▁bénévolat	-12.3816
▁menaçant	-12.3816
▁prié	-12.3816
▁enverra	-12.3818
▁reprocher	-12.3822
▁consommer	-12.3827
itz	-12.3828
▁fermées	-12.3829
▁aidés	-12.383
▁laitière	-12.3831
▁conçues	-12.3834
▁répétées	-12.3836
ajouterais	-12.3838
▁diplomates	-12.3838
▁louables	-12.3845
applaudis	-12.3849
acteurs	-12.385
▁Dayton	-12.385
▁démarrer	-12.385
▁insignifiant	-12.385
▁prélevé	-12.385
▁interviennent	-12.385
▁bienfaits	-12.3851
▁désespérée	-12.3851
exode	-12.3851
▁litre	-12.3858
▁fabriqué	-12.3859
▁gage	-12.386
▁poussent	-12.3863
privé	-12.3864
irai	-12.3865
▁gains	-12.3871
▁divise	-12.3875
▁causées	-12.3876
▁suffi	-12.3879
▁départements	-12.3883
adulte	-12.3884
▁Turcs	-12.3885
▁chuté	-12.3885
▁illustré	-12.3885
▁pragmatisme	-12.3885
Culture	-12.3885
▁exemptions	-12.3892
▁alimenté	-12.3893
ONG	-12.3899
attribuer	-12.3904
équilibrer	-12.3906
▁englober	-12.3908
▁évitée	-12.3908
▁nocifs	-12.3912
▁PECO	-12.3912
active	-12.3914
▁dépendantes	-12.3917
▁généralisé	-12.3918
invention	-12.3919
▁armé	-12.3919
▁indissociable	-12.392
▁nocives	-12.392
▁proverbe	-12.392
▁soutiendront	-12.392
▁tristesse	-12.3921
▁modérés	-12.3922
▁vitaux	-12.3923
Rapporteur	-12.3934
▁divergents	-12.3935
▁différenciée	-12.3937
IN	-12.394
▁procure	-12.3941
▁raciste	-12.3941
▁oser	-12.3943
▁multinationale	-12.3944
▁veillerons	-12.3947
▁gardien	-12.3952
addition	-12.3953
aspiration	-12.3954
▁perfection	-12.3954
▁Business	-12.3955
▁Ensemble	-12.3955
▁Moldova	-12.3955
▁Philippines	-12.3955
▁appliquons	-12.3955
▁formulaire	-12.3955
▁populiste	-12.3955
inventer	-12.3955
▁éloignés	-12.3962
▁supprimées	-12.3974
▁risqué	-12.3975
▁Paul	-12.3979
▁plat	-12.3979
▁intéresser	-12.3982
▁Gradin	-12.399
▁Minsk	-12.399
▁stopper	-12.399
▁symptôme	-12.399
▁écourtée	-12.399
épouse	-12.399
▁félicitant	-12.399
▁gérées	-12.3991
▁impressionné	-12.3991
▁augure	-12.3991
▁vécue	-12.3999
▁fréquences	-12.4001
▁nourri	-12.4004
▁VI	-12.4004
▁pans	-12.4004
▁préparent	-12.4009
▁délibérée	-12.401
ncidence	-12.4023
UN	-12.4024
▁Groenland	-12.4025
▁attachons	-12.4025
▁Monnet	-12.4025
▁modu	-12.4025
ando	-12.4025
organisme	-12.4028
▁transmettrai	-12.403
▁préjudiciables	-12.4032
▁promise	-12.4032
▁massifs	-12.4039
▁débattues	-12.4043
▁mutations	-12.4054
▁fermés	-12.4057
▁inopportun	-12.4057
innocent	-12.4059
▁aggravé	-12.4059
Objectif	-12.406
Érythrée	-12.406
▁Guatemala	-12.406
▁pionnier	-12.406
▁responsabilis	-12.406
▁graisse	-12.406
▁espèrent	-12.406
▁plaque	-12.406
▁Primo	-12.406
▁coûter	-12.4061
▁choisissent	-12.4062
▁format	-12.4063
▁éprouv	-12.4063
▁soucieux	-12.4064
▁marée	-12.4066
▁fum	-12.4073
▁répressives	-12.4075
▁Cachemire	-12.4078
▁âme	-12.4087
▁nourris	-12.4087
ardi	-12.4088
▁complicité	-12.4095
▁dédommagement	-12.4095
▁déficiences	-12.4095
▁Martens	-12.4095
▁communiqués	-12.4097
▁George	-12.4097
▁malaise	-12.4097
▁relais	-12.4097
financement	-12.4099
▁prématurée	-12.4099
▁attribue	-12.41
▁solliciter	-12.4101
▁douteux	-12.4102
▁opposées	-12.4102
▁Karl	-12.4103
grad	-12.4104
[...]
